{
  "version": "1.0",
  "truncation": null,
  "padding": null,
  "added_tokens": [
    {
      "id": 0,
      "content": "<UNK>",
      "single_word": false,
      "lstrip": false,
      "rstrip": false,
      "normalized": false,
      "special": true
    }
  ],
  "normalizer": null,
  "pre_tokenizer": {
    "type": "ByteLevel",
    "add_prefix_space": true,
    "trim_offsets": true,
    "use_regex": true
  },
  "post_processor": null,
  "decoder": null,
  "model": {
    "type": "BPE",
    "dropout": null,
    "unk_token": "<UNK>",
    "continuing_subword_prefix": null,
    "end_of_word_suffix": null,
    "fuse_unk": false,
    "byte_fallback": false,
    "ignore_merges": false,
    "vocab": {
      "<UNK>": 0,
      "!": 1,
      "\"": 2,
      "#": 3,
      "$": 4,
      "%": 5,
      "&": 6,
      "'": 7,
      "(": 8,
      ")": 9,
      "*": 10,
      "+": 11,
      ",": 12,
      "-": 13,
      ".": 14,
      "/": 15,
      "0": 16,
      "1": 17,
      "2": 18,
      "3": 19,
      "4": 20,
      "5": 21,
      "6": 22,
      "7": 23,
      "8": 24,
      "9": 25,
      ":": 26,
      ";": 27,
      "<": 28,
      "=": 29,
      ">": 30,
      "?": 31,
      "@": 32,
      "[": 33,
      "\\": 34,
      "]": 35,
      "^": 36,
      "_": 37,
      "`": 38,
      "a": 39,
      "b": 40,
      "c": 41,
      "d": 42,
      "e": 43,
      "f": 44,
      "g": 45,
      "h": 46,
      "i": 47,
      "j": 48,
      "k": 49,
      "l": 50,
      "m": 51,
      "n": 52,
      "o": 53,
      "p": 54,
      "q": 55,
      "r": 56,
      "s": 57,
      "t": 58,
      "u": 59,
      "v": 60,
      "w": 61,
      "x": 62,
      "y": 63,
      "z": 64,
      "{": 65,
      "|": 66,
      "}": 67,
      "~": 68,
      "¡": 69,
      "¢": 70,
      "£": 71,
      "¤": 72,
      "¥": 73,
      "¦": 74,
      "§": 75,
      "¨": 76,
      "©": 77,
      "ª": 78,
      "«": 79,
      "¬": 80,
      "®": 81,
      "¯": 82,
      "°": 83,
      "±": 84,
      "²": 85,
      "³": 86,
      "´": 87,
      "µ": 88,
      "¶": 89,
      "·": 90,
      "¸": 91,
      "¹": 92,
      "º": 93,
      "»": 94,
      "¼": 95,
      "½": 96,
      "¾": 97,
      "¿": 98,
      "Â": 99,
      "Ã": 100,
      "Ä": 101,
      "Å": 102,
      "Æ": 103,
      "Ç": 104,
      "É": 105,
      "Ê": 106,
      "Ë": 107,
      "Ì": 108,
      "Î": 109,
      "Ï": 110,
      "Ð": 111,
      "Ñ": 112,
      "Ô": 113,
      "×": 114,
      "Ø": 115,
      "Ù": 116,
      "à": 117,
      "á": 118,
      "â": 119,
      "ã": 120,
      "å": 121,
      "æ": 122,
      "è": 123,
      "é": 124,
      "ê": 125,
      "ë": 126,
      "ì": 127,
      "í": 128,
      "ï": 129,
      "ð": 130,
      "ó": 131,
      "Ġ": 132,
      "Ģ": 133,
      "ģ": 134,
      "Ĥ": 135,
      "ĥ": 136,
      "Ħ": 137,
      "ħ": 138,
      "Ĩ": 139,
      "ĩ": 140,
      "Ī": 141,
      "ī": 142,
      "Ĭ": 143,
      "ĭ": 144,
      "Į": 145,
      "į": 146,
      "İ": 147,
      "ı": 148,
      "Ĳ": 149,
      "ĳ": 150,
      "Ĵ": 151,
      "ĵ": 152,
      "Ķ": 153,
      "ķ": 154,
      "ĸ": 155,
      "Ĺ": 156,
      "ĺ": 157,
      "Ļ": 158,
      "ļ": 159,
      "Ľ": 160,
      "ľ": 161,
      "Ŀ": 162,
      "ŀ": 163,
      "Ł": 164,
      "ł": 165,
      "Ń": 166,
      "Ġt": 167,
      "Ġi": 168,
      "Ġa": 169,
      "Ġw": 170,
      "in": 171,
      "he": 172,
      "Ġs": 173,
      "ou": 174,
      "ha": 175,
      "Ġb": 176,
      "Ġm": 177,
      "ing": 178,
      "re": 179,
      "Ġc": 180,
      "Ġl": 181,
      "Ġthe": 182,
      "Ġo": 183,
      "Ġd": 184,
      "Ġf": 185,
      "Ġy": 186,
      "nd": 187,
      "ve": 188,
      "Ġto": 189,
      "ll": 190,
      "is": 191,
      "Ġn": 192,
      "ee": 193,
      "Ġp": 194,
      "on": 195,
      "Ġyou": 196,
      "an": 197,
      "Ġe": 198,
      "te": 199,
      "or": 200,
      "Ġg": 201,
      "ke": 202,
      "Ġit": 203,
      "Ġand": 204,
      "us": 205,
      "Ġha": 206,
      "hat": 207,
      "es": 208,
      "Ġu": 209,
      "it": 210,
      "as": 211,
      "Ġhe": 212,
      "Ġh": 213,
      "om": 214,
      "ic": 215,
      "Ġno": 216,
      "Ġth": 217,
      "Ġbe": 218,
      "ut": 219,
      "Ġme": 220,
      "ay": 221,
      "ar": 222,
      "oo": 223,
      "Ġin": 224,
      "er": 225,
      "Ġthat": 226,
      "Ġis": 227,
      "ld": 228,
      "le": 229,
      "Ġbut": 230,
      "Ġwe": 231,
      "ie": 232,
      "ow": 233,
      "nt": 234,
      "Ġmy": 235,
      "Ġli": 236,
      "at": 237,
      "ly": 238,
      "Ġj": 239,
      "Ġof": 240,
      "ould": 241,
      "ill": 242,
      "Ġre": 243,
      "ust": 244,
      "Ġcha": 245,
      "id": 246,
      "Ġdo": 247,
      "Ġon": 248,
      "gh": 249,
      "od": 250,
      "et": 251,
      "ed": 252,
      "Ġwas": 253,
      "Ġhave": 254,
      "ris": 255,
      "ra": 256,
      "Ġst": 257,
      "Ġlo": 258,
      "al": 259,
      "Ġcharis": 260,
      "Ġfor": 261,
      "Ġk": 262,
      "Ġlike": 263,
      "Ġim": 264,
      "king": 265,
      "Ġnot": 266,
      "me": 267,
      "out": 268,
      "een": 269,
      "Ġso": 270,
      "all": 271,
      "ro": 272,
      "eed": 273,
      "Ġwill": 274,
      "Ġel": 275,
      "ry": 276,
      "ant": 277,
      "Ġan": 278,
      "ch": 279,
      "Ġjust": 280,
      "ir": 281,
      "ad": 282,
      "Ġbeen": 283,
      "Ġelod": 284,
      "Ġthey": 285,
      "Ġelodie": 286,
      "se": 287,
      "Ġwh": 288,
      "'s": 289,
      "Ġsh": 290,
      "Ġwhat": 291,
      "ea": 292,
      "ght": 293,
      "Ġshe": 294,
      "Ġat": 295,
      "ally": 296,
      "ce": 297,
      "ck": 298,
      "Ġcan": 299,
      "Ġthis": 300,
      "ion": 301,
      "ct": 302,
      "Ġfr": 303,
      "ome": 304,
      "ter": 305,
      "ith": 306,
      "Ġare": 307,
      "ot": 308,
      "Ġwith": 309,
      "Ġke": 310,
      "st": 311,
      "vin": 312,
      "Ġdon": 313,
      "use": 314,
      "Ġab": 315,
      "Ġmo": 316,
      "Ġ:": 317,
      "Ġkevin": 318,
      "Ġas": 319,
      "Ġeve": 320,
      "op": 321,
      "ake": 322,
      "Ġits": 323,
      "Ġal": 324,
      "ge": 325,
      "Ġr": 326,
      "Ġwant": 327,
      "Ġup": 328,
      "Ġv": 329,
      "Ġsu": 330,
      "..": 331,
      "ink": 332,
      "ten": 333,
      "Ġyour": 334,
      "Ġca": 335,
      "Ġwor": 336,
      "ight": 337,
      "pp": 338,
      "Ġif": 339,
      "ver": 340,
      "im": 341,
      "Ġkn": 342,
      "Ġabout": 343,
      "'t": 344,
      "en": 345,
      "Ġneed": 346,
      "Ġget": 347,
      "ood": 348,
      "ice": 349,
      "Ġfrom": 350,
      "Ġlove": 351,
      "Ġher": 352,
      "ab": 353,
      "Ġwould": 354,
      "our": 355,
      "Ġwhe": 356,
      "Ġknow": 357,
      "Ġhad": 358,
      "Ġor": 359,
      "am": 360,
      "Ġlis": 361,
      "ted": 362,
      "ur": 363,
      "Ġloo": 364,
      "ess": 365,
      "Ġfee": 366,
      "Ġlisten": 367,
      "Ġsa": 368,
      "Ġle": 369,
      "Ġcould": 370,
      "Ġgo": 371,
      "Ġfeel": 372,
      "Ġweed": 373,
      "Ġshould": 374,
      "Ġdid": 375,
      "ind": 376,
      "Ġam": 377,
      "Ġwhy": 378,
      "un": 379,
      "one": 380,
      "Ġall": 381,
      "Ġpl": 382,
      "Ġid": 383,
      "Ġse": 384,
      "her": 385,
      "Ġde": 386,
      "th": 387,
      "Ġex": 388,
      "ca": 389,
      "Ġnow": 390,
      "'m": 391,
      "na": 392,
      "Ġsee": 393,
      "ive": 394,
      "ving": 395,
      "ff": 396,
      "Ġpro": 397,
      "Ġwere": 398,
      "Ġthink": 399,
      "Ġx": 400,
      "Ġdont": 401,
      "Ġbutt": 402,
      "Ġhow": 403,
      "ks": 404,
      "Ġwhen": 405,
      "Ġne": 406,
      "um": 407,
      "red": 408,
      "Ġ1": 409,
      "Ġsome": 410,
      "Ġout": 411,
      "Ġlol": 412,
      "Ġoh": 413,
      "Ġok": 414,
      "Ġany": 415,
      "Ġ'": 416,
      "eah": 417,
      "Ġtoo": 418,
      "Ġcom": 419,
      "ss": 420,
      "ound": 421,
      "Ġyeah": 422,
      "Ġsm": 423,
      "ul": 424,
      "il": 425,
      "Ġmus": 426,
      "Ġeven": 427,
      "ain": 428,
      "Ġreally": 429,
      "Ġmusic": 430,
      "'re": 431,
      "Ġfu": 432,
      "pe": 433,
      "Ġcon": 434,
      "Ġ-": 435,
      "Ġpe": 436,
      "Ġthing": 437,
      "Ġom": 438,
      "ime": 439,
      "so": 440,
      "eep": 441,
      "Ġfa": 442,
      "Ġhis": 443,
      "Ġq": 444,
      "ma": 445,
      "Ġtheir": 446,
      "han": 447,
      "Ġthem": 448,
      "ine": 449,
      "Ġthats": 450,
      "lf": 451,
      "Ġsor": 452,
      "est": 453,
      "ate": 454,
      "Ġaw": 455,
      "ays": 456,
      "gg": 457,
      "Ġone": 458,
      "ting": 459,
      "ong": 460,
      "Ġmust": 461,
      "Ġmake": 462,
      "Ġvo": 463,
      "Ġyes": 464,
      "Ġthan": 465,
      "Ġhas": 466,
      "Ġtr": 467,
      "Ġlistening": 468,
      "Ġcause": 469,
      "ation": 470,
      "Ġwan": 471,
      "Ġgood": 472,
      "Ġxd": 473,
      "Ġalso": 474,
      "Ġmean": 475,
      "Ġthen": 476,
      "Ġur": 477,
      "Ġbeca": 478,
      "rain": 479,
      "Ġomg": 480,
      "Ġtime": 481,
      "Ġthere": 482,
      "Ġbecause": 483,
      "ast": 484,
      "Ġus": 485,
      "Ġsay": 486,
      "Ġhim": 487,
      "Ġsorry": 488,
      "ore": 489,
      "Ġ2": 490,
      "Ġthou": 491,
      "fe": 492,
      "Ġba": 493,
      "Ġstu": 494,
      "Ġwa": 495,
      "hing": 496,
      "Ġte": 497,
      "ol": 498,
      "ty": 499,
      "Ġhear": 500,
      "Ġtake": 501,
      "Ġdoes": 502,
      "Ġgot": 503,
      "Ġsp": 504,
      "Ġ(": 505,
      "ite": 506,
      "Ġtb": 507,
      "Ġmore": 508,
      "ue": 509,
      "Ġwell": 510,
      "be": 511,
      "Ġwho": 512,
      "Ġun": 513,
      "Ġag": 514,
      "ig": 515,
      "Ġpeop": 516,
      "Ġen": 517,
      "ide": 518,
      "Ġvoice": 519,
      "Ġtho": 520,
      "!!": 521,
      "ick": 522,
      "Ġprob": 523,
      "Ġact": 524,
      "Ġsl": 525,
      "Ġlea": 526,
      "Ġmu": 527,
      "aking": 528,
      "Ġpeople": 529,
      "...": 530,
      "Ġlma": 531,
      "Ġgu": 532,
      "per": 533,
      "Ġar": 534,
      "Ġpo": 535,
      "ually": 536,
      "Ġfe": 537,
      "Ġbeing": 538,
      "Ġonly": 539,
      "Ġplay": 540,
      "Ġevery": 541,
      "Ġour": 542,
      "Ġ:)": 543,
      "ers": 544,
      "omet": 545,
      "ds": 546,
      "Ġeat": 547,
      "Ġhaha": 548,
      "Ġdis": 549,
      "Ġmuch": 550,
      "Ġsomet": 551,
      "Ġcu": 552,
      "ked": 553,
      "Ġdr": 554,
      "ort": 555,
      "if": 556,
      "Ġpre": 557,
      "ps": 558,
      "ous": 559,
      "dd": 560,
      "pt": 561,
      "Ġlook": 562,
      "arn": 563,
      "Ġtal": 564,
      "Ġwanna": 565,
      "ther": 566,
      "Ġch": 567,
      "Ġge": 568,
      "ool": 569,
      "Ġwr": 570,
      "Ġthings": 571,
      "and": 572,
      "os": 573,
      "ag": 574,
      "Ġsound": 575,
      "Ġtou": 576,
      "day": 577,
      "Ġover": 578,
      "Ġby": 579,
      "self": 580,
      "ib": 581,
      "Ġmay": 582,
      "??": 583,
      "oy": 584,
      "art": 585,
      "Ġhapp": 586,
      "Ġtbh": 587,
      "Ġhel": 588,
      "Ġbit": 589,
      "ww": 590,
      "Ġlmao": 591,
      "nder": 592,
      "iss": 593,
      "Ġbad": 594,
      "Ġwork": 595,
      "Ġstuff": 596,
      "Ġna": 597,
      "Ġthought": 598,
      "Ġtry": 599,
      "Ġph": 600,
      "Ġbrain": 601,
      "Ġstill": 602,
      "Ġla": 603,
      "Ġkind": 604,
      "Ġcare": 605,
      "Ġaf": 606,
      "Ġgoing": 607,
      "Ġsmo": 608,
      "Ġcomp": 609,
      "Ġlearn": 610,
      "orge": 611,
      "'ve": 612,
      "ure": 613,
      "Ġshit": 614,
      "'ll": 615,
      "Ġgive": 616,
      "Ġoff": 617,
      "ment": 618,
      "ass": 619,
      "Ġmove": 620,
      "Ġfuck": 621,
      "Ġve": 622,
      "Ġ:(": 623,
      "Ġbl": 624,
      "thing": 625,
      "'d": 626,
      "ress": 627,
      "Ġye": 628,
      "Ġhelp": 629,
      "to": 630,
      "able": 631,
      "Ġwait": 632,
      "Ġgeorge": 633,
      "cc": 634,
      "Ġcat": 635,
      "Ġactually": 636,
      "Ġidk": 637,
      "Ġco": 638,
      "ies": 639,
      "lly": 640,
      "iend": 641,
      "Ġcl": 642,
      "Ġman": 643,
      "ough": 644,
      "Ġsaid": 645,
      "00": 646,
      "Ġsame": 647,
      "Ġback": 648,
      "Ġlooking": 649,
      "age": 650,
      "ase": 651,
      "ts": 652,
      "Ġtouch": 653,
      "âĢ": 654,
      "Ġsomething": 655,
      "ich": 656,
      "ree": 657,
      "Ġcant": 658,
      "Ġday": 659,
      "Ġway": 660,
      "ouse": 661,
      "Ġdra": 662,
      "Ġcome": 663,
      "rent": 664,
      "Ġra": 665,
      "ish": 666,
      "ream": 667,
      "ci": 668,
      "Ġapp": 669,
      "Ġjo": 670,
      "hh": 671,
      "Ġother": 672,
      "Ġdi": 673,
      "Ġsleep": 674,
      "Ġqu": 675,
      "mb": 676,
      "Ġhate": 677,
      "Ġtaking": 678,
      "Ġ3": 679,
      "Ġtw": 680,
      "own": 681,
      "Ġright": 682,
      "Ġsc": 683,
      "ile": 684,
      "Ġdoing": 685,
      "Ġafter": 686,
      "ard": 687,
      "ys": 688,
      "inking": 689,
      "Ġbet": 690,
      "Ġhere": 691,
      "lt": 692,
      "Ġcall": 693,
      "Ġ*": 694,
      "pl": 695,
      "Ġmoving": 696,
      "ud": 697,
      "Ġ\"": 698,
      "Ġpr": 699,
      "tt": 700,
      "Ġwhich": 701,
      "Ġnever": 702,
      "Ġpic": 703,
      "Ġfood": 704,
      "Ġdays": 705,
      "Ġinto": 706,
      "Ġfeeling": 707,
      "Ġnice": 708,
      "Ġwanting": 709,
      "Ġro": 710,
      "Ġfriend": 711,
      "ist": 712,
      "ably": 713,
      "Ġlet": 714,
      "Ġmad": 715,
      "Ġleave": 716,
      "ms": 717,
      "Ġvery": 718,
      "Ġbr": 719,
      "Ġhouse": 720,
      "Ġcool": 721,
      "Ġdraw": 722,
      "ip": 723,
      "Ġwee": 724,
      "Ġhop": 725,
      "Ġagain": 726,
      "mm": 727,
      "Ġ<": 728,
      "fore": 729,
      "cks": 730,
      "Ġmight": 731,
      "Ġunder": 732,
      "ug": 733,
      "Ġlife": 734,
      "ied": 735,
      "com": 736,
      "ity": 737,
      "Ġhar": 738,
      "ix": 739,
      "Ġtell": 740,
      "cking": 741,
      "Ġad": 742,
      "Ġbo": 743,
      "Ġprobably": 744,
      "ance": 745,
      "Ġche": 746,
      "Ġfair": 747,
      "Ġfelt": 748,
      "ta": 749,
      "Ġmaybe": 750,
      "row": 751,
      "Ġgon": 752,
      "ird": 753,
      "Ġdidnt": 754,
      "Ġbefore": 755,
      "Ġhour": 756,
      "get": 757,
      "reat": 758,
      "gle": 759,
      "Ġple": 760,
      "ious": 761,
      "Ġtalk": 762,
      "Ġsca": 763,
      "Ġbab": 764,
      "igh": 765,
      "Ġfl": 766,
      "Ġsmoking": 767,
      "Ġsure": 768,
      "Ġbot": 769,
      "Ġhope": 770,
      "int": 771,
      "ise": 772,
      "Ġdown": 773,
      "ace": 774,
      "Ġsupp": 775,
      "Ġweird": 776,
      "Ġgonna": 777,
      "aa": 778,
      "tera": 779,
      "Ġill": 780,
      "ooo": 781,
      "ways": 782,
      "Ġyear": 783,
      "Ġper": 784,
      "Ġreal": 785,
      ":/": 786,
      "che": 787,
      "Ġmin": 788,
      "ont": 789,
      "atch": 790,
      "Ġplease": 791,
      "co": 792,
      "Ġkinda": 793,
      "imes": 794,
      "ne": 795,
      "qu": 796,
      "ord": 797,
      "Ġscared": 798,
      "Ġ4": 799,
      "ady": 800,
      "act": 801,
      "Ġhtt": 802,
      "sh": 803,
      "Ġalways": 804,
      "Ġboo": 805,
      "Ġphone": 806,
      "ans": 807,
      "Ġmum": 808,
      "Ġlong": 809,
      "ult": 810,
      "Ġlitera": 811,
      "Ġneeding": 812,
      "Ġanything": 813,
      "Ġfind": 814,
      "xt": 815,
      "Ġfun": 816,
      "Ġlot": 817,
      "Ġmyself": 818,
      "Ġsounds": 819,
      "Ġtrue": 820,
      "ically": 821,
      "ions": 822,
      "Ġins": 823,
      "Ġwhere": 824,
      "orm": 825,
      "Ġbetter": 826,
      "Ġidea": 827,
      "Ġide": 828,
      "Ġbed": 829,
      "Ġstream": 830,
      "Ġbu": 831,
      "Ġsex": 832,
      "Ġtoday": 833,
      "Ġ5": 834,
      "Ġpers": 835,
      "Ġfro": 836,
      "Ġuse": 837,
      "ark": 838,
      "Ġmade": 839,
      "ffe": 840,
      "Ġliterally": 841,
      "Ġtrying": 842,
      "Ġword": 843,
      "mber": 844,
      "iting": 845,
      "Ġthanks": 846,
      "og": 847,
      "Ġnew": 848,
      "Ġhappen": 849,
      "Ġleaving": 850,
      "Ġhard": 851,
      "!?": 852,
      "Ġbre": 853,
      "Ġspe": 854,
      "Ġpa": 855,
      "ft": 856,
      "Ġbro": 857,
      "Ġres": 858,
      "Ġperson": 859,
      "Ġgetting": 860,
      "Ġeating": 861,
      "bs": 862,
      "Ġma": 863,
      "Ġreme": 864,
      "Ġstop": 865,
      "Ġtur": 866,
      "irst": 867,
      "Ġpart": 868,
      "Ġfucking": 869,
      "tf": 870,
      "ible": 871,
      "mor": 872,
      "Ġlater": 873,
      "Ġunderst": 874,
      "way": 875,
      "Ġhearing": 876,
      "Ġsaying": 877,
      "Ġgr": 878,
      "ating": 879,
      "âĢĻ": 880,
      "ng": 881,
      "Ġsha": 882,
      "Ġmon": 883,
      "Ġacc": 884,
      "les": 885,
      "Ġlearning": 886,
      "Ġfirst": 887,
      "Ġsong": 888,
      "Ġmess": 889,
      "Ġnight": 890,
      "tle": 891,
      "ple": 892,
      "fa": 893,
      "ody": 894,
      "Ġstar": 895,
      "Ġend": 896,
      "Ġhappy": 897,
      "Ġcute": 898,
      "Ġthr": 899,
      "Ġmeans": 900,
      "Ġput": 901,
      "Ġhome": 902,
      "Ġhttps": 903,
      "Ġsoon": 904,
      "tty": 905,
      "Ġpick": 906,
      "Â£": 907,
      "Ġever": 908,
      "Ġmind": 909,
      "Ġhaving": 910,
      "ason": 911,
      "Ġplaying": 912,
      "umb": 913,
      "nce": 914,
      "Ġthough": 915,
      "Ġhahaha": 916,
      "Ġaway": 917,
      "Ġwtf": 918,
      "Ġpretty": 919,
      "iz": 920,
      "ual": 921,
      "wn": 922,
      "Ġmakes": 923,
      "Ġlit": 924,
      "Ġdone": 925,
      "ful": 926,
      "Ġremember": 927,
      "Ġcou": 928,
      "Ġunderstand": 929,
      "Ġann": 930,
      "Ġtouching": 931,
      "Ġfrogg": 932,
      "Ġsomeone": 933,
      "Ġ=": 934,
      "Ġmiss": 935,
      "ire": 936,
      "Ġem": 937,
      "Ġleg": 938,
      "Ġdrink": 939,
      "Ġcats": 940,
      "ĠÂ£": 941,
      "Ġop": 942,
      "Ġdisc": 943,
      "ri": 944,
      "ning": 945,
      "Ġdidn": 946,
      "Ġfine": 947,
      "Ġdad": 948,
      "Ġthrough": 949,
      "Ġkeep": 950,
      "unch": 951,
      "uter": 952,
      "Ġga": 953,
      "Ġshow": 954,
      "Ġreason": 955,
      "Ġboth": 956,
      "Ġfin": 957,
      "Ġtwo": 958,
      "ak": 959,
      "Ġcomputer": 960,
      "Ġtra": 961,
      "Ġsad": 962,
      "Ġseeing": 963,
      "Ġsw": 964,
      "Ġtold": 965,
      "Ġconf": 966,
      "Ġgod": 967,
      "ach": 968,
      "Ġsmink": 969,
      "ild": 970,
      "Ġname": 971,
      "Ġimp": 972,
      "no": 973,
      "Ġleast": 974,
      "Ġtalking": 975,
      "ated": 976,
      "Ġanyway": 977,
      "Ġwriting": 978,
      "Ġannoy": 979,
      "anc": 980,
      "Ġwont": 981,
      "Ġhours": 982,
      "Ġfre": 983,
      "Ġadd": 984,
      "Ġspea": 985,
      "Ġwanted": 986,
      "Ġpicking": 987,
      "Ġenough": 988,
      "ude": 989,
      "Ġinte": 990,
      "Ġser": 991,
      "Ġbas": 992,
      "Ġbest": 993,
      "Ġet": 994,
      "tes": 995,
      "ready": 996,
      "Ġread": 997,
      "Ġive": 998,
      "ose": 999,
      "Ġbaby": 1000,
      "Ġsy": 1001,
      "ary": 1002,
      "Ġthese": 1003,
      "Ġgen": 1004,
      "Ġold": 1005,
      "Ġalready": 1006,
      "Ġgir": 1007,
      "Ġguess": 1008,
      "ath": 1009,
      "Ġaut": 1010,
      "Ġho": 1011,
      "Ġje": 1012,
      "Ġhon": 1013,
      "Ġtomor": 1014,
      "Ġfroggy": 1015,
      "Ġcle": 1016,
      "Ġmost": 1017,
      "Ġused": 1018,
      "ness": 1019,
      "ven": 1020,
      "www": 1021,
      "Ġinc": 1022,
      "ither": 1023,
      "Ġtomorrow": 1024,
      "ner": 1025,
      "!!!": 1026,
      "Ġwal": 1027,
      "Ġhes": 1028,
      "Ġass": 1029,
      "Ġeverything": 1030,
      "arly": 1031,
      "Ġangle": 1032,
      "Ġdoesnt": 1033,
      "Ġplan": 1034,
      "Ġty": 1035,
      "Ġlunch": 1036,
      "Ġsen": 1037,
      "Ġnah": 1038,
      "Ġlittle": 1039,
      "Ġdrawing": 1040,
      "Ġstr": 1041,
      "Ġnothing": 1042,
      "Ġace": 1043,
      "Ġface": 1044,
      "Ġdes": 1045,
      "Ġself": 1046,
      "Ġlast": 1047,
      "Ġmaking": 1048,
      "mo": 1049,
      "less": 1050,
      "Ġlive": 1051,
      "Ġexact": 1052,
      "Ġwrong": 1053,
      "Ġgl": 1054,
      "Ġsend": 1055,
      "Ġown": 1056,
      "oney": 1057,
      "ign": 1058,
      "Ġsit": 1059,
      "Ġsuper": 1060,
      "Ġhonest": 1061,
      "Ġcont": 1062,
      "Ġdef": 1063,
      "???": 1064,
      "vers": 1065,
      "Ġdec": 1066,
      "Ġexpl": 1067,
      "yy": 1068,
      "li": 1069,
      "Ġmix": 1070,
      "Ġhead": 1071,
      "Ġhu": 1072,
      "Ġcr": 1073,
      "Ġ10": 1074,
      "Ġfriends": 1075,
      "Ġeveryone": 1076,
      "Ġroom": 1077,
      "Ġ6": 1078,
      "Ġonce": 1079,
      "Ġpoint": 1080,
      "Ġdiffe": 1081,
      "eet": 1082,
      "Ġweek": 1083,
      "de": 1084,
      "iv": 1085,
      "Ġwatch": 1086,
      "Ġmonth": 1087,
      "Ġsk": 1088,
      "Ġask": 1089,
      "\":": 1090,
      "ang": 1091,
      "eee": 1092,
      "Ġthank": 1093,
      "oc": 1094,
      "Ġthoughts": 1095,
      "Ġstart": 1096,
      "Ġthinking": 1097,
      "Ġaround": 1098,
      "Ġwo": 1099,
      "Ġcry": 1100,
      "Ġless": 1101,
      "Ġment": 1102,
      "ken": 1103,
      "Ġart": 1104,
      "10": 1105,
      "Ġac": 1106,
      "Ġmeant": 1107,
      "med": 1108,
      "rently": 1109,
      "Ġelse": 1110,
      "Ġcra": 1111,
      "Ġpete": 1112,
      "Ġanx": 1113,
      "Ġmeds": 1114,
      "Ġnext": 1115,
      "ph": 1116,
      "Ġwords": 1117,
      "rate": 1118,
      "Ġexactly": 1119,
      "Ġmine": 1120,
      "Ġokay": 1121,
      "Ġcuz": 1122,
      "Ġeng": 1123,
      "Ġhi": 1124,
      "Ġgirl": 1125,
      "Ġseems": 1126,
      "Ġhey": 1127,
      "Ġtimes": 1128,
      "Ġugh": 1129,
      "Ġshes": 1130,
      "Ġrel": 1131,
      "whe": 1132,
      "ction": 1133,
      "Ġbig": 1134,
      "Ġtbf": 1135,
      "Ġsim": 1136,
      "Ġfound": 1137,
      "Ġind": 1138,
      "Ġintere": 1139,
      "Ġleft": 1140,
      "Ġrep": 1141,
      "ired": 1142,
      "ward": 1143,
      "body": 1144,
      "ange": 1145,
      "Ġ9": 1146,
      "esome": 1147,
      "Ġgreat": 1148,
      "Ġ[": 1149,
      "wa": 1150,
      "Ġlooks": 1151,
      "Ġpar": 1152,
      "Ġlm": 1153,
      "Ġhug": 1154,
      "ook": 1155,
      "Ġlegit": 1156,
      "bo": 1157,
      "ons": 1158,
      "Ġneeds": 1159,
      "Ġplace": 1160,
      "Ġweeks": 1161,
      "Ġwants": 1162,
      "ny": 1163,
      "Ġmoney": 1164,
      "cept": 1165,
      "ical": 1166,
      "Ġob": 1167,
      "Ġdoesn": 1168,
      "Ġmain": 1169,
      "Ġcur": 1170,
      "ðŁ": 1171,
      "az": 1172,
      "Ġ8": 1173,
      "Ġdam": 1174,
      "ily": 1175,
      "Ġset": 1176,
      "Ġchat": 1177,
      "Ġwent": 1178,
      "Ġcomm": 1179,
      "ices": 1180,
      "Ġjob": 1181,
      "other": 1182,
      "roid": 1183,
      "Ġ20": 1184,
      "nth": 1185,
      "Ġlmfa": 1186,
      "uck": 1187,
      "ket": 1188,
      "Ġthose": 1189,
      "Ġproble": 1190,
      "Ġsupport": 1191,
      "Ġuni": 1192,
      "Ġkiss": 1193,
      "Ġinter": 1194,
      "Ġchan": 1195,
      "Ġjoke": 1196,
      "io": 1197,
      "lo": 1198,
      "ndom": 1199,
      "ory": 1200,
      "Ġhor": 1201,
      "nds": 1202,
      "Ġbreak": 1203,
      "Ġste": 1204,
      "Ġable": 1205,
      "Ġhur": 1206,
      "Ġwithout": 1207,
      "Ġawesome": 1208,
      "cent": 1209,
      "ia": 1210,
      "Ġmany": 1211,
      "Ġeither": 1212,
      "Ġyay": 1213,
      "ns": 1214,
      "Ġpass": 1215,
      "Ġyears": 1216,
      "ards": 1217,
      "Ġcons": 1218,
      "Ġfree": 1219,
      "Ġstress": 1220,
      "Ġtech": 1221,
      "Ġannoying": 1222,
      "used": 1223,
      "Ġshop": 1224,
      "Ġideas": 1225,
      "Ġpain": 1226,
      "Ġsch": 1227,
      "Ġgotta": 1228,
      "ac": 1229,
      "Ġkid": 1230,
      "haha": 1231,
      "Ġpay": 1232,
      "Ġsing": 1233,
      "hed": 1234,
      "Ġcoming": 1235,
      "Ġhell": 1236,
      "fg": 1237,
      "Ġboy": 1238,
      "Ġwhole": 1239,
      "Ġ7": 1240,
      "Ġoo": 1241,
      "Ġexplain": 1242,
      "ub": 1243,
      "Ġhonestly": 1244,
      "Ġfan": 1245,
      "gether": 1246,
      "el": 1247,
      "Ġwrite": 1248,
      "kr": 1249,
      "tw": 1250,
      "Ġwish": 1251,
      "Ġmar": 1252,
      "ker": 1253,
      "Ġworking": 1254,
      "Ġetc": 1255,
      "tra": 1256,
      "Ġsna": 1257,
      "itar": 1258,
      "Ġdifferent": 1259,
      "Ġproper": 1260,
      "Ġgame": 1261,
      "der": 1262,
      "ese": 1263,
      "press": 1264,
      "Ġtogether": 1265,
      "pect": 1266,
      "ised": 1267,
      "fu": 1268,
      "Ġsynth": 1269,
      "Ġdj": 1270,
      "Ġsuch": 1271,
      "ations": 1272,
      "itch": 1273,
      "uu": 1274,
      "20": 1275,
      "Ġguitar": 1276,
      "Ġforget": 1277,
      "ling": 1278,
      "ap": 1279,
      "Ġ:/": 1280,
      "Ġsometimes": 1281,
      "ew": 1282,
      "Ġwhats": 1283,
      "ack": 1284,
      "Ġstay": 1285,
      "ksks": 1286,
      "Ġes": 1287,
      "Ġpast": 1288,
      "Ġbel": 1289,
      "ues": 1290,
      "Ġmood": 1291,
      "iew": 1292,
      "Ġaaa": 1293,
      "Ġallow": 1294,
      "uss": 1295,
      "als": 1296,
      "ó¾": 1297,
      "are": 1298,
      "Ġschool": 1299,
      "Ġbored": 1300,
      "Ġiss": 1301,
      "iously": 1302,
      "Ġring": 1303,
      "cted": 1304,
      "Ġlmfao": 1305,
      "oud": 1306,
      "Ġyet": 1307,
      "Ä¡": 1308,
      "Ġcalled": 1309,
      "Ġdick": 1310,
      "Ġeas": 1311,
      "mit": 1312,
      "Ġworr": 1313,
      "Ġikr": 1314,
      "tent": 1315,
      "ident": 1316,
      "ying": 1317,
      "Ġkit": 1318,
      "tead": 1319,
      "Ġvide": 1320,
      "olog": 1321,
      "night": 1322,
      "Ġrandom": 1323,
      "Ġopen": 1324,
      "Ġhavent": 1325,
      "Ġrain": 1326,
      "Ġsent": 1327,
      "Ġeach": 1328,
      "Ġdiscord": 1329,
      "Ġcre": 1330,
      "Ġear": 1331,
      "ism": 1332,
      "Ġsmoke": 1333,
      "Ġchair": 1334,
      "Ġinstead": 1335,
      "ii": 1336,
      "Ġtea": 1337,
      "Ġhigh": 1338,
      "Ġwow": 1339,
      "Ġresp": 1340,
      "Ġblan": 1341,
      "sting": 1342,
      "Ġsun": 1343,
      "Ġguy": 1344,
      "Ġdrinking": 1345,
      "Ġdecks": 1346,
      "Ġ>": 1347,
      "eepy": 1348,
      "Ġmins": 1349,
      "Ġguys": 1350,
      "Ġsminking": 1351,
      "Ġbring": 1352,
      "je": 1353,
      "ned": 1354,
      "Ġunt": 1355,
      "Ġten": 1356,
      "cial": 1357,
      "ping": 1358,
      "Ġgay": 1359,
      "Ġposs": 1360,
      "cked": 1361,
      "100": 1362,
      "Ġinf": 1363,
      "ames": 1364,
      "Ġfeels": 1365,
      "sw": 1366,
      "Ġisnt": 1367,
      "Ġbasically": 1368,
      "gn": 1369,
      "Ġlmaooo": 1370,
      "Ġknew": 1371,
      "right": 1372,
      "Ġsigh": 1373,
      "more": 1374,
      "Ġmod": 1375,
      "Ġbus": 1376,
      "Ġima": 1377,
      "rect": 1378,
      "ube": 1379,
      "lle": 1380,
      "rr": 1381,
      "nc": 1382,
      "vel": 1383,
      "nts": 1384,
      "Ġtheres": 1385,
      "its": 1386,
      "hhh": 1387,
      "Ġspeak": 1388,
      "Ġdark": 1389,
      "Ġhmm": 1390,
      "by": 1391,
      "iety": 1392,
      "Ġpur": 1393,
      "set": 1394,
      "Ġmed": 1395,
      "Ġrly": 1396,
      "app": 1397,
      "ash": 1398,
      "Ġrude": 1399,
      "Ġengl": 1400,
      "ics": 1401,
      "where": 1402,
      "Ġgeepy": 1403,
      "ox": 1404,
      "Ġtoile": 1405,
      "Ġasked": 1406,
      "lling": 1407,
      "alth": 1408,
      "Ġsaw": 1409,
      "Ġusing": 1410,
      "Ġsense": 1411,
      "py": 1412,
      "line": 1413,
      "30": 1414,
      "Ġcame": 1415,
      "Ġoven": 1416,
      "ross": 1417,
      "led": 1418,
      "osed": 1419,
      "Ġnon": 1420,
      "Ġseco": 1421,
      "Ġtoilet": 1422,
      "Ġarg": 1423,
      "Ġdoor": 1424,
      "Ġgra": 1425,
      "Ġnooo": 1426,
      "Ġanother": 1427,
      "Ġtrain": 1428,
      "Ġwasnt": 1429,
      "Ġexper": 1430,
      "Ġuntil": 1431,
      "llow": 1432,
      "Ġanymore": 1433,
      "Ġkill": 1434,
      "Ġta": 1435,
      "Ġbor": 1436,
      "Ġhalf": 1437,
      "ider": 1438,
      "ments": 1439,
      "ific": 1440,
      "Ġworse": 1441,
      "joy": 1442,
      "Ġhum": 1443,
      "Ġalone": 1444,
      "ian": 1445,
      "Ġsin": 1446,
      "ather": 1447,
      "Ġquest": 1448,
      "gry": 1449,
      "Ġmessage": 1450,
      "Ġda": 1451,
      "Ġcar": 1452,
      "Ġago": 1453,
      "Ġchange": 1454,
      "ĠâĢ": 1455,
      "Ġwasn": 1456,
      "Ġturnt": 1457,
      "Ġcol": 1458,
      "indow": 1459,
      "Ġstarted": 1460,
      "lete": 1461,
      "Ġhot": 1462,
      "Ġxx": 1463,
      "uring": 1464,
      "Ġplayed": 1465,
      "reen": 1466,
      "Ġhair": 1467,
      "Ġenjoy": 1468,
      "Ġseem": 1469,
      "ves": 1470,
      "Ġansw": 1471,
      "Ġturntable": 1472,
      "come": 1473,
      "Ġfo": 1474,
      "not": 1475,
      "Ġdumb": 1476,
      "Ġrn": 1477,
      "Ġ0": 1478,
      "Ġmark": 1479,
      "Ġcudd": 1480,
      "Ġtired": 1481,
      "Ġcouple": 1482,
      "Ġcommun": 1483,
      "Ġ;": 1484,
      "wards": 1485,
      "Ġlate": 1486,
      "Ġpan": 1487,
      "Ġcal": 1488,
      "Ġbelie": 1489,
      "Ġknown": 1490,
      "Ġglad": 1491,
      "sc": 1492,
      "Ã©": 1493,
      "Ġnorm": 1494,
      "Ġvideo": 1495,
      "Ġele": 1496,
      "oup": 1497,
      "Ġ12": 1498,
      "Ġawww": 1499,
      "ched": 1500,
      "lic": 1501,
      "Ġimport": 1502,
      "Ġalright": 1503,
      "Ġdance": 1504,
      "Ġreg": 1505,
      "Ġmixer": 1506,
      "Ġsince": 1507,
      "vo": 1508,
      "Ġawk": 1509,
      "ute": 1510,
      "ah": 1511,
      "ones": 1512,
      "ier": 1513,
      "Ġsnacks": 1514,
      "Ġsec": 1515,
      "fs": 1516,
      "rop": 1517,
      "Ġhealth": 1518,
      "Ġcreat": 1519,
      "Ġthree": 1520,
      "Ġsick": 1521,
      "Ġchild": 1522,
      "Ġworried": 1523,
      "Ġspace": 1524,
      "Ġappre": 1525,
      "Ġseen": 1526,
      "gan": 1527,
      "ffic": 1528,
      "Ġmonths": 1529,
      "light": 1530,
      "Ġlets": 1531,
      "Ġmor": 1532,
      "Ġappa": 1533,
      "'.": 1534,
      "Ġent": 1535,
      "Ġfig": 1536,
      "Ġamaz": 1537,
      "up": 1538,
      "Ġquite": 1539,
      "Ġsafe": 1540,
      "ancing": 1541,
      "ron": 1542,
      "ages": 1543,
      "Ġ;)": 1544,
      "ats": 1545,
      "Ġjon": 1546,
      "Ġcor": 1547,
      "Ġobv": 1548,
      "ugg": 1549,
      "Ġ#": 1550,
      "Ġmid": 1551,
      "fect": 1552,
      "Ġexc": 1553,
      "Ġawkward": 1554,
      "istic": 1555,
      "ition": 1556,
      "Ġnobody": 1557,
      "Ġorder": 1558,
      "Ġhand": 1559,
      "Ġisn": 1560,
      "Ġapparently": 1561,
      "Ġfew": 1562,
      "Ġsays": 1563,
      "Ġbtw": 1564,
      "res": 1565,
      "Ġhappened": 1566,
      "most": 1567,
      "Ġdefin": 1568,
      "side": 1569,
      "Ġter": 1570,
      "Ġforg": 1571,
      "unk": 1572,
      "Ġappreci": 1573,
      "\",": 1574,
      "Ġhorr": 1575,
      "ject": 1576,
      "Ġmeh": 1577,
      "ens": 1578,
      "terday": 1579,
      "ilst": 1580,
      "Ġmic": 1581,
      "Ġmental": 1582,
      "nch": 1583,
      "Ġooo": 1584,
      "Ġtop": 1585,
      "ors": 1586,
      "Ġcheese": 1587,
      "Ġrun": 1588,
      "Ġanyone": 1589,
      "Ġjokes": 1590,
      "ped": 1591,
      "Ġdun": 1592,
      "ved": 1593,
      "Ġpi": 1594,
      "Ġyesterday": 1595,
      "Ġinteresting": 1596,
      "Ġwhilst": 1597,
      "Ġfar": 1598,
      "we": 1599,
      "Ġemot": 1600,
      "Ġey": 1601,
      "Ġanxiety": 1602,
      "ugs": 1603,
      "using": 1604,
      "Ġed": 1605,
      "ba": 1606,
      "fr": 1607,
      "Ġtonight": 1608,
      "Ġasking": 1609,
      "ãģ": 1610,
      "Ġclean": 1611,
      "view": 1612,
      "?!": 1613,
      "Ġomfg": 1614,
      "Ġdancing": 1615,
      "Ġwater": 1616,
      "Ġproblem": 1617,
      "ãģ£": 1618,
      "Ġyourself": 1619,
      "igg": 1620,
      "Ġsur": 1621,
      "Ġwindow": 1622,
      "Ġlight": 1623,
      "how": 1624,
      "Ġ11": 1625,
      "Ġnd": 1626,
      "Ġap": 1627,
      "Ġcut": 1628,
      "Ġimportant": 1629,
      "Ġfore": 1630,
      "Ġew": 1631,
      "pm": 1632,
      "Ġah": 1633,
      "Ġpiss": 1634,
      "the": 1635,
      "Ġtried": 1636,
      "ret": 1637,
      "Ġupset": 1638,
      "Ġsitu": 1639,
      "fort": 1640,
      "Ġpoo": 1641,
      "Ġdw": 1642,
      "Ġgener": 1643,
      "Ġblanket": 1644,
      "ween": 1645,
      "Ġtrans": 1646,
      "Ġboof": 1647,
      "Ġmainly": 1648,
      "Ġchris": 1649,
      "ches": 1650,
      "Ġwhile": 1651,
      "Ġwalk": 1652,
      "ount": 1653,
      "Ġsecond": 1654,
      "vice": 1655,
      "Ġfam": 1656,
      "Ġphot": 1657,
      "Ġinv": 1658,
      "Ġones": 1659,
      "Ġtechn": 1660,
      "tem": 1661,
      "ert": 1662,
      "Ġvis": 1663,
      "Ġrest": 1664,
      "Ġclass": 1665,
      "Ġspec": 1666,
      "Ġsongs": 1667,
      "Ġbelieve": 1668,
      "hes": 1669,
      "Ġwatching": 1670,
      "Ġamazing": 1671,
      "Ġforgot": 1672,
      "Ġban": 1673,
      "Ġloving": 1674,
      "Ġyoure": 1675,
      "Ġperfect": 1676,
      "ear": 1677,
      "Ġatta": 1678,
      "Ġwar": 1679,
      "Ġbir": 1680,
      "Ġsugg": 1681,
      "ative": 1682,
      "Ġfull": 1683,
      "Ġcreate": 1684,
      "Ġgoo": 1685,
      "Ġsksks": 1686,
      "ush": 1687,
      "Ġcheck": 1688,
      "Ġplz": 1689,
      "Ġval": 1690,
      "Ġneeded": 1691,
      "Ġluck": 1692,
      "Ġcolour": 1693,
      "Ġsign": 1694,
      "my": 1695,
      "Ġdiffic": 1696,
      "Ġproc": 1697,
      "Ġparent": 1698,
      "ately": 1699,
      "Ġopin": 1700,
      "ent": 1701,
      "inner": 1702,
      "Ġhurt": 1703,
      "izz": 1704,
      "Ġbur": 1705,
      "ble": 1706,
      "'(": 1707,
      "fully": 1708,
      "ins": 1709,
      "Ġwha": 1710,
      "Ġrec": 1711,
      "Ġfrench": 1712,
      "sy": 1713,
      "illy": 1714,
      "outh": 1715,
      "Ġalmost": 1716,
      "Ġmeet": 1717,
      "ĠâĢĺ": 1718,
      "Ġtoy": 1719,
      "Ġagree": 1720,
      "Ġemb": 1721,
      "Ġbetween": 1722,
      "Ġcommunic": 1723,
      "itely": 1724,
      "ever": 1725,
      "Ġscream": 1726,
      "ĠðŁ": 1727,
      "Ġcour": 1728,
      "Ġva": 1729,
      "Ġref": 1730,
      "Ġaccident": 1731,
      "Ġdog": 1732,
      "Ġconfused": 1733,
      "Ġfunny": 1734,
      "ial": 1735,
      "Ġbuy": 1736,
      "Ġtas": 1737,
      "mail": 1738,
      "ips": 1739,
      "Ġusually": 1740,
      "net": 1741,
      "Ġdunno": 1742,
      "Ġcoo": 1743,
      "room": 1744,
      "),": 1745,
      "Ġinst": 1746,
      "ility": 1747,
      "ifu": 1748,
      "ience": 1749,
      "Ġlistened": 1750,
      "Ġhun": 1751,
      "Ġegg": 1752,
      "Ġstra": 1753,
      "odu": 1754,
      "Ġmorning": 1755,
      "Ġyep": 1756,
      "Ġbabe": 1757,
      "Ġdarkness": 1758,
      "Ġrem": 1759,
      "iving": 1760,
      "Ġ:'(": 1761,
      "ional": 1762,
      "Ġdeal": 1763,
      "Ġissues": 1764,
      "Ġvoices": 1765,
      "Ġsub": 1766,
      "Ġgun": 1767,
      "ming": 1768,
      "Ġexcept": 1769,
      "12": 1770,
      "ilar": 1771,
      "ture": 1772,
      "Ġcomplete": 1773,
      "ower": 1774,
      "Ġreply": 1775,
      "Ġlikes": 1776,
      "Ġfact": 1777,
      "Ġanswer": 1778,
      "Ġpanic": 1779,
      "Ġpop": 1780,
      "Ġworks": 1781,
      "Ġsmall": 1782,
      "Ġdifficult": 1783,
      "pid": 1784,
      "Ġmat": 1785,
      "Ġsomehow": 1786,
      "Ġdefinitely": 1787,
      "utes": 1788,
      "Ġidek": 1789,
      "Ġoutside": 1790,
      "Ġtook": 1791,
      "ters": 1792,
      "Ġsupposed": 1793,
      "Ġoften": 1794,
      "Ġpost": 1795,
      "hd": 1796,
      "Ġworld": 1797,
      "Ġparents": 1798,
      "ipp": 1799,
      "Ġtakes": 1800,
      "ption": 1801,
      "Ġz": 1802,
      "Ġhaven": 1803,
      "book": 1804,
      "Ġtill": 1805,
      "waifu": 1806,
      "Ġbirth": 1807,
      "Ġdie": 1808,
      "Ġtelling": 1809,
      "Ġdaylight": 1810,
      "ads": 1811,
      "ratewaifu": 1812,
      "Ġallowed": 1813,
      "Ġcop": 1814,
      "icul": 1815,
      "ided": 1816,
      "Ġgames": 1817,
      "sent": 1818,
      "Ġages": 1819,
      "Ġtheyre": 1820,
      "000": 1821,
      "Ġappreciate": 1822,
      "Ġfollow": 1823,
      "ru": 1824,
      "Ġeff": 1825,
      "Ġdepress": 1826,
      "ode": 1827,
      "Ġduring": 1828,
      "zy": 1829,
      "yle": 1830,
      "Ġautistic": 1831,
      "ob": 1832,
      "Ġworry": 1833,
      "ger": 1834,
      "ings": 1835,
      "Ġtowards": 1836,
      "Ġsexy": 1837,
      "Ġwonder": 1838,
      "Ġpossible": 1839,
      "Ġcontro": 1840,
      "Ġchang": 1841,
      "Ġcrying": 1842,
      "Ġsat": 1843,
      "Ġcolle": 1844,
      "Ġ18": 1845,
      "ship": 1846,
      "Ġrequ": 1847,
      "tm": 1848,
      "uk": 1849,
      "yout": 1850,
      "Ġlost": 1851,
      "Ġloves": 1852,
      "Ġchar": 1853,
      "Ġcree": 1854,
      "Ġrather": 1855,
      "put": 1856,
      "Ġelect": 1857,
      "Ġnumb": 1858,
      "Ġemail": 1859,
      "Ġeffort": 1860,
      "Ġbye": 1861,
      "ugh": 1862,
      "Ġtot": 1863,
      "iny": 1864,
      "Ġtype": 1865,
      "Ġexp": 1866,
      "Ġaddress": 1867,
      "gr": 1868,
      "Ġincl": 1869,
      "oon": 1870,
      "Ġwood": 1871,
      "ict": 1872,
      "wor": 1873,
      "Ġminutes": 1874,
      "Ġboring": 1875,
      "nded": 1876,
      "Ġentire": 1877,
      "gy": 1878,
      "Ġequ": 1879,
      "Ġhating": 1880,
      "Ġopinion": 1881,
      "cited": 1882,
      "Ġsuggest": 1883,
      "Ġsort": 1884,
      "Ġanxious": 1885,
      "Ġbody": 1886,
      "Ġstupid": 1887,
      "Ġdinner": 1888,
      "air": 1889,
      "oman": 1890,
      "ibly": 1891,
      "Ġwouldnt": 1892,
      "mp": 1893,
      "Ġhang": 1894,
      "Ġfav": 1895,
      "ates": 1896,
      "watch": 1897,
      "arch": 1898,
      "Ġdead": 1899,
      "Ġmeme": 1900,
      "Ġrelation": 1901,
      "Ġunless": 1902,
      "33": 1903,
      "Ġmet": 1904,
      "Ġwear": 1905,
      "Ġpicture": 1906,
      "Ġhid": 1907,
      "Ġreading": 1908,
      "leep": 1909,
      "Ġdamn": 1910,
      "Ġdroid": 1911,
      "Ġbou": 1912,
      "Ġ15": 1913,
      "Ġcourse": 1914,
      "aged": 1915,
      "Ġhehe": 1916,
      "Ġfuckin": 1917,
      "Ġheating": 1918,
      "Ġheard": 1919,
      "Ġoooh": 1920,
      "mme": 1921,
      "Ġstand": 1922,
      "Ġlovely": 1923,
      "Ġflo": 1924,
      "Ġlooked": 1925,
      "Ġtext": 1926,
      "cially": 1927,
      "Ġclose": 1928,
      "dy": 1929,
      "Ġconvers": 1930,
      "Ġhuman": 1931,
      "Ġimag": 1932,
      "Ġhows": 1933,
      "Ġcomes": 1934,
      "Ġpizz": 1935,
      "Ġpos": 1936,
      "Ġage": 1937,
      "Ġhold": 1938,
      "Ġdu": 1939,
      "Ġtru": 1940,
      "Ġslight": 1941,
      "Ġrealised": 1942,
      "Ġfigure": 1943,
      "Ġxox": 1944,
      "âĢ¢": 1945,
      "mon": 1946,
      "Ġexcited": 1947,
      "Ġevening": 1948,
      "Ġfinally": 1949,
      "Ġconsider": 1950,
      "!'": 1951,
      "eric": 1952,
      "Ġdiscuss": 1953,
      "Ġsuppose": 1954,
      "aut": 1955,
      "Ġonline": 1956,
      "ring": 1957,
      "ffect": 1958,
      "Ġautism": 1959,
      "Ġsituation": 1960,
      "Ġgets": 1961,
      "Ġbook": 1962,
      "Ġcount": 1963,
      "Ġoof": 1964,
      "Ġfix": 1965,
      "ract": 1966,
      "Ġnormal": 1967,
      "Ġmome": 1968,
      "angle": 1969,
      "Ġwat": 1970,
      "Ġinside": 1971,
      "15": 1972,
      "Ġpassage": 1973,
      "Ġgunna": 1974,
      "kk": 1975,
      "lier": 1976,
      "Ġdat": 1977,
      "mer": 1978,
      "iday": 1979,
      "Ġdoct": 1980,
      "Ġpen": 1981,
      "Ġpu": 1982,
      "gra": 1983,
      "Êķ": 1984,
      "Ġsweet": 1985,
      "Ġfur": 1986,
      "Ġloool": 1987,
      "Ġdel": 1988,
      "Ġflat": 1989,
      "Ġscary": 1990,
      "Ġspeaking": 1991,
      "Ġenglish": 1992,
      "Ġhy": 1993,
      "Ġasleep": 1994,
      "gging": 1995,
      "Ġwouldn": 1996,
      "Ġcreating": 1997,
      "Ġuk": 1998,
      "Ġameric": 1999,
      "Ġpizza": 2000,
      "cl": 2001,
      "Ġcase": 2002,
      "Ġlots": 2003,
      "Ġfail": 2004,
      "nday": 2005,
      "man": 2006,
      "Ġign": 2007,
      "Ġhappening": 2008,
      "Ġ14": 2009,
      "cu": 2010,
      "iced": 2011,
      "Ġ30": 2012,
      "ga": 2013,
      "ÊĶ": 2014,
      "Ġturn": 2015,
      "tever": 2016,
      "ces": 2017,
      "hy": 2018,
      "Ġrant": 2019,
      "Ġplus": 2020,
      "Ġfault": 2021,
      "Ġtwitch": 2022,
      "Ġcho": 2023,
      "Ġpasta": 2024,
      "Ġwoman": 2025,
      "Ġevent": 2026,
      "Ġblack": 2027,
      "Ġcold": 2028,
      "Ġev": 2029,
      "ail": 2030,
      "Ġtu": 2031,
      "Ġpc": 2032,
      "Ġsucks": 2033,
      "Ġhttp": 2034,
      "Ġearlier": 2035,
      "Ġhorrible": 2036,
      "Ġsn": 2037,
      "ex": 2038,
      "Ġgoogle": 2039,
      "irt": 2040,
      "Ġxxx": 2041,
      "Ġfall": 2042,
      "Ġgave": 2043,
      "Ġforever": 2044,
      "nn": 2045,
      "Ġmil": 2046,
      "Ġhopefully": 2047,
      "youtube": 2048,
      "Ġsooo": 2049,
      "ock": 2050,
      "Ġmeow": 2051,
      "Ġsocial": 2052,
      "Ġaww": 2053,
      "dden": 2054,
      "Ġdrunk": 2055,
      "Ġbirthday": 2056,
      "Ġworst": 2057,
      "Ġcba": 2058,
      "angel": 2059,
      "ensive": 2060,
      "Ġslightly": 2061,
      "Ġlow": 2062,
      "Ġmouse": 2063,
      "Ġvib": 2064,
      "Ġmass": 2065,
      "nding": 2066,
      "Ġpat": 2067,
      "Ġgone": 2068,
      "Ġsuck": 2069,
      "fer": 2070,
      "Ġwon": 2071,
      "Ġfour": 2072,
      "Ġtiny": 2073,
      "Ġbroke": 2074,
      "Ġobviously": 2075,
      "Ġsudden": 2076,
      "Ġloved": 2077,
      "ising": 2078,
      "Ġwebs": 2079,
      "Ġbag": 2080,
      "av": 2081,
      "Ġgiving": 2082,
      "Ġsol": 2083,
      "ls": 2084,
      "Ġumm": 2085,
      "Ġspam": 2086,
      "pr": 2087,
      "sol": 2088,
      "Ġcock": 2089,
      "Ġprom": 2090,
      "Ġpas": 2091,
      "rac": 2092,
      "Ġstuck": 2093,
      "con": 2094,
      "Ġess": 2095,
      "Ġexpect": 2096,
      "Ġooh": 2097,
      "Ġffs": 2098,
      "ology": 2099,
      "Ġkey": 2100,
      "Ġvape": 2101,
      "Ġwebsite": 2102,
      "lled": 2103,
      "Ġbath": 2104,
      "Ġactual": 2105,
      "Ġliving": 2106,
      "17": 2107,
      "lym": 2108,
      "Ġwhatever": 2109,
      "Ġhmmm": 2110,
      "Ġprocess": 2111,
      "Ġfavour": 2112,
      "Ġworth": 2113,
      "Ġlie": 2114,
      "Ġcurrently": 2115,
      "ule": 2116,
      "Ġangry": 2117,
      "Ġperf": 2118,
      "ced": 2119,
      "Ġpsy": 2120,
      "Ġfell": 2121,
      "ision": 2122,
      "Ġlaugh": 2123,
      "Ġcalm": 2124,
      "lu": 2125,
      "Ġwin": 2126,
      "Ġfoc": 2127,
      "key": 2128,
      "Ġred": 2129,
      "Ġret": 2130,
      "Ġandroid": 2131,
      "Ġyours": 2132,
      "Ġbitch": 2133,
      "Ġphys": 2134,
      "ht": 2135,
      "friend": 2136,
      "cer": 2137,
      "Ġmee": 2138,
      "Ġtrust": 2139,
      "Ġinternet": 2140,
      "Ġready": 2141,
      "vent": 2142,
      "cha": 2143,
      "fk": 2144,
      "Ġmult": 2145,
      "sel": 2146,
      "24": 2147,
      "ured": 2148,
      "onse": 2149,
      "ities": 2150,
      "Ġcontin": 2151,
      "wu": 2152,
      "Ġextra": 2153,
      "Ġsimilar": 2154,
      "po": 2155,
      "uine": 2156,
      "Ġrecent": 2157,
      "Ġblue": 2158,
      "scri": 2159,
      "Ġfil": 2160,
      "Ġstrugg": 2161,
      "ber": 2162,
      "Ġpress": 2163,
      "Ġhit": 2164,
      "Ġarent": 2165,
      "16": 2166,
      "Ġwoo": 2167,
      "Ġrap": 2168,
      "Ġeyes": 2169,
      "Ġstraight": 2170,
      "25": 2171,
      "ient": 2172,
      "Ġloveangel": 2173,
      "Ġembar": 2174,
      "Ġmoment": 2175,
      "Ġner": 2176,
      "Ġquestion": 2177,
      "antly": 2178,
      "bb": 2179,
      "Ġ/": 2180,
      "Ġgenuine": 2181,
      "board": 2182,
      "Ġvalid": 2183,
      "Ġya": 2184,
      "tr": 2185,
      "Ġwhite": 2186,
      "Ġawake": 2187,
      "ptop": 2188,
      "Ġfinis": 2189,
      "Ġeasy": 2190,
      "Ġmis": 2191,
      "Ġdefo": 2192,
      "Ġeffect": 2193,
      "Ġfrance": 2194,
      "Ġknows": 2195,
      "Ġchill": 2196,
      "ife": 2197,
      "Ġconversation": 2198,
      "Ġside": 2199,
      "Ġbrains": 2200,
      "Ġmention": 2201,
      "Ġproperly": 2202,
      "Ġbecome": 2203,
      "ho": 2204,
      "Ġcook": 2205,
      "Ġquick": 2206,
      "Ġscreen": 2207,
      "ines": 2208,
      "ence": 2209,
      "Ġadhd": 2210,
      "Ġdecided": 2211,
      "Ġfavourite": 2212,
      "Ġbought": 2213,
      "Ġmen": 2214,
      "Ġeh": 2215,
      "Ġresponse": 2216,
      "Ġsexual": 2217,
      "Ġ19": 2218,
      "Ġslow": 2219,
      "Ġseriously": 2220,
      "gif": 2221,
      "Ġcouldnt": 2222,
      "Ġ+": 2223,
      "Ġdream": 2224,
      "Ġform": 2225,
      "Ġhuge": 2226,
      "Ġcompletely": 2227,
      "selves": 2228,
      "Ġexam": 2229,
      "Ġcares": 2230,
      "Ġdet": 2231,
      "Ġrecord": 2232,
      "Ġproud": 2233,
      "Ġproblems": 2234,
      "ux": 2235,
      "Ġver": 2236,
      "Ġlevel": 2237,
      "Ġlaptop": 2238,
      "airs": 2239,
      "Ġplym": 2240,
      "ral": 2241,
      "Ġtrack": 2242,
      "Ġcorrect": 2243,
      "Ġtwice": 2244,
      "iness": 2245,
      "Ġshort": 2246,
      "Ġatm": 2247,
      "Ġcannot": 2248,
      "Ġkept": 2249,
      "Ġhates": 2250,
      "aly": 2251,
      "jk": 2252,
      "Ġfive": 2253,
      "Ġhuh": 2254,
      "Ġrepl": 2255,
      "Ġhello": 2256,
      "Ġlemme": 2257,
      "Ġcuddles": 2258,
      "cy": 2259,
      "Ġmessages": 2260,
      "Ġloud": 2261,
      "Ġbeaut": 2262,
      "Ġnoticed": 2263,
      "iple": 2264,
      "Ġpsych": 2265,
      "Ġcust": 2266,
      "Ġwaiting": 2267,
      "Ġmissed": 2268,
      "Ġnumber": 2269,
      "ÊĶãģ£": 2270,
      "Ġlog": 2271,
      "uin": 2272,
      "Ġnope": 2273,
      "Ġprodu": 2274,
      "Ġrelationship": 2275,
      "Ġbru": 2276,
      "Ġessay": 2277,
      "Ġsys": 2278,
      "wise": 2279,
      "Ġindeed": 2280,
      "rew": 2281,
      "rence": 2282,
      "Ġgives": 2283,
      "Ġbased": 2284,
      "ify": 2285,
      "ize": 2286,
      "Ġconta": 2287,
      "Ġwalked": 2288,
      "Ġgross": 2289,
      "Ġsomewhere": 2290,
      "Ġfit": 2291,
      "Ġnear": 2292,
      "Ġ13": 2293,
      "Ġohhh": 2294,
      "hs": 2295,
      "Ġdeep": 2296,
      "Ġconst": 2297,
      "load": 2298,
      "Ġstep": 2299,
      "Ġserver": 2300,
      "Ġtotally": 2301,
      "Ġearly": 2302,
      "eer": 2303,
      "orn": 2304,
      "Ġnotice": 2305,
      "Ġshut": 2306,
      "Ġdist": 2307,
      "inge": 2308,
      "tmas": 2309,
      "Ġsuddenly": 2310,
      "une": 2311,
      "Ġfamily": 2312,
      "Ġstarting": 2313,
      "Ġincred": 2314,
      "Ġfront": 2315,
      "Ġbi": 2316,
      "ively": 2317,
      "Ġaccidentally": 2318,
      "Ġcollege": 2319,
      "âĢ¢Ì": 2320,
      "Ġclos": 2321,
      "Ġparty": 2322,
      "Ġvi": 2323,
      "ital": 2324,
      "Ġgoes": 2325,
      "pa": 2326,
      "esss": 2327,
      "Ġchristmas": 2328,
      "ited": 2329,
      "Ġstory": 2330,
      "Ġgirls": 2331,
      "Ġhungry": 2332,
      "Ġcreepy": 2333,
      "Ġround": 2334,
      "14": 2335,
      "Ġpol": 2336,
      "Ġhugs": 2337,
      "aked": 2338,
      "urs": 2339,
      "Ġfloor": 2340,
      "Ġsqu": 2341,
      "Ġran": 2342,
      "Ġheart": 2343,
      "Ġjoin": 2344,
      "Ġ>.": 2345,
      "Ġbusy": 2346,
      "Ġ16": 2347,
      "Ġengland": 2348,
      "fast": 2349,
      "Ġsilly": 2350,
      "iful": 2351,
      "ancy": 2352,
      "Ġtechnically": 2353,
      "Ġpartner": 2354,
      "Ġgeneral": 2355,
      "em": 2356,
      "oot": 2357,
      "fortable": 2358,
      "pecially": 2359,
      "Ġinform": 2360,
      "Ġair": 2361,
      "Ġhappens": 2362,
      "ding": 2363,
      "iot": 2364,
      "Ġexperience": 2365,
      "Ġquestions": 2366,
      "Ġxoxo": 2367,
      "19": 2368,
      "Ġdecide": 2369,
      "13": 2370,
      "lex": 2371,
      "ertain": 2372,
      "Ġlonger": 2373,
      "Ġbrother": 2374,
      "ronic": 2375,
      "Ġtest": 2376,
      "Ġthrow": 2377,
      "Ġstyle": 2378,
      "Ġwoke": 2379,
      "Ġinclud": 2380,
      "head": 2381,
      "kets": 2382,
      "ik": 2383,
      "Ġwel": 2384,
      "Ġimagine": 2385,
      "Ġbuild": 2386,
      "tention": 2387,
      "Ġsme": 2388,
      "Ġbass": 2389,
      "Ġlist": 2390,
      "Ġsinging": 2391,
      "Ġissue": 2392,
      "dle": 2393,
      "min": 2394,
      "Ġnic": 2395,
      "Ġneither": 2396,
      "chen": 2397,
      "ax": 2398,
      "Ġlar": 2399,
      "Ġyh": 2400,
      "ndon": 2401,
      "Ġprof": 2402,
      "ists": 2403,
      "fl": 2404,
      "js": 2405,
      "Ġ?": 2406,
      "Ġlikely": 2407,
      "Ġfacebook": 2408,
      "Ġspecific": 2409,
      "Ġyout": 2410,
      "Ġspo": 2411,
      "Ġmums": 2412,
      "Ġparticul": 2413,
      "Ġcontact": 2414,
      "Ġprov": 2415,
      "ccoon": 2416,
      "Ġsleeping": 2417,
      "Ġwarm": 2418,
      "Ġgenuinely": 2419,
      "Ġnearly": 2420,
      "Ġcalling": 2421,
      "Ġbra": 2422,
      "50": 2423,
      "tern": 2424,
      "Ġfucked": 2425,
      "Ġsens": 2426,
      "18": 2427,
      "Ġsoup": 2428,
      "Ġju": 2429,
      "Ġmeeting": 2430,
      "you": 2431,
      "Ġboyfriend": 2432,
      "Ġily": 2433,
      "iled": 2434,
      "Ġmilk": 2435,
      "Ġline": 2436,
      "Ġannoyed": 2437,
      "Ġodd": 2438,
      "Ġbread": 2439,
      "Ġcouldn": 2440,
      "Ġkitchen": 2441,
      "Ġargo": 2442,
      "Ġmultiple": 2443,
      "Ġscreaming": 2444,
      "pris": 2445,
      "Ġclot": 2446,
      "Ġturned": 2447,
      "Ġbar": 2448,
      "Ġbright": 2449,
      "Ġspent": 2450,
      "Ġdammit": 2451,
      "Ġespecially": 2452,
      "Êĺ": 2453,
      "Ġsile": 2454,
      "Ġcomment": 2455,
      "Ġdisapp": 2456,
      "Ġmassive": 2457,
      "ills": 2458,
      "Ġstrong": 2459,
      "Ġwake": 2460,
      "iet": 2461,
      "Ġwhether": 2462,
      "Ġcompl": 2463,
      "Ġgroup": 2464,
      "Ġtv": 2465,
      "read": 2466,
      "que": 2467,
      "urate": 2468,
      "Ġstude": 2469,
      "Ġshower": 2470,
      "Ġopp": 2471,
      "Ġbreakfast": 2472,
      "Ġsksksk": 2473,
      "\")": 2474,
      "Ġotherwise": 2475,
      "Ġtraum": 2476,
      "Ġplymouth": 2477,
      "Ġpissed": 2478,
      "aw": 2479,
      "do": 2480,
      "tend": 2481,
      "Ġvers": 2482,
      "Ġchaos": 2483,
      "Ġothers": 2484,
      "Ġeasier": 2485,
      "Ġpoop": 2486,
      "Ġlondon": 2487,
      "eng": 2488,
      "Ġgreen": 2489,
      "Ġ100": 2490,
      "Ġpaid": 2491,
      "Ġapolog": 2492,
      "Ġfire": 2493,
      "Ġuwu": 2494,
      "Ġhm": 2495,
      "kers": 2496,
      "down": 2497,
      "esus": 2498,
      "Ġremo": 2499,
      "Ġant": 2500,
      "Ġsix": 2501,
      "Ġended": 2502,
      "Ġdue": 2503,
      "Ġdans": 2504,
      "Ġshare": 2505,
      "Ġyoung": 2506,
      "Ġ>:": 2507,
      "Ġdirect": 2508,
      "medi": 2509,
      "Ġpurple": 2510,
      "23": 2511,
      "het": 2512,
      "Ġcamer": 2513,
      "Ġdeser": 2514,
      "Ġcontrol": 2515,
      "Ġrecently": 2516,
      "Ġkissing": 2517,
      "df": 2518,
      "sted": 2519,
      "Ġspend": 2520,
      "Ġbeautiful": 2521,
      "zz": 2522,
      "Ġleaves": 2523,
      "Ġuh": 2524,
      "Ġpour": 2525,
      "Ġloveangle": 2526,
      "eg": 2527,
      "Ġig": 2528,
      "Ġliked": 2529,
      "Ġsurpris": 2530,
      "what": 2531,
      "Ġlos": 2532,
      "Ġpersonal": 2533,
      "',": 2534,
      "hugs": 2535,
      "Ġhowever": 2536,
      "Ġmoves": 2537,
      "Ġclearly": 2538,
      "Ġstressed": 2539,
      "Ġemotional": 2540,
      "Ġhelping": 2541,
      "Ġaccurate": 2542,
      "br": 2543,
      "mat": 2544,
      "ets": 2545,
      "Ġagainst": 2546,
      "omen": 2547,
      "ump": 2548,
      "pected": 2549,
      "Ġfight": 2550,
      "Ġwife": 2551,
      "Ġdeath": 2552,
      "Ġcrap": 2553,
      "Ġce": 2554,
      "Ġargu": 2555,
      "Ġshout": 2556,
      "Ġamount": 2557,
      "Ġtaken": 2558,
      "Ġyo": 2559,
      "any": 2560,
      "Ġsofa": 2561,
      "Ġinterested": 2562,
      "Ġproject": 2563,
      "nse": 2564,
      "Ġsitting": 2565,
      "()": 2566,
      "40": 2567,
      "pop": 2568,
      "Ġdou": 2569,
      "Ġpee": 2570,
      "Ġben": 2571,
      "Ġhugging": 2572,
      "par": 2573,
      "Ġcertain": 2574,
      "Ġsending": 2575,
      "Ġattack": 2576,
      "Ġcooking": 2577,
      "Ġobs": 2578,
      "Ġmiddle": 2579,
      "Ġyoutube": 2580,
      "go": 2581,
      "Ġfake": 2582,
      "Ġfriday": 2583,
      "Ġsingle": 2584,
      "Ġyesss": 2585,
      "vi": 2586,
      "Ġjesus": 2587,
      "tenor": 2588,
      "Ġprefer": 2589,
      "ka": 2590,
      "ants": 2591,
      "Ġorgan": 2592,
      "dn": 2593,
      "ren": 2594,
      "Ġdude": 2595,
      "Ġow": 2596,
      "lls": 2597,
      "pped": 2598,
      "ilt": 2599,
      "Ġthemselves": 2600,
      "Ġchoice": 2601,
      "ond": 2602,
      "ame": 2603,
      "Ġattention": 2604,
      "Ġsmoked": 2605,
      "Ġidiot": 2606,
      "gu": 2607,
      "log": 2608,
      "Ġstate": 2609,
      "Ġbare": 2610,
      "Ġconsidering": 2611,
      "Ġai": 2612,
      "Ġlil": 2613,
      "Ġque": 2614,
      "gs": 2615,
      "Ġaa": 2616,
      "Ġloads": 2617,
      "Ġdate": 2618,
      "Ġexpensive": 2619,
      "Ġbroken": 2620,
      "Ġasher": 2621,
      "bot": 2622,
      "ular": 2623,
      "Ġmeaning": 2624,
      "Ġmag": 2625,
      "Ġcard": 2626,
      "Ġconne": 2627,
      "hol": 2628,
      "Ġont": 2629,
      "Ġappro": 2630,
      "Ġcrazy": 2631,
      "sor": 2632,
      "Ġrent": 2633,
      "Ġgrow": 2634,
      "1000": 2635,
      "ai": 2636,
      "ric": 2637,
      "Ġaccept": 2638,
      "Ġfocus": 2639,
      "Ġfinished": 2640,
      "ered": 2641,
      "text": 2642,
      "Ġamb": 2643,
      "Ġswear": 2644,
      "fy": 2645,
      "Ġavo": 2646,
      "Ġdepe": 2647,
      "ove": 2648,
      "Ġmas": 2649,
      "norm": 2650,
      "ises": 2651,
      "Ġadvice": 2652,
      "Ġ>:(": 2653,
      "itive": 2654,
      "ergy": 2655,
      "hahaha": 2656,
      "like": 2657,
      "igger": 2658,
      "Êķãģ£": 2659,
      "Ġtic": 2660,
      "Ġwall": 2661,
      "Ġuns": 2662,
      "cle": 2663,
      "Ġdress": 2664,
      "Ġ17": 2665,
      "Ġboobs": 2666,
      "Ġtyping": 2667,
      "Ġkids": 2668,
      "21": 2669,
      "Ġreact": 2670,
      "45": 2671,
      "Ġdrugs": 2672,
      "Ġ:((": 2673,
      "tel": 2674,
      "26": 2675,
      "port": 2676,
      "ina": 2677,
      "Ġpot": 2678,
      "Ġaccess": 2679,
      "Ġemo": 2680,
      "Ġsystem": 2681,
      "Ġrepe": 2682,
      "Ġexpress": 2683,
      "Ġemp": 2684,
      "Ġcamera": 2685,
      "Ġsatur": 2686,
      "ager": 2687,
      "mi": 2688,
      "Ġwomen": 2689,
      "Ġrealise": 2690,
      "Ġmanage": 2691,
      "Ġsees": 2692,
      "ules": 2693,
      "iment": 2694,
      "ropri": 2695,
      "Ġboi": 2696,
      "Ġsoft": 2697,
      "Ġblood": 2698,
      "Ġonto": 2699,
      "Ġdest": 2700,
      "search": 2701,
      "Ġsmile": 2702,
      "Ġsecret": 2703,
      "Ġoffe": 2704,
      "Ġkitty": 2705,
      "]:": 2706,
      "Ġcode": 2707,
      "Ġview": 2708,
      "Ġprote": 2709,
      "ially": 2710,
      "cel": 2711,
      "Ġteen": 2712,
      "Ġcharac": 2713,
      "stairs": 2714,
      "uth": 2715,
      "Ġrid": 2716,
      "Ġwalking": 2717,
      "Ġmemor": 2718,
      "oof": 2719,
      "Ġoffer": 2720,
      "Ġquiet": 2721,
      "Ġletter": 2722,
      "Ġhimself": 2723,
      "work": 2724,
      "Ġbeg": 2725,
      "imin": 2726,
      "Ġvibes": 2727,
      "Ġcustom": 2728,
      "for": 2729,
      "Ġhol": 2730,
      "Ġabsol": 2731,
      "whel": 2732,
      "Ġopt": 2733,
      "ature": 2734,
      "Ġrespons": 2735,
      "Ġcommunication": 2736,
      "bu": 2737,
      "Ġoop": 2738,
      "Ġpub": 2739,
      "ane": 2740,
      "aten": 2741,
      "iod": 2742,
      "rib": 2743,
      "Ġbox": 2744,
      "Ġclear": 2745,
      "Ġclothes": 2746,
      "Ġenergy": 2747,
      "Ġgiven": 2748,
      "Ġrip": 2749,
      "ift": 2750,
      "Ġmot": 2751,
      "Ġoverwhel": 2752,
      "Ġbrit": 2753,
      "Ġyeahhh": 2754,
      "Ġfairly": 2755,
      "Ġremind": 2756,
      "Ġabsolute": 2757,
      "Ġrespect": 2758,
      "rs": 2759,
      "Ġbin": 2760,
      "Ġpie": 2761,
      "Ġwaht": 2762,
      "Ġfeelings": 2763,
      "ocked": 2764,
      "ability": 2765,
      "Ġhands": 2766,
      "Ġawh": 2767,
      "Ġwhos": 2768,
      "Ġreco": 2769,
      "Ġfinish": 2770,
      "Ġwelcome": 2771,
      "cal": 2772,
      "Ġworked": 2773,
      "ours": 2774,
      "oint": 2775,
      "pro": 2776,
      "Ġputting": 2777,
      "Ġest": 2778,
      "irty": 2779,
      "Ġretur": 2780,
      "Ġav": 2781,
      "Ġbts": 2782,
      "Ġrele": 2783,
      "Ġshouldnt": 2784,
      "Ġpoke": 2785,
      "Ġadmit": 2786,
      "Ġmedic": 2787,
      "Ġtruly": 2788,
      "Ġbeh": 2789,
      "Ġfully": 2790,
      "Ġchanged": 2791,
      "but": 2792,
      "yyy": 2793,
      "Ġsam": 2794,
      "astic": 2795,
      "Ġ24": 2796,
      "Ġphoto": 2797,
      "Ġâ": 2798,
      "Ġplanning": 2799,
      "Ġvibe": 2800,
      "ok": 2801,
      "Ġgre": 2802,
      "Ġelodies": 2803,
      "Ġrock": 2804,
      "Ġlarge": 2805,
      "Ġcomplain": 2806,
      "miss": 2807,
      "igin": 2808,
      "Ġperiod": 2809,
      "Ġforgetting": 2810,
      "Ġtre": 2811,
      "Ġterr": 2812,
      "Ġinformation": 2813,
      "Ġcover": 2814,
      "22": 2815,
      "Ġpriv": 2816,
      "Ġsaturday": 2817,
      "uc": 2818,
      "icken": 2819,
      "ctive": 2820,
      "Ġignore": 2821,
      "Ġparticularly": 2822,
      "ropriate": 2823,
      "ws": 2824,
      "Ġtim": 2825,
      "url": 2826,
      "Ġpetes": 2827,
      "aces": 2828,
      "Ġpipe": 2829,
      "Ġaud": 2830,
      "Ġmonday": 2831,
      "Ġ50": 2832,
      "inger": 2833,
      "Ġbeha": 2834,
      "ole": 2835,
      "Ġdrop": 2836,
      "Ġport": 2837,
      "Ġthinks": 2838,
      "Ġarr": 2839,
      "anger": 2840,
      "Ġdoctors": 2841,
      "Ġcontinue": 2842,
      "ze": 2843,
      "Ġbat": 2844,
      "Ġawful": 2845,
      "Ġhelps": 2846,
      "bi": 2847,
      "dam": 2848,
      "Ġdetail": 2849,
      "Ġtreat": 2850,
      "raph": 2851,
      "Ġimmedi": 2852,
      "Ġfinding": 2853,
      "Ġoption": 2854,
      "?'": 2855,
      "ky": 2856,
      "Ġir": 2857,
      "ator": 2858,
      "Ġremembering": 2859,
      "Ġconfir": 2860,
      "(\"": 2861,
      "Ġlady": 2862,
      "Ġpower": 2863,
      "Ġuncom": 2864,
      "Ġpract": 2865,
      "Ġtemp": 2866,
      "Ġkidding": 2867,
      "nel": 2868,
      "Ġmoved": 2869,
      "Ġbby": 2870,
      "Ġstrange": 2871,
      "ground": 2872,
      "Ġnoise": 2873,
      "Ġpack": 2874,
      "Ġinvol": 2875,
      "lr": 2876,
      "mg": 2877,
      "Ġsal": 2878,
      "Ġly": 2879,
      "Ġvag": 2880,
      "Ġorange": 2881,
      "Ġsomebody": 2882,
      "Ġ_": 2883,
      "Ġunderstanding": 2884,
      "Ġcloser": 2885,
      "Ġavoid": 2886,
      "Ġles": 2887,
      "Ġkpop": 2888,
      "Ġaint": 2889,
      "Ġwarn": 2890,
      "oring": 2891,
      "cou": 2892,
      "Ġunf": 2893,
      "Ġassa": 2894,
      "Ġjuice": 2895,
      "cture": 2896,
      "Ġtruth": 2897,
      "Ġproperty": 2898,
      "scribe": 2899,
      "Ġsle": 2900,
      "Ġmice": 2901,
      "Ġum": 2902,
      "Ġint": 2903,
      "Ġstre": 2904,
      "ade": 2905,
      "Ġcommunicate": 2906,
      "Ġbehind": 2907,
      "bal": 2908,
      "Ġtit": 2909,
      "Ġwooo": 2910,
      "Ġfeed": 2911,
      "Ġalive": 2912,
      "Ġdrug": 2913,
      "fd": 2914,
      "land": 2915,
      "amp": 2916,
      "Ġwaking": 2917,
      "Ġkeeps": 2918,
      "Ġsky": 2919,
      "28": 2920,
      "Ġlink": 2921,
      "Ġfucks": 2922,
      "arc": 2923,
      "Ġincredibly": 2924,
      "Ġ23": 2925,
      "Ġnormally": 2926,
      "oh": 2927,
      "Ġmegan": 2928,
      "Ġfast": 2929,
      "Ġexist": 2930,
      "Ġeventually": 2931,
      "rd": 2932,
      "Ġstopped": 2933,
      "Ġamerica": 2934,
      "ienc": 2935,
      "sex": 2936,
      "Ġfear": 2937,
      "pose": 2938,
      "Ġocc": 2939,
      "lfr": 2940,
      "Ġband": 2941,
      "Ġbott": 2942,
      "Ġcringe": 2943,
      "11": 2944,
      "itter": 2945,
      "Ġherself": 2946,
      "Ġpressure": 2947,
      "cing": 2948,
      "Ġorigin": 2949,
      "Ġboom": 2950,
      "Ġelectronic": 2951,
      "Ġfat": 2952,
      "Ġthurs": 2953,
      "ggg": 2954,
      "aging": 2955,
      "Ġconfusing": 2956,
      "Ġspecif": 2957,
      "oss": 2958,
      "Ġball": 2959,
      "Ġforce": 2960,
      "verse": 2961,
      "cra": 2962,
      "igned": 2963,
      "Ġcomputers": 2964,
      "Ġhotel": 2965,
      "Ġversion": 2966,
      "dio": 2967,
      "Ġlang": 2968,
      "Ġbeds": 2969,
      "Ġalco": 2970,
      "Ġadv": 2971,
      "Ġmach": 2972,
      "face": 2973,
      "Ġ&": 2974,
      "ney": 2975,
      "lfriend": 2976,
      "Ġwot": 2977,
      "vera": 2978,
      "Ġkore": 2979,
      "aaay": 2980,
      "Ġrelax": 2981,
      "usive": 2982,
      "Ġcost": 2983,
      "Ġmac": 2984,
      "ipped": 2985,
      "Ġforward": 2986,
      "Ġdistra": 2987,
      "âĢ¿": 2988,
      "Ġstars": 2989,
      "Ġterm": 2990,
      "mes": 2991,
      "Ġcir": 2992,
      "Ġprogra": 2993,
      "Ġweeke": 2994,
      "Ġnor": 2995,
      "leted": 2996,
      "Ġador": 2997,
      "Ġmissing": 2998,
      "Ġrev": 2999,
      "Ġmatter": 3000,
      "Ġseemed": 3001,
      "Ġrequest": 3002,
      "Ġfut": 3003,
      "Ġbene": 3004,
      "ows": 3005,
      "Ġdecent": 3006,
      "Ġdesk": 3007,
      "Ġpiper": 3008,
      "Ġeye": 3009,
      "Ġcy": 3010,
      "Ġfrust": 3011,
      "Ġraccoon": 3012,
      "Ġprice": 3013,
      "Ġmale": 3014,
      "Ġdeserve": 3015,
      "99": 3016,
      "Ġporn": 3017,
      "Ġhide": 3018,
      "icked": 3019,
      "Ġcurrent": 3020,
      "ior": 3021,
      "Ġurself": 3022,
      "Ġident": 3023,
      "cat": 3024,
      "Ġlistens": 3025,
      "Ġspecial": 3026,
      "Ġstudent": 3027,
      "Ġfill": 3028,
      "Ġtouches": 3029,
      "Ġsleepy": 3030,
      "usted": 3031,
      "Ġharsh": 3032,
      "Ġboys": 3033,
      "rap": 3034,
      "ived": 3035,
      "Ġlangu": 3036,
      "Ġalcohol": 3037,
      "sp": 3038,
      "Ġmate": 3039,
      "Ġstan": 3040,
      "Ġexpected": 3041,
      "Ġwerent": 3042,
      "Ġacross": 3043,
      "aling": 3044,
      "Ġcup": 3045,
      "Ġbadly": 3046,
      "Ġdecision": 3047,
      "Ġincluding": 3048,
      "ler": 3049,
      "vous": 3050,
      "Ġou": 3051,
      "Ġdepressed": 3052,
      "27": 3053,
      "la": 3054,
      "Ġsake": 3055,
      "token": 3056,
      "aths": 3057,
      "ses": 3058,
      "Ġris": 3059,
      "Ġtown": 3060,
      "Ġkevins": 3061,
      "Ġwhenever": 3062,
      "Ġstreaming": 3063,
      "ars": 3064,
      "nted": 3065,
      "Ġburn": 3066,
      "dj": 3067,
      "Ġep": 3068,
      "Ġroll": 3069,
      "iant": 3070,
      "Ġcompany": 3071,
      "Ġshitty": 3072,
      "Ġappoint": 3073,
      "Ġgirlfriend": 3074,
      "Ġtaste": 3075,
      "sha": 3076,
      "ume": 3077,
      "Ġeight": 3078,
      "Ġcuddle": 3079,
      "Ġwithin": 3080,
      "Ġmanaged": 3081,
      "Ġnote": 3082,
      "Ġanaly": 3083,
      "Ġlay": 3084,
      "Ġreasons": 3085,
      "Ġbrighton": 3086,
      "bl": 3087,
      "Ġson": 3088,
      "tence": 3089,
      "Ġdrum": 3090,
      "Ġdoctor": 3091,
      "Ġjud": 3092,
      "Ġsave": 3093,
      "Ġways": 3094,
      "Ġredd": 3095,
      "Ġskills": 3096,
      "Ġfurther": 3097,
      "Ġahhh": 3098,
      "Ġrules": 3099,
      "pital": 3100,
      "hael": 3101,
      "Ġbill": 3102,
      "Ġnone": 3103,
      "Ġdiag": 3104,
      "Ġwatched": 3105,
      "Ġrepeat": 3106,
      "Ġ{": 3107,
      "Ġtor": 3108,
      "Ġstat": 3109,
      "Ġalong": 3110,
      "Ġbull": 3111,
      "Ġgrind": 3112,
      "Ġphotos": 3113,
      "Ġoops": 3114,
      "Ġbehavi": 3115,
      "Ġcris": 3116,
      "Ġden": 3117,
      "Ġtherefore": 3118,
      "fc": 3119,
      "list": 3120,
      "Ġlolol": 3121,
      "Ġhelpful": 3122,
      "Ġdro": 3123,
      "Ġpet": 3124,
      "Ġpark": 3125,
      "))": 3126,
      "itten": 3127,
      "Ġohh": 3128,
      "Ġbritish": 3129,
      "bin": 3130,
      "Ġchicken": 3131,
      "Ġtty": 3132,
      "Ġdep": 3133,
      "Ġdrag": 3134,
      "Ġgenre": 3135,
      "Ġjk": 3136,
      "Ġofc": 3137,
      "Ġplans": 3138,
      "Ġfroggys": 3139,
      "Ġdifference": 3140,
      "wh": 3141,
      "ality": 3142,
      "Ġexis": 3143,
      "Ġurs": 3144,
      "Ġexperienc": 3145,
      "Ġexciting": 3146,
      "Ġilleg": 3147,
      "Ġmetal": 3148,
      "Ġembarr": 3149,
      "Ġabsolutely": 3150,
      "Ġfuture": 3151,
      "bab": 3152,
      "Ġyouuu": 3153,
      "Ġpoor": 3154,
      "Ġmichael": 3155,
      "Ġspecifically": 3156,
      "ster": 3157,
      "uce": 3158,
      "Ġmild": 3159,
      "ref": 3160,
      "Ġnood": 3161,
      "Ġattem": 3162,
      "Ġsorted": 3163,
      "Ġswitch": 3164,
      "cri": 3165,
      "Ġplaces": 3166,
      "Ġhears": 3167,
      "Ġlack": 3168,
      "Ġlearns": 3169,
      "Ġrunning": 3170,
      "den": 3171,
      "tain": 3172,
      "ught": 3173,
      "Ġimpress": 3174,
      "Ġpurpose": 3175,
      "Ġhyper": 3176,
      "Ġoptions": 3177,
      "Ġvoc": 3178,
      "Ġmc": 3179,
      "Ġfoot": 3180,
      "idence": 3181,
      "tedly": 3182,
      "Ġtryna": 3183,
      "Ġchannel": 3184,
      "Ġinfo": 3185,
      "Ġtraining": 3186,
      "Ġload": 3187,
      "pping": 3188,
      "Ġprint": 3189,
      "Ġdelive": 3190,
      "aks": 3191,
      "oin": 3192,
      "ints": 3193,
      "Ġbilly": 3194,
      "Ġsched": 3195,
      "Ġregard": 3196,
      "Ġwro": 3197,
      "Ġble": 3198,
      "Ġupd": 3199,
      "ave": 3200,
      "ton": 3201,
      "ye": 3202,
      "Ġdied": 3203,
      "Ġdirty": 3204,
      "Ġrece": 3205,
      "Ġknowing": 3206,
      "Ġunable": 3207,
      "Ġequals": 3208,
      "Ġnervous": 3209,
      "Ġbarely": 3210,
      "Ġ25": 3211,
      "Ġhurts": 3212,
      "Ġshops": 3213,
      "Ġweekend": 3214,
      "Ġreddit": 3215,
      "lp": 3216,
      "under": 3217,
      "Ġsunday": 3218,
      "ppy": 3219,
      "Ġaware": 3220,
      "Ġskin": 3221,
      "name": 3222,
      "Ġgender": 3223,
      "Ġhehehe": 3224,
      "Ġadorable": 3225,
      "sed": 3226,
      "Ġtune": 3227,
      "har": 3228,
      "idge": 3229,
      "Ġbottom": 3230,
      "Ġtro": 3231,
      "Ġbum": 3232,
      "Ġruin": 3233,
      "Ġmentioned": 3234,
      "Ġsurprised": 3235,
      "Ġttyl": 3236,
      "bing": 3237,
      "Ġbeat": 3238,
      "Ġabove": 3239,
      "Ġminute": 3240,
      "Ġconstantly": 3241,
      "Ġbb": 3242,
      "Ġdisg": 3243,
      "Ġbedroom": 3244,
      "velop": 3245,
      "Ġmachine": 3246,
      "38": 3247,
      "oned": 3248,
      "att": 3249,
      "Ġjess": 3250,
      "Ġpossibly": 3251,
      "Ġ>.>": 3252,
      "Ġrefe": 3253,
      "ionally": 3254,
      "Ġeats": 3255,
      "Ġdads": 3256,
      "Ġassum": 3257,
      "Ġmother": 3258,
      "Ġlying": 3259,
      "Ġkk": 3260,
      "Ġmoon": 3261,
      "vert": 3262,
      "Ġpicks": 3263,
      "Ġaccount": 3264,
      "Ġwrote": 3265,
      "Ġwashing": 3266,
      "play": 3267,
      "Ġstruggling": 3268,
      "Ġmur": 3269,
      "Ġcross": 3270,
      "Ġtax": 3271,
      "ested": 3272,
      "Ġtend": 3273,
      "Ġpenis": 3274,
      "chan": 3275,
      "ulation": 3276,
      "Ġjobs": 3277,
      "Ġ40": 3278,
      "essed": 3279,
      "gged": 3280,
      "ĠðŁĺ": 3281,
      "Ġbruh": 3282,
      "box": 3283,
      "ó¾Ĩ": 3284,
      "ution": 3285,
      "Ġdirectly": 3286,
      "Ġcake": 3287,
      "Ġconcer": 3288,
      "umblr": 3289,
      "29": 3290,
      "pre": 3291,
      "Ġtable": 3292,
      "Ġbow": 3293,
      "Ġquit": 3294,
      "Ġtues": 3295,
      "Ġdelete": 3296,
      "Ġcond": 3297,
      "Ġpaying": 3298,
      "Ġworries": 3299,
      "Ġcopy": 3300,
      "Ġprofess": 3301,
      "66": 3302,
      "Ġhom": 3303,
      "Ġsadly": 3304,
      "Ġdouble": 3305,
      "Ġlanguage": 3306,
      "pg": 3307,
      "Ġmaths": 3308,
      "Ġdying": 3309,
      "Ġhoney": 3310,
      "ides": 3311,
      "alous": 3312,
      "Ġneg": 3313,
      "Ġinterview": 3314,
      "Ġmode": 3315,
      "Ġbanned": 3316,
      "bt": 3317,
      "Ġmist": 3318,
      "ndent": 3319,
      "Ġuuu": 3320,
      "Ġheav": 3321,
      "Ġstick": 3322,
      "Ġsell": 3323,
      "Ġspot": 3324,
      "Ġeverywhere": 3325,
      "Ġdrive": 3326,
      "Ġholy": 3327,
      "Ġapologise": 3328,
      "Ġpokemon": 3329,
      "Ġslept": 3330,
      "Ġsand": 3331,
      "Ġserious": 3332,
      "ges": 3333,
      "ried": 3334,
      "uff": 3335,
      "Ġyee": 3336,
      "Ġshad": 3337,
      "ncy": 3338,
      "Ġfixed": 3339,
      "Ġfilm": 3340,
      "Ġrom": 3341,
      "Ġcent": 3342,
      "Ġpun": 3343,
      "Ġgurl": 3344,
      "ien": 3345,
      "Ġwritten": 3346,
      "Ġphones": 3347,
      "Ġembarass": 3348,
      "Ġmedication": 3349,
      "08": 3350,
      "Ġbreat": 3351,
      "uses": 3352,
      "Ġlose": 3353,
      "Ġsumm": 3354,
      "Ġseven": 3355,
      "Ġ22": 3356,
      "ledge": 3357,
      "Ġillegal": 3358,
      "48": 3359,
      "lent": 3360,
      "Ġchall": 3361,
      "Ġtrip": 3362,
      "Ġirl": 3363,
      "time": 3364,
      "Ġjoy": 3365,
      "Ġanim": 3366,
      "amine": 3367,
      "Ġfinal": 3368,
      "Ġrandomly": 3369,
      "Ġemotions": 3370,
      "57": 3371,
      "mpt": 3372,
      "Ġbecom": 3373,
      "Ġletting": 3374,
      "aime": 3375,
      "Ġjum": 3376,
      "Ġuseful": 3377,
      "Ġimposs": 3378,
      "Ġjealous": 3379,
      "Ġentirely": 3380,
      "âĢ¢ÌĢ": 3381,
      "Ġtrauma": 3382,
      "Ġimmediately": 3383,
      "Ġuncomfortable": 3384,
      "nit": 3385,
      "Ġate": 3386,
      "Ġbenef": 3387,
      "Ġsarc": 3388,
      "Ġpics": 3389,
      "Ġamerican": 3390,
      "Ġsize": 3391,
      "Ġlu": 3392,
      "Ġanywhere": 3393,
      "Ġbae": 3394,
      "Ġwearing": 3395,
      "gpt": 3396,
      "Ġsce": 3397,
      "ures": 3398,
      "Ġbegin": 3399,
      "):": 3400,
      "Ġsucc": 3401,
      "Ġapply": 3402,
      "Ġshame": 3403,
      "Ġremix": 3404,
      "Ġlowkey": 3405,
      "Ġimpossible": 3406,
      "Ġstal": 3407,
      "Ġwhyyy": 3408,
      "Ġimpro": 3409,
      "Ġglass": 3410,
      "Ġdepression": 3411,
      "Ġloser": 3412,
      "Ġprivate": 3413,
      "craft": 3414,
      "47": 3415,
      "tep": 3416,
      "Ġaren": 3417,
      "ifying": 3418,
      "Ġhelped": 3419,
      "Ġbabies": 3420,
      "ograph": 3421,
      "Ġinde": 3422,
      "ware": 3423,
      "Ġexcuse": 3424,
      "Ġphysical": 3425,
      "âĢ¢Ìģ": 3426,
      "gf": 3427,
      "Ġled": 3428,
      "Ġjour": 3429,
      "usting": 3430,
      "Ġunivers": 3431,
      "ya": 3432,
      "Ġnoice": 3433,
      "ctions": 3434,
      "Ġcutie": 3435,
      "of": 3436,
      "Ġfish": 3437,
      "Ġcope": 3438,
      "male": 3439,
      "Ġobject": 3440,
      "Ġreturn": 3441,
      "ights": 3442,
      "Ġbuilt": 3443,
      "Ġjelly": 3444,
      "nb": 3445,
      "Ġirr": 3446,
      "Ġyeee": 3447,
      "Ġnine": 3448,
      "Ġut": 3449,
      "Ġimage": 3450,
      "Ġconvo": 3451,
      "Ġsignific": 3452,
      "Ġthursday": 3453,
      "aff": 3454,
      "Ġbound": 3455,
      "Ġhadn": 3456,
      "Ġappear": 3457,
      "phone": 3458,
      "Ġtf": 3459,
      "orted": 3460,
      "Ġreach": 3461,
      "Ġanime": 3462,
      "haps": 3463,
      "tems": 3464,
      "Ġsho": 3465,
      "Ġchips": 3466,
      "Ġscr": 3467,
      "ires": 3468,
      "Ġtracks": 3469,
      "Ġaces": 3470,
      "Ġhumans": 3471,
      "tered": 3472,
      "ram": 3473,
      "Ġmax": 3474,
      "Ġgran": 3475,
      "Ġcleaning": 3476,
      "iculous": 3477,
      "ults": 3478,
      "Ġassist": 3479,
      "Ġstressful": 3480,
      "Ġfigured": 3481,
      "Ġvisit": 3482,
      "Ġsou": 3483,
      "Ġsearch": 3484,
      "Ġkeyboard": 3485,
      "Ġquickly": 3486,
      "back": 3487,
      "Ġgar": 3488,
      "Ġends": 3489,
      "Ġperform": 3490,
      "Ġpill": 3491,
      "Ġcontext": 3492,
      "Ġchildren": 3493,
      "Ġdepends": 3494,
      "Ġrice": 3495,
      "Ġdeleted": 3496,
      "ulance": 3497,
      "Ġteam": 3498,
      "Ġembarrass": 3499,
      "Ġded": 3500,
      "usion": 3501,
      "Ġthre": 3502,
      "Ġstab": 3503,
      "..?": 3504,
      "Ġens": 3505,
      "dis": 3506,
      "Ġbang": 3507,
      "Ġinit": 3508,
      "Ġkay": 3509,
      "Ġshouting": 3510,
      "cher": 3511,
      "ration": 3512,
      "vant": 3513,
      "vices": 3514,
      "Ġahh": 3515,
      "Ġdanger": 3516,
      "urt": 3517,
      "Ġyeh": 3518,
      "Ġdrama": 3519,
      "Ġrac": 3520,
      "Ġhiding": 3521,
      "Ġlaughing": 3522,
      "Ġbon": 3523,
      "iding": 3524,
      "35": 3525,
      "Ġpage": 3526,
      "Ġpush": 3527,
      "ased": 3528,
      "Ġabuse": 3529,
      "Ġabusive": 3530,
      "ged": 3531,
      "Ġsuis": 3532,
      "Ġexha": 3533,
      "Ġcomfortable": 3534,
      "Ġtex": 3535,
      "Ġchin": 3536,
      "Ġcheap": 3537,
      "Ġhorny": 3538,
      "now": 3539,
      "Ġbee": 3540,
      "idered": 3541,
      "dding": 3542,
      "Ġjoking": 3543,
      "Ġtwitter": 3544,
      "shit": 3545,
      "Ġstaying": 3546,
      "Ġinstru": 3547,
      "du": 3548,
      "Ġpus": 3549,
      "Ġhos": 3550,
      "Ġchance": 3551,
      "Ġusual": 3552,
      "Ġwaaa": 3553,
      "Ġallows": 3554,
      "Ġowo": 3555,
      "mission": 3556,
      "Ġfunction": 3557,
      "Ġlives": 3558,
      "Ġeggs": 3559,
      "Ġwoods": 3560,
      "Ġcountry": 3561,
      "Ġsmell": 3562,
      "Ġridiculous": 3563,
      "Ġrecogn": 3564,
      "Ġagre": 3565,
      "quen": 3566,
      "Ġcounse": 3567,
      "Ġseconds": 3568,
      "ml": 3569,
      "Ġicon": 3570,
      "Ġbigg": 3571,
      "Ġfra": 3572,
      "oms": 3573,
      "Ġimo": 3574,
      "Ġrhy": 3575,
      "Ġfuc": 3576,
      "Ġactiv": 3577,
      "Ġperhaps": 3578,
      "Ġbreaks": 3579,
      "Ġmistake": 3580,
      "just": 3581,
      "Ġwedn": 3582,
      "Ġbother": 3583,
      "Ġbathroom": 3584,
      "berry": 3585,
      "Ġcharacter": 3586,
      "Ġappointment": 3587,
      "Ġwednes": 3588,
      "36": 3589,
      "46": 3590,
      "here": 3591,
      "Ġmut": 3592,
      "Ġmer": 3593,
      "olate": 3594,
      "bered": 3595,
      "Ġapart": 3596,
      "Ġsilent": 3597,
      "Ġirrit": 3598,
      "tre": 3599,
      "Ġmov": 3600,
      "Ġlead": 3601,
      "Ġartic": 3602,
      "Ġinterest": 3603,
      "Ġvideos": 3604,
      "!',": 3605,
      "Ġoppos": 3606,
      "39": 3607,
      "Ġmeee": 3608,
      "Ġfancy": 3609,
      "Ġnaked": 3610,
      "ato": 3611,
      "Ġbrb": 3612,
      "Ġ90": 3613,
      "ipping": 3614,
      "Ġsuggesting": 3615,
      "form": 3616,
      "ource": 3617,
      "dered": 3618,
      "fet": 3619,
      "Ġitself": 3620,
      "Ġchatgpt": 3621,
      "Ġobvious": 3622,
      "Ġwondering": 3623,
      "Ġsilence": 3624,
      "Ġschedule": 3625,
      "Ġyaaay": 3626,
      "Ġenter": 3627,
      "Ġtough": 3628,
      "Ġappropriate": 3629,
      "fair": 3630,
      "Ġshowing": 3631,
      "Ġexperiment": 3632,
      "Ġdata": 3633,
      "Ġvagina": 3634,
      "hha": 3635,
      "ister": 3636,
      "Ġstic": 3637,
      "Ġchoo": 3638,
      "Ġsimple": 3639,
      "fortun": 3640,
      "Ġpublic": 3641,
      "cess": 3642,
      "fw": 3643,
      "Ġtoi": 3644,
      "Ġpeen": 3645,
      "Ġcance": 3646,
      "Ġpretend": 3647,
      "ighten": 3648,
      "ances": 3649,
      "Ġmixed": 3650,
      "Ġears": 3651,
      "Ġbank": 3652,
      "fun": 3653,
      "pes": 3654,
      "Ġange": 3655,
      "Ġwank": 3656,
      "Ġpaper": 3657,
      "Ġmarry": 3658,
      "Ġgrand": 3659,
      "Ġverbal": 3660,
      "58": 3661,
      "rics": 3662,
      "Ġnames": 3663,
      "Ġlege": 3664,
      "Ġshouldn": 3665,
      "Ġteach": 3666,
      "Ġsus": 3667,
      "Ġshy": 3668,
      "Ġshirt": 3669,
      "Ġbutts": 3670,
      "iling": 3671,
      "Ġadam": 3672,
      "Ġoffended": 3673,
      "Ġoriginal": 3674,
      "vid": 3675,
      "||": 3676,
      "stats": 3677,
      "Ġdeg": 3678,
      "Ġcomfy": 3679,
      "Ġprescri": 3680,
      "Ġgrim": 3681,
      "Ġadded": 3682,
      "Ġminecraft": 3683,
      "Ġessent": 3684,
      "ging": 3685,
      "kj": 3686,
      "su": 3687,
      "Ġtrigger": 3688,
      "Ġcalls": 3689,
      "Ġtravel": 3690,
      "ao": 3691,
      "gl": 3692,
      "Ġó¾": 3693,
      "ified": 3694,
      "Ġconsidered": 3695,
      "Ġtickets": 3696,
      "Ġholiday": 3697,
      "Ġagg": 3698,
      "Ġinten": 3699,
      "icky": 3700,
      "Ġcoll": 3701,
      "Ġjoh": 3702,
      "Ġremem": 3703,
      "Ġsituations": 3704,
      "that": 3705,
      "yes": 3706,
      "Ġunfortun": 3707,
      "Ġdraws": 3708,
      "Ġbreaking": 3709,
      "Ġindepe": 3710,
      "cting": 3711,
      "Ġapplic": 3712,
      "Ġregret": 3713,
      "Ġtasks": 3714,
      "Ġau": 3715,
      "vere": 3716,
      "Ġpure": 3717,
      "Ġvio": 3718,
      "Ġtrash": 3719,
      "Ġliteral": 3720,
      "Ġinsane": 3721,
      "Ġassume": 3722,
      "love": 3723,
      "well": 3724,
      "Ġedit": 3725,
      "Ġsksksks": 3726,
      "uino": 3727,
      "49": 3728,
      "ull": 3729,
      "Ġdry": 3730,
      "ery": 3731,
      "Ġhist": 3732,
      "Ġ>.<": 3733,
      "01": 3734,
      "va": 3735,
      "Ġomggg": 3736,
      "Ġtalked": 3737,
      "ploy": 3738,
      "Ġolder": 3739,
      "Ġchrist": 3740,
      "Ġnegative": 3741,
      "Ġopposite": 3742,
      "Ġtatt": 3743,
      "Ġcum": 3744,
      "let": 3745,
      "ley": 3746,
      "Ġjimin": 3747,
      "Ġadvent": 3748,
      "Ġharder": 3749,
      "Ġsetting": 3750,
      "Ġtechnology": 3751,
      "Ġoverwhelmed": 3752,
      "Ġassault": 3753,
      "Ġdiagn": 3754,
      "ium": 3755,
      "iest": 3756,
      "âľ": 3757,
      "Ġprog": 3758,
      "Ġveux": 3759,
      "Ġcla": 3760,
      "Ġepis": 3761,
      "aries": 3762,
      "Ġlock": 3763,
      "Ġfrog": 3764,
      "Ġremembered": 3765,
      "37": 3766,
      "acc": 3767,
      "Ġdare": 3768,
      "Ġnet": 3769,
      "tery": 3770,
      "Ġsuit": 3771,
      "Ġcaused": 3772,
      "Ġfreaking": 3773,
      "Ġpromise": 3774,
      "cr": 3775,
      "Ġstorm": 3776,
      "Ġconvin": 3777,
      "Ġshall": 3778,
      "Ġchinese": 3779,
      "à·": 3780,
      "Ġtha": 3781,
      "atic": 3782,
      "Ġjam": 3783,
      "Ġoffic": 3784,
      "aaa": 3785,
      "Ġsolid": 3786,
      "di": 3787,
      "val": 3788,
      "Ġalex": 3789,
      "ona": 3790,
      "utm": 3791,
      "Ġstor": 3792,
      "Ġmanip": 3793,
      "Ġsharing": 3794,
      "Ġslowly": 3795,
      "Ġmeat": 3796,
      "Ġability": 3797,
      "though": 3798,
      "cious": 3799,
      "Ġground": 3800,
      "Ġinclude": 3801,
      "Ġunfortunately": 3802,
      "Ġhous": 3803,
      "Ġranting": 3804,
      "Ġtattoo": 3805,
      "bby": 3806,
      "dit": 3807,
      "ĠÊķãģ£": 3808,
      "Ġidfk": 3809,
      "Ġchoc": 3810,
      "Ġcharge": 3811,
      "Ġprovide": 3812,
      "Ġdelivery": 3813,
      "llm": 3814,
      "ank": 3815,
      "aming": 3816,
      "Ġsauce": 3817,
      "Ġdevelop": 3818,
      "phones": 3819,
      "Ġignoring": 3820,
      "Ġprogress": 3821,
      "bed": 3822,
      "kes": 3823,
      "Ġshowed": 3824,
      "Ġ80": 3825,
      "Ġcommon": 3826,
      "iction": 3827,
      "Ġcunt": 3828,
      "Ġphysically": 3829,
      "Ġmemory": 3830,
      "Ġattempt": 3831,
      "Ġhospital": 3832,
      "Ġtid": 3833,
      "Ġpin": 3834,
      "asm": 3835,
      "Ġjs": 3836,
      "Ġ21": 3837,
      "Ġcatch": 3838,
      "Ġlights": 3839,
      "Ġbuilding": 3840,
      "Ġjudge": 3841,
      "Ġprescription": 3842,
      "ingly": 3843,
      "Ġshou": 3844,
      "Ġvar": 3845,
      "Ġblame": 3846,
      "Ġclick": 3847,
      "Ġmais": 3848,
      "Ġsteal": 3849,
      "Ġtopic": 3850,
      "Ġreplying": 3851,
      "Ġfollowing": 3852,
      "Ġchanging": 3853,
      "Ġreplied": 3854,
      "Ġambulance": 3855,
      "fety": 3856,
      "ural": 3857,
      "Ġuhhh": 3858,
      "Ġsounded": 3859,
      "Ġadult": 3860,
      "Ġboat": 3861,
      "Ġnews": 3862,
      "Ġmelt": 3863,
      "Ġcap": 3864,
      "ables": 3865,
      "Ġextre": 3866,
      "Ġhoping": 3867,
      "Ġdownstairs": 3868,
      "Ġunderstood": 3869,
      "Ġaaagh": 3870,
      "Ġenjoying": 3871,
      "Ġlyrics": 3872,
      "Ġtuesday": 3873,
      "Ġaggress": 3874,
      "59": 3875,
      "hop": 3876,
      "Ġnhs": 3877,
      "Ġmeth": 3878,
      "Ġjfc": 3879,
      "Ġresearch": 3880,
      "Ġuniversity": 3881,
      "sss": 3882,
      "Ġenv": 3883,
      "Ġmedical": 3884,
      "Ġwindows": 3885,
      "underst": 3886,
      "Ġsandw": 3887,
      "Ġwednesday": 3888,
      "uit": 3889,
      "Ġcult": 3890,
      "Ġlou": 3891,
      "Ġbear": 3892,
      "Ġdose": 3893,
      "gent": 3894,
      "Ġvoid": 3895,
      "Ġprior": 3896,
      "activ": 3897,
      "Ġsympt": 3898,
      "Ġaudio": 3899,
      "lol": 3900,
      "Ġmr": 3901,
      "Ġdom": 3902,
      "ano": 3903,
      "Ġkicked": 3904,
      "Ġacting": 3905,
      "Ġvocals": 3906,
      "omg": 3907,
      "Ġwet": 3908,
      "rated": 3909,
      "Ġlmaoo": 3910,
      "Ġpresent": 3911,
      "Ġservice": 3912,
      "Ġmarried": 3913,
      "Ġchalleng": 3914,
      "core": 3915,
      "gb": 3916,
      "icy": 3917,
      "str": 3918,
      "ational": 3919,
      "ibility": 3920,
      "Ġclar": 3921,
      "Ġclub": 3922,
      "Ġboob": 3923,
      "Ġreasonable": 3924,
      "ÊĺÊĶãģ£": 3925,
      "uro": 3926,
      "renc": 3927,
      "Ġnat": 3928,
      "Ġpunch": 3929,
      "Ġknowledge": 3930,
      "Ġ28": 3931,
      "Ġservices": 3932,
      "Ġposted": 3933,
      "charis": 3934,
      "Ġeffects": 3935,
      "Ġice": 3936,
      "Ġtoys": 3937,
      "ield": 3938,
      "Ġking": 3939,
      "Ġsorta": 3940,
      "Ġprev": 3941,
      "Ġsimp": 3942,
      "Ġmodule": 3943,
      "Ġrefer": 3944,
      "Ġevil": 3945,
      "Ġmouth": 3946,
      "icks": 3947,
      "Ġattra": 3948,
      "ots": 3949,
      "Ġencou": 3950,
      "Ġfemale": 3951,
      "osis": 3952,
      "ships": 3953,
      "els": 3954,
      "Ġvisual": 3955,
      "Ġargument": 3956,
      "Ġrout": 3957,
      "Ġsafety": 3958,
      "ilities": 3959,
      "Ġpermission": 3960,
      "Ġrelated": 3961,
      "baby": 3962,
      "jpg": 3963,
      "Ġsan": 3964,
      "Ġuhh": 3965,
      "Ġtrou": 3966,
      "Ġveget": 3967,
      "Ġshows": 3968,
      "Ġtenant": 3969,
      "Ġborn": 3970,
      "Ġhanging": 3971,
      "Ġmildly": 3972,
      "iry": 3973,
      "Ġbase": 3974,
      "isting": 3975,
      "Ġpink": 3976,
      "Ġhilar": 3977,
      "Ġcausing": 3978,
      "Ġunfair": 3979,
      "Ġeasily": 3980,
      "07": 3981,
      "ony": 3982,
      "Ġwedding": 3983,
      "Ġbusiness": 3984,
      "::": 3985,
      "Ġintera": 3986,
      "ids": 3987,
      "raid": 3988,
      "Ġang": 3989,
      "Ġneigh": 3990,
      "ils": 3991,
      "ggy": 3992,
      "Ġunlike": 3993,
      "Ġcustomer": 3994,
      "Ġrevision": 3995,
      "cord": 3996,
      "dr": 3997,
      "ians": 3998,
      "llo": 3999,
      "Ġnotes": 4000,
      "Ġplaylist": 4001,
      "Ġcomplic": 4002,
      "Ġlegs": 4003,
      "Ġgoddam": 4004,
      "Ġexplaining": 4005,
      "Ġshouted": 4006,
      "Ġidc": 4007,
      "Ġvolu": 4008,
      "Ġterms": 4009,
      "Ġcookies": 4010,
      "Ġexample": 4011,
      "Ġdetails": 4012,
      "Ġmurder": 4013,
      "af": 4014,
      "Ġil": 4015,
      "test": 4016,
      "Ġinput": 4017,
      "Ġlecture": 4018,
      "fff": 4019,
      "Ġboss": 4020,
      "Ġparts": 4021,
      "Ġrespond": 4022,
      "Ġholding": 4023,
      "Ġdisgusting": 4024,
      "67": 4025,
      "Ġsi": 4026,
      "very": 4027,
      "Ġginger": 4028,
      "Ġjus": 4029,
      "Ġstation": 4030,
      "Ġfeet": 4031,
      "Ġreality": 4032,
      "Ġreaction": 4033,
      "lit": 4034,
      "Ġhat": 4035,
      "Ġmeal": 4036,
      "ette": 4037,
      "men": 4038,
      "estyle": 4039,
      "Ġmarks": 4040,
      "hetic": 4041,
      "Ġempty": 4042,
      "Ġterrible": 4043,
      "Ġhistory": 4044,
      "Ġneighb": 4045,
      "Ġ@": 4046,
      "isions": 4047,
      "Ġordered": 4048,
      "this": 4049,
      "Ġpotent": 4050,
      "Ġrepea": 4051,
      "boom": 4052,
      "Ġexplained": 4053,
      "Ġindependent": 4054,
      "ĠÊķãģ£Êĺ": 4055,
      "05": 4056,
      "Ġnom": 4057,
      "Ġhig": 4058,
      "Ġphr": 4059,
      "Ġprin": 4060,
      "Ġrole": 4061,
      "hahah": 4062,
      "Ġcod": 4063,
      "vered": 4064,
      "Ġnick": 4065,
      "Ġwhis": 4066,
      "Ġmoi": 4067,
      "iber": 4068,
      "Ġstarts": 4069,
      "Ġmisunderst": 4070,
      "Ġrecording": 4071,
      "Ġmagic": 4072,
      "Ġunsure": 4073,
      "ases": 4074,
      "Ġrush": 4075,
      "Ġsepar": 4076,
      "ives": 4077,
      "ummy": 4078,
      "Ġoml": 4079,
      "Ġbuying": 4080,
      "Ġadding": 4081,
      "Ġimagin": 4082,
      "sorry": 4083,
      "Ġbehaviour": 4084,
      "Ġdig": 4085,
      "Ġdating": 4086,
      "Ġhoo": 4087,
      "Ġstudy": 4088,
      "Ġblind": 4089,
      "ized": 4090,
      "oom": 4091,
      "sing": 4092,
      "Ġsea": 4093,
      "Ġeveryones": 4094,
      "Ġharrow": 4095,
      "ussy": 4096,
      "Ġchocolate": 4097,
      "88": 4098,
      "Ġer": 4099,
      "Ġitll": 4100,
      "illed": 4101,
      "Ġstore": 4102,
      "Ġsoc": 4103,
      "Ġanger": 4104,
      "Ġmua": 4105,
      "Ġnap": 4106,
      "cco": 4107,
      "Ġshopping": 4108,
      "Ġchairs": 4109,
      "Ġcertainly": 4110,
      "Ġinvolved": 4111,
      "Ġdegree": 4112,
      "can": 4113,
      "lines": 4114,
      "Ġave": 4115,
      "Ġbes": 4116,
      "Ġtooo": 4117,
      "Ġarea": 4118,
      "neur": 4119,
      "Ġpositive": 4120,
      "Ġ.": 4121,
      "rest": 4122,
      "Ġcream": 4123,
      "Ġforced": 4124,
      "iron": 4125,
      "cape": 4126,
      "Ġradio": 4127,
      "Ġadvert": 4128,
      "Ġskull": 4129,
      "Ġpotato": 4130,
      "Ġscene": 4131,
      "Ġhilarious": 4132,
      "44": 4133,
      "Ġreee": 4134,
      "Ġkink": 4135,
      "Ġkeys": 4136,
      "Ġpregn": 4137,
      "Ġnahhh": 4138,
      "Ġafraid": 4139,
      "Ġscam": 4140,
      "Ġhole": 4141,
      "Ġsentence": 4142,
      "Ġmidnight": 4143,
      "Ġdistracted": 4144,
      "bum": 4145,
      "Ġug": 4146,
      "Ġjul": 4147,
      "Ġdire": 4148,
      "Ġhomeless": 4149,
      "Ġstatus": 4150,
      "Ġdragon": 4151,
      "Ġlegend": 4152,
      "Ġextreme": 4153,
      "mod": 4154,
      "Ġtun": 4155,
      "ana": 4156,
      "output": 4157,
      "Ġfailed": 4158,
      "Ġcolours": 4159,
      "Ġoccas": 4160,
      "Ġarticle": 4161,
      "dk": 4162,
      "Ġlab": 4163,
      "icted": 4164,
      "Ġks": 4165,
      "antic": 4166,
      "Ġproof": 4167,
      "Ġbringing": 4168,
      "Ġspamming": 4169,
      "Ġacceptable": 4170,
      "band": 4171,
      "Ġheat": 4172,
      "Ġmega": 4173,
      "rose": 4174,
      "Ġbackground": 4175,
      "Ġchecking": 4176,
      "Ġflow": 4177,
      "Ġbasic": 4178,
      "Ġpointless": 4179,
      "Ġstruggle": 4180,
      "Ġstreet": 4181,
      "Ġbullshit": 4182,
      "sr": 4183,
      "Ġmal": 4184,
      "Ġton": 4185,
      "Ġprop": 4186,
      "Ġpersonally": 4187,
      "Ġtes": 4188,
      "Ġdy": 4189,
      "Ġeaten": 4190,
      "Ġstaff": 4191,
      "Ġupstairs": 4192,
      "Ġsav": 4193,
      "Ġdevice": 4194,
      "Ġhappiness": 4195,
      "Ġcoff": 4196,
      "Ġdecisions": 4197,
      "Ġlevels": 4198,
      "32": 4199,
      "87": 4200
    },
    "merges": [
      [
        "Ġ",
        "t"
      ],
      [
        "Ġ",
        "i"
      ],
      [
        "Ġ",
        "a"
      ],
      [
        "Ġ",
        "w"
      ],
      [
        "i",
        "n"
      ],
      [
        "h",
        "e"
      ],
      [
        "Ġ",
        "s"
      ],
      [
        "o",
        "u"
      ],
      [
        "h",
        "a"
      ],
      [
        "Ġ",
        "b"
      ],
      [
        "Ġ",
        "m"
      ],
      [
        "in",
        "g"
      ],
      [
        "r",
        "e"
      ],
      [
        "Ġ",
        "c"
      ],
      [
        "Ġ",
        "l"
      ],
      [
        "Ġt",
        "he"
      ],
      [
        "Ġ",
        "o"
      ],
      [
        "Ġ",
        "d"
      ],
      [
        "Ġ",
        "f"
      ],
      [
        "Ġ",
        "y"
      ],
      [
        "n",
        "d"
      ],
      [
        "v",
        "e"
      ],
      [
        "Ġt",
        "o"
      ],
      [
        "l",
        "l"
      ],
      [
        "i",
        "s"
      ],
      [
        "Ġ",
        "n"
      ],
      [
        "e",
        "e"
      ],
      [
        "Ġ",
        "p"
      ],
      [
        "o",
        "n"
      ],
      [
        "Ġy",
        "ou"
      ],
      [
        "a",
        "n"
      ],
      [
        "Ġ",
        "e"
      ],
      [
        "t",
        "e"
      ],
      [
        "o",
        "r"
      ],
      [
        "Ġ",
        "g"
      ],
      [
        "k",
        "e"
      ],
      [
        "Ġi",
        "t"
      ],
      [
        "Ġa",
        "nd"
      ],
      [
        "u",
        "s"
      ],
      [
        "Ġ",
        "ha"
      ],
      [
        "ha",
        "t"
      ],
      [
        "e",
        "s"
      ],
      [
        "Ġ",
        "u"
      ],
      [
        "i",
        "t"
      ],
      [
        "a",
        "s"
      ],
      [
        "Ġ",
        "he"
      ],
      [
        "Ġ",
        "h"
      ],
      [
        "o",
        "m"
      ],
      [
        "i",
        "c"
      ],
      [
        "Ġn",
        "o"
      ],
      [
        "Ġt",
        "h"
      ],
      [
        "Ġb",
        "e"
      ],
      [
        "u",
        "t"
      ],
      [
        "Ġm",
        "e"
      ],
      [
        "a",
        "y"
      ],
      [
        "a",
        "r"
      ],
      [
        "o",
        "o"
      ],
      [
        "Ġi",
        "n"
      ],
      [
        "e",
        "r"
      ],
      [
        "Ġt",
        "hat"
      ],
      [
        "Ġi",
        "s"
      ],
      [
        "l",
        "d"
      ],
      [
        "l",
        "e"
      ],
      [
        "Ġb",
        "ut"
      ],
      [
        "Ġw",
        "e"
      ],
      [
        "i",
        "e"
      ],
      [
        "o",
        "w"
      ],
      [
        "n",
        "t"
      ],
      [
        "Ġm",
        "y"
      ],
      [
        "Ġl",
        "i"
      ],
      [
        "a",
        "t"
      ],
      [
        "l",
        "y"
      ],
      [
        "Ġ",
        "j"
      ],
      [
        "Ġo",
        "f"
      ],
      [
        "ou",
        "ld"
      ],
      [
        "i",
        "ll"
      ],
      [
        "Ġ",
        "re"
      ],
      [
        "us",
        "t"
      ],
      [
        "Ġc",
        "ha"
      ],
      [
        "i",
        "d"
      ],
      [
        "Ġd",
        "o"
      ],
      [
        "Ġo",
        "n"
      ],
      [
        "g",
        "h"
      ],
      [
        "o",
        "d"
      ],
      [
        "e",
        "t"
      ],
      [
        "e",
        "d"
      ],
      [
        "Ġw",
        "as"
      ],
      [
        "Ġha",
        "ve"
      ],
      [
        "r",
        "is"
      ],
      [
        "r",
        "a"
      ],
      [
        "Ġs",
        "t"
      ],
      [
        "Ġl",
        "o"
      ],
      [
        "a",
        "l"
      ],
      [
        "Ġcha",
        "ris"
      ],
      [
        "Ġf",
        "or"
      ],
      [
        "Ġ",
        "k"
      ],
      [
        "Ġli",
        "ke"
      ],
      [
        "Ġi",
        "m"
      ],
      [
        "k",
        "ing"
      ],
      [
        "Ġno",
        "t"
      ],
      [
        "m",
        "e"
      ],
      [
        "ou",
        "t"
      ],
      [
        "ee",
        "n"
      ],
      [
        "Ġs",
        "o"
      ],
      [
        "a",
        "ll"
      ],
      [
        "r",
        "o"
      ],
      [
        "ee",
        "d"
      ],
      [
        "Ġw",
        "ill"
      ],
      [
        "Ġe",
        "l"
      ],
      [
        "r",
        "y"
      ],
      [
        "an",
        "t"
      ],
      [
        "Ġa",
        "n"
      ],
      [
        "c",
        "h"
      ],
      [
        "Ġj",
        "ust"
      ],
      [
        "i",
        "r"
      ],
      [
        "a",
        "d"
      ],
      [
        "Ġb",
        "een"
      ],
      [
        "Ġel",
        "od"
      ],
      [
        "Ġthe",
        "y"
      ],
      [
        "Ġelod",
        "ie"
      ],
      [
        "s",
        "e"
      ],
      [
        "Ġw",
        "h"
      ],
      [
        "'",
        "s"
      ],
      [
        "Ġs",
        "h"
      ],
      [
        "Ġw",
        "hat"
      ],
      [
        "e",
        "a"
      ],
      [
        "gh",
        "t"
      ],
      [
        "Ġs",
        "he"
      ],
      [
        "Ġa",
        "t"
      ],
      [
        "all",
        "y"
      ],
      [
        "c",
        "e"
      ],
      [
        "c",
        "k"
      ],
      [
        "Ġc",
        "an"
      ],
      [
        "Ġth",
        "is"
      ],
      [
        "i",
        "on"
      ],
      [
        "c",
        "t"
      ],
      [
        "Ġf",
        "r"
      ],
      [
        "om",
        "e"
      ],
      [
        "te",
        "r"
      ],
      [
        "it",
        "h"
      ],
      [
        "Ġa",
        "re"
      ],
      [
        "o",
        "t"
      ],
      [
        "Ġw",
        "ith"
      ],
      [
        "Ġ",
        "ke"
      ],
      [
        "s",
        "t"
      ],
      [
        "v",
        "in"
      ],
      [
        "Ġd",
        "on"
      ],
      [
        "us",
        "e"
      ],
      [
        "Ġa",
        "b"
      ],
      [
        "Ġm",
        "o"
      ],
      [
        "Ġ",
        ":"
      ],
      [
        "Ġke",
        "vin"
      ],
      [
        "Ġa",
        "s"
      ],
      [
        "Ġe",
        "ve"
      ],
      [
        "o",
        "p"
      ],
      [
        "a",
        "ke"
      ],
      [
        "Ġit",
        "s"
      ],
      [
        "Ġa",
        "l"
      ],
      [
        "g",
        "e"
      ],
      [
        "Ġ",
        "r"
      ],
      [
        "Ġw",
        "ant"
      ],
      [
        "Ġu",
        "p"
      ],
      [
        "Ġ",
        "v"
      ],
      [
        "Ġs",
        "u"
      ],
      [
        ".",
        "."
      ],
      [
        "in",
        "k"
      ],
      [
        "te",
        "n"
      ],
      [
        "Ġyou",
        "r"
      ],
      [
        "Ġc",
        "a"
      ],
      [
        "Ġw",
        "or"
      ],
      [
        "i",
        "ght"
      ],
      [
        "p",
        "p"
      ],
      [
        "Ġi",
        "f"
      ],
      [
        "ve",
        "r"
      ],
      [
        "i",
        "m"
      ],
      [
        "Ġk",
        "n"
      ],
      [
        "Ġab",
        "out"
      ],
      [
        "'",
        "t"
      ],
      [
        "e",
        "n"
      ],
      [
        "Ġn",
        "eed"
      ],
      [
        "Ġg",
        "et"
      ],
      [
        "oo",
        "d"
      ],
      [
        "ic",
        "e"
      ],
      [
        "Ġfr",
        "om"
      ],
      [
        "Ġlo",
        "ve"
      ],
      [
        "Ġhe",
        "r"
      ],
      [
        "a",
        "b"
      ],
      [
        "Ġw",
        "ould"
      ],
      [
        "ou",
        "r"
      ],
      [
        "Ġw",
        "he"
      ],
      [
        "Ġkn",
        "ow"
      ],
      [
        "Ġha",
        "d"
      ],
      [
        "Ġo",
        "r"
      ],
      [
        "a",
        "m"
      ],
      [
        "Ġl",
        "is"
      ],
      [
        "te",
        "d"
      ],
      [
        "u",
        "r"
      ],
      [
        "Ġl",
        "oo"
      ],
      [
        "es",
        "s"
      ],
      [
        "Ġf",
        "ee"
      ],
      [
        "Ġlis",
        "ten"
      ],
      [
        "Ġs",
        "a"
      ],
      [
        "Ġl",
        "e"
      ],
      [
        "Ġc",
        "ould"
      ],
      [
        "Ġg",
        "o"
      ],
      [
        "Ġfee",
        "l"
      ],
      [
        "Ġw",
        "eed"
      ],
      [
        "Ġsh",
        "ould"
      ],
      [
        "Ġd",
        "id"
      ],
      [
        "in",
        "d"
      ],
      [
        "Ġa",
        "m"
      ],
      [
        "Ġwh",
        "y"
      ],
      [
        "u",
        "n"
      ],
      [
        "on",
        "e"
      ],
      [
        "Ġa",
        "ll"
      ],
      [
        "Ġp",
        "l"
      ],
      [
        "Ġi",
        "d"
      ],
      [
        "Ġs",
        "e"
      ],
      [
        "he",
        "r"
      ],
      [
        "Ġd",
        "e"
      ],
      [
        "t",
        "h"
      ],
      [
        "Ġe",
        "x"
      ],
      [
        "c",
        "a"
      ],
      [
        "Ġno",
        "w"
      ],
      [
        "'",
        "m"
      ],
      [
        "n",
        "a"
      ],
      [
        "Ġs",
        "ee"
      ],
      [
        "i",
        "ve"
      ],
      [
        "v",
        "ing"
      ],
      [
        "f",
        "f"
      ],
      [
        "Ġp",
        "ro"
      ],
      [
        "Ġwe",
        "re"
      ],
      [
        "Ġth",
        "ink"
      ],
      [
        "Ġ",
        "x"
      ],
      [
        "Ġdon",
        "t"
      ],
      [
        "Ġbut",
        "t"
      ],
      [
        "Ġh",
        "ow"
      ],
      [
        "k",
        "s"
      ],
      [
        "Ġwhe",
        "n"
      ],
      [
        "Ġn",
        "e"
      ],
      [
        "u",
        "m"
      ],
      [
        "re",
        "d"
      ],
      [
        "Ġ",
        "1"
      ],
      [
        "Ġs",
        "ome"
      ],
      [
        "Ġ",
        "out"
      ],
      [
        "Ġlo",
        "l"
      ],
      [
        "Ġo",
        "h"
      ],
      [
        "Ġo",
        "k"
      ],
      [
        "Ġan",
        "y"
      ],
      [
        "Ġ",
        "'"
      ],
      [
        "ea",
        "h"
      ],
      [
        "Ġto",
        "o"
      ],
      [
        "Ġc",
        "om"
      ],
      [
        "s",
        "s"
      ],
      [
        "ou",
        "nd"
      ],
      [
        "Ġy",
        "eah"
      ],
      [
        "Ġs",
        "m"
      ],
      [
        "u",
        "l"
      ],
      [
        "i",
        "l"
      ],
      [
        "Ġm",
        "us"
      ],
      [
        "Ġeve",
        "n"
      ],
      [
        "a",
        "in"
      ],
      [
        "Ġre",
        "ally"
      ],
      [
        "Ġmus",
        "ic"
      ],
      [
        "'",
        "re"
      ],
      [
        "Ġf",
        "u"
      ],
      [
        "p",
        "e"
      ],
      [
        "Ġc",
        "on"
      ],
      [
        "Ġ",
        "-"
      ],
      [
        "Ġp",
        "e"
      ],
      [
        "Ġth",
        "ing"
      ],
      [
        "Ġo",
        "m"
      ],
      [
        "i",
        "me"
      ],
      [
        "s",
        "o"
      ],
      [
        "ee",
        "p"
      ],
      [
        "Ġf",
        "a"
      ],
      [
        "Ġh",
        "is"
      ],
      [
        "Ġ",
        "q"
      ],
      [
        "m",
        "a"
      ],
      [
        "Ġthe",
        "ir"
      ],
      [
        "ha",
        "n"
      ],
      [
        "Ġthe",
        "m"
      ],
      [
        "in",
        "e"
      ],
      [
        "Ġthat",
        "s"
      ],
      [
        "l",
        "f"
      ],
      [
        "Ġs",
        "or"
      ],
      [
        "es",
        "t"
      ],
      [
        "a",
        "te"
      ],
      [
        "Ġa",
        "w"
      ],
      [
        "ay",
        "s"
      ],
      [
        "g",
        "g"
      ],
      [
        "Ġon",
        "e"
      ],
      [
        "t",
        "ing"
      ],
      [
        "on",
        "g"
      ],
      [
        "Ġm",
        "ust"
      ],
      [
        "Ġm",
        "ake"
      ],
      [
        "Ġv",
        "o"
      ],
      [
        "Ġy",
        "es"
      ],
      [
        "Ġt",
        "han"
      ],
      [
        "Ġha",
        "s"
      ],
      [
        "Ġt",
        "r"
      ],
      [
        "Ġlisten",
        "ing"
      ],
      [
        "Ġca",
        "use"
      ],
      [
        "at",
        "ion"
      ],
      [
        "Ġw",
        "an"
      ],
      [
        "Ġg",
        "ood"
      ],
      [
        "Ġx",
        "d"
      ],
      [
        "Ġal",
        "so"
      ],
      [
        "Ġme",
        "an"
      ],
      [
        "Ġthe",
        "n"
      ],
      [
        "Ġu",
        "r"
      ],
      [
        "Ġbe",
        "ca"
      ],
      [
        "ra",
        "in"
      ],
      [
        "Ġom",
        "g"
      ],
      [
        "Ġt",
        "ime"
      ],
      [
        "Ġthe",
        "re"
      ],
      [
        "Ġbeca",
        "use"
      ],
      [
        "as",
        "t"
      ],
      [
        "Ġ",
        "us"
      ],
      [
        "Ġs",
        "ay"
      ],
      [
        "Ġh",
        "im"
      ],
      [
        "Ġsor",
        "ry"
      ],
      [
        "o",
        "re"
      ],
      [
        "Ġ",
        "2"
      ],
      [
        "Ġth",
        "ou"
      ],
      [
        "f",
        "e"
      ],
      [
        "Ġb",
        "a"
      ],
      [
        "Ġst",
        "u"
      ],
      [
        "Ġw",
        "a"
      ],
      [
        "h",
        "ing"
      ],
      [
        "Ġt",
        "e"
      ],
      [
        "o",
        "l"
      ],
      [
        "t",
        "y"
      ],
      [
        "Ġhe",
        "ar"
      ],
      [
        "Ġt",
        "ake"
      ],
      [
        "Ġdo",
        "es"
      ],
      [
        "Ġg",
        "ot"
      ],
      [
        "Ġs",
        "p"
      ],
      [
        "Ġ",
        "("
      ],
      [
        "i",
        "te"
      ],
      [
        "Ġt",
        "b"
      ],
      [
        "Ġmo",
        "re"
      ],
      [
        "u",
        "e"
      ],
      [
        "Ġwe",
        "ll"
      ],
      [
        "b",
        "e"
      ],
      [
        "Ġwh",
        "o"
      ],
      [
        "Ġu",
        "n"
      ],
      [
        "Ġa",
        "g"
      ],
      [
        "i",
        "g"
      ],
      [
        "Ġpe",
        "op"
      ],
      [
        "Ġe",
        "n"
      ],
      [
        "id",
        "e"
      ],
      [
        "Ġvo",
        "ice"
      ],
      [
        "Ġth",
        "o"
      ],
      [
        "!",
        "!"
      ],
      [
        "ic",
        "k"
      ],
      [
        "Ġpro",
        "b"
      ],
      [
        "Ġa",
        "ct"
      ],
      [
        "Ġs",
        "l"
      ],
      [
        "Ġl",
        "ea"
      ],
      [
        "Ġm",
        "u"
      ],
      [
        "a",
        "king"
      ],
      [
        "Ġpeop",
        "le"
      ],
      [
        "..",
        "."
      ],
      [
        "Ġl",
        "ma"
      ],
      [
        "Ġg",
        "u"
      ],
      [
        "p",
        "er"
      ],
      [
        "Ġa",
        "r"
      ],
      [
        "Ġp",
        "o"
      ],
      [
        "u",
        "ally"
      ],
      [
        "Ġf",
        "e"
      ],
      [
        "Ġbe",
        "ing"
      ],
      [
        "Ġon",
        "ly"
      ],
      [
        "Ġpl",
        "ay"
      ],
      [
        "Ġeve",
        "ry"
      ],
      [
        "Ġ",
        "our"
      ],
      [
        "Ġ:",
        ")"
      ],
      [
        "er",
        "s"
      ],
      [
        "om",
        "et"
      ],
      [
        "d",
        "s"
      ],
      [
        "Ġe",
        "at"
      ],
      [
        "Ġha",
        "ha"
      ],
      [
        "Ġd",
        "is"
      ],
      [
        "Ġmu",
        "ch"
      ],
      [
        "Ġs",
        "omet"
      ],
      [
        "Ġc",
        "u"
      ],
      [
        "ke",
        "d"
      ],
      [
        "Ġd",
        "r"
      ],
      [
        "or",
        "t"
      ],
      [
        "i",
        "f"
      ],
      [
        "Ġp",
        "re"
      ],
      [
        "p",
        "s"
      ],
      [
        "ou",
        "s"
      ],
      [
        "d",
        "d"
      ],
      [
        "p",
        "t"
      ],
      [
        "Ġloo",
        "k"
      ],
      [
        "ar",
        "n"
      ],
      [
        "Ġt",
        "al"
      ],
      [
        "Ġwan",
        "na"
      ],
      [
        "t",
        "her"
      ],
      [
        "Ġc",
        "h"
      ],
      [
        "Ġg",
        "e"
      ],
      [
        "oo",
        "l"
      ],
      [
        "Ġw",
        "r"
      ],
      [
        "Ġthing",
        "s"
      ],
      [
        "a",
        "nd"
      ],
      [
        "o",
        "s"
      ],
      [
        "a",
        "g"
      ],
      [
        "Ġs",
        "ound"
      ],
      [
        "Ġt",
        "ou"
      ],
      [
        "d",
        "ay"
      ],
      [
        "Ġo",
        "ver"
      ],
      [
        "Ġb",
        "y"
      ],
      [
        "se",
        "lf"
      ],
      [
        "i",
        "b"
      ],
      [
        "Ġm",
        "ay"
      ],
      [
        "?",
        "?"
      ],
      [
        "o",
        "y"
      ],
      [
        "ar",
        "t"
      ],
      [
        "Ġha",
        "pp"
      ],
      [
        "Ġtb",
        "h"
      ],
      [
        "Ġhe",
        "l"
      ],
      [
        "Ġb",
        "it"
      ],
      [
        "w",
        "w"
      ],
      [
        "Ġlma",
        "o"
      ],
      [
        "nd",
        "er"
      ],
      [
        "is",
        "s"
      ],
      [
        "Ġb",
        "ad"
      ],
      [
        "Ġwor",
        "k"
      ],
      [
        "Ġstu",
        "ff"
      ],
      [
        "Ġn",
        "a"
      ],
      [
        "Ġthou",
        "ght"
      ],
      [
        "Ġt",
        "ry"
      ],
      [
        "Ġp",
        "h"
      ],
      [
        "Ġb",
        "rain"
      ],
      [
        "Ġst",
        "ill"
      ],
      [
        "Ġl",
        "a"
      ],
      [
        "Ġk",
        "ind"
      ],
      [
        "Ġca",
        "re"
      ],
      [
        "Ġa",
        "f"
      ],
      [
        "Ġgo",
        "ing"
      ],
      [
        "Ġsm",
        "o"
      ],
      [
        "Ġcom",
        "p"
      ],
      [
        "Ġle",
        "arn"
      ],
      [
        "or",
        "ge"
      ],
      [
        "'",
        "ve"
      ],
      [
        "u",
        "re"
      ],
      [
        "Ġsh",
        "it"
      ],
      [
        "'",
        "ll"
      ],
      [
        "Ġg",
        "ive"
      ],
      [
        "Ġof",
        "f"
      ],
      [
        "me",
        "nt"
      ],
      [
        "as",
        "s"
      ],
      [
        "Ġmo",
        "ve"
      ],
      [
        "Ġfu",
        "ck"
      ],
      [
        "Ġ",
        "ve"
      ],
      [
        "Ġ:",
        "("
      ],
      [
        "Ġb",
        "l"
      ],
      [
        "th",
        "ing"
      ],
      [
        "'",
        "d"
      ],
      [
        "re",
        "ss"
      ],
      [
        "Ġy",
        "e"
      ],
      [
        "Ġhel",
        "p"
      ],
      [
        "t",
        "o"
      ],
      [
        "ab",
        "le"
      ],
      [
        "Ġwa",
        "it"
      ],
      [
        "Ġge",
        "orge"
      ],
      [
        "c",
        "c"
      ],
      [
        "Ġc",
        "at"
      ],
      [
        "Ġact",
        "ually"
      ],
      [
        "Ġid",
        "k"
      ],
      [
        "Ġc",
        "o"
      ],
      [
        "i",
        "es"
      ],
      [
        "ll",
        "y"
      ],
      [
        "ie",
        "nd"
      ],
      [
        "Ġc",
        "l"
      ],
      [
        "Ġm",
        "an"
      ],
      [
        "ou",
        "gh"
      ],
      [
        "Ġsa",
        "id"
      ],
      [
        "0",
        "0"
      ],
      [
        "Ġsa",
        "me"
      ],
      [
        "Ġba",
        "ck"
      ],
      [
        "Ġloo",
        "king"
      ],
      [
        "a",
        "ge"
      ],
      [
        "as",
        "e"
      ],
      [
        "t",
        "s"
      ],
      [
        "Ġtou",
        "ch"
      ],
      [
        "â",
        "Ģ"
      ],
      [
        "Ġsomet",
        "hing"
      ],
      [
        "ic",
        "h"
      ],
      [
        "re",
        "e"
      ],
      [
        "Ġc",
        "ant"
      ],
      [
        "Ġd",
        "ay"
      ],
      [
        "Ġw",
        "ay"
      ],
      [
        "ou",
        "se"
      ],
      [
        "Ġd",
        "ra"
      ],
      [
        "Ġc",
        "ome"
      ],
      [
        "re",
        "nt"
      ],
      [
        "Ġ",
        "ra"
      ],
      [
        "is",
        "h"
      ],
      [
        "re",
        "am"
      ],
      [
        "c",
        "i"
      ],
      [
        "Ġa",
        "pp"
      ],
      [
        "Ġj",
        "o"
      ],
      [
        "h",
        "h"
      ],
      [
        "Ġo",
        "ther"
      ],
      [
        "Ġd",
        "i"
      ],
      [
        "Ġsl",
        "eep"
      ],
      [
        "Ġq",
        "u"
      ],
      [
        "m",
        "b"
      ],
      [
        "Ġha",
        "te"
      ],
      [
        "Ġt",
        "aking"
      ],
      [
        "Ġ",
        "3"
      ],
      [
        "Ġt",
        "w"
      ],
      [
        "ow",
        "n"
      ],
      [
        "Ġr",
        "ight"
      ],
      [
        "Ġs",
        "c"
      ],
      [
        "i",
        "le"
      ],
      [
        "Ġdo",
        "ing"
      ],
      [
        "Ġaf",
        "ter"
      ],
      [
        "ar",
        "d"
      ],
      [
        "y",
        "s"
      ],
      [
        "in",
        "king"
      ],
      [
        "Ġbe",
        "t"
      ],
      [
        "Ġhe",
        "re"
      ],
      [
        "l",
        "t"
      ],
      [
        "Ġc",
        "all"
      ],
      [
        "Ġ",
        "*"
      ],
      [
        "p",
        "l"
      ],
      [
        "Ġmo",
        "ving"
      ],
      [
        "u",
        "d"
      ],
      [
        "Ġ",
        "\""
      ],
      [
        "Ġp",
        "r"
      ],
      [
        "t",
        "t"
      ],
      [
        "Ġwh",
        "ich"
      ],
      [
        "Ġne",
        "ver"
      ],
      [
        "Ġp",
        "ic"
      ],
      [
        "Ġf",
        "ood"
      ],
      [
        "Ġd",
        "ays"
      ],
      [
        "Ġin",
        "to"
      ],
      [
        "Ġfeel",
        "ing"
      ],
      [
        "Ġn",
        "ice"
      ],
      [
        "Ġwant",
        "ing"
      ],
      [
        "Ġ",
        "ro"
      ],
      [
        "Ġfr",
        "iend"
      ],
      [
        "is",
        "t"
      ],
      [
        "ab",
        "ly"
      ],
      [
        "Ġl",
        "et"
      ],
      [
        "Ġm",
        "ad"
      ],
      [
        "Ġlea",
        "ve"
      ],
      [
        "m",
        "s"
      ],
      [
        "Ġve",
        "ry"
      ],
      [
        "Ġb",
        "r"
      ],
      [
        "Ġh",
        "ouse"
      ],
      [
        "Ġc",
        "ool"
      ],
      [
        "Ġdra",
        "w"
      ],
      [
        "i",
        "p"
      ],
      [
        "Ġw",
        "ee"
      ],
      [
        "Ġh",
        "op"
      ],
      [
        "Ġag",
        "ain"
      ],
      [
        "m",
        "m"
      ],
      [
        "Ġ",
        "<"
      ],
      [
        "f",
        "ore"
      ],
      [
        "ck",
        "s"
      ],
      [
        "Ġm",
        "ight"
      ],
      [
        "Ġu",
        "nder"
      ],
      [
        "u",
        "g"
      ],
      [
        "Ġli",
        "fe"
      ],
      [
        "ie",
        "d"
      ],
      [
        "c",
        "om"
      ],
      [
        "it",
        "y"
      ],
      [
        "Ġha",
        "r"
      ],
      [
        "i",
        "x"
      ],
      [
        "Ġte",
        "ll"
      ],
      [
        "c",
        "king"
      ],
      [
        "Ġa",
        "d"
      ],
      [
        "Ġb",
        "o"
      ],
      [
        "Ġprob",
        "ably"
      ],
      [
        "an",
        "ce"
      ],
      [
        "Ġc",
        "he"
      ],
      [
        "Ġfa",
        "ir"
      ],
      [
        "Ġfe",
        "lt"
      ],
      [
        "t",
        "a"
      ],
      [
        "Ġmay",
        "be"
      ],
      [
        "r",
        "ow"
      ],
      [
        "Ġg",
        "on"
      ],
      [
        "ir",
        "d"
      ],
      [
        "Ġdid",
        "nt"
      ],
      [
        "Ġbe",
        "fore"
      ],
      [
        "Ġh",
        "our"
      ],
      [
        "g",
        "et"
      ],
      [
        "re",
        "at"
      ],
      [
        "g",
        "le"
      ],
      [
        "Ġp",
        "le"
      ],
      [
        "i",
        "ous"
      ],
      [
        "Ġtal",
        "k"
      ],
      [
        "Ġs",
        "ca"
      ],
      [
        "Ġb",
        "ab"
      ],
      [
        "i",
        "gh"
      ],
      [
        "Ġf",
        "l"
      ],
      [
        "Ġsmo",
        "king"
      ],
      [
        "Ġsu",
        "re"
      ],
      [
        "Ġb",
        "ot"
      ],
      [
        "Ġhop",
        "e"
      ],
      [
        "in",
        "t"
      ],
      [
        "is",
        "e"
      ],
      [
        "Ġd",
        "own"
      ],
      [
        "a",
        "ce"
      ],
      [
        "Ġsu",
        "pp"
      ],
      [
        "Ġwe",
        "ird"
      ],
      [
        "Ġgon",
        "na"
      ],
      [
        "a",
        "a"
      ],
      [
        "te",
        "ra"
      ],
      [
        "Ġi",
        "ll"
      ],
      [
        "oo",
        "o"
      ],
      [
        "w",
        "ays"
      ],
      [
        "Ġye",
        "ar"
      ],
      [
        "Ġp",
        "er"
      ],
      [
        "Ġre",
        "al"
      ],
      [
        ":",
        "/"
      ],
      [
        "c",
        "he"
      ],
      [
        "Ġm",
        "in"
      ],
      [
        "on",
        "t"
      ],
      [
        "at",
        "ch"
      ],
      [
        "Ġple",
        "ase"
      ],
      [
        "c",
        "o"
      ],
      [
        "Ġkind",
        "a"
      ],
      [
        "im",
        "es"
      ],
      [
        "n",
        "e"
      ],
      [
        "q",
        "u"
      ],
      [
        "or",
        "d"
      ],
      [
        "Ġsca",
        "red"
      ],
      [
        "Ġ",
        "4"
      ],
      [
        "ad",
        "y"
      ],
      [
        "a",
        "ct"
      ],
      [
        "Ġh",
        "tt"
      ],
      [
        "s",
        "h"
      ],
      [
        "Ġal",
        "ways"
      ],
      [
        "Ġb",
        "oo"
      ],
      [
        "Ġph",
        "one"
      ],
      [
        "an",
        "s"
      ],
      [
        "Ġm",
        "um"
      ],
      [
        "Ġl",
        "ong"
      ],
      [
        "ul",
        "t"
      ],
      [
        "Ġli",
        "tera"
      ],
      [
        "Ġneed",
        "ing"
      ],
      [
        "Ġany",
        "thing"
      ],
      [
        "Ġf",
        "ind"
      ],
      [
        "x",
        "t"
      ],
      [
        "Ġf",
        "un"
      ],
      [
        "Ġlo",
        "t"
      ],
      [
        "Ġmy",
        "self"
      ],
      [
        "Ġsound",
        "s"
      ],
      [
        "Ġtr",
        "ue"
      ],
      [
        "ic",
        "ally"
      ],
      [
        "ion",
        "s"
      ],
      [
        "Ġin",
        "s"
      ],
      [
        "Ġwhe",
        "re"
      ],
      [
        "or",
        "m"
      ],
      [
        "Ġbet",
        "ter"
      ],
      [
        "Ġid",
        "ea"
      ],
      [
        "Ġid",
        "e"
      ],
      [
        "Ġbe",
        "d"
      ],
      [
        "Ġst",
        "ream"
      ],
      [
        "Ġb",
        "u"
      ],
      [
        "Ġse",
        "x"
      ],
      [
        "Ġto",
        "day"
      ],
      [
        "Ġ",
        "5"
      ],
      [
        "Ġp",
        "ers"
      ],
      [
        "Ġf",
        "ro"
      ],
      [
        "Ġ",
        "use"
      ],
      [
        "ar",
        "k"
      ],
      [
        "Ġmad",
        "e"
      ],
      [
        "ff",
        "e"
      ],
      [
        "Ġlitera",
        "lly"
      ],
      [
        "Ġtry",
        "ing"
      ],
      [
        "Ġwor",
        "d"
      ],
      [
        "mb",
        "er"
      ],
      [
        "it",
        "ing"
      ],
      [
        "Ġthan",
        "ks"
      ],
      [
        "o",
        "g"
      ],
      [
        "Ġne",
        "w"
      ],
      [
        "Ġhapp",
        "en"
      ],
      [
        "Ġlea",
        "ving"
      ],
      [
        "Ġhar",
        "d"
      ],
      [
        "!",
        "?"
      ],
      [
        "Ġb",
        "re"
      ],
      [
        "Ġs",
        "pe"
      ],
      [
        "Ġp",
        "a"
      ],
      [
        "f",
        "t"
      ],
      [
        "Ġb",
        "ro"
      ],
      [
        "Ġre",
        "s"
      ],
      [
        "Ġpers",
        "on"
      ],
      [
        "Ġget",
        "ting"
      ],
      [
        "Ġeat",
        "ing"
      ],
      [
        "b",
        "s"
      ],
      [
        "Ġm",
        "a"
      ],
      [
        "Ġre",
        "me"
      ],
      [
        "Ġst",
        "op"
      ],
      [
        "Ġt",
        "ur"
      ],
      [
        "ir",
        "st"
      ],
      [
        "Ġp",
        "art"
      ],
      [
        "Ġfu",
        "cking"
      ],
      [
        "t",
        "f"
      ],
      [
        "ib",
        "le"
      ],
      [
        "m",
        "or"
      ],
      [
        "Ġla",
        "ter"
      ],
      [
        "Ġunder",
        "st"
      ],
      [
        "w",
        "ay"
      ],
      [
        "Ġhear",
        "ing"
      ],
      [
        "Ġsay",
        "ing"
      ],
      [
        "Ġg",
        "r"
      ],
      [
        "at",
        "ing"
      ],
      [
        "âĢ",
        "Ļ"
      ],
      [
        "n",
        "g"
      ],
      [
        "Ġs",
        "ha"
      ],
      [
        "Ġm",
        "on"
      ],
      [
        "Ġa",
        "cc"
      ],
      [
        "l",
        "es"
      ],
      [
        "Ġlearn",
        "ing"
      ],
      [
        "Ġf",
        "irst"
      ],
      [
        "Ġs",
        "ong"
      ],
      [
        "Ġm",
        "ess"
      ],
      [
        "Ġn",
        "ight"
      ],
      [
        "t",
        "le"
      ],
      [
        "p",
        "le"
      ],
      [
        "f",
        "a"
      ],
      [
        "od",
        "y"
      ],
      [
        "Ġst",
        "ar"
      ],
      [
        "Ġe",
        "nd"
      ],
      [
        "Ġhapp",
        "y"
      ],
      [
        "Ġcu",
        "te"
      ],
      [
        "Ġth",
        "r"
      ],
      [
        "Ġmean",
        "s"
      ],
      [
        "Ġp",
        "ut"
      ],
      [
        "Ġh",
        "ome"
      ],
      [
        "Ġhtt",
        "ps"
      ],
      [
        "Ġso",
        "on"
      ],
      [
        "t",
        "ty"
      ],
      [
        "Ġp",
        "ick"
      ],
      [
        "Â",
        "£"
      ],
      [
        "Ġeve",
        "r"
      ],
      [
        "Ġm",
        "ind"
      ],
      [
        "Ġha",
        "ving"
      ],
      [
        "as",
        "on"
      ],
      [
        "Ġplay",
        "ing"
      ],
      [
        "um",
        "b"
      ],
      [
        "n",
        "ce"
      ],
      [
        "Ġthou",
        "gh"
      ],
      [
        "Ġhaha",
        "ha"
      ],
      [
        "Ġaw",
        "ay"
      ],
      [
        "Ġw",
        "tf"
      ],
      [
        "Ġpre",
        "tty"
      ],
      [
        "i",
        "z"
      ],
      [
        "u",
        "al"
      ],
      [
        "w",
        "n"
      ],
      [
        "Ġmake",
        "s"
      ],
      [
        "Ġl",
        "it"
      ],
      [
        "Ġdon",
        "e"
      ],
      [
        "f",
        "ul"
      ],
      [
        "Ġreme",
        "mber"
      ],
      [
        "Ġc",
        "ou"
      ],
      [
        "Ġunderst",
        "and"
      ],
      [
        "Ġan",
        "n"
      ],
      [
        "Ġtouch",
        "ing"
      ],
      [
        "Ġfro",
        "gg"
      ],
      [
        "Ġsome",
        "one"
      ],
      [
        "Ġ",
        "="
      ],
      [
        "Ġm",
        "iss"
      ],
      [
        "i",
        "re"
      ],
      [
        "Ġe",
        "m"
      ],
      [
        "Ġle",
        "g"
      ],
      [
        "Ġdr",
        "ink"
      ],
      [
        "Ġcat",
        "s"
      ],
      [
        "Ġ",
        "Â£"
      ],
      [
        "Ġo",
        "p"
      ],
      [
        "Ġdis",
        "c"
      ],
      [
        "r",
        "i"
      ],
      [
        "n",
        "ing"
      ],
      [
        "Ġdid",
        "n"
      ],
      [
        "Ġf",
        "ine"
      ],
      [
        "Ġd",
        "ad"
      ],
      [
        "Ġthr",
        "ough"
      ],
      [
        "Ġk",
        "eep"
      ],
      [
        "un",
        "ch"
      ],
      [
        "u",
        "ter"
      ],
      [
        "Ġg",
        "a"
      ],
      [
        "Ġsh",
        "ow"
      ],
      [
        "Ġre",
        "ason"
      ],
      [
        "Ġbot",
        "h"
      ],
      [
        "Ġf",
        "in"
      ],
      [
        "Ġtw",
        "o"
      ],
      [
        "a",
        "k"
      ],
      [
        "Ġcomp",
        "uter"
      ],
      [
        "Ġt",
        "ra"
      ],
      [
        "Ġs",
        "ad"
      ],
      [
        "Ġsee",
        "ing"
      ],
      [
        "Ġs",
        "w"
      ],
      [
        "Ġto",
        "ld"
      ],
      [
        "Ġcon",
        "f"
      ],
      [
        "Ġg",
        "od"
      ],
      [
        "a",
        "ch"
      ],
      [
        "Ġsm",
        "ink"
      ],
      [
        "i",
        "ld"
      ],
      [
        "Ġna",
        "me"
      ],
      [
        "Ġim",
        "p"
      ],
      [
        "n",
        "o"
      ],
      [
        "Ġle",
        "ast"
      ],
      [
        "Ġtal",
        "king"
      ],
      [
        "a",
        "ted"
      ],
      [
        "Ġany",
        "way"
      ],
      [
        "Ġwr",
        "iting"
      ],
      [
        "Ġann",
        "oy"
      ],
      [
        "an",
        "c"
      ],
      [
        "Ġw",
        "ont"
      ],
      [
        "Ġhour",
        "s"
      ],
      [
        "Ġf",
        "re"
      ],
      [
        "Ġa",
        "dd"
      ],
      [
        "Ġsp",
        "ea"
      ],
      [
        "Ġwan",
        "ted"
      ],
      [
        "Ġpic",
        "king"
      ],
      [
        "Ġen",
        "ough"
      ],
      [
        "ud",
        "e"
      ],
      [
        "Ġin",
        "te"
      ],
      [
        "Ġs",
        "er"
      ],
      [
        "Ġb",
        "as"
      ],
      [
        "Ġb",
        "est"
      ],
      [
        "Ġe",
        "t"
      ],
      [
        "te",
        "s"
      ],
      [
        "re",
        "ady"
      ],
      [
        "Ġre",
        "ad"
      ],
      [
        "Ġi",
        "ve"
      ],
      [
        "o",
        "se"
      ],
      [
        "Ġbab",
        "y"
      ],
      [
        "Ġs",
        "y"
      ],
      [
        "ar",
        "y"
      ],
      [
        "Ġthe",
        "se"
      ],
      [
        "Ġg",
        "en"
      ],
      [
        "Ġo",
        "ld"
      ],
      [
        "Ġal",
        "ready"
      ],
      [
        "Ġg",
        "ir"
      ],
      [
        "Ġgu",
        "ess"
      ],
      [
        "at",
        "h"
      ],
      [
        "Ġa",
        "ut"
      ],
      [
        "Ġh",
        "o"
      ],
      [
        "Ġj",
        "e"
      ],
      [
        "Ġh",
        "on"
      ],
      [
        "Ġto",
        "mor"
      ],
      [
        "Ġfrogg",
        "y"
      ],
      [
        "Ġc",
        "le"
      ],
      [
        "Ġmo",
        "st"
      ],
      [
        "Ġus",
        "ed"
      ],
      [
        "n",
        "ess"
      ],
      [
        "ve",
        "n"
      ],
      [
        "ww",
        "w"
      ],
      [
        "Ġin",
        "c"
      ],
      [
        "it",
        "her"
      ],
      [
        "Ġtomor",
        "row"
      ],
      [
        "n",
        "er"
      ],
      [
        "!!",
        "!"
      ],
      [
        "Ġw",
        "al"
      ],
      [
        "Ġhe",
        "s"
      ],
      [
        "Ġas",
        "s"
      ],
      [
        "Ġevery",
        "thing"
      ],
      [
        "ar",
        "ly"
      ],
      [
        "Ġan",
        "gle"
      ],
      [
        "Ġdoes",
        "nt"
      ],
      [
        "Ġpl",
        "an"
      ],
      [
        "Ġt",
        "y"
      ],
      [
        "Ġl",
        "unch"
      ],
      [
        "Ġs",
        "en"
      ],
      [
        "Ġna",
        "h"
      ],
      [
        "Ġlit",
        "tle"
      ],
      [
        "Ġdraw",
        "ing"
      ],
      [
        "Ġst",
        "r"
      ],
      [
        "Ġnot",
        "hing"
      ],
      [
        "Ġa",
        "ce"
      ],
      [
        "Ġfa",
        "ce"
      ],
      [
        "Ġd",
        "es"
      ],
      [
        "Ġse",
        "lf"
      ],
      [
        "Ġl",
        "ast"
      ],
      [
        "Ġm",
        "aking"
      ],
      [
        "m",
        "o"
      ],
      [
        "l",
        "ess"
      ],
      [
        "Ġli",
        "ve"
      ],
      [
        "Ġex",
        "act"
      ],
      [
        "Ġwr",
        "ong"
      ],
      [
        "Ġg",
        "l"
      ],
      [
        "Ġse",
        "nd"
      ],
      [
        "Ġo",
        "wn"
      ],
      [
        "one",
        "y"
      ],
      [
        "ig",
        "n"
      ],
      [
        "Ġs",
        "it"
      ],
      [
        "Ġsu",
        "per"
      ],
      [
        "Ġhon",
        "est"
      ],
      [
        "Ġcon",
        "t"
      ],
      [
        "Ġde",
        "f"
      ],
      [
        "??",
        "?"
      ],
      [
        "ver",
        "s"
      ],
      [
        "Ġde",
        "c"
      ],
      [
        "Ġex",
        "pl"
      ],
      [
        "y",
        "y"
      ],
      [
        "l",
        "i"
      ],
      [
        "Ġm",
        "ix"
      ],
      [
        "Ġhe",
        "ad"
      ],
      [
        "Ġh",
        "u"
      ],
      [
        "Ġc",
        "r"
      ],
      [
        "Ġ1",
        "0"
      ],
      [
        "Ġfriend",
        "s"
      ],
      [
        "Ġevery",
        "one"
      ],
      [
        "Ġro",
        "om"
      ],
      [
        "Ġ",
        "6"
      ],
      [
        "Ġon",
        "ce"
      ],
      [
        "Ġpo",
        "int"
      ],
      [
        "Ġdi",
        "ffe"
      ],
      [
        "ee",
        "t"
      ],
      [
        "Ġwee",
        "k"
      ],
      [
        "d",
        "e"
      ],
      [
        "i",
        "v"
      ],
      [
        "Ġw",
        "atch"
      ],
      [
        "Ġmon",
        "th"
      ],
      [
        "Ġs",
        "k"
      ],
      [
        "Ġas",
        "k"
      ],
      [
        "\"",
        ":"
      ],
      [
        "an",
        "g"
      ],
      [
        "ee",
        "e"
      ],
      [
        "Ġthan",
        "k"
      ],
      [
        "o",
        "c"
      ],
      [
        "Ġthought",
        "s"
      ],
      [
        "Ġst",
        "art"
      ],
      [
        "Ġth",
        "inking"
      ],
      [
        "Ġar",
        "ound"
      ],
      [
        "Ġw",
        "o"
      ],
      [
        "Ġc",
        "ry"
      ],
      [
        "Ġl",
        "ess"
      ],
      [
        "Ġme",
        "nt"
      ],
      [
        "ke",
        "n"
      ],
      [
        "Ġar",
        "t"
      ],
      [
        "1",
        "0"
      ],
      [
        "Ġa",
        "c"
      ],
      [
        "Ġme",
        "ant"
      ],
      [
        "m",
        "ed"
      ],
      [
        "rent",
        "ly"
      ],
      [
        "Ġel",
        "se"
      ],
      [
        "Ġc",
        "ra"
      ],
      [
        "Ġpe",
        "te"
      ],
      [
        "Ġan",
        "x"
      ],
      [
        "Ġme",
        "ds"
      ],
      [
        "Ġne",
        "xt"
      ],
      [
        "p",
        "h"
      ],
      [
        "Ġwor",
        "ds"
      ],
      [
        "ra",
        "te"
      ],
      [
        "Ġexact",
        "ly"
      ],
      [
        "Ġm",
        "ine"
      ],
      [
        "Ġok",
        "ay"
      ],
      [
        "Ġcu",
        "z"
      ],
      [
        "Ġen",
        "g"
      ],
      [
        "Ġh",
        "i"
      ],
      [
        "Ġgir",
        "l"
      ],
      [
        "Ġsee",
        "ms"
      ],
      [
        "Ġhe",
        "y"
      ],
      [
        "Ġt",
        "imes"
      ],
      [
        "Ġu",
        "gh"
      ],
      [
        "Ġshe",
        "s"
      ],
      [
        "Ġre",
        "l"
      ],
      [
        "w",
        "he"
      ],
      [
        "ct",
        "ion"
      ],
      [
        "Ġb",
        "ig"
      ],
      [
        "Ġtb",
        "f"
      ],
      [
        "Ġs",
        "im"
      ],
      [
        "Ġf",
        "ound"
      ],
      [
        "Ġi",
        "nd"
      ],
      [
        "Ġinte",
        "re"
      ],
      [
        "Ġle",
        "ft"
      ],
      [
        "Ġre",
        "p"
      ],
      [
        "i",
        "red"
      ],
      [
        "w",
        "ard"
      ],
      [
        "b",
        "ody"
      ],
      [
        "an",
        "ge"
      ],
      [
        "Ġ",
        "9"
      ],
      [
        "es",
        "ome"
      ],
      [
        "Ġg",
        "reat"
      ],
      [
        "Ġ",
        "["
      ],
      [
        "w",
        "a"
      ],
      [
        "Ġloo",
        "ks"
      ],
      [
        "Ġp",
        "ar"
      ],
      [
        "Ġl",
        "m"
      ],
      [
        "Ġh",
        "ug"
      ],
      [
        "oo",
        "k"
      ],
      [
        "Ġleg",
        "it"
      ],
      [
        "b",
        "o"
      ],
      [
        "on",
        "s"
      ],
      [
        "Ġneed",
        "s"
      ],
      [
        "Ġpl",
        "ace"
      ],
      [
        "Ġwee",
        "ks"
      ],
      [
        "Ġwant",
        "s"
      ],
      [
        "n",
        "y"
      ],
      [
        "Ġm",
        "oney"
      ],
      [
        "ce",
        "pt"
      ],
      [
        "ic",
        "al"
      ],
      [
        "Ġo",
        "b"
      ],
      [
        "Ġdoes",
        "n"
      ],
      [
        "Ġm",
        "ain"
      ],
      [
        "Ġc",
        "ur"
      ],
      [
        "ð",
        "Ł"
      ],
      [
        "a",
        "z"
      ],
      [
        "Ġ",
        "8"
      ],
      [
        "Ġd",
        "am"
      ],
      [
        "i",
        "ly"
      ],
      [
        "Ġs",
        "et"
      ],
      [
        "Ġc",
        "hat"
      ],
      [
        "Ġwe",
        "nt"
      ],
      [
        "Ġcom",
        "m"
      ],
      [
        "ic",
        "es"
      ],
      [
        "Ġjo",
        "b"
      ],
      [
        "ot",
        "her"
      ],
      [
        "ro",
        "id"
      ],
      [
        "Ġ2",
        "0"
      ],
      [
        "nt",
        "h"
      ],
      [
        "Ġlm",
        "fa"
      ],
      [
        "u",
        "ck"
      ],
      [
        "ke",
        "t"
      ],
      [
        "Ġtho",
        "se"
      ],
      [
        "Ġprob",
        "le"
      ],
      [
        "Ġsupp",
        "ort"
      ],
      [
        "Ġun",
        "i"
      ],
      [
        "Ġk",
        "iss"
      ],
      [
        "Ġin",
        "ter"
      ],
      [
        "Ġcha",
        "n"
      ],
      [
        "Ġjo",
        "ke"
      ],
      [
        "i",
        "o"
      ],
      [
        "l",
        "o"
      ],
      [
        "nd",
        "om"
      ],
      [
        "or",
        "y"
      ],
      [
        "Ġh",
        "or"
      ],
      [
        "nd",
        "s"
      ],
      [
        "Ġbre",
        "ak"
      ],
      [
        "Ġs",
        "te"
      ],
      [
        "Ġab",
        "le"
      ],
      [
        "Ġh",
        "ur"
      ],
      [
        "Ġwith",
        "out"
      ],
      [
        "Ġaw",
        "esome"
      ],
      [
        "ce",
        "nt"
      ],
      [
        "i",
        "a"
      ],
      [
        "Ġman",
        "y"
      ],
      [
        "Ġe",
        "ither"
      ],
      [
        "Ġy",
        "ay"
      ],
      [
        "n",
        "s"
      ],
      [
        "Ġp",
        "ass"
      ],
      [
        "Ġyear",
        "s"
      ],
      [
        "ar",
        "ds"
      ],
      [
        "Ġcon",
        "s"
      ],
      [
        "Ġf",
        "ree"
      ],
      [
        "Ġst",
        "ress"
      ],
      [
        "Ġte",
        "ch"
      ],
      [
        "Ġannoy",
        "ing"
      ],
      [
        "us",
        "ed"
      ],
      [
        "Ġsh",
        "op"
      ],
      [
        "Ġide",
        "as"
      ],
      [
        "Ġp",
        "ain"
      ],
      [
        "Ġs",
        "ch"
      ],
      [
        "Ġgot",
        "ta"
      ],
      [
        "a",
        "c"
      ],
      [
        "Ġk",
        "id"
      ],
      [
        "ha",
        "ha"
      ],
      [
        "Ġp",
        "ay"
      ],
      [
        "Ġs",
        "ing"
      ],
      [
        "he",
        "d"
      ],
      [
        "Ġcom",
        "ing"
      ],
      [
        "Ġhe",
        "ll"
      ],
      [
        "f",
        "g"
      ],
      [
        "Ġb",
        "oy"
      ],
      [
        "Ġwho",
        "le"
      ],
      [
        "Ġ",
        "7"
      ],
      [
        "Ġo",
        "o"
      ],
      [
        "Ġexpl",
        "ain"
      ],
      [
        "u",
        "b"
      ],
      [
        "Ġhonest",
        "ly"
      ],
      [
        "Ġf",
        "an"
      ],
      [
        "get",
        "her"
      ],
      [
        "e",
        "l"
      ],
      [
        "Ġwr",
        "ite"
      ],
      [
        "k",
        "r"
      ],
      [
        "t",
        "w"
      ],
      [
        "Ġw",
        "ish"
      ],
      [
        "Ġm",
        "ar"
      ],
      [
        "ke",
        "r"
      ],
      [
        "Ġwor",
        "king"
      ],
      [
        "Ġet",
        "c"
      ],
      [
        "t",
        "ra"
      ],
      [
        "Ġs",
        "na"
      ],
      [
        "it",
        "ar"
      ],
      [
        "Ġdiffe",
        "rent"
      ],
      [
        "Ġpro",
        "per"
      ],
      [
        "Ġga",
        "me"
      ],
      [
        "d",
        "er"
      ],
      [
        "es",
        "e"
      ],
      [
        "p",
        "ress"
      ],
      [
        "Ġto",
        "gether"
      ],
      [
        "pe",
        "ct"
      ],
      [
        "is",
        "ed"
      ],
      [
        "f",
        "u"
      ],
      [
        "Ġsy",
        "nth"
      ],
      [
        "Ġd",
        "j"
      ],
      [
        "Ġsu",
        "ch"
      ],
      [
        "ation",
        "s"
      ],
      [
        "it",
        "ch"
      ],
      [
        "u",
        "u"
      ],
      [
        "2",
        "0"
      ],
      [
        "Ġgu",
        "itar"
      ],
      [
        "Ġfor",
        "get"
      ],
      [
        "l",
        "ing"
      ],
      [
        "a",
        "p"
      ],
      [
        "Ġ:",
        "/"
      ],
      [
        "Ġsomet",
        "imes"
      ],
      [
        "e",
        "w"
      ],
      [
        "Ġwhat",
        "s"
      ],
      [
        "a",
        "ck"
      ],
      [
        "Ġst",
        "ay"
      ],
      [
        "ks",
        "ks"
      ],
      [
        "Ġe",
        "s"
      ],
      [
        "Ġp",
        "ast"
      ],
      [
        "Ġbe",
        "l"
      ],
      [
        "u",
        "es"
      ],
      [
        "Ġm",
        "ood"
      ],
      [
        "ie",
        "w"
      ],
      [
        "Ġa",
        "aa"
      ],
      [
        "Ġall",
        "ow"
      ],
      [
        "us",
        "s"
      ],
      [
        "al",
        "s"
      ],
      [
        "ó",
        "¾"
      ],
      [
        "a",
        "re"
      ],
      [
        "Ġsch",
        "ool"
      ],
      [
        "Ġbo",
        "red"
      ],
      [
        "Ġis",
        "s"
      ],
      [
        "ious",
        "ly"
      ],
      [
        "Ġr",
        "ing"
      ],
      [
        "c",
        "ted"
      ],
      [
        "Ġlmfa",
        "o"
      ],
      [
        "ou",
        "d"
      ],
      [
        "Ġy",
        "et"
      ],
      [
        "Ä",
        "¡"
      ],
      [
        "Ġcall",
        "ed"
      ],
      [
        "Ġd",
        "ick"
      ],
      [
        "Ġe",
        "as"
      ],
      [
        "m",
        "it"
      ],
      [
        "Ġwor",
        "r"
      ],
      [
        "Ġi",
        "kr"
      ],
      [
        "te",
        "nt"
      ],
      [
        "ide",
        "nt"
      ],
      [
        "y",
        "ing"
      ],
      [
        "Ġk",
        "it"
      ],
      [
        "te",
        "ad"
      ],
      [
        "Ġv",
        "ide"
      ],
      [
        "ol",
        "og"
      ],
      [
        "n",
        "ight"
      ],
      [
        "Ġra",
        "ndom"
      ],
      [
        "Ġop",
        "en"
      ],
      [
        "Ġhave",
        "nt"
      ],
      [
        "Ġ",
        "rain"
      ],
      [
        "Ġse",
        "nt"
      ],
      [
        "Ġe",
        "ach"
      ],
      [
        "Ġdisc",
        "ord"
      ],
      [
        "Ġc",
        "re"
      ],
      [
        "Ġe",
        "ar"
      ],
      [
        "is",
        "m"
      ],
      [
        "Ġsmo",
        "ke"
      ],
      [
        "Ġcha",
        "ir"
      ],
      [
        "Ġins",
        "tead"
      ],
      [
        "i",
        "i"
      ],
      [
        "Ġt",
        "ea"
      ],
      [
        "Ġh",
        "igh"
      ],
      [
        "Ġw",
        "ow"
      ],
      [
        "Ġres",
        "p"
      ],
      [
        "Ġbl",
        "an"
      ],
      [
        "st",
        "ing"
      ],
      [
        "Ġsu",
        "n"
      ],
      [
        "Ġgu",
        "y"
      ],
      [
        "Ġdr",
        "inking"
      ],
      [
        "Ġde",
        "cks"
      ],
      [
        "Ġ",
        ">"
      ],
      [
        "eep",
        "y"
      ],
      [
        "Ġmin",
        "s"
      ],
      [
        "Ġgu",
        "ys"
      ],
      [
        "Ġsm",
        "inking"
      ],
      [
        "Ġbr",
        "ing"
      ],
      [
        "j",
        "e"
      ],
      [
        "n",
        "ed"
      ],
      [
        "Ġu",
        "nt"
      ],
      [
        "Ġt",
        "en"
      ],
      [
        "ci",
        "al"
      ],
      [
        "p",
        "ing"
      ],
      [
        "Ġg",
        "ay"
      ],
      [
        "Ġpo",
        "ss"
      ],
      [
        "c",
        "ked"
      ],
      [
        "1",
        "00"
      ],
      [
        "Ġin",
        "f"
      ],
      [
        "am",
        "es"
      ],
      [
        "Ġfeel",
        "s"
      ],
      [
        "s",
        "w"
      ],
      [
        "Ġis",
        "nt"
      ],
      [
        "Ġbas",
        "ically"
      ],
      [
        "g",
        "n"
      ],
      [
        "Ġlma",
        "ooo"
      ],
      [
        "Ġkn",
        "ew"
      ],
      [
        "r",
        "ight"
      ],
      [
        "Ġs",
        "igh"
      ],
      [
        "m",
        "ore"
      ],
      [
        "Ġm",
        "od"
      ],
      [
        "Ġb",
        "us"
      ],
      [
        "Ġim",
        "a"
      ],
      [
        "re",
        "ct"
      ],
      [
        "u",
        "be"
      ],
      [
        "ll",
        "e"
      ],
      [
        "r",
        "r"
      ],
      [
        "n",
        "c"
      ],
      [
        "ve",
        "l"
      ],
      [
        "nt",
        "s"
      ],
      [
        "Ġthere",
        "s"
      ],
      [
        "it",
        "s"
      ],
      [
        "hh",
        "h"
      ],
      [
        "Ġspea",
        "k"
      ],
      [
        "Ġd",
        "ark"
      ],
      [
        "Ġh",
        "mm"
      ],
      [
        "b",
        "y"
      ],
      [
        "ie",
        "ty"
      ],
      [
        "Ġp",
        "ur"
      ],
      [
        "s",
        "et"
      ],
      [
        "Ġme",
        "d"
      ],
      [
        "Ġr",
        "ly"
      ],
      [
        "a",
        "pp"
      ],
      [
        "as",
        "h"
      ],
      [
        "Ġr",
        "ude"
      ],
      [
        "Ġeng",
        "l"
      ],
      [
        "ic",
        "s"
      ],
      [
        "whe",
        "re"
      ],
      [
        "Ġg",
        "eepy"
      ],
      [
        "o",
        "x"
      ],
      [
        "Ġto",
        "ile"
      ],
      [
        "Ġas",
        "ked"
      ],
      [
        "ll",
        "ing"
      ],
      [
        "al",
        "th"
      ],
      [
        "Ġsa",
        "w"
      ],
      [
        "Ġus",
        "ing"
      ],
      [
        "Ġsen",
        "se"
      ],
      [
        "p",
        "y"
      ],
      [
        "l",
        "ine"
      ],
      [
        "3",
        "0"
      ],
      [
        "Ġca",
        "me"
      ],
      [
        "Ġo",
        "ven"
      ],
      [
        "ro",
        "ss"
      ],
      [
        "le",
        "d"
      ],
      [
        "os",
        "ed"
      ],
      [
        "Ġn",
        "on"
      ],
      [
        "Ġse",
        "co"
      ],
      [
        "Ġtoile",
        "t"
      ],
      [
        "Ġar",
        "g"
      ],
      [
        "Ġdo",
        "or"
      ],
      [
        "Ġg",
        "ra"
      ],
      [
        "Ġno",
        "oo"
      ],
      [
        "Ġan",
        "other"
      ],
      [
        "Ġt",
        "rain"
      ],
      [
        "Ġwas",
        "nt"
      ],
      [
        "Ġex",
        "per"
      ],
      [
        "Ġunt",
        "il"
      ],
      [
        "ll",
        "ow"
      ],
      [
        "Ġany",
        "more"
      ],
      [
        "Ġk",
        "ill"
      ],
      [
        "Ġt",
        "a"
      ],
      [
        "Ġb",
        "or"
      ],
      [
        "Ġha",
        "lf"
      ],
      [
        "id",
        "er"
      ],
      [
        "ment",
        "s"
      ],
      [
        "if",
        "ic"
      ],
      [
        "Ġwor",
        "se"
      ],
      [
        "j",
        "oy"
      ],
      [
        "Ġh",
        "um"
      ],
      [
        "Ġal",
        "one"
      ],
      [
        "i",
        "an"
      ],
      [
        "Ġs",
        "in"
      ],
      [
        "at",
        "her"
      ],
      [
        "Ġqu",
        "est"
      ],
      [
        "g",
        "ry"
      ],
      [
        "Ġmess",
        "age"
      ],
      [
        "Ġd",
        "a"
      ],
      [
        "Ġc",
        "ar"
      ],
      [
        "Ġag",
        "o"
      ],
      [
        "Ġchan",
        "ge"
      ],
      [
        "Ġ",
        "âĢ"
      ],
      [
        "Ġwas",
        "n"
      ],
      [
        "Ġtur",
        "nt"
      ],
      [
        "Ġc",
        "ol"
      ],
      [
        "ind",
        "ow"
      ],
      [
        "Ġstar",
        "ted"
      ],
      [
        "le",
        "te"
      ],
      [
        "Ġh",
        "ot"
      ],
      [
        "Ġx",
        "x"
      ],
      [
        "ur",
        "ing"
      ],
      [
        "Ġplay",
        "ed"
      ],
      [
        "re",
        "en"
      ],
      [
        "Ġha",
        "ir"
      ],
      [
        "Ġen",
        "joy"
      ],
      [
        "Ġsee",
        "m"
      ],
      [
        "ve",
        "s"
      ],
      [
        "Ġan",
        "sw"
      ],
      [
        "Ġturnt",
        "able"
      ],
      [
        "c",
        "ome"
      ],
      [
        "Ġf",
        "o"
      ],
      [
        "n",
        "ot"
      ],
      [
        "Ġd",
        "umb"
      ],
      [
        "Ġr",
        "n"
      ],
      [
        "Ġ",
        "0"
      ],
      [
        "Ġm",
        "ark"
      ],
      [
        "Ġcu",
        "dd"
      ],
      [
        "Ġt",
        "ired"
      ],
      [
        "Ġcou",
        "ple"
      ],
      [
        "Ġcomm",
        "un"
      ],
      [
        "Ġ",
        ";"
      ],
      [
        "w",
        "ards"
      ],
      [
        "Ġl",
        "ate"
      ],
      [
        "Ġp",
        "an"
      ],
      [
        "Ġc",
        "al"
      ],
      [
        "Ġbel",
        "ie"
      ],
      [
        "Ġknow",
        "n"
      ],
      [
        "Ġgl",
        "ad"
      ],
      [
        "s",
        "c"
      ],
      [
        "Ã",
        "©"
      ],
      [
        "Ġn",
        "orm"
      ],
      [
        "Ġvide",
        "o"
      ],
      [
        "Ġe",
        "le"
      ],
      [
        "ou",
        "p"
      ],
      [
        "Ġ1",
        "2"
      ],
      [
        "Ġaw",
        "ww"
      ],
      [
        "che",
        "d"
      ],
      [
        "l",
        "ic"
      ],
      [
        "Ġimp",
        "ort"
      ],
      [
        "Ġal",
        "right"
      ],
      [
        "Ġd",
        "ance"
      ],
      [
        "Ġre",
        "g"
      ],
      [
        "Ġmix",
        "er"
      ],
      [
        "Ġsin",
        "ce"
      ],
      [
        "v",
        "o"
      ],
      [
        "Ġaw",
        "k"
      ],
      [
        "u",
        "te"
      ],
      [
        "a",
        "h"
      ],
      [
        "on",
        "es"
      ],
      [
        "i",
        "er"
      ],
      [
        "Ġsna",
        "cks"
      ],
      [
        "Ġse",
        "c"
      ],
      [
        "f",
        "s"
      ],
      [
        "ro",
        "p"
      ],
      [
        "Ġhe",
        "alth"
      ],
      [
        "Ġc",
        "reat"
      ],
      [
        "Ġth",
        "ree"
      ],
      [
        "Ġs",
        "ick"
      ],
      [
        "Ġch",
        "ild"
      ],
      [
        "Ġworr",
        "ied"
      ],
      [
        "Ġsp",
        "ace"
      ],
      [
        "Ġapp",
        "re"
      ],
      [
        "Ġs",
        "een"
      ],
      [
        "g",
        "an"
      ],
      [
        "ff",
        "ic"
      ],
      [
        "Ġmonth",
        "s"
      ],
      [
        "l",
        "ight"
      ],
      [
        "Ġlet",
        "s"
      ],
      [
        "Ġm",
        "or"
      ],
      [
        "Ġapp",
        "a"
      ],
      [
        "'",
        "."
      ],
      [
        "Ġe",
        "nt"
      ],
      [
        "Ġf",
        "ig"
      ],
      [
        "Ġam",
        "az"
      ],
      [
        "u",
        "p"
      ],
      [
        "Ġqu",
        "ite"
      ],
      [
        "Ġsa",
        "fe"
      ],
      [
        "anc",
        "ing"
      ],
      [
        "r",
        "on"
      ],
      [
        "ag",
        "es"
      ],
      [
        "Ġ;",
        ")"
      ],
      [
        "at",
        "s"
      ],
      [
        "Ġj",
        "on"
      ],
      [
        "Ġc",
        "or"
      ],
      [
        "Ġob",
        "v"
      ],
      [
        "u",
        "gg"
      ],
      [
        "Ġ",
        "#"
      ],
      [
        "Ġm",
        "id"
      ],
      [
        "fe",
        "ct"
      ],
      [
        "Ġex",
        "c"
      ],
      [
        "Ġawk",
        "ward"
      ],
      [
        "ist",
        "ic"
      ],
      [
        "it",
        "ion"
      ],
      [
        "Ġno",
        "body"
      ],
      [
        "Ġor",
        "der"
      ],
      [
        "Ġha",
        "nd"
      ],
      [
        "Ġis",
        "n"
      ],
      [
        "Ġappa",
        "rently"
      ],
      [
        "Ġfe",
        "w"
      ],
      [
        "Ġs",
        "ays"
      ],
      [
        "Ġb",
        "tw"
      ],
      [
        "re",
        "s"
      ],
      [
        "Ġhappen",
        "ed"
      ],
      [
        "mo",
        "st"
      ],
      [
        "Ġdef",
        "in"
      ],
      [
        "s",
        "ide"
      ],
      [
        "Ġt",
        "er"
      ],
      [
        "Ġfor",
        "g"
      ],
      [
        "un",
        "k"
      ],
      [
        "Ġappre",
        "ci"
      ],
      [
        "\"",
        ","
      ],
      [
        "Ġhor",
        "r"
      ],
      [
        "je",
        "ct"
      ],
      [
        "Ġme",
        "h"
      ],
      [
        "en",
        "s"
      ],
      [
        "ter",
        "day"
      ],
      [
        "il",
        "st"
      ],
      [
        "Ġm",
        "ic"
      ],
      [
        "Ġment",
        "al"
      ],
      [
        "n",
        "ch"
      ],
      [
        "Ġo",
        "oo"
      ],
      [
        "Ġto",
        "p"
      ],
      [
        "or",
        "s"
      ],
      [
        "Ġche",
        "ese"
      ],
      [
        "Ġr",
        "un"
      ],
      [
        "Ġany",
        "one"
      ],
      [
        "Ġjoke",
        "s"
      ],
      [
        "p",
        "ed"
      ],
      [
        "Ġd",
        "un"
      ],
      [
        "ve",
        "d"
      ],
      [
        "Ġp",
        "i"
      ],
      [
        "Ġyes",
        "terday"
      ],
      [
        "Ġintere",
        "sting"
      ],
      [
        "Ġwh",
        "ilst"
      ],
      [
        "Ġf",
        "ar"
      ],
      [
        "w",
        "e"
      ],
      [
        "Ġem",
        "ot"
      ],
      [
        "Ġe",
        "y"
      ],
      [
        "Ġanx",
        "iety"
      ],
      [
        "ug",
        "s"
      ],
      [
        "us",
        "ing"
      ],
      [
        "Ġe",
        "d"
      ],
      [
        "b",
        "a"
      ],
      [
        "f",
        "r"
      ],
      [
        "Ġto",
        "night"
      ],
      [
        "Ġas",
        "king"
      ],
      [
        "ã",
        "ģ"
      ],
      [
        "Ġcle",
        "an"
      ],
      [
        "v",
        "iew"
      ],
      [
        "?",
        "!"
      ],
      [
        "Ġom",
        "fg"
      ],
      [
        "Ġd",
        "ancing"
      ],
      [
        "Ġwa",
        "ter"
      ],
      [
        "Ġproble",
        "m"
      ],
      [
        "ãģ",
        "£"
      ],
      [
        "Ġyour",
        "self"
      ],
      [
        "i",
        "gg"
      ],
      [
        "Ġsu",
        "r"
      ],
      [
        "Ġw",
        "indow"
      ],
      [
        "Ġli",
        "ght"
      ],
      [
        "h",
        "ow"
      ],
      [
        "Ġ1",
        "1"
      ],
      [
        "Ġ",
        "nd"
      ],
      [
        "Ġa",
        "p"
      ],
      [
        "Ġc",
        "ut"
      ],
      [
        "Ġimport",
        "ant"
      ],
      [
        "Ġf",
        "ore"
      ],
      [
        "Ġe",
        "w"
      ],
      [
        "p",
        "m"
      ],
      [
        "Ġa",
        "h"
      ],
      [
        "Ġp",
        "iss"
      ],
      [
        "t",
        "he"
      ],
      [
        "Ġtr",
        "ied"
      ],
      [
        "re",
        "t"
      ],
      [
        "Ġup",
        "set"
      ],
      [
        "Ġsit",
        "u"
      ],
      [
        "f",
        "ort"
      ],
      [
        "Ġp",
        "oo"
      ],
      [
        "Ġd",
        "w"
      ],
      [
        "Ġgen",
        "er"
      ],
      [
        "Ġblan",
        "ket"
      ],
      [
        "w",
        "een"
      ],
      [
        "Ġtr",
        "ans"
      ],
      [
        "Ġboo",
        "f"
      ],
      [
        "Ġmain",
        "ly"
      ],
      [
        "Ġch",
        "ris"
      ],
      [
        "che",
        "s"
      ],
      [
        "Ġwh",
        "ile"
      ],
      [
        "Ġwal",
        "k"
      ],
      [
        "ou",
        "nt"
      ],
      [
        "Ġseco",
        "nd"
      ],
      [
        "v",
        "ice"
      ],
      [
        "Ġf",
        "am"
      ],
      [
        "Ġph",
        "ot"
      ],
      [
        "Ġin",
        "v"
      ],
      [
        "Ġon",
        "es"
      ],
      [
        "Ġtech",
        "n"
      ],
      [
        "te",
        "m"
      ],
      [
        "er",
        "t"
      ],
      [
        "Ġv",
        "is"
      ],
      [
        "Ġre",
        "st"
      ],
      [
        "Ġcl",
        "ass"
      ],
      [
        "Ġspe",
        "c"
      ],
      [
        "Ġsong",
        "s"
      ],
      [
        "Ġbelie",
        "ve"
      ],
      [
        "he",
        "s"
      ],
      [
        "Ġwatch",
        "ing"
      ],
      [
        "Ġamaz",
        "ing"
      ],
      [
        "Ġforg",
        "ot"
      ],
      [
        "Ġb",
        "an"
      ],
      [
        "Ġlo",
        "ving"
      ],
      [
        "Ġyou",
        "re"
      ],
      [
        "Ġper",
        "fect"
      ],
      [
        "e",
        "ar"
      ],
      [
        "Ġat",
        "ta"
      ],
      [
        "Ġw",
        "ar"
      ],
      [
        "Ġb",
        "ir"
      ],
      [
        "Ġsu",
        "gg"
      ],
      [
        "at",
        "ive"
      ],
      [
        "Ġfu",
        "ll"
      ],
      [
        "Ġcre",
        "ate"
      ],
      [
        "Ġg",
        "oo"
      ],
      [
        "Ġs",
        "ksks"
      ],
      [
        "us",
        "h"
      ],
      [
        "Ġche",
        "ck"
      ],
      [
        "Ġpl",
        "z"
      ],
      [
        "Ġv",
        "al"
      ],
      [
        "Ġneed",
        "ed"
      ],
      [
        "Ġl",
        "uck"
      ],
      [
        "Ġcol",
        "our"
      ],
      [
        "Ġs",
        "ign"
      ],
      [
        "m",
        "y"
      ],
      [
        "Ġdi",
        "ffic"
      ],
      [
        "Ġpro",
        "c"
      ],
      [
        "Ġpa",
        "rent"
      ],
      [
        "ate",
        "ly"
      ],
      [
        "Ġop",
        "in"
      ],
      [
        "e",
        "nt"
      ],
      [
        "in",
        "ner"
      ],
      [
        "Ġhur",
        "t"
      ],
      [
        "iz",
        "z"
      ],
      [
        "Ġb",
        "ur"
      ],
      [
        "b",
        "le"
      ],
      [
        "'",
        "("
      ],
      [
        "fu",
        "lly"
      ],
      [
        "in",
        "s"
      ],
      [
        "Ġw",
        "ha"
      ],
      [
        "Ġre",
        "c"
      ],
      [
        "Ġfre",
        "nch"
      ],
      [
        "s",
        "y"
      ],
      [
        "ill",
        "y"
      ],
      [
        "out",
        "h"
      ],
      [
        "Ġal",
        "most"
      ],
      [
        "Ġm",
        "eet"
      ],
      [
        "ĠâĢ",
        "ĺ"
      ],
      [
        "Ġto",
        "y"
      ],
      [
        "Ġag",
        "ree"
      ],
      [
        "Ġe",
        "mb"
      ],
      [
        "Ġbet",
        "ween"
      ],
      [
        "Ġcommun",
        "ic"
      ],
      [
        "ite",
        "ly"
      ],
      [
        "e",
        "ver"
      ],
      [
        "Ġsc",
        "ream"
      ],
      [
        "Ġ",
        "ðŁ"
      ],
      [
        "Ġc",
        "our"
      ],
      [
        "Ġv",
        "a"
      ],
      [
        "Ġre",
        "f"
      ],
      [
        "Ġacc",
        "ident"
      ],
      [
        "Ġdo",
        "g"
      ],
      [
        "Ġconf",
        "used"
      ],
      [
        "Ġfun",
        "ny"
      ],
      [
        "i",
        "al"
      ],
      [
        "Ġbu",
        "y"
      ],
      [
        "Ġt",
        "as"
      ],
      [
        "ma",
        "il"
      ],
      [
        "i",
        "ps"
      ],
      [
        "Ġus",
        "ually"
      ],
      [
        "n",
        "et"
      ],
      [
        "Ġdun",
        "no"
      ],
      [
        "Ġc",
        "oo"
      ],
      [
        "ro",
        "om"
      ],
      [
        ")",
        ","
      ],
      [
        "Ġin",
        "st"
      ],
      [
        "il",
        "ity"
      ],
      [
        "if",
        "u"
      ],
      [
        "ie",
        "nce"
      ],
      [
        "Ġlisten",
        "ed"
      ],
      [
        "Ġh",
        "un"
      ],
      [
        "Ġe",
        "gg"
      ],
      [
        "Ġst",
        "ra"
      ],
      [
        "od",
        "u"
      ],
      [
        "Ġmor",
        "ning"
      ],
      [
        "Ġye",
        "p"
      ],
      [
        "Ġbab",
        "e"
      ],
      [
        "Ġdark",
        "ness"
      ],
      [
        "Ġre",
        "m"
      ],
      [
        "i",
        "ving"
      ],
      [
        "Ġ:",
        "'("
      ],
      [
        "ion",
        "al"
      ],
      [
        "Ġde",
        "al"
      ],
      [
        "Ġiss",
        "ues"
      ],
      [
        "Ġvo",
        "ices"
      ],
      [
        "Ġsu",
        "b"
      ],
      [
        "Ġg",
        "un"
      ],
      [
        "m",
        "ing"
      ],
      [
        "Ġex",
        "cept"
      ],
      [
        "1",
        "2"
      ],
      [
        "il",
        "ar"
      ],
      [
        "t",
        "ure"
      ],
      [
        "Ġcomp",
        "lete"
      ],
      [
        "ow",
        "er"
      ],
      [
        "Ġrep",
        "ly"
      ],
      [
        "Ġlike",
        "s"
      ],
      [
        "Ġfa",
        "ct"
      ],
      [
        "Ġansw",
        "er"
      ],
      [
        "Ġpan",
        "ic"
      ],
      [
        "Ġp",
        "op"
      ],
      [
        "Ġwor",
        "ks"
      ],
      [
        "Ġsm",
        "all"
      ],
      [
        "Ġdiffic",
        "ult"
      ],
      [
        "p",
        "id"
      ],
      [
        "Ġm",
        "at"
      ],
      [
        "Ġsome",
        "how"
      ],
      [
        "Ġdefin",
        "itely"
      ],
      [
        "u",
        "tes"
      ],
      [
        "Ġide",
        "k"
      ],
      [
        "Ġout",
        "side"
      ],
      [
        "Ġtoo",
        "k"
      ],
      [
        "ter",
        "s"
      ],
      [
        "Ġsupp",
        "osed"
      ],
      [
        "Ġof",
        "ten"
      ],
      [
        "Ġpo",
        "st"
      ],
      [
        "h",
        "d"
      ],
      [
        "Ġwor",
        "ld"
      ],
      [
        "Ġparent",
        "s"
      ],
      [
        "i",
        "pp"
      ],
      [
        "Ġtake",
        "s"
      ],
      [
        "pt",
        "ion"
      ],
      [
        "Ġ",
        "z"
      ],
      [
        "Ġhave",
        "n"
      ],
      [
        "b",
        "ook"
      ],
      [
        "Ġt",
        "ill"
      ],
      [
        "wa",
        "ifu"
      ],
      [
        "Ġbir",
        "th"
      ],
      [
        "Ġd",
        "ie"
      ],
      [
        "Ġtell",
        "ing"
      ],
      [
        "Ġday",
        "light"
      ],
      [
        "ad",
        "s"
      ],
      [
        "rate",
        "waifu"
      ],
      [
        "Ġallow",
        "ed"
      ],
      [
        "Ġc",
        "op"
      ],
      [
        "ic",
        "ul"
      ],
      [
        "id",
        "ed"
      ],
      [
        "Ġg",
        "ames"
      ],
      [
        "se",
        "nt"
      ],
      [
        "Ġag",
        "es"
      ],
      [
        "Ġthey",
        "re"
      ],
      [
        "00",
        "0"
      ],
      [
        "Ġappreci",
        "ate"
      ],
      [
        "Ġfo",
        "llow"
      ],
      [
        "r",
        "u"
      ],
      [
        "Ġe",
        "ff"
      ],
      [
        "Ġde",
        "press"
      ],
      [
        "od",
        "e"
      ],
      [
        "Ġd",
        "uring"
      ],
      [
        "z",
        "y"
      ],
      [
        "y",
        "le"
      ],
      [
        "Ġaut",
        "istic"
      ],
      [
        "o",
        "b"
      ],
      [
        "Ġwor",
        "ry"
      ],
      [
        "g",
        "er"
      ],
      [
        "ing",
        "s"
      ],
      [
        "Ġto",
        "wards"
      ],
      [
        "Ġsex",
        "y"
      ],
      [
        "Ġwo",
        "nder"
      ],
      [
        "Ġposs",
        "ible"
      ],
      [
        "Ġcont",
        "ro"
      ],
      [
        "Ġcha",
        "ng"
      ],
      [
        "Ġcry",
        "ing"
      ],
      [
        "Ġs",
        "at"
      ],
      [
        "Ġco",
        "lle"
      ],
      [
        "Ġ1",
        "8"
      ],
      [
        "sh",
        "ip"
      ],
      [
        "Ġre",
        "qu"
      ],
      [
        "t",
        "m"
      ],
      [
        "u",
        "k"
      ],
      [
        "y",
        "out"
      ],
      [
        "Ġlo",
        "st"
      ],
      [
        "Ġlove",
        "s"
      ],
      [
        "Ġcha",
        "r"
      ],
      [
        "Ġc",
        "ree"
      ],
      [
        "Ġr",
        "ather"
      ],
      [
        "p",
        "ut"
      ],
      [
        "Ġele",
        "ct"
      ],
      [
        "Ġn",
        "umb"
      ],
      [
        "Ġe",
        "mail"
      ],
      [
        "Ġeff",
        "ort"
      ],
      [
        "Ġby",
        "e"
      ],
      [
        "u",
        "gh"
      ],
      [
        "Ġto",
        "t"
      ],
      [
        "in",
        "y"
      ],
      [
        "Ġty",
        "pe"
      ],
      [
        "Ġex",
        "p"
      ],
      [
        "Ġadd",
        "ress"
      ],
      [
        "g",
        "r"
      ],
      [
        "Ġinc",
        "l"
      ],
      [
        "o",
        "on"
      ],
      [
        "Ġw",
        "ood"
      ],
      [
        "ic",
        "t"
      ],
      [
        "w",
        "or"
      ],
      [
        "Ġmin",
        "utes"
      ],
      [
        "Ġbor",
        "ing"
      ],
      [
        "nd",
        "ed"
      ],
      [
        "Ġent",
        "ire"
      ],
      [
        "g",
        "y"
      ],
      [
        "Ġe",
        "qu"
      ],
      [
        "Ġha",
        "ting"
      ],
      [
        "Ġopin",
        "ion"
      ],
      [
        "ci",
        "ted"
      ],
      [
        "Ġsugg",
        "est"
      ],
      [
        "Ġsor",
        "t"
      ],
      [
        "Ġanx",
        "ious"
      ],
      [
        "Ġb",
        "ody"
      ],
      [
        "Ġstu",
        "pid"
      ],
      [
        "Ġd",
        "inner"
      ],
      [
        "a",
        "ir"
      ],
      [
        "om",
        "an"
      ],
      [
        "ib",
        "ly"
      ],
      [
        "Ġwould",
        "nt"
      ],
      [
        "m",
        "p"
      ],
      [
        "Ġha",
        "ng"
      ],
      [
        "Ġfa",
        "v"
      ],
      [
        "ate",
        "s"
      ],
      [
        "w",
        "atch"
      ],
      [
        "ar",
        "ch"
      ],
      [
        "Ġde",
        "ad"
      ],
      [
        "Ġme",
        "me"
      ],
      [
        "Ġrel",
        "ation"
      ],
      [
        "Ġun",
        "less"
      ],
      [
        "3",
        "3"
      ],
      [
        "Ġme",
        "t"
      ],
      [
        "Ġwe",
        "ar"
      ],
      [
        "Ġpic",
        "ture"
      ],
      [
        "Ġh",
        "id"
      ],
      [
        "Ġread",
        "ing"
      ],
      [
        "l",
        "eep"
      ],
      [
        "Ġdam",
        "n"
      ],
      [
        "Ġd",
        "roid"
      ],
      [
        "Ġb",
        "ou"
      ],
      [
        "Ġ1",
        "5"
      ],
      [
        "Ġcour",
        "se"
      ],
      [
        "ag",
        "ed"
      ],
      [
        "Ġhe",
        "he"
      ],
      [
        "Ġfuck",
        "in"
      ],
      [
        "Ġhe",
        "ating"
      ],
      [
        "Ġhear",
        "d"
      ],
      [
        "Ġooo",
        "h"
      ],
      [
        "m",
        "me"
      ],
      [
        "Ġst",
        "and"
      ],
      [
        "Ġlove",
        "ly"
      ],
      [
        "Ġfl",
        "o"
      ],
      [
        "Ġloo",
        "ked"
      ],
      [
        "Ġte",
        "xt"
      ],
      [
        "ci",
        "ally"
      ],
      [
        "Ġcl",
        "ose"
      ],
      [
        "d",
        "y"
      ],
      [
        "Ġcon",
        "vers"
      ],
      [
        "Ġhum",
        "an"
      ],
      [
        "Ġim",
        "ag"
      ],
      [
        "Ġhow",
        "s"
      ],
      [
        "Ġcom",
        "es"
      ],
      [
        "Ġp",
        "izz"
      ],
      [
        "Ġpo",
        "s"
      ],
      [
        "Ġa",
        "ge"
      ],
      [
        "Ġho",
        "ld"
      ],
      [
        "Ġd",
        "u"
      ],
      [
        "Ġtr",
        "u"
      ],
      [
        "Ġsl",
        "ight"
      ],
      [
        "Ġreal",
        "ised"
      ],
      [
        "Ġfig",
        "ure"
      ],
      [
        "Ġx",
        "ox"
      ],
      [
        "âĢ",
        "¢"
      ],
      [
        "m",
        "on"
      ],
      [
        "Ġex",
        "cited"
      ],
      [
        "Ġeven",
        "ing"
      ],
      [
        "Ġfin",
        "ally"
      ],
      [
        "Ġcons",
        "ider"
      ],
      [
        "!",
        "'"
      ],
      [
        "er",
        "ic"
      ],
      [
        "Ġdisc",
        "uss"
      ],
      [
        "Ġsupp",
        "ose"
      ],
      [
        "a",
        "ut"
      ],
      [
        "Ġon",
        "line"
      ],
      [
        "r",
        "ing"
      ],
      [
        "ffe",
        "ct"
      ],
      [
        "Ġaut",
        "ism"
      ],
      [
        "Ġsitu",
        "ation"
      ],
      [
        "Ġget",
        "s"
      ],
      [
        "Ġboo",
        "k"
      ],
      [
        "Ġcou",
        "nt"
      ],
      [
        "Ġoo",
        "f"
      ],
      [
        "Ġf",
        "ix"
      ],
      [
        "ra",
        "ct"
      ],
      [
        "Ġnorm",
        "al"
      ],
      [
        "Ġm",
        "ome"
      ],
      [
        "an",
        "gle"
      ],
      [
        "Ġw",
        "at"
      ],
      [
        "Ġins",
        "ide"
      ],
      [
        "1",
        "5"
      ],
      [
        "Ġpass",
        "age"
      ],
      [
        "Ġgun",
        "na"
      ],
      [
        "k",
        "k"
      ],
      [
        "li",
        "er"
      ],
      [
        "Ġd",
        "at"
      ],
      [
        "m",
        "er"
      ],
      [
        "id",
        "ay"
      ],
      [
        "Ġdo",
        "ct"
      ],
      [
        "Ġp",
        "en"
      ],
      [
        "Ġp",
        "u"
      ],
      [
        "g",
        "ra"
      ],
      [
        "Ê",
        "ķ"
      ],
      [
        "Ġsw",
        "eet"
      ],
      [
        "Ġf",
        "ur"
      ],
      [
        "Ġloo",
        "ol"
      ],
      [
        "Ġde",
        "l"
      ],
      [
        "Ġfl",
        "at"
      ],
      [
        "Ġsc",
        "ary"
      ],
      [
        "Ġspea",
        "king"
      ],
      [
        "Ġengl",
        "ish"
      ],
      [
        "Ġh",
        "y"
      ],
      [
        "Ġas",
        "leep"
      ],
      [
        "gg",
        "ing"
      ],
      [
        "Ġwould",
        "n"
      ],
      [
        "Ġcreat",
        "ing"
      ],
      [
        "Ġu",
        "k"
      ],
      [
        "Ġam",
        "eric"
      ],
      [
        "Ġpizz",
        "a"
      ],
      [
        "c",
        "l"
      ],
      [
        "Ġc",
        "ase"
      ],
      [
        "Ġlo",
        "ts"
      ],
      [
        "Ġfa",
        "il"
      ],
      [
        "nd",
        "ay"
      ],
      [
        "m",
        "an"
      ],
      [
        "Ġi",
        "gn"
      ],
      [
        "Ġhappen",
        "ing"
      ],
      [
        "Ġ1",
        "4"
      ],
      [
        "c",
        "u"
      ],
      [
        "ic",
        "ed"
      ],
      [
        "Ġ3",
        "0"
      ],
      [
        "g",
        "a"
      ],
      [
        "Ê",
        "Ķ"
      ],
      [
        "Ġtur",
        "n"
      ],
      [
        "te",
        "ver"
      ],
      [
        "c",
        "es"
      ],
      [
        "h",
        "y"
      ],
      [
        "Ġr",
        "ant"
      ],
      [
        "Ġpl",
        "us"
      ],
      [
        "Ġfa",
        "ult"
      ],
      [
        "Ġtw",
        "itch"
      ],
      [
        "Ġch",
        "o"
      ],
      [
        "Ġpast",
        "a"
      ],
      [
        "Ġw",
        "oman"
      ],
      [
        "Ġeve",
        "nt"
      ],
      [
        "Ġbl",
        "ack"
      ],
      [
        "Ġco",
        "ld"
      ],
      [
        "Ġe",
        "v"
      ],
      [
        "a",
        "il"
      ],
      [
        "Ġt",
        "u"
      ],
      [
        "Ġp",
        "c"
      ],
      [
        "Ġsu",
        "cks"
      ],
      [
        "Ġhtt",
        "p"
      ],
      [
        "Ġear",
        "lier"
      ],
      [
        "Ġhorr",
        "ible"
      ],
      [
        "Ġs",
        "n"
      ],
      [
        "e",
        "x"
      ],
      [
        "Ġgoo",
        "gle"
      ],
      [
        "ir",
        "t"
      ],
      [
        "Ġxx",
        "x"
      ],
      [
        "Ġf",
        "all"
      ],
      [
        "Ġga",
        "ve"
      ],
      [
        "Ġfore",
        "ver"
      ],
      [
        "n",
        "n"
      ],
      [
        "Ġm",
        "il"
      ],
      [
        "Ġhope",
        "fully"
      ],
      [
        "yout",
        "ube"
      ],
      [
        "Ġs",
        "ooo"
      ],
      [
        "o",
        "ck"
      ],
      [
        "Ġme",
        "ow"
      ],
      [
        "Ġso",
        "cial"
      ],
      [
        "Ġaw",
        "w"
      ],
      [
        "dd",
        "en"
      ],
      [
        "Ġdr",
        "unk"
      ],
      [
        "Ġbirth",
        "day"
      ],
      [
        "Ġwor",
        "st"
      ],
      [
        "Ġc",
        "ba"
      ],
      [
        "ange",
        "l"
      ],
      [
        "ens",
        "ive"
      ],
      [
        "Ġslight",
        "ly"
      ],
      [
        "Ġl",
        "ow"
      ],
      [
        "Ġm",
        "ouse"
      ],
      [
        "Ġv",
        "ib"
      ],
      [
        "Ġm",
        "ass"
      ],
      [
        "nd",
        "ing"
      ],
      [
        "Ġp",
        "at"
      ],
      [
        "Ġg",
        "one"
      ],
      [
        "Ġsu",
        "ck"
      ],
      [
        "f",
        "er"
      ],
      [
        "Ġw",
        "on"
      ],
      [
        "Ġf",
        "our"
      ],
      [
        "Ġt",
        "iny"
      ],
      [
        "Ġbro",
        "ke"
      ],
      [
        "Ġobv",
        "iously"
      ],
      [
        "Ġsu",
        "dden"
      ],
      [
        "Ġlove",
        "d"
      ],
      [
        "is",
        "ing"
      ],
      [
        "Ġwe",
        "bs"
      ],
      [
        "Ġba",
        "g"
      ],
      [
        "a",
        "v"
      ],
      [
        "Ġg",
        "iving"
      ],
      [
        "Ġso",
        "l"
      ],
      [
        "l",
        "s"
      ],
      [
        "Ġu",
        "mm"
      ],
      [
        "Ġsp",
        "am"
      ],
      [
        "p",
        "r"
      ],
      [
        "so",
        "l"
      ],
      [
        "Ġco",
        "ck"
      ],
      [
        "Ġpr",
        "om"
      ],
      [
        "Ġp",
        "as"
      ],
      [
        "ra",
        "c"
      ],
      [
        "Ġstu",
        "ck"
      ],
      [
        "c",
        "on"
      ],
      [
        "Ġe",
        "ss"
      ],
      [
        "Ġex",
        "pect"
      ],
      [
        "Ġoo",
        "h"
      ],
      [
        "Ġf",
        "fs"
      ],
      [
        "olog",
        "y"
      ],
      [
        "Ġke",
        "y"
      ],
      [
        "Ġva",
        "pe"
      ],
      [
        "Ġwebs",
        "ite"
      ],
      [
        "ll",
        "ed"
      ],
      [
        "Ġb",
        "ath"
      ],
      [
        "Ġact",
        "ual"
      ],
      [
        "Ġli",
        "ving"
      ],
      [
        "1",
        "7"
      ],
      [
        "ly",
        "m"
      ],
      [
        "Ġwha",
        "tever"
      ],
      [
        "Ġhmm",
        "m"
      ],
      [
        "Ġproc",
        "ess"
      ],
      [
        "Ġfav",
        "our"
      ],
      [
        "Ġwor",
        "th"
      ],
      [
        "Ġl",
        "ie"
      ],
      [
        "Ġcur",
        "rently"
      ],
      [
        "u",
        "le"
      ],
      [
        "Ġan",
        "gry"
      ],
      [
        "Ġper",
        "f"
      ],
      [
        "c",
        "ed"
      ],
      [
        "Ġp",
        "sy"
      ],
      [
        "Ġfe",
        "ll"
      ],
      [
        "is",
        "ion"
      ],
      [
        "Ġla",
        "ugh"
      ],
      [
        "Ġcal",
        "m"
      ],
      [
        "l",
        "u"
      ],
      [
        "Ġw",
        "in"
      ],
      [
        "Ġf",
        "oc"
      ],
      [
        "ke",
        "y"
      ],
      [
        "Ġre",
        "d"
      ],
      [
        "Ġre",
        "t"
      ],
      [
        "Ġand",
        "roid"
      ],
      [
        "Ġyour",
        "s"
      ],
      [
        "Ġbit",
        "ch"
      ],
      [
        "Ġph",
        "ys"
      ],
      [
        "h",
        "t"
      ],
      [
        "fr",
        "iend"
      ],
      [
        "c",
        "er"
      ],
      [
        "Ġm",
        "ee"
      ],
      [
        "Ġtr",
        "ust"
      ],
      [
        "Ġinter",
        "net"
      ],
      [
        "Ġre",
        "ady"
      ],
      [
        "ve",
        "nt"
      ],
      [
        "c",
        "ha"
      ],
      [
        "f",
        "k"
      ],
      [
        "Ġm",
        "ult"
      ],
      [
        "se",
        "l"
      ],
      [
        "2",
        "4"
      ],
      [
        "u",
        "red"
      ],
      [
        "on",
        "se"
      ],
      [
        "it",
        "ies"
      ],
      [
        "Ġcont",
        "in"
      ],
      [
        "w",
        "u"
      ],
      [
        "Ġex",
        "tra"
      ],
      [
        "Ġsim",
        "ilar"
      ],
      [
        "p",
        "o"
      ],
      [
        "u",
        "ine"
      ],
      [
        "Ġre",
        "cent"
      ],
      [
        "Ġbl",
        "ue"
      ],
      [
        "sc",
        "ri"
      ],
      [
        "Ġf",
        "il"
      ],
      [
        "Ġstr",
        "ugg"
      ],
      [
        "b",
        "er"
      ],
      [
        "Ġpre",
        "ss"
      ],
      [
        "Ġh",
        "it"
      ],
      [
        "Ġare",
        "nt"
      ],
      [
        "1",
        "6"
      ],
      [
        "Ġw",
        "oo"
      ],
      [
        "Ġra",
        "p"
      ],
      [
        "Ġey",
        "es"
      ],
      [
        "Ġstra",
        "ight"
      ],
      [
        "2",
        "5"
      ],
      [
        "ie",
        "nt"
      ],
      [
        "Ġlove",
        "angel"
      ],
      [
        "Ġemb",
        "ar"
      ],
      [
        "Ġmome",
        "nt"
      ],
      [
        "Ġn",
        "er"
      ],
      [
        "Ġquest",
        "ion"
      ],
      [
        "ant",
        "ly"
      ],
      [
        "b",
        "b"
      ],
      [
        "Ġ",
        "/"
      ],
      [
        "Ġgen",
        "uine"
      ],
      [
        "bo",
        "ard"
      ],
      [
        "Ġval",
        "id"
      ],
      [
        "Ġy",
        "a"
      ],
      [
        "t",
        "r"
      ],
      [
        "Ġwh",
        "ite"
      ],
      [
        "Ġaw",
        "ake"
      ],
      [
        "pt",
        "op"
      ],
      [
        "Ġfin",
        "is"
      ],
      [
        "Ġeas",
        "y"
      ],
      [
        "Ġm",
        "is"
      ],
      [
        "Ġdef",
        "o"
      ],
      [
        "Ġe",
        "ffect"
      ],
      [
        "Ġfr",
        "ance"
      ],
      [
        "Ġknow",
        "s"
      ],
      [
        "Ġch",
        "ill"
      ],
      [
        "i",
        "fe"
      ],
      [
        "Ġconvers",
        "ation"
      ],
      [
        "Ġs",
        "ide"
      ],
      [
        "Ġbrain",
        "s"
      ],
      [
        "Ġment",
        "ion"
      ],
      [
        "Ġproper",
        "ly"
      ],
      [
        "Ġbe",
        "come"
      ],
      [
        "h",
        "o"
      ],
      [
        "Ġc",
        "ook"
      ],
      [
        "Ġqu",
        "ick"
      ],
      [
        "Ġsc",
        "reen"
      ],
      [
        "in",
        "es"
      ],
      [
        "en",
        "ce"
      ],
      [
        "Ġad",
        "hd"
      ],
      [
        "Ġdec",
        "ided"
      ],
      [
        "Ġfavour",
        "ite"
      ],
      [
        "Ġbou",
        "ght"
      ],
      [
        "Ġme",
        "n"
      ],
      [
        "Ġe",
        "h"
      ],
      [
        "Ġresp",
        "onse"
      ],
      [
        "Ġsex",
        "ual"
      ],
      [
        "Ġ1",
        "9"
      ],
      [
        "Ġsl",
        "ow"
      ],
      [
        "Ġser",
        "iously"
      ],
      [
        "g",
        "if"
      ],
      [
        "Ġcould",
        "nt"
      ],
      [
        "Ġ",
        "+"
      ],
      [
        "Ġd",
        "ream"
      ],
      [
        "Ġfor",
        "m"
      ],
      [
        "Ġhu",
        "ge"
      ],
      [
        "Ġcomplete",
        "ly"
      ],
      [
        "sel",
        "ves"
      ],
      [
        "Ġex",
        "am"
      ],
      [
        "Ġcare",
        "s"
      ],
      [
        "Ġd",
        "et"
      ],
      [
        "Ġrec",
        "ord"
      ],
      [
        "Ġpr",
        "oud"
      ],
      [
        "Ġproble",
        "ms"
      ],
      [
        "u",
        "x"
      ],
      [
        "Ġ",
        "ver"
      ],
      [
        "Ġle",
        "vel"
      ],
      [
        "Ġla",
        "ptop"
      ],
      [
        "air",
        "s"
      ],
      [
        "Ġp",
        "lym"
      ],
      [
        "ra",
        "l"
      ],
      [
        "Ġtra",
        "ck"
      ],
      [
        "Ġcor",
        "rect"
      ],
      [
        "Ġtw",
        "ice"
      ],
      [
        "in",
        "ess"
      ],
      [
        "Ġsh",
        "ort"
      ],
      [
        "Ġat",
        "m"
      ],
      [
        "Ġcan",
        "not"
      ],
      [
        "Ġke",
        "pt"
      ],
      [
        "Ġhate",
        "s"
      ],
      [
        "a",
        "ly"
      ],
      [
        "j",
        "k"
      ],
      [
        "Ġf",
        "ive"
      ],
      [
        "Ġhu",
        "h"
      ],
      [
        "Ġre",
        "pl"
      ],
      [
        "Ġhell",
        "o"
      ],
      [
        "Ġle",
        "mme"
      ],
      [
        "Ġcudd",
        "les"
      ],
      [
        "c",
        "y"
      ],
      [
        "Ġmess",
        "ages"
      ],
      [
        "Ġl",
        "oud"
      ],
      [
        "Ġbe",
        "aut"
      ],
      [
        "Ġnot",
        "iced"
      ],
      [
        "ip",
        "le"
      ],
      [
        "Ġpsy",
        "ch"
      ],
      [
        "Ġc",
        "ust"
      ],
      [
        "Ġwait",
        "ing"
      ],
      [
        "Ġmiss",
        "ed"
      ],
      [
        "Ġnumb",
        "er"
      ],
      [
        "ÊĶ",
        "ãģ£"
      ],
      [
        "Ġlo",
        "g"
      ],
      [
        "u",
        "in"
      ],
      [
        "Ġno",
        "pe"
      ],
      [
        "Ġpr",
        "odu"
      ],
      [
        "Ġrelation",
        "ship"
      ],
      [
        "Ġbr",
        "u"
      ],
      [
        "Ġess",
        "ay"
      ],
      [
        "Ġs",
        "ys"
      ],
      [
        "w",
        "ise"
      ],
      [
        "Ġind",
        "eed"
      ],
      [
        "re",
        "w"
      ],
      [
        "re",
        "nce"
      ],
      [
        "Ġgive",
        "s"
      ],
      [
        "Ġbas",
        "ed"
      ],
      [
        "if",
        "y"
      ],
      [
        "iz",
        "e"
      ],
      [
        "Ġcon",
        "ta"
      ],
      [
        "Ġwal",
        "ked"
      ],
      [
        "Ġg",
        "ross"
      ],
      [
        "Ġsome",
        "where"
      ],
      [
        "Ġf",
        "it"
      ],
      [
        "Ġne",
        "ar"
      ],
      [
        "Ġ1",
        "3"
      ],
      [
        "Ġoh",
        "hh"
      ],
      [
        "h",
        "s"
      ],
      [
        "Ġd",
        "eep"
      ],
      [
        "Ġcon",
        "st"
      ],
      [
        "lo",
        "ad"
      ],
      [
        "Ġste",
        "p"
      ],
      [
        "Ġser",
        "ver"
      ],
      [
        "Ġtot",
        "ally"
      ],
      [
        "Ġe",
        "arly"
      ],
      [
        "ee",
        "r"
      ],
      [
        "or",
        "n"
      ],
      [
        "Ġnot",
        "ice"
      ],
      [
        "Ġsh",
        "ut"
      ],
      [
        "Ġdis",
        "t"
      ],
      [
        "ing",
        "e"
      ],
      [
        "tm",
        "as"
      ],
      [
        "Ġsudden",
        "ly"
      ],
      [
        "un",
        "e"
      ],
      [
        "Ġfam",
        "ily"
      ],
      [
        "Ġstar",
        "ting"
      ],
      [
        "Ġinc",
        "red"
      ],
      [
        "Ġfr",
        "ont"
      ],
      [
        "Ġb",
        "i"
      ],
      [
        "ive",
        "ly"
      ],
      [
        "Ġaccident",
        "ally"
      ],
      [
        "Ġcolle",
        "ge"
      ],
      [
        "âĢ¢",
        "Ì"
      ],
      [
        "Ġcl",
        "os"
      ],
      [
        "Ġpar",
        "ty"
      ],
      [
        "Ġv",
        "i"
      ],
      [
        "it",
        "al"
      ],
      [
        "Ġgo",
        "es"
      ],
      [
        "p",
        "a"
      ],
      [
        "ess",
        "s"
      ],
      [
        "Ġchris",
        "tmas"
      ],
      [
        "i",
        "ted"
      ],
      [
        "Ġst",
        "ory"
      ],
      [
        "Ġgirl",
        "s"
      ],
      [
        "Ġhun",
        "gry"
      ],
      [
        "Ġcree",
        "py"
      ],
      [
        "Ġr",
        "ound"
      ],
      [
        "1",
        "4"
      ],
      [
        "Ġp",
        "ol"
      ],
      [
        "Ġhug",
        "s"
      ],
      [
        "ake",
        "d"
      ],
      [
        "ur",
        "s"
      ],
      [
        "Ġflo",
        "or"
      ],
      [
        "Ġs",
        "qu"
      ],
      [
        "Ġr",
        "an"
      ],
      [
        "Ġhear",
        "t"
      ],
      [
        "Ġjo",
        "in"
      ],
      [
        "Ġ>",
        "."
      ],
      [
        "Ġbus",
        "y"
      ],
      [
        "Ġ1",
        "6"
      ],
      [
        "Ġengl",
        "and"
      ],
      [
        "f",
        "ast"
      ],
      [
        "Ġs",
        "illy"
      ],
      [
        "if",
        "ul"
      ],
      [
        "anc",
        "y"
      ],
      [
        "Ġtechn",
        "ically"
      ],
      [
        "Ġpart",
        "ner"
      ],
      [
        "Ġgener",
        "al"
      ],
      [
        "e",
        "m"
      ],
      [
        "oo",
        "t"
      ],
      [
        "fort",
        "able"
      ],
      [
        "pe",
        "cially"
      ],
      [
        "Ġinf",
        "orm"
      ],
      [
        "Ġa",
        "ir"
      ],
      [
        "Ġhappen",
        "s"
      ],
      [
        "d",
        "ing"
      ],
      [
        "i",
        "ot"
      ],
      [
        "Ġexper",
        "ience"
      ],
      [
        "Ġquest",
        "ions"
      ],
      [
        "Ġxox",
        "o"
      ],
      [
        "1",
        "9"
      ],
      [
        "Ġdec",
        "ide"
      ],
      [
        "1",
        "3"
      ],
      [
        "le",
        "x"
      ],
      [
        "ert",
        "ain"
      ],
      [
        "Ġlong",
        "er"
      ],
      [
        "Ġbro",
        "ther"
      ],
      [
        "ron",
        "ic"
      ],
      [
        "Ġt",
        "est"
      ],
      [
        "Ġth",
        "row"
      ],
      [
        "Ġst",
        "yle"
      ],
      [
        "Ġwo",
        "ke"
      ],
      [
        "Ġincl",
        "ud"
      ],
      [
        "he",
        "ad"
      ],
      [
        "ke",
        "ts"
      ],
      [
        "i",
        "k"
      ],
      [
        "Ġwe",
        "l"
      ],
      [
        "Ġimag",
        "ine"
      ],
      [
        "Ġbu",
        "ild"
      ],
      [
        "tent",
        "ion"
      ],
      [
        "Ġs",
        "me"
      ],
      [
        "Ġb",
        "ass"
      ],
      [
        "Ġlis",
        "t"
      ],
      [
        "Ġsing",
        "ing"
      ],
      [
        "Ġiss",
        "ue"
      ],
      [
        "d",
        "le"
      ],
      [
        "m",
        "in"
      ],
      [
        "Ġn",
        "ic"
      ],
      [
        "Ġne",
        "ither"
      ],
      [
        "che",
        "n"
      ],
      [
        "a",
        "x"
      ],
      [
        "Ġl",
        "ar"
      ],
      [
        "Ġy",
        "h"
      ],
      [
        "nd",
        "on"
      ],
      [
        "Ġpro",
        "f"
      ],
      [
        "is",
        "ts"
      ],
      [
        "f",
        "l"
      ],
      [
        "j",
        "s"
      ],
      [
        "Ġ",
        "?"
      ],
      [
        "Ġlike",
        "ly"
      ],
      [
        "Ġface",
        "book"
      ],
      [
        "Ġspec",
        "ific"
      ],
      [
        "Ġyou",
        "t"
      ],
      [
        "Ġsp",
        "o"
      ],
      [
        "Ġmum",
        "s"
      ],
      [
        "Ġpart",
        "icul"
      ],
      [
        "Ġconta",
        "ct"
      ],
      [
        "Ġpro",
        "v"
      ],
      [
        "cc",
        "oon"
      ],
      [
        "Ġsleep",
        "ing"
      ],
      [
        "Ġwar",
        "m"
      ],
      [
        "Ġgenuine",
        "ly"
      ],
      [
        "Ġne",
        "arly"
      ],
      [
        "Ġcall",
        "ing"
      ],
      [
        "Ġb",
        "ra"
      ],
      [
        "5",
        "0"
      ],
      [
        "ter",
        "n"
      ],
      [
        "Ġfu",
        "cked"
      ],
      [
        "Ġsen",
        "s"
      ],
      [
        "1",
        "8"
      ],
      [
        "Ġs",
        "oup"
      ],
      [
        "Ġj",
        "u"
      ],
      [
        "Ġmee",
        "ting"
      ],
      [
        "y",
        "ou"
      ],
      [
        "Ġboy",
        "friend"
      ],
      [
        "Ġi",
        "ly"
      ],
      [
        "ile",
        "d"
      ],
      [
        "Ġmil",
        "k"
      ],
      [
        "Ġl",
        "ine"
      ],
      [
        "Ġannoy",
        "ed"
      ],
      [
        "Ġo",
        "dd"
      ],
      [
        "Ġbre",
        "ad"
      ],
      [
        "Ġcould",
        "n"
      ],
      [
        "Ġkit",
        "chen"
      ],
      [
        "Ġarg",
        "o"
      ],
      [
        "Ġmult",
        "iple"
      ],
      [
        "Ġscream",
        "ing"
      ],
      [
        "p",
        "ris"
      ],
      [
        "Ġcl",
        "ot"
      ],
      [
        "Ġtur",
        "ned"
      ],
      [
        "Ġb",
        "ar"
      ],
      [
        "Ġbr",
        "ight"
      ],
      [
        "Ġspe",
        "nt"
      ],
      [
        "Ġdam",
        "mit"
      ],
      [
        "Ġes",
        "pecially"
      ],
      [
        "Ê",
        "ĺ"
      ],
      [
        "Ġs",
        "ile"
      ],
      [
        "Ġcom",
        "ment"
      ],
      [
        "Ġdis",
        "app"
      ],
      [
        "Ġmass",
        "ive"
      ],
      [
        "ill",
        "s"
      ],
      [
        "Ġstr",
        "ong"
      ],
      [
        "Ġw",
        "ake"
      ],
      [
        "ie",
        "t"
      ],
      [
        "Ġwhe",
        "ther"
      ],
      [
        "Ġcomp",
        "l"
      ],
      [
        "Ġgr",
        "oup"
      ],
      [
        "Ġt",
        "v"
      ],
      [
        "re",
        "ad"
      ],
      [
        "q",
        "ue"
      ],
      [
        "u",
        "rate"
      ],
      [
        "Ġstu",
        "de"
      ],
      [
        "Ġshow",
        "er"
      ],
      [
        "Ġo",
        "pp"
      ],
      [
        "Ġbreak",
        "fast"
      ],
      [
        "Ġsksks",
        "k"
      ],
      [
        "\"",
        ")"
      ],
      [
        "Ġother",
        "wise"
      ],
      [
        "Ġtra",
        "um"
      ],
      [
        "Ġplym",
        "outh"
      ],
      [
        "Ġpiss",
        "ed"
      ],
      [
        "a",
        "w"
      ],
      [
        "d",
        "o"
      ],
      [
        "te",
        "nd"
      ],
      [
        "Ġ",
        "vers"
      ],
      [
        "Ġcha",
        "os"
      ],
      [
        "Ġother",
        "s"
      ],
      [
        "Ġeas",
        "ier"
      ],
      [
        "Ġpoo",
        "p"
      ],
      [
        "Ġlo",
        "ndon"
      ],
      [
        "en",
        "g"
      ],
      [
        "Ġg",
        "reen"
      ],
      [
        "Ġ1",
        "00"
      ],
      [
        "Ġpa",
        "id"
      ],
      [
        "Ġap",
        "olog"
      ],
      [
        "Ġf",
        "ire"
      ],
      [
        "Ġu",
        "wu"
      ],
      [
        "Ġh",
        "m"
      ],
      [
        "ker",
        "s"
      ],
      [
        "d",
        "own"
      ],
      [
        "es",
        "us"
      ],
      [
        "Ġre",
        "mo"
      ],
      [
        "Ġa",
        "nt"
      ],
      [
        "Ġs",
        "ix"
      ],
      [
        "Ġend",
        "ed"
      ],
      [
        "Ġd",
        "ue"
      ],
      [
        "Ġd",
        "ans"
      ],
      [
        "Ġsha",
        "re"
      ],
      [
        "Ġyou",
        "ng"
      ],
      [
        "Ġ>",
        ":"
      ],
      [
        "Ġdi",
        "rect"
      ],
      [
        "med",
        "i"
      ],
      [
        "Ġpur",
        "ple"
      ],
      [
        "2",
        "3"
      ],
      [
        "he",
        "t"
      ],
      [
        "Ġca",
        "mer"
      ],
      [
        "Ġdes",
        "er"
      ],
      [
        "Ġcontro",
        "l"
      ],
      [
        "Ġrecent",
        "ly"
      ],
      [
        "Ġkiss",
        "ing"
      ],
      [
        "d",
        "f"
      ],
      [
        "s",
        "ted"
      ],
      [
        "Ġspe",
        "nd"
      ],
      [
        "Ġbeaut",
        "iful"
      ],
      [
        "z",
        "z"
      ],
      [
        "Ġleave",
        "s"
      ],
      [
        "Ġu",
        "h"
      ],
      [
        "Ġp",
        "our"
      ],
      [
        "Ġlove",
        "angle"
      ],
      [
        "e",
        "g"
      ],
      [
        "Ġi",
        "g"
      ],
      [
        "Ġlike",
        "d"
      ],
      [
        "Ġsur",
        "pris"
      ],
      [
        "w",
        "hat"
      ],
      [
        "Ġlo",
        "s"
      ],
      [
        "Ġperson",
        "al"
      ],
      [
        "'",
        ","
      ],
      [
        "h",
        "ugs"
      ],
      [
        "Ġhow",
        "ever"
      ],
      [
        "Ġmove",
        "s"
      ],
      [
        "Ġcle",
        "arly"
      ],
      [
        "Ġstress",
        "ed"
      ],
      [
        "Ġemot",
        "ional"
      ],
      [
        "Ġhelp",
        "ing"
      ],
      [
        "Ġacc",
        "urate"
      ],
      [
        "b",
        "r"
      ],
      [
        "m",
        "at"
      ],
      [
        "et",
        "s"
      ],
      [
        "Ġagain",
        "st"
      ],
      [
        "ome",
        "n"
      ],
      [
        "um",
        "p"
      ],
      [
        "pe",
        "cted"
      ],
      [
        "Ġf",
        "ight"
      ],
      [
        "Ġw",
        "ife"
      ],
      [
        "Ġde",
        "ath"
      ],
      [
        "Ġcra",
        "p"
      ],
      [
        "Ġc",
        "e"
      ],
      [
        "Ġarg",
        "u"
      ],
      [
        "Ġsh",
        "out"
      ],
      [
        "Ġam",
        "ount"
      ],
      [
        "Ġtake",
        "n"
      ],
      [
        "Ġy",
        "o"
      ],
      [
        "an",
        "y"
      ],
      [
        "Ġso",
        "fa"
      ],
      [
        "Ġintere",
        "sted"
      ],
      [
        "Ġpro",
        "ject"
      ],
      [
        "n",
        "se"
      ],
      [
        "Ġsit",
        "ting"
      ],
      [
        "(",
        ")"
      ],
      [
        "4",
        "0"
      ],
      [
        "p",
        "op"
      ],
      [
        "Ġd",
        "ou"
      ],
      [
        "Ġp",
        "ee"
      ],
      [
        "Ġbe",
        "n"
      ],
      [
        "Ġhu",
        "gging"
      ],
      [
        "p",
        "ar"
      ],
      [
        "Ġc",
        "ertain"
      ],
      [
        "Ġsend",
        "ing"
      ],
      [
        "Ġatta",
        "ck"
      ],
      [
        "Ġcoo",
        "king"
      ],
      [
        "Ġo",
        "bs"
      ],
      [
        "Ġmid",
        "dle"
      ],
      [
        "Ġyout",
        "ube"
      ],
      [
        "g",
        "o"
      ],
      [
        "Ġf",
        "ake"
      ],
      [
        "Ġfr",
        "iday"
      ],
      [
        "Ġsing",
        "le"
      ],
      [
        "Ġy",
        "esss"
      ],
      [
        "v",
        "i"
      ],
      [
        "Ġj",
        "esus"
      ],
      [
        "ten",
        "or"
      ],
      [
        "Ġpre",
        "fer"
      ],
      [
        "k",
        "a"
      ],
      [
        "ant",
        "s"
      ],
      [
        "Ġor",
        "gan"
      ],
      [
        "d",
        "n"
      ],
      [
        "re",
        "n"
      ],
      [
        "Ġd",
        "ude"
      ],
      [
        "Ġo",
        "w"
      ],
      [
        "ll",
        "s"
      ],
      [
        "pp",
        "ed"
      ],
      [
        "il",
        "t"
      ],
      [
        "Ġthem",
        "selves"
      ],
      [
        "Ġcho",
        "ice"
      ],
      [
        "o",
        "nd"
      ],
      [
        "a",
        "me"
      ],
      [
        "Ġat",
        "tention"
      ],
      [
        "Ġsmo",
        "ked"
      ],
      [
        "Ġid",
        "iot"
      ],
      [
        "g",
        "u"
      ],
      [
        "l",
        "og"
      ],
      [
        "Ġst",
        "ate"
      ],
      [
        "Ġba",
        "re"
      ],
      [
        "Ġconsider",
        "ing"
      ],
      [
        "Ġa",
        "i"
      ],
      [
        "Ġli",
        "l"
      ],
      [
        "Ġq",
        "ue"
      ],
      [
        "g",
        "s"
      ],
      [
        "Ġa",
        "a"
      ],
      [
        "Ġlo",
        "ads"
      ],
      [
        "Ġd",
        "ate"
      ],
      [
        "Ġexp",
        "ensive"
      ],
      [
        "Ġbro",
        "ken"
      ],
      [
        "Ġas",
        "her"
      ],
      [
        "b",
        "ot"
      ],
      [
        "ul",
        "ar"
      ],
      [
        "Ġmean",
        "ing"
      ],
      [
        "Ġm",
        "ag"
      ],
      [
        "Ġc",
        "ard"
      ],
      [
        "Ġcon",
        "ne"
      ],
      [
        "h",
        "ol"
      ],
      [
        "Ġo",
        "nt"
      ],
      [
        "Ġapp",
        "ro"
      ],
      [
        "Ġcra",
        "zy"
      ],
      [
        "s",
        "or"
      ],
      [
        "Ġre",
        "nt"
      ],
      [
        "Ġg",
        "row"
      ],
      [
        "100",
        "0"
      ],
      [
        "a",
        "i"
      ],
      [
        "r",
        "ic"
      ],
      [
        "Ġac",
        "cept"
      ],
      [
        "Ġfoc",
        "us"
      ],
      [
        "Ġfinis",
        "hed"
      ],
      [
        "e",
        "red"
      ],
      [
        "te",
        "xt"
      ],
      [
        "Ġam",
        "b"
      ],
      [
        "Ġsw",
        "ear"
      ],
      [
        "f",
        "y"
      ],
      [
        "Ġa",
        "vo"
      ],
      [
        "Ġde",
        "pe"
      ],
      [
        "o",
        "ve"
      ],
      [
        "Ġm",
        "as"
      ],
      [
        "n",
        "orm"
      ],
      [
        "is",
        "es"
      ],
      [
        "Ġad",
        "vice"
      ],
      [
        "Ġ>:",
        "("
      ],
      [
        "it",
        "ive"
      ],
      [
        "er",
        "gy"
      ],
      [
        "haha",
        "ha"
      ],
      [
        "li",
        "ke"
      ],
      [
        "igg",
        "er"
      ],
      [
        "Êķ",
        "ãģ£"
      ],
      [
        "Ġt",
        "ic"
      ],
      [
        "Ġw",
        "all"
      ],
      [
        "Ġun",
        "s"
      ],
      [
        "c",
        "le"
      ],
      [
        "Ġd",
        "ress"
      ],
      [
        "Ġ1",
        "7"
      ],
      [
        "Ġboo",
        "bs"
      ],
      [
        "Ġty",
        "ping"
      ],
      [
        "Ġkid",
        "s"
      ],
      [
        "2",
        "1"
      ],
      [
        "Ġre",
        "act"
      ],
      [
        "4",
        "5"
      ],
      [
        "Ġdr",
        "ugs"
      ],
      [
        "Ġ:(",
        "("
      ],
      [
        "te",
        "l"
      ],
      [
        "2",
        "6"
      ],
      [
        "p",
        "ort"
      ],
      [
        "in",
        "a"
      ],
      [
        "Ġp",
        "ot"
      ],
      [
        "Ġacc",
        "ess"
      ],
      [
        "Ġem",
        "o"
      ],
      [
        "Ġsys",
        "tem"
      ],
      [
        "Ġre",
        "pe"
      ],
      [
        "Ġex",
        "press"
      ],
      [
        "Ġem",
        "p"
      ],
      [
        "Ġcamer",
        "a"
      ],
      [
        "Ġsat",
        "ur"
      ],
      [
        "ag",
        "er"
      ],
      [
        "m",
        "i"
      ],
      [
        "Ġw",
        "omen"
      ],
      [
        "Ġreal",
        "ise"
      ],
      [
        "Ġman",
        "age"
      ],
      [
        "Ġsee",
        "s"
      ],
      [
        "ul",
        "es"
      ],
      [
        "ime",
        "nt"
      ],
      [
        "rop",
        "ri"
[...]
