{
    "\u0120aut": 812,
    "aly": 1980,
    "\u0120tell": 583,
    "\u0120ive": 808,
    "\u0120extra": 1956,
    "\u0120these": 843,
    "body": 946,
    "log": 1153,
    "\u0120bir": 1494,
    "\u0120?": 1877,
    "\u0120he": 151,
    "ft": 733,
    "\u0120him": 425,
    "\u0120days": 1009,
    "fer": 1813,
    "yy": 1159,
    "\u0120game": 1148,
    "\u0120chr": 1689,
    "\u0120i": 73,
    "tw": 1203,
    "\u0120needs": 1170,
    "\u0120any": 273,
    "\u0120read": 728,
    "\u0120exist": 1684,
    "\u0120charis": 413,
    "\u0120hope": 611,
    "ping": 1122,
    "\u0120ret": 1941,
    "\u0120comp": 637,
    "\u0120couldnt": 1910,
    "ha": 292,
    "\u0120interest": 969,
    "\u0120man": 498,
    "\u0120rel": 963,
    "\u0120\"": 1252,
    "\u0120pres": 1412,
    "is": 113,
    "fore": 565,
    ":": 24,
    "\u0120sub": 1671,
    "ene": 1804,
    "\u0120aaa": 886,
    "\u0120(": 388,
    "\u0120j": 140,
    "\u0120gross": 1970,
    "\u0120fault": 1716,
    "ve": 121,
    "\u0120.": 1503,
    "\u0120head": 926,
    "\u0120ac": 990,
    "right": 436,
    "f": 38,
    "ast": 354,
    "\u0120point": 831,
    "\u0120b": 82,
    "\u0120bring": 1149,
    "\u0120just": 164,
    "i": 41,
    "\u0120made": 701,
    "\u0120techn": 1738,
    "\u0120wh": 109,
    "ror": 1832,
    "\u0120on": 138,
    "na": 268,
    "\u0120hi": 960,
    "lete": 1247,
    "mm": 530,
    "eee": 1374,
    "\u0120woman": 1736,
    "20": 1647,
    "?": 29,
    "uu": 1151,
    "as": 115,
    "ms": 606,
    "\u0120email": 1623,
    "\u0120tbh": 463,
    "\u0120cute": 713,
    "uss": 1257,
    "\u0120already": 826,
    "\u0120dunno": 390,
    "\u0120aww": 682,
    "\u0120diffic": 1464,
    "\u0120type": 1606,
    "\u0120health": 1263,
    "\u0120im": 154,
    "ues": 1098,
    "\u0120hard": 702,
    "are": 349,
    "\u0120can": 227,
    "\u0120o": 85,
    "\u0120god": 736,
    "\u0120own": 923,
    "\u0120theres": 1169,
    "\u0120lets": 1281,
    "\u0120bitch": 1712,
    "\u0120asked": 1188,
    "ned": 1651,
    "\u0120co": 460,
    "ld": 167,
    "\u0120try": 474,
    "\u0120window": 1665,
    "nt": 201,
    "\u0120quite": 1255,
    "angel": 1954,
    "\u0120music": 331,
    "ent": 176,
    "\u0120disc": 774,
    "\u0120kiss": 997,
    "\u0120boring": 1622,
    "ome": 206,
    "\u0120coming": 1065,
    "\u0120still": 476,
    "\u0120realised": 1765,
    "\u0120haven": 1523,
    "cri": 1423,
    "\u0120mood": 1055,
    "izz": 1506,
    "\u0120don": 187,
    "\u0120first": 720,
    "es": 105,
    "uck": 973,
    "\u0120school": 1094,
    "\u0120friends": 904,
    "ed": 108,
    "\u0120hy": 1690,
    "\u0120interesting": 1369,
    "\u0120:)": 410,
    "\u0120hello": 1884,
    "\u0120key": 1895,
    "\u0120deal": 1495,
    "iny": 1761,
    "ause": 213,
    "tle": 754,
    "ect": 1221,
    "\u0120month": 903,
    "ctor": 961,
    "\u0120support": 947,
    "o": 47,
    "\u0120being": 421,
    "\u0120hey": 920,
    "ll": 101,
    "\u0120your": 275,
    "ies": 579,
    "fully": 1489,
    "\u0120<": 464,
    "ics": 1116,
    "\u0120often": 1556,
    "\u0120wor": 216,
    "\u0120mod": 1797,
    "reat": 609,
    "\u0120fr": 303,
    "\u0120kevin": 234,
    "\u0120way": 519,
    "\u0120h": 84,
    "\u0120sigh": 652,
    "k": 43,
    "ans": 742,
    "\u0120use": 695,
    "\u0120sent": 994,
    "\u0120arsed": 1541,
    "\u0120laptop": 1986,
    "\u0120hold": 1800,
    "ndom": 1047,
    "\u0120fin": 848,
    "\u0120discuss": 1965,
    "\u0120server": 1979,
    "\u0120close": 1694,
    "ber": 524,
    "\u0120ex": 261,
    "ense": 931,
    "\u0120brain": 1318,
    "\u0120cre": 1082,
    "\u0120rec": 1032,
    "\u0120want": 242,
    "ont": 630,
    "\u0120ref": 1491,
    "\u0120bor": 1218,
    "ten": 1044,
    "\u0120legit": 966,
    "\u0120inc": 888,
    "\u0120coll": 1339,
    "ory": 1190,
    "\u0120bye": 1515,
    "ger": 1923,
    "\u0120girl": 945,
    "\u0120what": 157,
    "\u0120perfect": 1156,
    "\u0120dancing": 1364,
    "ict": 719,
    "\u0120saw": 1186,
    "ract": 1200,
    "\u0120everything": 869,
    "\u0120obviously": 1583,
    "\u0120next": 983,
    "\u0120swear": 1816,
    "\u0120jokes": 1381,
    "\u0120today": 691,
    "\u012010": 928,
    "\u0120act": 393,
    "\u0120plan": 854,
    "ure": 467,
    "\u0120bus": 1136,
    "\u0120uk": 1709,
    "\u0120ba": 1997,
    "eric": 1681,
    "\u0120different": 1036,
    "age": 556,
    "ord": 671,
    "\u0120ask": 659,
    "ier": 1294,
    "<UNK>": 0,
    "ied": 1202,
    "ind": 269,
    "\u0120ri": 1427,
    "\u0120else": 935,
    "\u0120ext": 1278,
    "\u0120two": 953,
    "\u0120throw": 1888,
    "\u0120ab": 226,
    "sw": 934,
    "\u0120appre": 1271,
    "\u0120agree": 1449,
    "\u0120honestly": 1114,
    "\u0120both": 758,
    "\u0120feeling": 773,
    "@": 30,
    "ion": 202,
    "\u0120was": 153,
    "ear": 506,
    "\u0120all": 250,
    "\u0120oo": 756,
    "\u0120song": 1003,
    "le": 129,
    "\u0120ago": 1231,
    "im": 190,
    "\u0120pet": 665,
    "ose": 1420,
    "ner": 993,
    "\u0120for": 149,
    "fect": 819,
    "ip": 590,
    "led": 1196,
    "\u0120earlier": 1770,
    "\u0120boom": 1625,
    "\u0120keep": 782,
    "\u0120cat": 653,
    "\u0120happ": 485,
    "\u0120mom": 1195,
    "\u0120full": 1447,
    "\u0120second": 1219,
    "\u0120sur": 1287,
    "\u0120weird": 624,
    "\u0120tbf": 948,
    "\u0120fix": 1838,
    "\u0120scary": 1722,
    "\u0120cour": 1230,
    "get": 634,
    "\u0120eng": 822,
    "\u0120told": 817,
    "ually": 409,
    "\u0120d": 86,
    "\u0120dis": 502,
    "\u0120finally": 1701,
    "\u0120tired": 1266,
    "\u0120course": 1362,
    "erg": 1641,
    "\u0120mult": 1936,
    "\u0120cudd": 1260,
    "\u0120nobody": 1305,
    "iv": 1142,
    "\u0120talk": 534,
    "ably": 450,
    "\u0120det": 1779,
    "\u0120sat": 1593,
    "it": 112,
    "!": 1,
    "\u0120geor": 557,
    "osed": 1434,
    "\u0120ooh": 1092,
    "co": 727,
    "\u0120some": 312,
    "\u0120btw": 1301,
    "\u0120war": 1282,
    "pe": 422,
    "\u0120us": 397,
    "\u0120arg": 1852,
    "ce": 198,
    "ea": 188,
    "po": 863,
    "\u0120import": 1363,
    "\u0120c": 90,
    "\u0120strugg": 1851,
    "\u0120train": 1284,
    "bb": 1553,
    "\u0120pl": 254,
    "lect": 1443,
    "\u0120ama": 1388,
    "ically": 664,
    "oice": 1370,
    "\u0120enjo": 1289,
    "\u0120ter": 1391,
    "\u0120cop": 1667,
    "z": 58,
    "\u0120defin": 1405,
    "js": 1773,
    "\u0120supp": 614,
    "\u0120bro": 632,
    "\u0120going": 486,
    "\u0120hows": 1679,
    "\u0120poss": 1121,
    "\u0120appreciate": 1597,
    "ater": 627,
    "\u0120fro": 676,
    "]": 64,
    "\u0120seems": 944,
    "\u0120current": 1425,
    "\u0120bo": 441,
    "ta": 802,
    "\u0120she": 284,
    "\u0120touch": 1859,
    "\u0120is": 132,
    "\u0120important": 1428,
    "\u0120here": 529,
    "\u0120says": 1332,
    "iet": 984,
    "\u0120wed": 1705,
    "\u0120reme": 715,
    "\u0120weed": 1107,
    "\u0120ed": 1367,
    "lled": 1949,
    "\u0120listened": 1767,
    "ck": 160,
    "\u0120waiting": 1963,
    "oo": 137,
    "ooo": 1938,
    "9": 23,
    "\u0120anything": 654,
    "vers": 1193,
    "\u0120luck": 1424,
    "\u0120sucks": 1740,
    "\u0120amount": 1982,
    "\u0120allow": 1232,
    "\u0120event": 1580,
    "\u0120find": 673,
    "ak": 738,
    "my": 1592,
    "\u0120bab": 600,
    "\u0120theyre": 1562,
    "\u0120ty": 972,
    "\u0120ide": 1983,
    "\u0120s": 77,
    "1": 15,
    "\u0120colour": 1314,
    "mail": 1560,
    "llow": 1225,
    "lt": 996,
    "ious": 618,
    "mit": 1129,
    "lp": 447,
    "\u0120awk": 1152,
    "no": 283,
    "\u0120per": 672,
    "\u0120med": 640,
    "\u0120emot": 1214,
    "\u0120definitely": 1656,
    "\u0120good": 341,
    "\u0120fig": 1299,
    "\u0120very": 562,
    "\u0120tb": 377,
    "\u0120kinda": 650,
    "\u0120having": 740,
    "\u0120didn": 762,
    "\u0120hug": 1008,
    "10": 1206,
    "\u0120social": 1756,
    "\u0120our": 794,
    "boomra": 1889,
    "\u0120whats": 1128,
    "\u0120high": 1059,
    "100": 1229,
    "\u0120worse": 1292,
    "\u0120basically": 1161,
    "ap": 1239,
    "\u0120situ": 1385,
    "\u0120played": 1389,
    "\u0120mix": 1508,
    "ma": 177,
    "\u0120place": 1015,
    "pm": 1426,
    "\u0120men": 1826,
    "ps": 857,
    "ried": 734,
    "\u0120dist": 1429,
    "\u0120accidentally": 1996,
    "ang": 559,
    "\u0120boy": 1123,
    "ilst": 1353,
    "ry": 197,
    "\u0120change": 1467,
    "at": 88,
    "\u0120over": 459,
    "\u0120tomorrow": 912,
    "\u0120sonic": 1608,
    "\u0120until": 1210,
    "ight": 293,
    "\u0120list": 294,
    "\u0120son": 694,
    "\u0120proble": 1050,
    "\u0120rest": 1297,
    "oint": 1529,
    "\u0120om": 299,
    "\u0120dj": 1062,
    "yes": 1224,
    "\u0120wait": 499,
    "\u0120fre": 877,
    "\u0120win": 1759,
    "\u0120properly": 1887,
    "\u0120nope": 1930,
    "ron": 1525,
    "\u0120worst": 1763,
    "\u0120open": 1171,
    "\u0120leg": 768,
    "roid": 1827,
    "\u0120before": 601,
    "oke": 988,
    "ily": 1018,
    "\u0120ho": 986,
    "\u0120communic": 1453,
    "\u0120pete": 787,
    "\u0120wont": 776,
    "air": 998,
    "\u0120without": 1023,
    "\u0120relation": 1645,
    "\u0120internet": 1831,
    "~": 60,
    "\u0120sp": 297,
    "\u0120working": 1063,
    "ence": 801,
    "\u0120elodie": 644,
    "\u0120sweet": 1501,
    "\u0120why": 183,
    "=": 27,
    "\u0120more": 350,
    "ins": 1548,
    "\u0120em": 646,
    "\u0120fine": 760,
    "\u0120hur": 1033,
    "\u0120set": 1048,
    "book": 1714,
    "ness": 1226,
    "ather": 1311,
    "el": 981,
    "00": 566,
    "\u012030": 1781,
    "v": 54,
    "ute": 1277,
    "\u0120qu": 508,
    "\u0120bre": 858,
    "\u0120er": 1817,
    "\u0120contact": 1976,
    "\u0120answer": 1078,
    "up": 1404,
    "?!": 1433,
    "\u0120trying": 681,
    "\u0120babe": 1475,
    "\u0120se": 271,
    "\u0120dun": 379,
    "\u0120home": 775,
    "\u0120notice": 1998,
    "ss": 622,
    "all": 150,
    "rr": 1517,
    "\u0120were": 334,
    "ance": 576,
    "\u0120complete": 1546,
    "\u0120much": 416,
    "\u0120fucks": 1358,
    "ep": 267,
    "\u0120wom": 1192,
    "ity": 610,
    "\u0120pa": 1422,
    "\u0120honest": 896,
    "\u0120ha": 125,
    "\u0120dad": 739,
    "\u0120forgot": 1607,
    "\u0120acc": 700,
    "\u0120exp": 1201,
    "\u0120st": 148,
    "\u0120mad": 560,
    "_": 32,
    "\u0120re": 141,
    "eep": 706,
    "\u0120expect": 1394,
    "out": 168,
    "\u0120thing": 359,
    "\u0120move": 1096,
    "\u0120unless": 1646,
    "ret": 1439,
    "\u0120confused": 1470,
    "\u0120won": 1901,
    "ud": 400,
    "\u0120yesterday": 1320,
    "so": 315,
    "\u0120end": 749,
    "..": 220,
    "\u0120kill": 1089,
    "\u0120are": 212,
    "\u0120alone": 1245,
    "\u0120into": 588,
    "\u0120space": 1437,
    "\u0120tru": 1692,
    "\u0120felt": 1312,
    "\u0120a": 75,
    "\u0120inf": 1167,
    "pped": 1768,
    "\u0120correct": 1892,
    "\u0120hor": 800,
    "\u0120geepy": 918,
    "umber": 1799,
    "\u0120whilst": 1372,
    "\u0120understand": 743,
    "\u0120years": 1038,
    "\u0120outside": 1538,
    "\u0120am": 263,
    "\u0120has": 505,
    "\u0120cannot": 1896,
    "a": 33,
    "\u0120its": 207,
    "itch": 1127,
    "\u0120low": 1570,
    "\u0120old": 829,
    "nday": 1658,
    "<": 26,
    "\u0120mus": 317,
    "\u013f": 71,
    "\u0120top": 1340,
    "\u0120car": 1228,
    "\u0120stuck": 1792,
    "ail": 1612,
    "ations": 1290,
    "'t": 221,
    "\u0120decided": 1937,
    "\u0120hit": 1860,
    "\u0120apo": 1903,
    "use": 182,
    "\u0120video": 1208,
    "\u0120reading": 1772,
    "ic": 123,
    "u": 53,
    "\u0120help": 462,
    "\u0120yay": 704,
    "ng": 1512,
    "ccoon": 1584,
    "\u0120random": 1143,
    "ings": 1617,
    "\u0120under": 587,
    "\u0120elect": 1715,
    "ase": 420,
    "\u0120thanks": 685,
    "\u0120tim": 339,
    "\u0120take": 674,
    "ges": 1542,
    "\u0120com": 326,
    "\u0120awes": 982,
    "\u0120part": 631,
    "\u0120great": 933,
    "rent": 730,
    "\u0120later": 745,
    "\u0120mar": 1137,
    "\u0120message": 1269,
    "\u0120goog": 1633,
    "ual": 752,
    "ken": 1197,
    "ake": 1342,
    "inge": 1962,
    "on": 100,
    "cks": 1030,
    "\u0120cor": 1331,
    "\u0120stress": 1026,
    "\u0120obv": 1306,
    "les": 726,
    "\u0120die": 1614,
    "\u0120stop": 709,
    "hing": 384,
    "ill": 200,
    "\u0120start": 658,
    "mor": 781,
    "\u0120walk": 1466,
    "\u0120might": 570,
    "\u0120americ": 1724,
    "\u0120br": 759,
    "\u0120mins": 1125,
    "\u0120stra": 1380,
    "\u0120sol": 1806,
    "4": 18,
    "\u0120exam": 1931,
    "\u0120thats": 318,
    "em": 1272,
    "\u0120yet": 1105,
    "\u0120did": 245,
    "\u0120night": 725,
    "\u0120ge": 542,
    "\u0120scream": 1666,
    "udd": 1106,
    "\u0120kind": 480,
    "\u0120mor": 1280,
    "tu": 1951,
    "\u0120sl": 809,
    "\u0120word": 598,
    "\u0120through": 897,
    "\u0120class": 1383,
    "\u0120one": 281,
    "\u0120each": 1220,
    "\u0120nd": 1350,
    "ut": 124,
    "\u0120ta": 469,
    "\u0120an": 162,
    "ash": 1073,
    "\u0120wonder": 1639,
    "ess": 247,
    "\u0120ew": 1160,
    "...": 423,
    "\u0120ve": 1430,
    "ower": 1871,
    "\u0120sw": 1014,
    "yed": 1554,
    "wise": 1977,
    "\u0120track": 1881,
    "ways": 633,
    "ub": 1087,
    "ish": 478,
    "\u0120late": 1309,
    "\u0120anxiety": 1323,
    "\u0120cry": 914,
    "\u0120happen": 772,
    "art": 361,
    "outh": 1513,
    "\u0120equ": 1780,
    "\u0120bread": 1934,
    "\u0120appointment": 1795,
    "\u0120not": 155,
    "\u0120seen": 1345,
    "\u0120horrible": 1097,
    "\u0120hear": 1177,
    "\u0120froggy": 803,
    "\u0120giving": 1940,
    "\u0120ass": 836,
    "\u0120val": 1505,
    "ie": 329,
    "\u0120bu": 711,
    "\u0120op": 873,
    "iz": 838,
    "\u0120pop": 1519,
    "ack": 367,
    "\u0120toilet": 1822,
    "\u0120inter": 965,
    "\u0120spend": 1794,
    "\u0120rn": 1233,
    "un": 214,
    "\u0120pot": 1890,
    "oud": 1083,
    "\u0120though": 735,
    "\u0120cou": 1534,
    "res": 309,
    "\u0120stream": 596,
    "\u0120form": 1985,
    "ty": 491,
    "\u0120damn": 1348,
    "\u0120which": 552,
    "ody": 714,
    "\u0120writing": 1992,
    "way": 449,
    "\u0120feel": 302,
    "\u0120happy": 795,
    "\u0120shes": 939,
    "\u0120hot": 1071,
    "\u0120scared": 985,
    "\u0120christ": 1771,
    "\u0120id": 515,
    "anc": 807,
    "\u0120saying": 786,
    "\u0120ple": 509,
    "\u0120stay": 1074,
    "\u0120months": 1279,
    "\u0120cl": 612,
    "ra": 222,
    "\u0120almost": 1483,
    "wh": 847,
    "(": 6,
    "inner": 1933,
    "\u0120dec": 805,
    "\u0120boo": 656,
    "\u012012": 1444,
    "\u0120started": 1327,
    "\u0120rap": 1858,
    "io": 1543,
    "\u0120flat": 1662,
    "\u0120wi": 1640,
    "\u0120doing": 531,
    "\u0120lovely": 1680,
    "ific": 1222,
    "\u0120words": 1643,
    "\u0120only": 411,
    "ions": 686,
    "ames": 1173,
    "alth": 1191,
    "\u0120quest": 1217,
    "\u0120plz": 1413,
    "\u0120:'": 1409,
    "\u0120bit": 479,
    "\u0120myself": 667,
    "sy": 1611,
    "\u0120lot": 577,
    "ick": 406,
    "ah": 1879,
    "\u0120remember": 744,
    "ither": 850,
    "ght": 185,
    "ys": 550,
    "\u0120rather": 1634,
    "\u0120attack": 1663,
    "\u0120hung": 1613,
    "ade": 1861,
    "\u0120ke": 209,
    "\u0120fun": 660,
    "ction": 1132,
    "\u0120actual": 1828,
    "lo": 445,
    "\u0120pretty": 769,
    "ide": 484,
    "\u0120n": 97,
    "\u0120relationship": 1669,
    "\u0120dead": 1655,
    "\u0120the": 94,
    "\u0120ob": 1000,
    "\u0120using": 1274,
    "\u0120l": 89,
    "\u0120best": 797,
    "gr": 1066,
    "ho": 1927,
    "\u0120college": 1990,
    "king": 218,
    "ugh": 1454,
    "\u0120found": 1025,
    "we": 696,
    "\u0120cons": 958,
    "\u0120by": 461,
    "\u0120cause": 340,
    "\u0120wants": 1175,
    "\u0120they": 224,
    "\u0120between": 1510,
    "ience": 1533,
    "\u0120ent": 1117,
    "\u0120living": 1809,
    "ents": 1516,
    "\u0120contin": 1841,
    "self": 503,
    "ge": 241,
    "\u0120fucking": 604,
    "ently": 1478,
    "ot": 174,
    "ke": 117,
    "\u0120kid": 938,
    "oup": 1713,
    "'re": 291,
    "mme": 1814,
    "\u0120isnt": 1150,
    "haha": 1753,
    "\u0120rem": 1638,
    "s": 51,
    "\u0120sc": 418,
    "ig": 419,
    "ided": 1627,
    "\u0120parent": 1442,
    "one": 306,
    "\u0120who": 375,
    "rect": 1530,
    "\u0120manag": 1837,
    "\u0120count": 1488,
    "\u0120rude": 1172,
    "\u0120sit": 866,
    "ns": 1748,
    "\u0120wanted": 832,
    "leep": 483,
    "\u0120y": 93,
    "gn": 968,
    "aring": 1566,
    "\u0120sense": 1182,
    "jo": 1189,
    "\u0120fact": 1626,
    "sh": 692,
    "\u0120wow": 1019,
    "\u0120angle": 1067,
    "ye": 1734,
    "\u0120now": 255,
    "\u0120isn": 1319,
    "ming": 1436,
    "ately": 1706,
    "\u0120said": 512,
    "\u0120anyone": 1328,
    "\u0120sm": 549,
    "\u0120nah": 766,
    "\u0120sometimes": 1075,
    "inking": 816,
    "\u0120than": 330,
    "\u0120free": 1035,
    "lling": 1371,
    "\u0120sim": 1064,
    "\u0120poop": 1587,
    "\u0120call": 547,
    "med": 1039,
    "\u0120sch": 927,
    "\u0120awesome": 1013,
    "\u0120wasnt": 1238,
    "\u0120shut": 1939,
    "\u0120anno": 788,
    "op": 203,
    "\u0120ill": 619,
    "p": 48,
    "sed": 1061,
    "ugs": 1338,
    "\u0120defo": 1865,
    "\u00a6": 62,
    "ere": 368,
    "\u0120hours": 845,
    "\u0120things": 567,
    "eah": 253,
    "per": 443,
    "'ve": 475,
    "\u0120you": 104,
    "ac": 1086,
    "df": 1596,
    "\u0120gir": 780,
    "\u0120stand": 1730,
    "\u0120issues": 1502,
    "ratewaifu": 1531,
    "ble": 540,
    "\u0120boof": 1498,
    "\u0120incl": 1581,
    "\u0120": 66,
    "\u0120wanna": 433,
    "\u0120send": 867,
    "\u0120address": 1603,
    "\u0120lots": 1618,
    "eed": 1854,
    "xt": 684,
    "gg": 338,
    "\u0120tu": 1678,
    "\u0120normal": 1704,
    "not": 1256,
    "\u0120des": 894,
    "\u0120could": 429,
    "\u0120sure": 608,
    "pecially": 1815,
    "\u0120ar": 451,
    "\u01203": 545,
    "b": 34,
    "ink": 239,
    "ath": 906,
    "ru": 1967,
    "\u0120reg": 1258,
    "\u0120ever": 643,
    "\u0120oof": 1468,
    "red": 879,
    "ffect": 1882,
    "aa": 621,
    "\u0120aw": 343,
    "ich": 514,
    "\u0120sort": 1628,
    "\u0120min": 635,
    "ced": 1696,
    "\u0120tech": 1095,
    "pr": 1752,
    "\u0120finish": 1762,
    "\u0120forever": 1782,
    "\u0120never": 538,
    "\u0120norm": 1267,
    "\u0120okay": 940,
    "\u0120may": 456,
    "q": 49,
    "\u0120eas": 1134,
    "\u0120forg": 1490,
    "fort": 1672,
    "bi": 1168,
    "\u0120commun": 1240,
    "\u0120other": 553,
    "\u0120bed": 806,
    "\u0120egg": 1484,
    "\u0120true": 661,
    "\u0120rep": 1076,
    "\u0120dra": 1461,
    "\u0120panic": 1589,
    "ised": 971,
    "\u0120adhd": 1843,
    ";": 25,
    "\u0120apparent": 1286,
    "\u0120wo": 1315,
    "irst": 708,
    "ci": 536,
    "\u0120ag": 376,
    "\u0120wa": 380,
    "\u0120liter": 648,
    "\u0120another": 1204,
    "\u012020": 1146,
    "\u0120*": 528,
    "\u0120supposed": 1545,
    "li": 783,
    "\u0120picture": 1265,
    "ise": 617,
    "\u0120def": 917,
    "\u0120watching": 1485,
    "\u0120z": 1588,
    "act": 554,
    "\u0120long": 657,
    "\u0120hop": 555,
    "id": 145,
    "du": 1261,
    "\u0120asleep": 1731,
    "\u0120expl": 942,
    "\u0120bad": 471,
    "al": 146,
    "\u0120imp": 804,
    "\u0120similar": 1902,
    "be": 453,
    "\u0120boi": 890,
    "\u0120step": 1920,
    "\u0120world": 1544,
    "w": 55,
    "\u0120v": 280,
    "\u0120sor": 314,
    "\u0120creep": 1594,
    "\u0120there": 398,
    "ts": 885,
    "\u0120vis": 1448,
    "ksks": 1774,
    "\u0120pro": 257,
    "\u0120sh": 152,
    "ire": 541,
    "\u0120far": 1396,
    "\u0120anxious": 1630,
    "\u0120unt": 1139,
    "\u0120:(": 427,
    "\u0120drink": 1719,
    "ple": 892,
    "\u0120see": 344,
    "\u0120hair": 1275,
    "\u0120straight": 1853,
    "\u0120ten": 1386,
    "\u0120knew": 1636,
    "\u0120di": 1776,
    "\u0120iss": 1090,
    "\u0120self": 1180,
    "\u0120me": 118,
    "\u0120che": 677,
    "\u0120-": 313,
    "\u0120talking": 792,
    "'": 5,
    "\u0120al": 210,
    "\u0120waht": 1234,
    "\u0120asking": 1335,
    "ward": 815,
    "\u0120uni": 1027,
    "read": 638,
    "rate": 1333,
    "\u0120bas": 835,
    "nd": 95,
    "us": 110,
    "ver": 163,
    "ross": 1237,
    "\u0120mean": 323,
    "cially": 1518,
    "ult": 626,
    "5": 19,
    "\u0120haha": 363,
    "\u0120ch": 196,
    "kes": 525,
    "\u0120arent": 1915,
    "\u0120yes": 322,
    "ons": 1223,
    "\u0120telling": 1539,
    "|": 59,
    "ar": 130,
    "ew": 1361,
    "\u0120pict": 1001,
    "\u0120tra": 666,
    "\u0120requ": 1621,
    "se": 180,
    "\u0120pan": 1249,
    "ved": 820,
    "\u0120parents": 1532,
    "\u0120hum": 1216,
    "arent": 851,
    "vent": 731,
    "mas": 1864,
    "\u0120sin": 1212,
    "\u0120chang": 1609,
    "\u0120autism": 1520,
    "\u0120ner": 1869,
    "lly": 962,
    "\u0120hand": 1184,
    "\u0120lea": 687,
    "\u0120computer": 1379,
    "\u0120able": 1031,
    "\u0120getting": 698,
    "its": 1418,
    "\u0120really": 296,
    "arch": 1808,
    "ead": 902,
    "\u0120such": 1077,
    "\u0120mum": 639,
    "'s": 217,
    "\u0120heard": 1754,
    "\u0120big": 952,
    "\u0120cuddles": 1925,
    "\u0120r": 258,
    "\u0120goo": 1355,
    "\u0120int": 417,
    "\u0120te": 355,
    "\u0120je": 870,
    "\u0120tonight": 1522,
    "pid": 1555,
    "\u0120pre": 523,
    "\u0120couple": 1867,
    "m": 45,
    "\u0120bra": 1053,
    "\u0120sn": 1943,
    "\u0120least": 784,
    "utes": 1578,
    "\u0120half": 1213,
    "\u0120mine": 837,
    "\u0120probably": 472,
    "th": 211,
    "uring": 1254,
    "\u0120annoying": 1028,
    "\u0120post": 1178,
    "jk": 1565,
    "il": 300,
    "\u0120glad": 1248,
    "re": 83,
    "\u0120eating": 1918,
    "\u0120boyfriend": 1743,
    "\u0120house": 668,
    "\u0120plym": 1928,
    "\u0120record": 1995,
    "\u0120this": 194,
    "\u0120forget": 1056,
    "\u0120light": 1373,
    "\u0120dont": 248,
    "\u0120stud": 1165,
    "%": 3,
    "\u0120go": 232,
    "ii": 1435,
    "ning": 690,
    "\u0120vape": 1747,
    "mber": 683,
    "enc": 1325,
    "\u0120buy": 1472,
    "et": 133,
    "set": 1183,
    "h": 40,
    "\u0120sorry": 351,
    "yle": 1673,
    "\u0120conc": 1790,
    "\u0120mu": 407,
    "\u0120door": 1351,
    "\u0120pizza": 1922,
    "\u0120bored": 1037,
    "\u0120play": 424,
    "\u0120new": 721,
    "itely": 1582,
    "\u0120fall": 1835,
    "ct": 175,
    "\u0120leave": 908,
    "cess": 1537,
    "\u0120case": 1737,
    "[": 63,
    "\u0120gen": 833,
    "fair": 1805,
    "\u0120f": 91,
    "\u0120meant": 929,
    "\u0120wind": 1509,
    "pl": 548,
    "\u0120bag": 1783,
    "\u0120whole": 1052,
    "\u0120online": 1702,
    "en": 102,
    "iety": 1276,
    "der": 1133,
    "\u0120pers": 620,
    "ative": 1552,
    "stand": 712,
    "kr": 1054,
    "\u01207": 1163,
    "\u0120follow": 1559,
    "atter": 1599,
    "day": 494,
    "\u0120har": 593,
    "\u0120chill": 1840,
    "\u0120those": 1012,
    "cept": 955,
    "\u0120also": 345,
    "c": 35,
    "\u0120and": 111,
    "gether": 1101,
    "\u0120sign": 1479,
    "ive": 356,
    "\u01201": 337,
    "\u0120genuine": 1873,
    "umb": 987,
    "os": 573,
    "\u0120fur": 1728,
    "\u0120fuck": 259,
    "\u0120with": 193,
    "\u0120ment": 924,
    "\u0120cool": 537,
    "\u0120colle": 1807,
    "\u0120clo": 1112,
    "\u0120le": 324,
    "\u0120care": 821,
    "ter": 262,
    "friend": 1610,
    "unch": 825,
    "ism": 1085,
    "cc": 489,
    "\u0120sleep": 520,
    "\u0120wr": 602,
    "\u0120embar": 1846,
    "\u0120like": 165,
    "0": 14,
    "\u0120th": 78,
    "\u0120tou": 1631,
    "fic": 1346,
    "\u0120ready": 1862,
    "ject": 1401,
    "lic": 1568,
    "\u0120pur": 1270,
    "\u0120effect": 1919,
    "am": 169,
    "end": 366,
    "\u0120look": 544,
    "\u0120alright": 1268,
    "\u0120tast": 1872,
    "\u0120week": 1046,
    "\u0120awake": 1961,
    "ing": 87,
    "he": 1395,
    "\u0120it": 107,
    "\u0120mess": 723,
    "\u0120str": 915,
    "\u0120time": 386,
    "\u0120cu": 1833,
    "\u0120instead": 1120,
    "\u0120danc": 1310,
    "\u00a3": 61,
    "\u20ac": 747,
    "app": 1457,
    "cond": 1185,
    "\u0120trans": 1492,
    "\u0120doesnt": 846,
    "\u0120jo": 513,
    "???": 868,
    "ite": 328,
    "\u0120spec": 1438,
    "ust": 156,
    "\u0120many": 1049,
    "\u0120cam": 1802,
    "\u0120ste": 1810,
    "\u0120upset": 1375,
    "\u0120lear": 1403,
    "ht": 1104,
    "\u0120meds": 1158,
    "\u0120mental": 1316,
    "ones": 1524,
    "\u0120gu": 442,
    "\u0120jesus": 1642,
    "\u0120trust": 1698,
    "\u0120cut": 586,
    "\u0120cle": 855,
    "\u0120proper": 1060,
    "\u0120comm": 992,
    "vo": 1550,
    "\u0120question": 1885,
    "\u0120hopefully": 1764,
    "antly": 1921,
    "ach": 729,
    "unk": 1452,
    "ities": 1907,
    "\u0120my": 139,
    "est": 289,
    "ens": 670,
    "ats": 1760,
    "vin": 233,
    "\u0120bought": 1886,
    "zing": 1298,
    "\u0120spea": 779,
    "\u0120pay": 1006,
    "able": 578,
    "rop": 1344,
    "\u0120ins": 964,
    "\u0120every": 412,
    "\u0120pret": 697,
    "\u0120prof": 1981,
    "\u0120please": 521,
    "ointment": 1735,
    "\u0120somet": 446,
    "\u0120x": 265,
    "ange": 755,
    "\u0120bot": 623,
    "\u0120swe": 1330,
    "\u0120reply": 1499,
    "\u0120tr": 401,
    "\u0120accept": 1974,
    "\u0120tried": 1387,
    "\u0120had": 389,
    "\u0120autistic": 1573,
    "+": 9,
    "\u0120write": 1720,
    "\u0120prom": 1824,
    "ress": 466,
    "\u01204": 675,
    "\u0120ma": 238,
    "\u0120does": 373,
    "\u0120super": 881,
    "\u0120:/": 1070,
    "ne": 834,
    "r": 50,
    "\u0120ang": 767,
    ">": 28,
    "\u0120yo": 1777,
    "\u0120hate": 282,
    "3": 17,
    "night": 1207,
    "\u0120mind": 1119,
    "\u0120mention": 1955,
    "\u0120get": 231,
    "\u0120engl": 980,
    "\u0024": 65,
    "\u0120stu": 497,
    "\u0120ima": 1198,
    "\u01205": 718,
    "\u0120ohh": 251,
    "\u0120press": 1880,
    "\u0120e": 119,
    ".": 12,
    "and": 432,
    "\u0120vi": 1648,
    "\u0120un": 402,
    "\u0120soo": 1749,
    "\u0120quick": 1825,
    "\u0120star": 1991,
    "ul": 321,
    "\u0120totally": 1989,
    "\u0120gener": 1417,
    "\u0120contro": 1708,
    "\u0120laugh": 1801,
    "\u0120money": 970,
    "\u0120sound": 518,
    "\u0120taking": 1496,
    "\u0120mic": 1855,
    "\u0120do": 128,
    "ox": 1215,
    "ould": 208,
    "\u0120;": 1209,
    "\u0120lit": 470,
    "\u0120feels": 1359,
    "\u0120m": 80,
    "2": 16,
    "iss": 481,
    "\u0120ban": 1397,
    "\u0120ad": 473,
    "ering": 1324,
    "\u0120figure": 1415,
    "\u0120face": 889,
    "\u0120ca": 793,
    "\u0120them": 371,
    "lym": 1878,
    "\u0120miss": 757,
    "\u0120xxx": 1926,
    "\u0120,": 1329,
    "\u0120toile": 1785,
    "\u0120kept": 1975,
    "\u0120nothing": 871,
    "ired": 979,
    "\u0120'": 288,
    "\u0120once": 1099,
    "\u0120looks": 1022,
    "\u0120happened": 1313,
    "\u0120inv": 1291,
    "\u0120slight": 1677,
    "\u0120called": 1144,
    "\u0120fe": 595,
    "ild": 874,
    "\u0120messag": 1445,
    "ch": 173,
    "\u0120adv": 1551,
    "\u0120at": 192,
    "\u0120consid": 1378,
    "\u0120char": 372,
    "\u0120ev": 1757,
    "ign": 921,
    "ung": 1382,
    "ny": 1020,
    "\u0120anx": 922,
    "\u0120geep": 900,
    "\u0120while": 1451,
    "\u0120gone": 1798,
    "\u0120ace": 830,
    "\u0120shit": 468,
    "\u0120actually": 493,
    "\u0120sudd": 1906,
    "\u0120inside": 1778,
    "!!!": 841,
    "\u0120fl": 689,
    "\u0120creat": 1834,
    "\u0120know": 244,
    "ue": 430,
    "\u0120will": 310,
    "ug": 605,
    "\u0120either": 1021,
    "\u0120when": 287,
    "\u0120need": 298,
    "\u0120down": 649,
    "ures": 1440,
    "000": 1710,
    "hood": 70,
    "\u0120reason": 770,
    "ee": 172,
    "uine": 1857,
    "\u0120repl": 1950,
    "ween": 1459,
    "\u0120after": 616,
    "\u0120ign": 1487,
    "\u0120mo": 435,
    "\u0120inst": 814,
    "\u0120away": 951,
    "\u0120means": 810,
    "\u0120wasn": 1288,
    "\u0120kevins": 853,
    "thers": 1897,
    "\u0120safe": 1458,
    "ird": 592,
    "att": 1868,
    "ound": 325,
    "\u0120enjoy": 1742,
    "iced": 1973,
    "ape": 1295,
    "boom": 1844,
    "\u0120dep": 995,
    "ible": 936,
    "\u0120wouldnt": 1637,
    "mon": 1644,
    "\u0120hang": 1650,
    "pp": 223,
    "iew": 1480,
    "ave": 1368,
    "\u0120off": 496,
    "\u0120back": 504,
    "ated": 707,
    "\u0120her": 364,
    "ow": 135,
    "\u0120as": 204,
    "\u0120speak": 999,
    "\u0120moment": 1244,
    "\u0120dance": 1253,
    "\u01202": 404,
    "tho": 1577,
    "an": 99,
    "gging": 1788,
    "\u0120mon": 717,
    "\u0120lunch": 937,
    "ving": 431,
    "vel": 1205,
    "\u0120last": 813,
    "less": 876,
    "\u0120must": 1227,
    "\u0120yeah": 256,
    "\u0120games": 1407,
    "\u0120eff": 1527,
    "\u0120bel": 1093,
    "most": 1414,
    "\u0120black": 1745,
    "\u0120clean": 1377,
    "\u0120hmm": 974,
    "\u0120pain": 1109,
    "\u0120t": 74,
    "\u0120playing": 748,
    "\u0120accident": 1463,
    "row": 569,
    "\u0120ones": 1293,
    "\u0120well": 378,
    ")": 7,
    "erest": 959,
    "hd": 1493,
    "\u0120most": 849,
    "\u0120u": 116,
    "\u0120food": 763,
    "ored": 916,
    "ard": 457,
    "orm": 746,
    "to": 1558,
    "\u0120idea": 907,
    "\u0120guys": 1131,
    "\u0120gonna": 546,
    "ree": 589,
    "ating": 722,
    "\u0120process": 1875,
    "iding": 1958,
    "\u0120allowed": 1486,
    "\u0120ro": 580,
    "\u0120name": 930,
    "\u0120kn": 236,
    "\u0120dumb": 1242,
    "\u0120amazing": 1465,
    "\u0120fail": 1476,
    "\u0120entire": 1659,
    "ked": 1081,
    "ling": 1181,
    "\u0120ser": 778,
    "\u0120es": 1211,
    "wa": 1164,
    "oney": 880,
    "\u0120english": 1243,
    "\u0120around": 932,
    "ol": 641,
    "\u0120needed": 1563,
    "\u0120cheese": 1408,
    "ped": 1624,
    "ain": 352,
    "\u0120pack": 1944,
    "av": 1966,
    "\u0120slow": 1959,
    "\u0120same": 490,
    "\u0120to": 96,
    "\u0120tho": 374,
    "\u0120let": 574,
    "\u0120pr": 703,
    "\u0120seem": 1241,
    "\u0120gotta": 1041,
    "\u0120early": 1988,
    "\u0120xd": 342,
    "\u0120gay": 1115,
    "wu": 1421,
    "\u0120sexy": 1567,
    "mo": 954,
    "\u01206": 978,
    "\u0120fren": 1347,
    "com": 1766,
    "\u0120discord": 1140,
    "\u0120main": 1072,
    "\u0120cr": 840,
    "\u0120check": 1157,
    "\u0120boomboomraccoon": 1909,
    "ensive": 1693,
    "\u0120loud": 1870,
    "\u0120usually": 1507,
    "gin": 1697,
    "mpt": 1775,
    "\u0120we": 136,
    "\u0120sy": 1080,
    "ding": 1733,
    "\u0120put": 741,
    "\u0120run": 1432,
    "ition": 1574,
    "\u0120watch": 827,
    "\u0120took": 1598,
    "ready": 818,
    "\u0120gra": 1460,
    "ever": 1473,
    "\u0120res": 891,
    "eel": 295,
    "\u0120happening": 1741,
    "\u0120hell": 1069,
    "\u0120yours": 1819,
    "bsite": 568,
    "\u0120favour": 1477,
    "als": 1135,
    "\u0120used": 864,
    "\u0120mid": 1416,
    "iting": 1262,
    "\u0120depress": 1575,
    "\u0120france": 1891,
    "thing": 492,
    "d": 36,
    "\u0120morning": 1481,
    "\u0120side": 1932,
    "/": 13,
    "\u0120phone": 790,
    "\"": 2,
    "g": 39,
    "\u0120fit": 1994,
    "\u0120fo": 949,
    "\u0120poo": 1304,
    "\u0120nice": 551,
    "\u0120ph": 584,
    "oon": 1365,
    "\u0120or": 215,
    "n": 46,
    "\u0120tw": 571,
    "\u0120body": 1602,
    "\u0120shop": 811,
    "\u0120right": 533,
    "\u0120gr": 925,
    "-": 11,
    "\u0120suck": 1695,
    "\u0120coo": 1811,
    "other": 1045,
    "\u0120problem": 1354,
    "cial": 1154,
    "\u0120huge": 1984,
    "\u0120drunk": 1751,
    "\u0120literally": 679,
    "\u0120speaking": 1725,
    "\u0120life": 543,
    "cked": 1632,
    "'ll": 495,
    "\u0120funny": 1474,
    "me": 452,
    "gram": 1849,
    "\u0120pass": 1668,
    "hh": 240,
    "\u0120his": 636,
    "\u0120li": 142,
    "or": 103,
    "\u0120from": 385,
    "ort": 437,
    "ace": 669,
    "\u0120wan": 405,
    "7": 21,
    "\u0120ye": 1746,
    "\u0120chat": 1179,
    "\u0120show": 771,
    "\u0120gets": 1707,
    "\u0120loo": 311,
    "\u0120believe": 1406,
    "ial": 1572,
    "\u0120where": 607,
    "\u0120done": 798,
    "used": 1043,
    "ese": 1088,
    "\u0120would": 382,
    "\u0120add": 844,
    "ml": 1945,
    "\u0120meh": 1303,
    "ode": 1441,
    "ption": 1579,
    "ush": 1236,
    "\u0120smink": 1504,
    "st": 189,
    "\u0120de": 304,
    "\u0120cra": 977,
    "ag": 454,
    "\u0120again": 564,
    "\u0120till": 1536,
    "\u0120scre": 1711,
    "\u0120af": 572,
    "\u0120make": 414,
    "\u0120listening": 399,
    "her": 516,
    "\u0120emb": 1540,
    "\u0120gave": 1755,
    "*": 8,
    "\u0120few": 1337,
    "\u0120people": 396,
    ",": 10,
    "\u0120sake": 1360,
    "ine": 333,
    "\u0120vide": 1068,
    "ert": 1400,
    "\u0120listen": 319,
    "ket": 1786,
    "\u0120spam": 1399,
    "&": 4,
    "\u0120huh": 1971,
    "\u0120explain": 1126,
    "icul": 1595,
    "\u0120ear": 1176,
    "\u0120something": 532,
    "\u0120makes": 751,
    "ers": 346,
    "\u0120especially": 1866,
    "\u0120tomor": 898,
    "\u0120possible": 1500,
    "\u0120smo": 1924,
    "\u0120bi": 1194,
    "\u0120but": 143,
    "riend": 487,
    "ou": 81,
    "very": 285,
    "\u0120come": 511,
    "iously": 1007,
    "\u0120fore": 1471,
    "sol": 1916,
    "\u0120:'(": 1446,
    "\u0120fu": 237,
    "\u0120worth": 1812,
    "\u0120year": 628,
    "ir": 184,
    "atch": 699,
    "\u0120better": 662,
    "\u0120out": 277,
    "\u0120doctor": 1057,
    "\u0120sad": 753,
    "\u0120if": 219,
    "\u0120idk": 68,
    "\u0120hour": 655,
    "\u0120butt": 1431,
    "gan": 1758,
    "\u0120sec": 1456,
    "\u0120bec": 286,
    "\u0120sounds": 663,
    "ark": 1750,
    "\u0120psych": 1972,
    "ilar": 1564,
    "\u0120since": 1264,
    "ux": 1987,
    "esus": 1604,
    "\u0120ages": 1549,
    "\u0120scr": 1820,
    "\u0120sudden": 1913,
    "igh": 510,
    "illy": 1948,
    "\u0120favourite": 1586,
    "\u0120wish": 1029,
    "\u0120friend": 558,
    "\u0120dick": 899,
    "\u0120apparently": 1307,
    "\u0120yourself": 1352,
    "\u0120wal": 1040,
    "\u0120prob": 395,
    "\u0120boomboomra": 1900,
    "\u0120red": 1935,
    "bs": 444,
    "\u0120meow": 1455,
    "\u0120diffe": 905,
    "ant": 171,
    "\u0120pe": 357,
    "ary": 852,
    "ven": 264,
    "\u0120guy": 1124,
    "oc": 1410,
    "ugg": 1343,
    "aking": 1914,
    "\u0120be": 120,
    "ason": 737,
    "if": 365,
    "\u0120always": 647,
    "\u0120wee": 705,
    "ful": 750,
    "\u0120love": 276,
    "\u0120minutes": 1660,
    "side": 1349,
    "ally": 170,
    "istic": 1300,
    "\u0120ikr": 1091,
    "\u0120omg": 348,
    "j": 42,
    "\u0120break": 1103,
    "\u0120exper": 1246,
    "ian": 1462,
    "\u0120crying": 1591,
    "\u0120test": 1993,
    "\u0120slightly": 1784,
    "\u0120difficult": 1547,
    "ate": 205,
    "\u0120kit": 1654,
    "\u0120child": 1571,
    "ur": 274,
    "\u0120less": 911,
    "line": 1108,
    "ces": 1863,
    "nder": 500,
    "in": 79,
    "ile": 710,
    "\u0120pu": 1729,
    "\u0120baby": 785,
    "\u0120gre": 1615,
    "\u0120maybe": 585,
    "\u0120les": 1899,
    "\u0120wrong": 893,
    "!!": 392,
    "ream": 488,
    "aut": 1883,
    "\u0120program": 1947,
    "\u0120imag": 1683,
    "\u0120youre": 1402,
    "\u0120guess": 764,
    "\u0120awkward": 1174,
    "ation": 394,
    "\u0120:": 181,
    "\u0120omfg": 1326,
    "\u0120meet": 1147,
    "\u0120su": 225,
    "ood": 246,
    "\u0120kids": 1744,
    "lier": 1723,
    "\u0120mass": 1769,
    "\u0120vib": 1803,
    "\u0120con": 332,
    "ought": 526,
    "\u0120worry": 967,
    "\u0120give": 799,
    "\u0120app": 501,
    "ass": 522,
    "\u0120lie": 1682,
    "\u0120ver": 1787,
    "\u0120everyone": 887,
    "\u0120fa": 308,
    "\u0120fair": 581,
    "\u0120etc": 1100,
    "\u0120rly": 1166,
    "\u0120indeed": 1960,
    "\u0120plus": 1830,
    "\u0120job": 975,
    "\u0120pri": 1526,
    "\u0120during": 1585,
    "\u0120na": 615,
    "\u0120tot": 1670,
    "\u012015": 1818,
    "\u0120xox": 1674,
    "ist": 229,
    "\u0120together": 1113,
    "\u0120el": 458,
    "ates": 1283,
    "\u0120cur": 1084,
    "ared": 861,
    "ool": 438,
    "\u0120piss": 1911,
    "\u0120pic": 1652,
    "\u0120;)": 1285,
    "\u0120elod": 594,
    "\u0120think": 266,
    "\u0120bet": 539,
    "\u0120sexual": 1898,
    "omet": 439,
    "using": 1356,
    "\u0120spe": 910,
    "ook": 943,
    "\u0120ok": 270,
    "\u0120say": 335,
    "\u0120got": 370,
    "dd": 824,
    "\u0120art": 1336,
    "ting": 408,
    "\u0120exc": 1051,
    "\u0120wouldn": 1717,
    "ore": 228,
    "\u0120load": 1664,
    "\u0120seeing": 1732,
    "\u0120suggest": 1357,
    "\u0120effort": 1616,
    "\u0120att": 883,
    "\u0120dif": 693,
    "\u0120work": 426,
    "ying": 629,
    "\u0120gon": 527,
    "ident": 1110,
    "\u0120sing": 1569,
    "\u0120works": 1469,
    "pt": 440,
    "x": 56,
    "\u0120hurt": 1411,
    "\u0120white": 1845,
    "\u0120french": 1450,
    "\u0120website": 575,
    "ional": 1419,
    "\u0120so": 166,
    "om": 126,
    "\u0120ra": 563,
    "ith": 179,
    "\u0120>": 1334,
    "\u0120cant": 465,
    "ves": 842,
    "\u0120sk": 1058,
    "\u0120k": 161,
    "\u0120belie": 1250,
    "\u0120about": 249,
    "\u0120their": 678,
    "\u0120messages": 1957,
    "\u0120pick": 1657,
    "\u0120dream": 1969,
    "ame": 301,
    "\u0120et": 828,
    "\u0120leaving": 1842,
    "zy": 1721,
    "ough": 381,
    "\u0120hon": 856,
    "ab": 235,
    "fg": 1042,
    "\u0120boobs": 1952,
    "y": 57,
    "\u0120par": 1141,
    "od": 307,
    "ong": 369,
    "\u0120compl": 1726,
    "\u0120tea": 1829,
    "gh": 147,
    "\u0120tri": 1321,
    "\u0120brb": 724,
    "\u0120mainly": 1393,
    "\u0120cold": 1727,
    "\u0120uwu": 1605,
    "ice": 336,
    "\u0120comment": 1590,
    "\u0120seriously": 1699,
    "te": 613,
    "\u0120dog": 1392,
    "ifu": 1482,
    "ous": 415,
    "\u0120room": 976,
    "ks": 327,
    "\u0120text": 1514,
    "\u0120excited": 1917,
    "\u01208": 1130,
    "\u0120comput": 1259,
    "l": 44,
    "\u0120that": 127,
    "\u0120of": 144,
    "\u0120live": 991,
    "\u0120should": 434,
    "\u0120human": 1685,
    "\u0120tal": 403,
    "\u0120valid": 1856,
    "\u0120bar": 1908,
    "\u0120pls": 69,
    "lf": 358,
    "\u0120went": 1011,
    "\u0120become": 1942,
    "^": 31,
    "ph": 1017,
    "ouse": 645,
    "\u0120umm": 957,
    "\u0120worried": 1273,
    "\u01209": 1118,
    "ia": 1296,
    "\u0120tv": 1535,
    "\u0120ind": 989,
    "\u0120little": 882,
    "bo": 859,
    "\u0120real": 625,
    "\u0120cal": 1521,
    "\u0060": 67,
    "\u0120water": 1675,
    "\u0120exactly": 956,
    "\u0120fam": 1398,
    "\u0120day": 455,
    "wn": 477,
    "\u0120thought": 582,
    "waifu": 1528,
    "\u0120rant": 1687,
    "\u0120cook": 1964,
    "\u0120dri": 1893,
    "\u0120gi": 1016,
    "\u0120psy": 1894,
    "ted": 1079,
    "\u0120times": 1010,
    "\u0120sometim": 1024,
    "\u0120dire": 1791,
    "rible": 1005,
    "\u0120ne": 191,
    "ren": 1384,
    "ship": 1376,
    "mao": 195,
    "\u0120moving": 1691,
    "\u0120no": 114,
    "\u0120eat": 878,
    "\u0120didnt": 591,
    "airs": 1848,
    "\u0120person": 642,
    "6": 20,
    "arly": 860,
    "e": 37,
    "ly": 134,
    "\u0120even": 305,
    "ited": 1322,
    "ertain": 1847,
    "\u0120sa": 316,
    "fu": 1162,
    "\u0120la": 761,
    "\u0120enough": 777,
    "ri": 178,
    "\u0120too": 278,
    "\u0120thinking": 913,
    "ered": 1102,
    "\u0120been": 362,
    "\u0120because": 320,
    "\u0120w": 76,
    "8": 22,
    "ical": 1034,
    "\u0120turn": 1302,
    "\u0120non": 1145,
    "\u0120exact": 875,
    "\u0120frogg": 716,
    "\u0120proud": 1953,
    "\u0120foc": 1904,
    "ff": 428,
    "\u0120cos": 72,
    "\u0120thr": 862,
    "qu": 360,
    "pect": 895,
    "\u0120left": 1002,
    "\u0120du": 1929,
    "angle": 1629,
    "\u0120george": 603,
    "vour": 1366,
    "!?": 688,
    "\u0120in": 131,
    "er": 92,
    "ices": 1823,
    "'d": 482,
    "\u0120bl": 597,
    "ggest": 1235,
    "where": 1789,
    "\u0120dam": 919,
    "\u0120birth": 1557,
    "\u0120g": 106,
    "\u0120sick": 1251,
    "ment": 517,
    "int": 535,
    "terday": 1317,
    "\u0120shout": 1905,
    "\u0120order": 1390,
    "\u0120except": 1511,
    "room": 1836,
    "\u0120pee": 1561,
    "\u0120p": 98,
    "\u0120stuff": 599,
    "ib": 865,
    "\u0120small": 1601,
    "\u0120gl": 909,
    "\u0120havent": 1111,
    "\u0120stupid": 1635,
    "\u0120anyway": 791,
    "\u0120xx": 1341,
    "\u0120thank": 765,
    "\u0120conf": 789,
    "hs": 1796,
    "\u0120appreci": 1308,
    "t": 52,
    "\u0120hu": 901,
    "own": 1874,
    "\u0120making": 884,
    "\u0120card": 1912,
    "ro": 158,
    "\u0120ur": 347,
    "ther": 507,
    "\u0120dr": 651,
    "\u0120three": 1688,
    "\u0120pizz": 1850,
    "\u0120lo": 230,
    "\u0120how": 260,
    "ay": 122,
    "\u0120smoke": 1576,
    "\u0120currently": 1821,
    "\u0120twice": 1155,
    "'m": 252,
    "\u0120past": 1138,
    "\u0120weeks": 1620,
    "our": 290,
    "ptop": 1968,
    "ad": 159,
    "\u0120intern": 1649,
    "\u0120situation": 1686,
    "\u0120up": 243,
    "??": 448,
    "\u0120hes": 839,
    "\u0120meme": 1661,
    "\u0120have": 186,
    "ount": 872,
    "um": 272,
    "\u0120suppose": 1703,
    "\u0120peop": 387,
    "\u0120answ": 950,
    "\u012011": 1676,
    "\u0120col": 1199,
    "\u0120doesn": 1004,
    "ibly": 1718,
    "nds": 1793,
    "\u0120cont": 732,
    "\u0120sex": 680,
    "\u0120phys": 1839,
    "\u0120en": 383,
    "\u0120then": 353,
    "\u012018": 1978,
    "ising": 1619,
    "ix": 823,
    "oth": 1700,
    "\u0120completely": 1946,
    "\u0120lmao": 199,
    "\u0120blue": 1876,
    "ude": 796,
    "\u0120met": 1653,
    "\u0120po": 391,
    "fe": 279,
    "\u0120looking": 561,
    "urn": 941,
    "\u0120came": 1187,
    "\u0120flo": 1739,
    "iday": 1600,
    "ility": 1497
}