{
    "0": "<UNK>",
    "1": "!",
    "2": "\"",
    "3": "#",
    "4": "$",
    "5": "%",
    "6": "&",
    "7": "'",
    "8": "(",
    "9": ")",
    "10": "*",
    "11": "+",
    "12": ",",
    "13": "-",
    "14": ".",
    "15": "/",
    "16": "0",
    "17": "1",
    "18": "2",
    "19": "3",
    "20": "4",
    "21": "5",
    "22": "6",
    "23": "7",
    "24": "8",
    "25": "9",
    "26": ":",
    "27": ";",
    "28": "<",
    "29": "=",
    "30": ">",
    "31": "?",
    "32": "@",
    "33": "[",
    "34": "\\",
    "35": "]",
    "36": "^",
    "37": "_",
    "38": "`",
    "39": "a",
    "40": "b",
    "41": "c",
    "42": "d",
    "43": "e",
    "44": "f",
    "45": "g",
    "46": "h",
    "47": "i",
    "48": "j",
    "49": "k",
    "50": "l",
    "51": "m",
    "52": "n",
    "53": "o",
    "54": "p",
    "55": "q",
    "56": "r",
    "57": "s",
    "58": "t",
    "59": "u",
    "60": "v",
    "61": "w",
    "62": "x",
    "63": "y",
    "64": "z",
    "65": "{",
    "66": "|",
    "67": "}",
    "68": "~",
    "69": "\u00a1",
    "70": "\u00a2",
    "71": "\u00a3",
    "72": "\u00a4",
    "73": "\u00a5",
    "74": "\u00a6",
    "75": "\u00a7",
    "76": "\u00a8",
    "77": "\u00a9",
    "78": "\u00aa",
    "79": "\u00ab",
    "80": "\u00ac",
    "81": "\u00ae",
    "82": "\u00af",
    "83": "\u00b0",
    "84": "\u00b1",
    "85": "\u00b2",
    "86": "\u00b3",
    "87": "\u00b4",
    "88": "\u00b5",
    "89": "\u00b6",
    "90": "\u00b7",
    "91": "\u00b8",
    "92": "\u00b9",
    "93": "\u00ba",
    "94": "\u00bb",
    "95": "\u00bc",
    "96": "\u00bd",
    "97": "\u00be",
    "98": "\u00bf",
    "99": "\u00c2",
    "100": "\u00c3",
    "101": "\u00c4",
    "102": "\u00c5",
    "103": "\u00c6",
    "104": "\u00c7",
    "105": "\u00c9",
    "106": "\u00ca",
    "107": "\u00cb",
    "108": "\u00cc",
    "109": "\u00ce",
    "110": "\u00cf",
    "111": "\u00d0",
    "112": "\u00d1",
    "113": "\u00d4",
    "114": "\u00d7",
    "115": "\u00d8",
    "116": "\u00d9",
    "117": "\u00e0",
    "118": "\u00e1",
    "119": "\u00e2",
    "120": "\u00e3",
    "121": "\u00e5",
    "122": "\u00e6",
    "123": "\u00e8",
    "124": "\u00e9",
    "125": "\u00ea",
    "126": "\u00eb",
    "127": "\u00ec",
    "128": "\u00ed",
    "129": "\u00ef",
    "130": "\u00f0",
    "131": "\u00f3",
    "132": "\u0120",
    "133": "\u0122",
    "134": "\u0123",
    "135": "\u0124",
    "136": "\u0125",
    "137": "\u0126",
    "138": "\u0127",
    "139": "\u0128",
    "140": "\u0129",
    "141": "\u012a",
    "142": "\u012b",
    "143": "\u012c",
    "144": "\u012d",
    "145": "\u012e",
    "146": "\u012f",
    "147": "\u0130",
    "148": "\u0131",
    "149": "\u0132",
    "150": "\u0133",
    "151": "\u0134",
    "152": "\u0135",
    "153": "\u0136",
    "154": "\u0137",
    "155": "\u0138",
    "156": "\u0139",
    "157": "\u013a",
    "158": "\u013b",
    "159": "\u013c",
    "160": "\u013d",
    "161": "\u013e",
    "162": "\u013f",
    "163": "\u0140",
    "164": "\u0141",
    "165": "\u0142",
    "166": "\u0143",
    "167": "\u0120t",
    "168": "\u0120i",
    "169": "\u0120a",
    "170": "\u0120w",
    "171": "in",
    "172": "he",
    "173": "\u0120s",
    "174": "ou",
    "175": "ha",
    "176": "\u0120b",
    "177": "\u0120m",
    "178": "ing",
    "179": "re",
    "180": "\u0120c",
    "181": "\u0120l",
    "182": "\u0120the",
    "183": "\u0120o",
    "184": "\u0120d",
    "185": "\u0120f",
    "186": "\u0120y",
    "187": "nd",
    "188": "ve",
    "189": "\u0120to",
    "190": "ll",
    "191": "is",
    "192": "\u0120n",
    "193": "ee",
    "194": "\u0120p",
    "195": "on",
    "196": "\u0120you",
    "197": "an",
    "198": "\u0120e",
    "199": "te",
    "200": "or",
    "201": "\u0120g",
    "202": "ke",
    "203": "\u0120it",
    "204": "\u0120and",
    "205": "us",
    "206": "\u0120ha",
    "207": "hat",
    "208": "es",
    "209": "\u0120u",
    "210": "it",
    "211": "as",
    "212": "\u0120he",
    "213": "\u0120h",
    "214": "ic",
    "215": "om",
    "216": "\u0120no",
    "217": "\u0120th",
    "218": "\u0120be",
    "219": "ut",
    "220": "\u0120me",
    "221": "ay",
    "222": "ar",
    "223": "oo",
    "224": "\u0120in",
    "225": "er",
    "226": "\u0120that",
    "227": "\u0120is",
    "228": "ld",
    "229": "le",
    "230": "\u0120but",
    "231": "\u0120we",
    "232": "ie",
    "233": "ow",
    "234": "nt",
    "235": "\u0120my",
    "236": "\u0120li",
    "237": "at",
    "238": "ly",
    "239": "\u0120j",
    "240": "\u0120of",
    "241": "ould",
    "242": "ill",
    "243": "\u0120re",
    "244": "ust",
    "245": "\u0120cha",
    "246": "id",
    "247": "\u0120do",
    "248": "\u0120on",
    "249": "gh",
    "250": "od",
    "251": "et",
    "252": "ed",
    "253": "\u0120was",
    "254": "\u0120have",
    "255": "ris",
    "256": "ra",
    "257": "\u0120st",
    "258": "\u0120lo",
    "259": "al",
    "260": "\u0120charis",
    "261": "\u0120for",
    "262": "\u0120k",
    "263": "\u0120like",
    "264": "\u0120im",
    "265": "king",
    "266": "\u0120not",
    "267": "me",
    "268": "out",
    "269": "een",
    "270": "\u0120so",
    "271": "all",
    "272": "ro",
    "273": "eed",
    "274": "\u0120will",
    "275": "\u0120el",
    "276": "ry",
    "277": "ant",
    "278": "\u0120an",
    "279": "ch",
    "280": "\u0120just",
    "281": "ir",
    "282": "ad",
    "283": "\u0120been",
    "284": "\u0120elod",
    "285": "\u0120they",
    "286": "\u0120elodie",
    "287": "se",
    "288": "\u0120wh",
    "289": "'s",
    "290": "\u0120sh",
    "291": "\u0120what",
    "292": "ea",
    "293": "ght",
    "294": "\u0120she",
    "295": "\u0120at",
    "296": "ally",
    "297": "ce",
    "298": "ck",
    "299": "\u0120can",
    "300": "\u0120this",
    "301": "ion",
    "302": "ct",
    "303": "\u0120fr",
    "304": "ome",
    "305": "ter",
    "306": "ith",
    "307": "\u0120are",
    "308": "ot",
    "309": "\u0120with",
    "310": "\u0120ke",
    "311": "st",
    "312": "vin",
    "313": "\u0120don",
    "314": "use",
    "315": "\u0120ab",
    "316": "\u0120mo",
    "317": "\u0120:",
    "318": "\u0120kevin",
    "319": "\u0120as",
    "320": "\u0120eve",
    "321": "op",
    "322": "ake",
    "323": "\u0120its",
    "324": "\u0120al",
    "325": "\u0120r",
    "326": "\u0120want",
    "327": "\u0120up",
    "328": "\u0120v",
    "329": "\u0120su",
    "330": "ge",
    "331": "..",
    "332": "ink",
    "333": "ten",
    "334": "\u0120your",
    "335": "\u0120ca",
    "336": "\u0120wor",
    "337": "ight",
    "338": "pp",
    "339": "\u0120if",
    "340": "ver",
    "341": "im",
    "342": "\u0120kn",
    "343": "\u0120about",
    "344": "'t",
    "345": "en",
    "346": "ice",
    "347": "\u0120need",
    "348": "\u0120get",
    "349": "ood",
    "350": "\u0120from",
    "351": "\u0120love",
    "352": "\u0120her",
    "353": "ab",
    "354": "\u0120would",
    "355": "our",
    "356": "\u0120whe",
    "357": "\u0120know",
    "358": "\u0120had",
    "359": "\u0120or",
    "360": "am",
    "361": "\u0120lis",
    "362": "ted",
    "363": "ur",
    "364": "\u0120loo",
    "365": "ess",
    "366": "\u0120fee",
    "367": "\u0120listen",
    "368": "\u0120sa",
    "369": "\u0120le",
    "370": "\u0120could",
    "371": "\u0120go",
    "372": "\u0120feel",
    "373": "\u0120weed",
    "374": "\u0120should",
    "375": "\u0120did",
    "376": "ind",
    "377": "\u0120am",
    "378": "\u0120why",
    "379": "un",
    "380": "one",
    "381": "\u0120all",
    "382": "\u0120pl",
    "383": "\u0120id",
    "384": "\u0120se",
    "385": "her",
    "386": "\u0120de",
    "387": "th",
    "388": "\u0120ex",
    "389": "ca",
    "390": "\u0120now",
    "391": "'m",
    "392": "na",
    "393": "\u0120see",
    "394": "ive",
    "395": "ving",
    "396": "ff",
    "397": "\u0120pro",
    "398": "\u0120were",
    "399": "\u0120think",
    "400": "\u0120x",
    "401": "\u0120dont",
    "402": "\u0120butt",
    "403": "\u0120how",
    "404": "ks",
    "405": "\u0120when",
    "406": "\u0120ne",
    "407": "um",
    "408": "red",
    "409": "\u01201",
    "410": "\u0120some",
    "411": "\u0120out",
    "412": "\u0120lol",
    "413": "\u0120oh",
    "414": "\u0120ok",
    "415": "\u0120any",
    "416": "\u0120'",
    "417": "eah",
    "418": "\u0120too",
    "419": "\u0120com",
    "420": "ss",
    "421": "ound",
    "422": "\u0120yeah",
    "423": "\u0120sm",
    "424": "ul",
    "425": "il",
    "426": "\u0120mus",
    "427": "\u0120even",
    "428": "ain",
    "429": "\u0120really",
    "430": "\u0120music",
    "431": "'re",
    "432": "\u0120fu",
    "433": "pe",
    "434": "\u0120con",
    "435": "\u0120-",
    "436": "\u0120pe",
    "437": "\u0120thing",
    "438": "\u0120om",
    "439": "ime",
    "440": "so",
    "441": "eep",
    "442": "\u0120fa",
    "443": "\u0120his",
    "444": "\u0120q",
    "445": "ma",
    "446": "\u0120their",
    "447": "han",
    "448": "\u0120them",
    "449": "ine",
    "450": "\u0120thats",
    "451": "lf",
    "452": "\u0120sor",
    "453": "est",
    "454": "ate",
    "455": "\u0120aw",
    "456": "ays",
    "457": "gg",
    "458": "\u0120one",
    "459": "ting",
    "460": "ong",
    "461": "\u0120must",
    "462": "\u0120make",
    "463": "\u0120vo",
    "464": "\u0120yes",
    "465": "\u0120than",
    "466": "\u0120has",
    "467": "\u0120tr",
    "468": "\u0120listening",
    "469": "\u0120cause",
    "470": "ation",
    "471": "\u0120wan",
    "472": "\u0120good",
    "473": "\u0120xd",
    "474": "\u0120also",
    "475": "\u0120mean",
    "476": "\u0120then",
    "477": "\u0120ur",
    "478": "\u0120beca",
    "479": "rain",
    "480": "\u0120omg",
    "481": "\u0120time",
    "482": "\u0120there",
    "483": "ol",
    "484": "\u0120because",
    "485": "ast",
    "486": "\u0120us",
    "487": "\u0120say",
    "488": "\u0120him",
    "489": "\u0120sorry",
    "490": "ore",
    "491": "\u01202",
    "492": "\u0120thou",
    "493": "fe",
    "494": "\u0120ba",
    "495": "\u0120stu",
    "496": "\u0120wa",
    "497": "hing",
    "498": "\u0120te",
    "499": "ty",
    "500": "\u0120hear",
    "501": "\u0120take",
    "502": "\u0120does",
    "503": "\u0120got",
    "504": "\u0120sp",
    "505": "\u0120(",
    "506": "ite",
    "507": "\u0120tb",
    "508": "\u0120more",
    "509": "ue",
    "510": "\u0120well",
    "511": "be",
    "512": "\u0120who",
    "513": "\u0120un",
    "514": "\u0120ag",
    "515": "ig",
    "516": "\u0120peop",
    "517": "\u0120en",
    "518": "ide",
    "519": "\u0120voice",
    "520": "\u0120tho",
    "521": "!!",
    "522": "ick",
    "523": "\u0120prob",
    "524": "\u0120act",
    "525": "\u0120sl",
    "526": "\u0120lea",
    "527": "\u0120mu",
    "528": "aking",
    "529": "\u0120people",
    "530": "...",
    "531": "\u0120lma",
    "532": "\u0120gu",
    "533": "per",
    "534": "\u0120ar",
    "535": "\u0120po",
    "536": "ually",
    "537": "\u0120fe",
    "538": "\u0120being",
    "539": "\u0120only",
    "540": "\u0120play",
    "541": "\u0120every",
    "542": "\u0120our",
    "543": "\u0120:)",
    "544": "ers",
    "545": "omet",
    "546": "ds",
    "547": "\u0120eat",
    "548": "\u0120haha",
    "549": "\u0120dis",
    "550": "\u0120much",
    "551": "\u0120somet",
    "552": "\u0120cu",
    "553": "ked",
    "554": "\u0120dr",
    "555": "ort",
    "556": "if",
    "557": "\u0120pre",
    "558": "ps",
    "559": "ous",
    "560": "dd",
    "561": "pt",
    "562": "\u0120look",
    "563": "arn",
    "564": "\u0120tal",
    "565": "\u0120wanna",
    "566": "ther",
    "567": "and",
    "568": "\u0120ch",
    "569": "ool",
    "570": "\u0120wr",
    "571": "\u0120things",
    "572": "os",
    "573": "ag",
    "574": "\u0120sound",
    "575": "\u0120tou",
    "576": "day",
    "577": "\u0120over",
    "578": "\u0120by",
    "579": "self",
    "580": "ib",
    "581": "\u0120may",
    "582": "??",
    "583": "oy",
    "584": "art",
    "585": "\u0120happ",
    "586": "\u0120tbh",
    "587": "\u0120hel",
    "588": "\u0120bit",
    "589": "ww",
    "590": "\u0120lmao",
    "591": "nder",
    "592": "iss",
    "593": "\u0120bad",
    "594": "\u0120work",
    "595": "\u0120stuff",
    "596": "\u0120na",
    "597": "\u0120thought",
    "598": "\u0120try",
    "599": "\u0120ph",
    "600": "\u0120brain",
    "601": "\u0120still",
    "602": "\u0120la",
    "603": "\u0120kind",
    "604": "\u0120care",
    "605": "\u0120af",
    "606": "\u0120going",
    "607": "\u0120smo",
    "608": "\u0120ge",
    "609": "\u0120comp",
    "610": "\u0120learn",
    "611": "'ve",
    "612": "ure",
    "613": "\u0120shit",
    "614": "'ll",
    "615": "\u0120give",
    "616": "\u0120off",
    "617": "ment",
    "618": "ass",
    "619": "\u0120move",
    "620": "\u0120fuck",
    "621": "\u0120ve",
    "622": "\u0120:(",
    "623": "\u0120bl",
    "624": "thing",
    "625": "'d",
    "626": "ress",
    "627": "\u0120ye",
    "628": "\u0120help",
    "629": "to",
    "630": "able",
    "631": "\u0120wait",
    "632": "cc",
    "633": "\u0120cat",
    "634": "\u0120actually",
    "635": "\u0120idk",
    "636": "\u0120co",
    "637": "ies",
    "638": "lly",
    "639": "iend",
    "640": "\u0120cl",
    "641": "ough",
    "642": "\u0120man",
    "643": "\u0120said",
    "644": "00",
    "645": "\u0120same",
    "646": "\u0120back",
    "647": "\u0120looking",
    "648": "age",
    "649": "ase",
    "650": "ts",
    "651": "\u0120touch",
    "652": "\u00e2\u0122",
    "653": "\u0120something",
    "654": "ich",
    "655": "ree",
    "656": "\u0120cant",
    "657": "\u0120day",
    "658": "\u0120way",
    "659": "ouse",
    "660": "\u0120dra",
    "661": "\u0120come",
    "662": "rent",
    "663": "\u0120ra",
    "664": "orge",
    "665": "ish",
    "666": "ream",
    "667": "ci",
    "668": "\u0120app",
    "669": "\u0120jo",
    "670": "hh",
    "671": "\u0120other",
    "672": "\u0120di",
    "673": "\u0120sleep",
    "674": "\u0120qu",
    "675": "mb",
    "676": "\u0120hate",
    "677": "\u0120taking",
    "678": "\u01203",
    "679": "\u0120george",
    "680": "\u0120tw",
    "681": "own",
    "682": "\u0120right",
    "683": "\u0120sc",
    "684": "ile",
    "685": "\u0120doing",
    "686": "\u0120after",
    "687": "ard",
    "688": "ys",
    "689": "inking",
    "690": "\u0120bet",
    "691": "\u0120here",
    "692": "lt",
    "693": "\u0120call",
    "694": "\u0120*",
    "695": "pl",
    "696": "\u0120moving",
    "697": "ud",
    "698": "\u0120\"",
    "699": "\u0120pr",
    "700": "tt",
    "701": "\u0120which",
    "702": "\u0120never",
    "703": "\u0120pic",
    "704": "\u0120food",
    "705": "\u0120days",
    "706": "\u0120into",
    "707": "\u0120feeling",
    "708": "\u0120nice",
    "709": "\u0120wanting",
    "710": "\u0120ro",
    "711": "\u0120friend",
    "712": "ist",
    "713": "ably",
    "714": "\u0120let",
    "715": "\u0120mad",
    "716": "\u0120leave",
    "717": "ms",
    "718": "\u0120very",
    "719": "\u0120br",
    "720": "\u0120house",
    "721": "\u0120cool",
    "722": "\u0120draw",
    "723": "ip",
    "724": "\u0120wee",
    "725": "\u0120hop",
    "726": "\u0120again",
    "727": "mm",
    "728": "\u0120<",
    "729": "fore",
    "730": "cks",
    "731": "\u0120might",
    "732": "\u0120under",
    "733": "ug",
    "734": "\u0120life",
    "735": "ied",
    "736": "com",
    "737": "ity",
    "738": "\u0120har",
    "739": "ix",
    "740": "\u0120tell",
    "741": "cking",
    "742": "\u0120ad",
    "743": "\u0120bo",
    "744": "\u0120probably",
    "745": "ance",
    "746": "\u0120che",
    "747": "\u0120fair",
    "748": "\u0120felt",
    "749": "ta",
    "750": "\u0120maybe",
    "751": "row",
    "752": "\u0120gon",
    "753": "ird",
    "754": "\u0120didnt",
    "755": "\u0120before",
    "756": "\u0120hour",
    "757": "get",
    "758": "reat",
    "759": "gle",
    "760": "\u0120ple",
    "761": "ious",
    "762": "\u0120talk",
    "763": "\u0120sca",
    "764": "\u0120bab",
    "765": "igh",
    "766": "\u0120fl",
    "767": "\u0120smoking",
    "768": "\u0120sure",
    "769": "\u0120bot",
    "770": "\u0120hope",
    "771": "int",
    "772": "ise",
    "773": "\u0120down",
    "774": "ace",
    "775": "\u0120supp",
    "776": "\u0120weird",
    "777": "\u0120gonna",
    "778": "aa",
    "779": "tera",
    "780": "\u0120ill",
    "781": "ooo",
    "782": "ways",
    "783": "\u0120year",
    "784": "ord",
    "785": "\u0120per",
    "786": "\u0120real",
    "787": ":/",
    "788": "che",
    "789": "\u0120min",
    "790": "ont",
    "791": "atch",
    "792": "\u0120please",
    "793": "co",
    "794": "\u0120kinda",
    "795": "imes",
    "796": "ne",
    "797": "qu",
    "798": "\u0120scared",
    "799": "\u01204",
    "800": "ady",
    "801": "act",
    "802": "\u0120htt",
    "803": "sh",
    "804": "\u0120always",
    "805": "\u0120boo",
    "806": "\u0120phone",
    "807": "ans",
    "808": "\u0120mum",
    "809": "\u0120long",
    "810": "ult",
    "811": "\u0120litera",
    "812": "\u0120needing",
    "813": "\u0120anything",
    "814": "\u0120find",
    "815": "xt",
    "816": "\u0120fun",
    "817": "\u0120lot",
    "818": "\u0120myself",
    "819": "\u0120sounds",
    "820": "\u0120true",
    "821": "ically",
    "822": "ions",
    "823": "\u0120ins",
    "824": "\u0120where",
    "825": "orm",
    "826": "\u0120better",
    "827": "\u0120idea",
    "828": "\u0120ide",
    "829": "\u0120bed",
    "830": "\u0120stream",
    "831": "\u0120bu",
    "832": "\u0120sex",
    "833": "\u0120today",
    "834": "\u01205",
    "835": "\u0120pers",
    "836": "\u0120fro",
    "837": "\u0120use",
    "838": "ark",
    "839": "\u0120made",
    "840": "ffe",
    "841": "\u0120literally",
    "842": "\u0120trying",
    "843": "\u0120word",
    "844": "mber",
    "845": "iting",
    "846": "\u0120thanks",
    "847": "og",
    "848": "\u0120new",
    "849": "\u0120happen",
    "850": "\u0120leaving",
    "851": "\u0120hard",
    "852": "!?",
    "853": "\u0120bre",
    "854": "\u0120spe",
    "855": "\u0120pa",
    "856": "ft",
    "857": "\u0120bro",
    "858": "\u0120res",
    "859": "\u0120person",
    "860": "\u0120getting",
    "861": "\u0120eating",
    "862": "bs",
    "863": "\u0120ma",
    "864": "\u0120reme",
    "865": "\u0120stop",
    "866": "\u0120tur",
    "867": "irst",
    "868": "\u0120part",
    "869": "\u0120fucking",
    "870": "tf",
    "871": "ible",
    "872": "mor",
    "873": "\u0120later",
    "874": "\u0120underst",
    "875": "way",
    "876": "\u0120hearing",
    "877": "\u0120saying",
    "878": "\u0120gr",
    "879": "ating",
    "880": "\u00e2\u0122\u013b",
    "881": "ng",
    "882": "\u0120sha",
    "883": "\u0120mon",
    "884": "\u0120acc",
    "885": "les",
    "886": "\u0120learning",
    "887": "\u0120first",
    "888": "\u0120song",
    "889": "\u0120mess",
    "890": "\u0120night",
    "891": "tle",
    "892": "ple",
    "893": "fa",
    "894": "ody",
    "895": "\u0120star",
    "896": "\u0120end",
    "897": "\u0120happy",
    "898": "\u0120cute",
    "899": "\u0120thr",
    "900": "\u0120means",
    "901": "\u0120put",
    "902": "\u0120home",
    "903": "\u0120https",
    "904": "\u0120soon",
    "905": "tty",
    "906": "\u0120pick",
    "907": "\u00c2\u00a3",
    "908": "\u0120ever",
    "909": "\u0120mind",
    "910": "\u0120having",
    "911": "ason",
    "912": "\u0120playing",
    "913": "umb",
    "914": "nce",
    "915": "\u0120though",
    "916": "\u0120hahaha",
    "917": "\u0120away",
    "918": "\u0120wtf",
    "919": "\u0120pretty",
    "920": "iz",
    "921": "ual",
    "922": "wn",
    "923": "\u0120makes",
    "924": "\u0120lit",
    "925": "\u0120done",
    "926": "ful",
    "927": "\u0120remember",
    "928": "\u0120cou",
    "929": "\u0120understand",
    "930": "\u0120ann",
    "931": "\u0120touching",
    "932": "\u0120frogg",
    "933": "\u0120someone",
    "934": "\u0120=",
    "935": "\u0120miss",
    "936": "ire",
    "937": "\u0120em",
    "938": "\u0120leg",
    "939": "\u0120drink",
    "940": "\u0120cats",
    "941": "\u0120\u00c2\u00a3",
    "942": "\u0120op",
    "943": "\u0120disc",
    "944": "ri",
    "945": "ning",
    "946": "\u0120didn",
    "947": "\u0120fine",
    "948": "\u0120dad",
    "949": "\u0120through",
    "950": "\u0120keep",
    "951": "unch",
    "952": "uter",
    "953": "\u0120ga",
    "954": "\u0120show",
    "955": "\u0120reason",
    "956": "\u0120both",
    "957": "\u0120fin",
    "958": "\u0120two",
    "959": "ak",
    "960": "\u0120computer",
    "961": "\u0120tra",
    "962": "\u0120sad",
    "963": "\u0120seeing",
    "964": "\u0120sw",
    "965": "\u0120told",
    "966": "\u0120conf",
    "967": "\u0120god",
    "968": "ach",
    "969": "\u0120smink",
    "970": "ild",
    "971": "\u0120name",
    "972": "\u0120imp",
    "973": "no",
    "974": "\u0120least",
    "975": "\u0120talking",
    "976": "ated",
    "977": "\u0120anyway",
    "978": "\u0120writing",
    "979": "\u0120annoy",
    "980": "anc",
    "981": "\u0120wont",
    "982": "\u0120hours",
    "983": "\u0120fre",
    "984": "\u0120add",
    "985": "\u0120spea",
    "986": "\u0120wanted",
    "987": "\u0120picking",
    "988": "\u0120enough",
    "989": "ude",
    "990": "\u0120inte",
    "991": "\u0120ser",
    "992": "\u0120bas",
    "993": "\u0120best",
    "994": "\u0120et",
    "995": "tes",
    "996": "ready",
    "997": "\u0120read",
    "998": "\u0120ive",
    "999": "ose",
    "1000": "\u0120baby",
    "1001": "\u0120sy",
    "1002": "ary",
    "1003": "\u0120these",
    "1004": "\u0120gen",
    "1005": "\u0120old",
    "1006": "\u0120already",
    "1007": "\u0120gir",
    "1008": "\u0120guess",
    "1009": "ath",
    "1010": "\u0120aut",
    "1011": "\u0120ho",
    "1012": "\u0120je",
    "1013": "\u0120hon",
    "1014": "\u0120tomor",
    "1015": "\u0120froggy",
    "1016": "\u0120cle",
    "1017": "\u0120most",
    "1018": "\u0120used",
    "1019": "ness",
    "1020": "ven",
    "1021": "www",
    "1022": "\u0120inc",
    "1023": "ither",
    "1024": "\u0120tomorrow",
    "1025": "ner",
    "1026": "!!!",
    "1027": "\u0120wal",
    "1028": "\u0120hes",
    "1029": "\u0120ass",
    "1030": "\u0120everything",
    "1031": "arly",
    "1032": "\u0120angle",
    "1033": "\u0120doesnt",
    "1034": "\u0120plan",
    "1035": "\u0120ty",
    "1036": "\u0120lunch",
    "1037": "\u0120sen",
    "1038": "\u0120nah",
    "1039": "\u0120little",
    "1040": "\u0120drawing",
    "1041": "\u0120str",
    "1042": "\u0120nothing",
    "1043": "\u0120ace",
    "1044": "\u0120face",
    "1045": "\u0120des",
    "1046": "\u0120self",
    "1047": "\u0120last",
    "1048": "\u0120making",
    "1049": "mo",
    "1050": "less",
    "1051": "\u0120live",
    "1052": "\u0120exact",
    "1053": "\u0120wrong",
    "1054": "\u0120gl",
    "1055": "\u0120send",
    "1056": "\u0120own",
    "1057": "oney",
    "1058": "ign",
    "1059": "\u0120sit",
    "1060": "\u0120super",
    "1061": "\u0120honest",
    "1062": "\u0120cont",
    "1063": "\u0120def",
    "1064": "???",
    "1065": "vers",
    "1066": "\u0120dec",
    "1067": "\u0120expl",
    "1068": "yy",
    "1069": "li",
    "1070": "\u0120mix",
    "1071": "\u0120head",
    "1072": "\u0120hu",
    "1073": "\u0120cr",
    "1074": "\u012010",
    "1075": "\u0120friends",
    "1076": "\u0120everyone",
    "1077": "\u0120room",
    "1078": "\u01206",
    "1079": "\u0120once",
    "1080": "\u0120point",
    "1081": "\u0120diffe",
    "1082": "eet",
    "1083": "\u0120week",
    "1084": "de",
    "1085": "iv",
    "1086": "\u0120watch",
    "1087": "\u0120month",
    "1088": "\u0120sk",
    "1089": "\u0120ask",
    "1090": "\":",
    "1091": "ang",
    "1092": "eee",
    "1093": "\u0120thank",
    "1094": "oc",
    "1095": "\u0120thoughts",
    "1096": "\u0120start",
    "1097": "\u0120thinking",
    "1098": "\u0120around",
    "1099": "\u0120wo",
    "1100": "\u0120cry",
    "1101": "\u0120less",
    "1102": "\u0120ment",
    "1103": "ken",
    "1104": "\u0120art",
    "1105": "10",
    "1106": "\u0120ac",
    "1107": "\u0120meant",
    "1108": "med",
    "1109": "rently",
    "1110": "\u0120else",
    "1111": "\u0120cra",
    "1112": "\u0120pete",
    "1113": "\u0120anx",
    "1114": "\u0120meds",
    "1115": "\u0120next",
    "1116": "ph",
    "1117": "\u0120words",
    "1118": "rate",
    "1119": "\u0120exactly",
    "1120": "\u0120mine",
    "1121": "\u0120okay",
    "1122": "\u0120cuz",
    "1123": "\u0120eng",
    "1124": "\u0120hi",
    "1125": "\u0120girl",
    "1126": "\u0120seems",
    "1127": "\u0120hey",
    "1128": "\u0120times",
    "1129": "\u0120ugh",
    "1130": "\u0120shes",
    "1131": "\u0120rel",
    "1132": "whe",
    "1133": "ction",
    "1134": "\u0120big",
    "1135": "\u0120tbf",
    "1136": "\u0120sim",
    "1137": "\u0120found",
    "1138": "\u0120ind",
    "1139": "\u0120intere",
    "1140": "\u0120left",
    "1141": "\u0120rep",
    "1142": "ired",
    "1143": "ward",
    "1144": "body",
    "1145": "ange",
    "1146": "\u01209",
    "1147": "esome",
    "1148": "\u0120great",
    "1149": "\u0120[",
    "1150": "wa",
    "1151": "\u0120looks",
    "1152": "\u0120par",
    "1153": "\u0120lm",
    "1154": "\u0120hug",
    "1155": "ook",
    "1156": "\u0120legit",
    "1157": "bo",
    "1158": "ons",
    "1159": "\u0120needs",
    "1160": "\u0120place",
    "1161": "\u0120weeks",
    "1162": "\u0120wants",
    "1163": "ny",
    "1164": "\u0120money",
    "1165": "cept",
    "1166": "ical",
    "1167": "\u0120ob",
    "1168": "\u0120doesn",
    "1169": "\u0120main",
    "1170": "\u0120cur",
    "1171": "\u00f0\u0141",
    "1172": "az",
    "1173": "\u01208",
    "1174": "\u0120dam",
    "1175": "ily",
    "1176": "\u0120set",
    "1177": "ices",
    "1178": "\u0120chat",
    "1179": "\u0120went",
    "1180": "\u0120comm",
    "1181": "\u0120job",
    "1182": "other",
    "1183": "roid",
    "1184": "\u012020",
    "1185": "nth",
    "1186": "\u0120lmfa",
    "1187": "uck",
    "1188": "ket",
    "1189": "\u0120those",
    "1190": "\u0120proble",
    "1191": "\u0120support",
    "1192": "\u0120uni",
    "1193": "\u0120kiss",
    "1194": "\u0120inter",
    "1195": "\u0120chan",
    "1196": "\u0120joke",
    "1197": "io",
    "1198": "lo",
    "1199": "ndom",
    "1200": "ory",
    "1201": "\u0120hor",
    "1202": "nds",
    "1203": "\u0120break",
    "1204": "\u0120ste",
    "1205": "\u0120able",
    "1206": "\u0120hur",
    "1207": "\u0120without",
    "1208": "\u0120awesome",
    "1209": "cent",
    "1210": "ia",
    "1211": "\u0120many",
    "1212": "\u0120either",
    "1213": "\u0120yay",
    "1214": "ns",
    "1215": "\u0120pass",
    "1216": "\u0120years",
    "1217": "ards",
    "1218": "\u0120cons",
    "1219": "\u0120free",
    "1220": "\u0120stress",
    "1221": "\u0120tech",
    "1222": "\u0120annoying",
    "1223": "used",
    "1224": "\u0120shop",
    "1225": "\u0120ideas",
    "1226": "\u0120pain",
    "1227": "\u0120sch",
    "1228": "\u0120gotta",
    "1229": "ac",
    "1230": "\u0120kid",
    "1231": "haha",
    "1232": "\u0120pay",
    "1233": "\u0120sing",
    "1234": "hed",
    "1235": "\u0120coming",
    "1236": "\u0120hell",
    "1237": "fg",
    "1238": "\u0120boy",
    "1239": "\u0120whole",
    "1240": "\u01207",
    "1241": "\u0120oo",
    "1242": "\u0120explain",
    "1243": "ub",
    "1244": "\u0120honestly",
    "1245": "\u0120fan",
    "1246": "gether",
    "1247": "el",
    "1248": "\u0120write",
    "1249": "kr",
    "1250": "tw",
    "1251": "\u0120wish",
    "1252": "\u0120mar",
    "1253": "ker",
    "1254": "\u0120working",
    "1255": "\u0120etc",
    "1256": "tra",
    "1257": "\u0120sna",
    "1258": "itar",
    "1259": "\u0120different",
    "1260": "\u0120proper",
    "1261": "\u0120game",
    "1262": "der",
    "1263": "ese",
    "1264": "press",
    "1265": "\u0120together",
    "1266": "pect",
    "1267": "ised",
    "1268": "fu",
    "1269": "\u0120synth",
    "1270": "\u0120dj",
    "1271": "\u0120such",
    "1272": "ations",
    "1273": "itch",
    "1274": "uu",
    "1275": "20",
    "1276": "\u0120guitar",
    "1277": "\u0120forget",
    "1278": "ling",
    "1279": "ap",
    "1280": "\u0120:/",
    "1281": "\u0120sometimes",
    "1282": "ew",
    "1283": "\u0120whats",
    "1284": "ack",
    "1285": "\u0120stay",
    "1286": "ksks",
    "1287": "\u0120es",
    "1288": "\u0120past",
    "1289": "\u0120bel",
    "1290": "ues",
    "1291": "\u0120mood",
    "1292": "iew",
    "1293": "\u0120aaa",
    "1294": "\u0120allow",
    "1295": "uss",
    "1296": "als",
    "1297": "\u00f3\u00be",
    "1298": "are",
    "1299": "\u0120school",
    "1300": "\u0120bored",
    "1301": "\u0120iss",
    "1302": "iously",
    "1303": "\u0120ring",
    "1304": "cted",
    "1305": "\u0120lmfao",
    "1306": "oud",
    "1307": "\u0120yet",
    "1308": "\u00c4\u00a1",
    "1309": "\u0120called",
    "1310": "\u0120dick",
    "1311": "\u0120eas",
    "1312": "mit",
    "1313": "\u0120worr",
    "1314": "\u0120ikr",
    "1315": "tent",
    "1316": "ident",
    "1317": "ying",
    "1318": "\u0120kit",
    "1319": "tead",
    "1320": "\u0120vide",
    "1321": "olog",
    "1322": "night",
    "1323": "\u0120random",
    "1324": "\u0120open",
    "1325": "\u0120havent",
    "1326": "\u0120rain",
    "1327": "\u0120sent",
    "1328": "\u0120each",
    "1329": "\u0120discord",
    "1330": "\u0120cre",
    "1331": "\u0120ear",
    "1332": "ism",
    "1333": "\u0120smoke",
    "1334": "\u0120chair",
    "1335": "\u0120instead",
    "1336": "ii",
    "1337": "\u0120tea",
    "1338": "\u0120high",
    "1339": "\u0120wow",
    "1340": "\u0120resp",
    "1341": "\u0120blan",
    "1342": "sting",
    "1343": "\u0120sun",
    "1344": "\u0120guy",
    "1345": "\u0120drinking",
    "1346": "\u0120decks",
    "1347": "\u0120>",
    "1348": "eepy",
    "1349": "\u0120mins",
    "1350": "\u0120guys",
    "1351": "\u0120sminking",
    "1352": "\u0120bring",
    "1353": "je",
    "1354": "ned",
    "1355": "\u0120unt",
    "1356": "\u0120ten",
    "1357": "cial",
    "1358": "ping",
    "1359": "\u0120gay",
    "1360": "\u0120poss",
    "1361": "cked",
    "1362": "100",
    "1363": "\u0120inf",
    "1364": "ames",
    "1365": "\u0120feels",
    "1366": "sw",
    "1367": "\u0120isnt",
    "1368": "\u0120basically",
    "1369": "gn",
    "1370": "\u0120lmaooo",
    "1371": "\u0120knew",
    "1372": "right",
    "1373": "\u0120sigh",
    "1374": "more",
    "1375": "\u0120mod",
    "1376": "\u0120bus",
    "1377": "\u0120ima",
    "1378": "rect",
    "1379": "ube",
    "1380": "lle",
    "1381": "rr",
    "1382": "nc",
    "1383": "vel",
    "1384": "nts",
    "1385": "\u0120theres",
    "1386": "its",
    "1387": "hhh",
    "1388": "\u0120speak",
    "1389": "\u0120dark",
    "1390": "\u0120hmm",
    "1391": "by",
    "1392": "iety",
    "1393": "\u0120pur",
    "1394": "set",
    "1395": "\u0120med",
    "1396": "\u0120rly",
    "1397": "app",
    "1398": "ash",
    "1399": "\u0120rude",
    "1400": "\u0120engl",
    "1401": "ics",
    "1402": "where",
    "1403": "\u0120geepy",
    "1404": "ox",
    "1405": "\u0120toile",
    "1406": "\u0120asked",
    "1407": "lling",
    "1408": "alth",
    "1409": "\u0120saw",
    "1410": "\u0120using",
    "1411": "\u0120sense",
    "1412": "py",
    "1413": "line",
    "1414": "30",
    "1415": "\u0120came",
    "1416": "\u0120oven",
    "1417": "ross",
    "1418": "led",
    "1419": "osed",
    "1420": "\u0120non",
    "1421": "\u0120seco",
    "1422": "\u0120toilet",
    "1423": "\u0120arg",
    "1424": "\u0120door",
    "1425": "\u0120gra",
    "1426": "\u0120nooo",
    "1427": "\u0120another",
    "1428": "\u0120train",
    "1429": "\u0120wasnt",
    "1430": "\u0120exper",
    "1431": "\u0120until",
    "1432": "llow",
    "1433": "\u0120anymore",
    "1434": "\u0120kill",
    "1435": "\u0120ta",
    "1436": "\u0120bor",
    "1437": "\u0120half",
    "1438": "ider",
    "1439": "ments",
    "1440": "ific",
    "1441": "\u0120worse",
    "1442": "joy",
    "1443": "\u0120hum",
    "1444": "\u0120alone",
    "1445": "ian",
    "1446": "\u0120sin",
    "1447": "ather",
    "1448": "\u0120quest",
    "1449": "gry",
    "1450": "\u0120message",
    "1451": "\u0120da",
    "1452": "\u0120car",
    "1453": "\u0120ago",
    "1454": "\u0120change",
    "1455": "\u0120\u00e2\u0122",
    "1456": "\u0120wasn",
    "1457": "\u0120turnt",
    "1458": "\u0120col",
    "1459": "indow",
    "1460": "\u0120started",
    "1461": "lete",
    "1462": "\u0120hot",
    "1463": "\u0120xx",
    "1464": "uring",
    "1465": "\u0120played",
    "1466": "reen",
    "1467": "\u0120hair",
    "1468": "\u0120enjoy",
    "1469": "\u0120seem",
    "1470": "ves",
    "1471": "\u0120answ",
    "1472": "\u0120turntable",
    "1473": "come",
    "1474": "\u0120fo",
    "1475": "not",
    "1476": "\u0120dumb",
    "1477": "\u0120rn",
    "1478": "\u01200",
    "1479": "\u0120mark",
    "1480": "\u0120cudd",
    "1481": "\u0120tired",
    "1482": "\u0120couple",
    "1483": "\u0120commun",
    "1484": "\u0120;",
    "1485": "wards",
    "1486": "\u0120late",
    "1487": "\u0120pan",
    "1488": "\u0120cal",
    "1489": "\u0120belie",
    "1490": "\u0120known",
    "1491": "\u0120glad",
    "1492": "sc",
    "1493": "\u00c3\u00a9",
    "1494": "\u0120norm",
    "1495": "\u0120video",
    "1496": "\u0120ele",
    "1497": "oup",
    "1498": "\u012012",
    "1499": "\u0120awww",
    "1500": "ched",
    "1501": "lic",
    "1502": "\u0120import",
    "1503": "\u0120alright",
    "1504": "\u0120dance",
    "1505": "\u0120reg",
    "1506": "\u0120mixer",
    "1507": "\u0120since",
    "1508": "vo",
    "1509": "\u0120awk",
    "1510": "ute",
    "1511": "ah",
    "1512": "ones",
    "1513": "ier",
    "1514": "\u0120snacks",
    "1515": "\u0120sec",
    "1516": "rop",
    "1517": "fs",
    "1518": "\u0120health",
    "1519": "\u0120creat",
    "1520": "\u0120three",
    "1521": "\u0120sick",
    "1522": "\u0120child",
    "1523": "\u0120worried",
    "1524": "\u0120space",
    "1525": "\u0120appre",
    "1526": "\u0120seen",
    "1527": "gan",
    "1528": "ffic",
    "1529": "\u0120months",
    "1530": "light",
    "1531": "\u0120lets",
    "1532": "\u0120mor",
    "1533": "\u0120appa",
    "1534": "'.",
    "1535": "\u0120ent",
    "1536": "\u0120fig",
    "1537": "\u0120amaz",
    "1538": "up",
    "1539": "\u0120quite",
    "1540": "\u0120safe",
    "1541": "ancing",
    "1542": "ron",
    "1543": "ages",
    "1544": "\u0120;)",
    "1545": "ats",
    "1546": "\u0120jon",
    "1547": "\u0120cor",
    "1548": "\u0120obv",
    "1549": "ugg",
    "1550": "\u0120#",
    "1551": "\u0120mid",
    "1552": "fect",
    "1553": "\u0120exc",
    "1554": "\u0120awkward",
    "1555": "istic",
    "1556": "ition",
    "1557": "\u0120nobody",
    "1558": "\u0120order",
    "1559": "\u0120hand",
    "1560": "\u0120isn",
    "1561": "\u0120apparently",
    "1562": "\u0120few",
    "1563": "\u0120says",
    "1564": "\u0120btw",
    "1565": "res",
    "1566": "\u0120happened",
    "1567": "most",
    "1568": "\u0120defin",
    "1569": "side",
    "1570": "\u0120ter",
    "1571": "\u0120forg",
    "1572": "unk",
    "1573": "\u0120appreci",
    "1574": "\",",
    "1575": "\u0120horr",
    "1576": "ject",
    "1577": "\u0120meh",
    "1578": "ens",
    "1579": "terday",
    "1580": "ilst",
    "1581": "\u0120mic",
    "1582": "\u0120mental",
    "1583": "nch",
    "1584": "\u0120ooo",
    "1585": "\u0120top",
    "1586": "ors",
    "1587": "\u0120cheese",
    "1588": "\u0120run",
    "1589": "\u0120anyone",
    "1590": "\u0120jokes",
    "1591": "ped",
    "1592": "\u0120dun",
    "1593": "ved",
    "1594": "\u0120pi",
    "1595": "\u0120yesterday",
    "1596": "\u0120interesting",
    "1597": "\u0120whilst",
    "1598": "\u0120far",
    "1599": "\u0120pol",
    "1600": "we",
    "1601": "\u0120emot",
    "1602": "\u0120ey",
    "1603": "\u0120anxiety",
    "1604": "ugs",
    "1605": "using",
    "1606": "\u0120ed",
    "1607": "ba",
    "1608": "fr",
    "1609": "\u0120tonight",
    "1610": "\u0120asking",
    "1611": "\u00e3\u0123",
    "1612": "\u0120clean",
    "1613": "view",
    "1614": "?!",
    "1615": "\u0120omfg",
    "1616": "\u0120dancing",
    "1617": "\u0120water",
    "1618": "\u0120problem",
    "1619": "\u00e3\u0123\u00a3",
    "1620": "\u0120yourself",
    "1621": "igg",
    "1622": "\u0120sur",
    "1623": "\u0120window",
    "1624": "\u0120light",
    "1625": "how",
    "1626": "\u012011",
    "1627": "\u0120nd",
    "1628": "\u0120ap",
    "1629": "\u0120cut",
    "1630": "\u0120important",
    "1631": "\u0120fore",
    "1632": "\u0120ew",
    "1633": "pm",
    "1634": "\u0120ah",
    "1635": "\u0120piss",
    "1636": "the",
    "1637": "\u0120tried",
    "1638": "ret",
    "1639": "\u0120upset",
    "1640": "\u0120situ",
    "1641": "fort",
    "1642": "\u0120poo",
    "1643": "\u0120dw",
    "1644": "\u0120gener",
    "1645": "\u0120blanket",
    "1646": "ween",
    "1647": "\u0120trans",
    "1648": "\u0120boof",
    "1649": "\u0120mainly",
    "1650": "\u0120chris",
    "1651": "ches",
    "1652": "\u0120while",
    "1653": "\u0120walk",
    "1654": "ount",
    "1655": "\u0120second",
    "1656": "vice",
    "1657": "\u0120fam",
    "1658": "\u0120phot",
    "1659": "\u0120inv",
    "1660": "\u0120ones",
    "1661": "\u0120techn",
    "1662": "tem",
    "1663": "ert",
    "1664": "\u0120vis",
    "1665": "\u0120rest",
    "1666": "\u0120class",
    "1667": "\u0120spec",
    "1668": "\u0120songs",
    "1669": "\u0120believe",
    "1670": "hes",
    "1671": "\u0120watching",
    "1672": "\u0120amazing",
    "1673": "\u0120forgot",
    "1674": "\u0120ban",
    "1675": "\u0120loving",
    "1676": "\u0120youre",
    "1677": "\u0120perfect",
    "1678": "ear",
    "1679": "\u0120atta",
    "1680": "\u0120war",
    "1681": "\u0120bir",
    "1682": "\u0120sugg",
    "1683": "ative",
    "1684": "\u0120full",
    "1685": "\u0120create",
    "1686": "\u0120goo",
    "1687": "\u0120sksks",
    "1688": "ush",
    "1689": "\u0120check",
    "1690": "\u0120plz",
    "1691": "\u0120val",
    "1692": "\u0120needed",
    "1693": "\u0120luck",
    "1694": "\u0120colour",
    "1695": "\u0120sign",
    "1696": "my",
    "1697": "\u0120diffic",
    "1698": "\u0120proc",
    "1699": "\u0120parent",
    "1700": "ately",
    "1701": "\u0120opin",
    "1702": "ent",
    "1703": "inner",
    "1704": "\u0120hurt",
    "1705": "izz",
    "1706": "\u0120bur",
    "1707": "ble",
    "1708": "'(",
    "1709": "fully",
    "1710": "ins",
    "1711": "\u0120wha",
    "1712": "\u0120rec",
    "1713": "\u0120french",
    "1714": "sy",
    "1715": "illy",
    "1716": "outh",
    "1717": "\u0120almost",
    "1718": "\u0120meet",
    "1719": "\u0120\u00e2\u0122\u013a",
    "1720": "\u0120toy",
    "1721": "\u0120agree",
    "1722": "\u0120emb",
    "1723": "\u0120between",
    "1724": "\u0120communic",
    "1725": "itely",
    "1726": "ever",
    "1727": "\u0120scream",
    "1728": "\u0120\u00f0\u0141",
    "1729": "\u0120cour",
    "1730": "\u0120va",
    "1731": "\u0120ref",
    "1732": "\u0120accident",
    "1733": "\u0120dog",
    "1734": "\u0120confused",
    "1735": "\u0120funny",
    "1736": "ial",
    "1737": "\u0120buy",
    "1738": "\u0120tas",
    "1739": "mail",
    "1740": "ips",
    "1741": "\u0120usually",
    "1742": "net",
    "1743": "\u0120dunno",
    "1744": "\u0120coo",
    "1745": "room",
    "1746": "),",
    "1747": "\u0120inst",
    "1748": "ility",
    "1749": "ifu",
    "1750": "ience",
    "1751": "\u0120listened",
    "1752": "\u0120hun",
    "1753": "\u0120egg",
    "1754": "\u0120stra",
    "1755": "odu",
    "1756": "\u0120morning",
    "1757": "\u0120yep",
    "1758": "\u0120babe",
    "1759": "\u0120darkness",
    "1760": "\u0120rem",
    "1761": "iving",
    "1762": "\u0120:'(",
    "1763": "ional",
    "1764": "\u0120deal",
    "1765": "\u0120issues",
    "1766": "\u0120voices",
    "1767": "\u0120sub",
    "1768": "\u0120gun",
    "1769": "ming",
    "1770": "\u0120except",
    "1771": "12",
    "1772": "ilar",
    "1773": "ture",
    "1774": "\u0120complete",
    "1775": "ower",
    "1776": "\u0120reply",
    "1777": "\u0120likes",
    "1778": "\u0120fact",
    "1779": "\u0120answer",
    "1780": "\u0120panic",
    "1781": "\u0120pop",
    "1782": "\u0120works",
    "1783": "\u0120small",
    "1784": "\u0120difficult",
    "1785": "pid",
    "1786": "\u0120mat",
    "1787": "\u0120somehow",
    "1788": "\u0120definitely",
    "1789": "utes",
    "1790": "\u0120idek",
    "1791": "\u0120outside",
    "1792": "\u0120took",
    "1793": "ters",
    "1794": "\u0120supposed",
    "1795": "\u0120often",
    "1796": "\u0120post",
    "1797": "hd",
    "1798": "\u0120world",
    "1799": "\u0120parents",
    "1800": "ipp",
    "1801": "\u0120takes",
    "1802": "ption",
    "1803": "\u0120z",
    "1804": "\u0120haven",
    "1805": "book",
    "1806": "\u0120till",
    "1807": "waifu",
    "1808": "\u0120birth",
    "1809": "\u0120die",
    "1810": "\u0120telling",
    "1811": "\u0120daylight",
    "1812": "ads",
    "1813": "ratewaifu",
    "1814": "\u0120allowed",
    "1815": "\u0120cop",
    "1816": "icul",
    "1817": "ided",
    "1818": "\u0120games",
    "1819": "sent",
    "1820": "\u0120ages",
    "1821": "\u0120theyre",
    "1822": "000",
    "1823": "\u0120appreciate",
    "1824": "\u0120follow",
    "1825": "ru",
    "1826": "\u0120eff",
    "1827": "\u0120depress",
    "1828": "ode",
    "1829": "\u0120during",
    "1830": "zy",
    "1831": "yle",
    "1832": "\u0120autistic",
    "1833": "ob",
    "1834": "\u0120worry",
    "1835": "ger",
    "1836": "ings",
    "1837": "\u0120towards",
    "1838": "\u0120sexy",
    "1839": "\u0120wonder",
    "1840": "\u0120possible",
    "1841": "\u0120contro",
    "1842": "\u0120chang",
    "1843": "\u0120crying",
    "1844": "\u0120sat",
    "1845": "\u0120colle",
    "1846": "\u012018",
    "1847": "ship",
    "1848": "\u0120requ",
    "1849": "tm",
    "1850": "uk",
    "1851": "yout",
    "1852": "\u0120lost",
    "1853": "\u0120loves",
    "1854": "\u0120char",
    "1855": "\u0120cree",
    "1856": "\u0120rather",
    "1857": "put",
    "1858": "\u0120elect",
    "1859": "\u0120numb",
    "1860": "\u0120email",
    "1861": "\u0120effort",
    "1862": "\u0120bye",
    "1863": "ugh",
    "1864": "\u0120tot",
    "1865": "iny",
    "1866": "\u0120type",
    "1867": "\u0120exp",
    "1868": "\u0120address",
    "1869": "gr",
    "1870": "\u0120incl",
    "1871": "oon",
    "1872": "\u0120wood",
    "1873": "ict",
    "1874": "wor",
    "1875": "\u0120minutes",
    "1876": "\u0120boring",
    "1877": "nded",
    "1878": "\u0120entire",
    "1879": "gy",
    "1880": "\u0120equ",
    "1881": "\u0120hating",
    "1882": "\u0120opinion",
    "1883": "cited",
    "1884": "\u0120suggest",
    "1885": "\u0120sort",
    "1886": "\u0120anxious",
    "1887": "\u0120body",
    "1888": "\u0120stupid",
    "1889": "\u0120dinner",
    "1890": "air",
    "1891": "oman",
    "1892": "ibly",
    "1893": "\u0120wouldnt",
    "1894": "mp",
    "1895": "\u0120hang",
    "1896": "\u0120fav",
    "1897": "ates",
    "1898": "watch",
    "1899": "arch",
    "1900": "\u0120dead",
    "1901": "\u0120meme",
    "1902": "\u0120relation",
    "1903": "\u0120unless",
    "1904": "33",
    "1905": "\u0120met",
    "1906": "\u0120wear",
    "1907": "\u0120picture",
    "1908": "\u0120hid",
    "1909": "\u0120reading",
    "1910": "leep",
    "1911": "\u0120damn",
    "1912": "\u0120droid",
    "1913": "\u0120bou",
    "1914": "\u012015",
    "1915": "\u0120course",
    "1916": "aged",
    "1917": "\u0120hehe",
    "1918": "\u0120fuckin",
    "1919": "\u0120heating",
    "1920": "\u0120heard",
    "1921": "\u0120oooh",
    "1922": "mme",
    "1923": "\u0120stand",
    "1924": "\u0120lovely",
    "1925": "\u0120flo",
    "1926": "\u0120looked",
    "1927": "\u0120text",
    "1928": "cially",
    "1929": "\u0120close",
    "1930": "dy",
    "1931": "\u0120convers",
    "1932": "man",
    "1933": "\u0120human",
    "1934": "\u0120imag",
    "1935": "\u0120hows",
    "1936": "\u0120comes",
    "1937": "\u0120pizz",
    "1938": "\u0120pos",
    "1939": "\u0120age",
    "1940": "\u0120hold",
    "1941": "\u0120du",
    "1942": "\u0120tru",
    "1943": "\u0120slight",
    "1944": "\u0120realised",
    "1945": "\u0120figure",
    "1946": "\u0120xox",
    "1947": "\u00e2\u0122\u00a2",
    "1948": "mon",
    "1949": "\u0120excited",
    "1950": "\u0120evening",
    "1951": "\u0120finally",
    "1952": "\u0120consider",
    "1953": "!'",
    "1954": "eric",
    "1955": "\u0120discuss",
    "1956": "\u0120suppose",
    "1957": "aut",
    "1958": "\u0120online",
    "1959": "ring",
    "1960": "ffect",
    "1961": "\u0120autism",
    "1962": "\u0120situation",
    "1963": "\u0120gets",
    "1964": "\u0120book",
    "1965": "\u0120count",
    "1966": "\u0120oof",
    "1967": "\u0120fix",
    "1968": "ract",
    "1969": "\u0120normal",
    "1970": "\u0120mome",
    "1971": "\u0120wat",
    "1972": "\u0120inside",
    "1973": "15",
    "1974": "\u0120passage",
    "1975": "\u0120gunna",
    "1976": "kk",
    "1977": "lier",
    "1978": "\u0120dat",
    "1979": "mer",
    "1980": "iday",
    "1981": "\u0120doct",
    "1982": "\u0120pen",
    "1983": "\u0120pu",
    "1984": "gra",
    "1985": "\u00ca\u0137",
    "1986": "\u0120sweet",
    "1987": "\u0120fur",
    "1988": "\u0120loool",
    "1989": "\u0120del",
    "1990": "\u0120flat",
    "1991": "angle",
    "1992": "\u0120scary",
    "1993": "\u0120speaking",
    "1994": "\u0120english",
    "1995": "\u0120hy",
    "1996": "\u0120asleep",
    "1997": "gging",
    "1998": "\u0120wouldn",
    "1999": "\u0120creating",
    "2000": "\u0120uk",
    "2001": "\u0120americ",
    "2002": "\u0120pizza",
    "2003": "cl",
    "2004": "\u0120case",
    "2005": "\u0120lots",
    "2006": "\u0120fail",
    "2007": "nday",
    "2008": "\u0120ign",
    "2009": "\u0120happening",
    "2010": "iced",
    "2011": "\u012014",
    "2012": "cu",
    "2013": "\u012030",
    "2014": "ga",
    "2015": "\u00ca\u0136",
    "2016": "\u0120turn",
    "2017": "tever",
    "2018": "ces",
    "2019": "hy",
    "2020": "\u0120rant",
    "2021": "\u0120plus",
    "2022": "\u0120fault",
    "2023": "\u0120twitch",
    "2024": "\u0120cho",
    "2025": "\u0120pasta",
    "2026": "\u0120event",
    "2027": "\u0120black",
    "2028": "\u0120cold",
    "2029": "\u0120ev",
    "2030": "ail",
    "2031": "\u0120tu",
    "2032": "\u0120woman",
    "2033": "\u0120pc",
    "2034": "\u0120sucks",
    "2035": "\u0120http",
    "2036": "\u0120earlier",
    "2037": "\u0120horrible",
    "2038": "\u0120sn",
    "2039": "ex",
    "2040": "\u0120google",
    "2041": "irt",
    "2042": "\u0120xxx",
    "2043": "\u0120fall",
    "2044": "\u0120gave",
    "2045": "\u0120forever",
    "2046": "nn",
    "2047": "\u0120mil",
    "2048": "\u0120hopefully",
    "2049": "youtube",
    "2050": "\u0120sooo",
    "2051": "ock",
    "2052": "\u0120meow",
    "2053": "\u0120social",
    "2054": "\u0120aww",
    "2055": "dden",
    "2056": "\u0120drunk",
    "2057": "\u0120birthday",
    "2058": "\u0120worst",
    "2059": "\u0120cba",
    "2060": "angel",
    "2061": "ensive",
    "2062": "\u0120slightly",
    "2063": "\u0120low",
    "2064": "\u0120mouse",
    "2065": "\u0120vib",
    "2066": "\u0120mass",
    "2067": "nding",
    "2068": "\u0120pat",
    "2069": "\u0120gone",
    "2070": "\u0120suck",
    "2071": "fer",
    "2072": "\u0120won",
    "2073": "\u0120four",
    "2074": "\u0120tiny",
    "2075": "\u0120broke",
    "2076": "\u0120obviously",
    "2077": "\u0120sudden",
    "2078": "\u0120loved",
    "2079": "ising",
    "2080": "\u0120webs",
    "2081": "\u0120bag",
    "2082": "av",
    "2083": "\u0120giving",
    "2084": "\u0120sol",
    "2085": "ls",
    "2086": "\u0120umm",
    "2087": "\u0120spam",
    "2088": "pr",
    "2089": "sol",
    "2090": "\u0120cock",
    "2091": "\u0120prom",
    "2092": "\u0120pas",
    "2093": "rac",
    "2094": "\u0120stuck",
    "2095": "con",
    "2096": "\u0120ess",
    "2097": "\u0120expect",
    "2098": "\u0120ooh",
    "2099": "\u0120ffs",
    "2100": "ology",
    "2101": "\u0120key",
    "2102": "\u0120vape",
    "2103": "\u0120website",
    "2104": "lled",
    "2105": "\u0120bath",
    "2106": "\u0120actual",
    "2107": "\u0120living",
    "2108": "17",
    "2109": "lym",
    "2110": "\u0120whatever",
    "2111": "\u0120hmmm",
    "2112": "\u0120process",
    "2113": "\u0120favour",
    "2114": "\u0120worth",
    "2115": "\u0120lie",
    "2116": "\u0120currently",
    "2117": "ule",
    "2118": "\u0120angry",
    "2119": "\u0120perf",
    "2120": "ced",
    "2121": "\u0120psy",
    "2122": "\u0120fell",
    "2123": "ision",
    "2124": "\u0120laugh",
    "2125": "\u0120calm",
    "2126": "lu",
    "2127": "\u0120win",
    "2128": "\u0120foc",
    "2129": "key",
    "2130": "\u0120red",
    "2131": "\u0120ret",
    "2132": "\u0120android",
    "2133": "\u0120yours",
    "2134": "\u0120bitch",
    "2135": "\u0120phys",
    "2136": "ht",
    "2137": "friend",
    "2138": "cer",
    "2139": "\u0120mee",
    "2140": "\u0120trust",
    "2141": "\u0120internet",
    "2142": "\u0120ready",
    "2143": "vent",
    "2144": "cha",
    "2145": "fk",
    "2146": "\u0120mult",
    "2147": "sel",
    "2148": "24",
    "2149": "ured",
    "2150": "onse",
    "2151": "ities",
    "2152": "\u0120contin",
    "2153": "wu",
    "2154": "\u0120extra",
    "2155": "\u0120similar",
    "2156": "po",
    "2157": "uine",
    "2158": "\u0120recent",
    "2159": "\u0120blue",
    "2160": "scri",
    "2161": "\u0120fil",
    "2162": "\u0120strugg",
    "2163": "ber",
    "2164": "\u0120press",
    "2165": "\u0120hit",
    "2166": "\u0120arent",
    "2167": "16",
    "2168": "\u0120woo",
    "2169": "\u0120rap",
    "2170": "\u0120eyes",
    "2171": "\u0120straight",
    "2172": "25",
    "2173": "ient",
    "2174": "\u0120loveangel",
    "2175": "\u0120embar",
    "2176": "\u0120moment",
    "2177": "\u0120ner",
    "2178": "\u0120question",
    "2179": "antly",
    "2180": "bb",
    "2181": "\u0120/",
    "2182": "\u0120genuine",
    "2183": "board",
    "2184": "\u0120valid",
    "2185": "\u0120ya",
    "2186": "tr",
    "2187": "\u0120white",
    "2188": "\u0120awake",
    "2189": "ptop",
    "2190": "\u0120finis",
    "2191": "\u0120easy",
    "2192": "\u0120mis",
    "2193": "\u0120defo",
    "2194": "\u0120effect",
    "2195": "\u0120france",
    "2196": "\u0120knows",
    "2197": "\u0120chill",
    "2198": "ife",
    "2199": "\u0120conversation",
    "2200": "\u0120side",
    "2201": "\u0120brains",
    "2202": "\u0120mention",
    "2203": "\u0120properly",
    "2204": "\u0120become",
    "2205": "ho",
    "2206": "\u0120cook",
    "2207": "\u0120quick",
    "2208": "\u0120screen",
    "2209": "ines",
    "2210": "ence",
    "2211": "\u0120adhd",
    "2212": "\u0120decided",
    "2213": "\u0120favourite",
    "2214": "\u0120bought",
    "2215": "\u0120men",
    "2216": "\u0120eh",
    "2217": "\u0120response",
    "2218": "\u0120sexual",
    "2219": "\u012019",
    "2220": "\u0120slow",
    "2221": "\u0120seriously",
    "2222": "gif",
    "2223": "\u0120couldnt",
    "2224": "\u0120+",
    "2225": "\u0120dream",
    "2226": "\u0120form",
    "2227": "\u0120huge",
    "2228": "\u0120completely",
    "2229": "selves",
    "2230": "\u0120exam",
    "2231": "\u0120cares",
    "2232": "\u0120det",
    "2233": "\u0120record",
    "2234": "\u0120proud",
    "2235": "\u0120problems",
    "2236": "ux",
    "2237": "\u0120ver",
    "2238": "\u0120level",
    "2239": "\u0120laptop",
    "2240": "airs",
    "2241": "\u0120plym",
    "2242": "ral",
    "2243": "\u0120track",
    "2244": "\u0120correct",
    "2245": "\u0120twice",
    "2246": "iness",
    "2247": "\u0120short",
    "2248": "\u0120atm",
    "2249": "\u0120cannot",
    "2250": "\u0120kept",
    "2251": "\u0120hates",
    "2252": "aly",
    "2253": "jk",
    "2254": "\u0120five",
    "2255": "\u0120huh",
    "2256": "\u0120repl",
    "2257": "\u0120hello",
    "2258": "\u0120lemme",
    "2259": "\u0120cuddles",
    "2260": "cy",
    "2261": "\u0120messages",
    "2262": "\u0120loud",
    "2263": "\u0120beaut",
    "2264": "\u0120noticed",
    "2265": "iple",
    "2266": "\u0120psych",
    "2267": "\u0120cust",
    "2268": "\u0120waiting",
    "2269": "\u0120missed",
    "2270": "\u0120number",
    "2271": "\u00ca\u0136\u00e3\u0123\u00a3",
    "2272": "\u0120log",
    "2273": "uin",
    "2274": "\u0120nope",
    "2275": "\u0120produ",
    "2276": "\u0120relationship",
    "2277": "\u0120bru",
    "2278": "\u0120essay",
    "2279": "\u0120sys",
    "2280": "wise",
    "2281": "\u0120indeed",
    "2282": "rew",
    "2283": "rence",
    "2284": "\u0120gives",
    "2285": "\u0120based",
    "2286": "ify",
    "2287": "ize",
    "2288": "\u0120conta",
    "2289": "\u0120walked",
    "2290": "\u0120gross",
    "2291": "\u0120somewhere",
    "2292": "\u0120fit",
    "2293": "\u0120near",
    "2294": "\u012013",
    "2295": "\u0120ohhh",
    "2296": "hs",
    "2297": "\u0120deep",
    "2298": "\u0120const",
    "2299": "load",
    "2300": "\u0120step",
    "2301": "\u0120server",
    "2302": "\u0120totally",
    "2303": "\u0120early",
    "2304": "eer",
    "2305": "orn",
    "2306": "\u0120notice",
    "2307": "\u0120shut",
    "2308": "\u0120dist",
    "2309": "inge",
    "2310": "tmas",
    "2311": "\u0120suddenly",
    "2312": "une",
    "2313": "\u0120family",
    "2314": "\u0120starting",
    "2315": "\u0120incred",
    "2316": "\u0120front",
    "2317": "\u0120bi",
    "2318": "ively",
    "2319": "\u0120accidentally",
    "2320": "\u0120college",
    "2321": "\u00e2\u0122\u00a2\u00cc",
    "2322": "\u0120clos",
    "2323": "\u0120party",
    "2324": "\u0120vi",
    "2325": "ital",
    "2326": "\u0120goes",
    "2327": "pa",
    "2328": "esss",
    "2329": "\u0120christmas",
    "2330": "ited",
    "2331": "\u0120story",
    "2332": "\u0120girls",
    "2333": "\u0120hungry",
    "2334": "\u0120creepy",
    "2335": "\u0120round",
    "2336": "14",
    "2337": "\u0120hugs",
    "2338": "aked",
    "2339": "urs",
    "2340": "\u0120floor",
    "2341": "\u0120squ",
    "2342": "\u0120ran",
    "2343": "\u0120heart",
    "2344": "\u0120join",
    "2345": "\u0120>.",
    "2346": "\u0120busy",
    "2347": "\u012016",
    "2348": "\u0120england",
    "2349": "fast",
    "2350": "\u0120silly",
    "2351": "iful",
    "2352": "ancy",
    "2353": "\u0120technically",
    "2354": "\u0120partner",
    "2355": "\u0120general",
    "2356": "em",
    "2357": "oot",
    "2358": "fortable",
    "2359": "pecially",
    "2360": "\u0120inform",
    "2361": "\u0120air",
    "2362": "\u0120happens",
    "2363": "ding",
    "2364": "iot",
    "2365": "\u0120experience",
    "2366": "\u0120questions",
    "2367": "\u0120xoxo",
    "2368": "19",
    "2369": "\u0120decide",
    "2370": "13",
    "2371": "lex",
    "2372": "ertain",
    "2373": "\u0120longer",
    "2374": "\u0120brother",
    "2375": "ronic",
    "2376": "\u0120test",
    "2377": "\u0120throw",
    "2378": "\u0120style",
    "2379": "\u0120woke",
    "2380": "\u0120includ",
    "2381": "head",
    "2382": "kets",
    "2383": "ik",
    "2384": "\u0120wel",
    "2385": "\u0120imagine",
    "2386": "\u0120build",
    "2387": "tention",
    "2388": "\u0120sme",
    "2389": "\u0120bass",
    "2390": "\u0120list",
    "2391": "\u0120singing",
    "2392": "\u0120issue",
    "2393": "dle",
    "2394": "min",
    "2395": "\u0120nic",
    "2396": "\u0120neither",
    "2397": "chen",
    "2398": "ax",
    "2399": "\u0120lar",
    "2400": "\u0120yh",
    "2401": "ndon",
    "2402": "\u0120prof",
    "2403": "ists",
    "2404": "fl",
    "2405": "js",
    "2406": "\u0120?",
    "2407": "\u0120likely",
    "2408": "\u0120facebook",
    "2409": "\u0120specific",
    "2410": "\u0120yout",
    "2411": "\u0120spo",
    "2412": "\u0120mums",
    "2413": "\u0120particul",
    "2414": "\u0120contact",
    "2415": "\u0120prov",
    "2416": "ccoon",
    "2417": "\u0120sleeping",
    "2418": "\u0120genuinely",
    "2419": "\u0120nearly",
    "2420": "\u0120calling",
    "2421": "\u0120bra",
    "2422": "50",
    "2423": "tern",
    "2424": "\u0120fucked",
    "2425": "\u0120sens",
    "2426": "18",
    "2427": "\u0120soup",
    "2428": "\u0120ju",
    "2429": "\u0120meeting",
    "2430": "you",
    "2431": "\u0120boyfriend",
    "2432": "\u0120ily",
    "2433": "iled",
    "2434": "\u0120milk",
    "2435": "\u0120line",
    "2436": "\u0120annoyed",
    "2437": "\u0120odd",
    "2438": "\u0120bread",
    "2439": "\u0120couldn",
    "2440": "\u0120kitchen",
    "2441": "\u0120argo",
    "2442": "\u0120multiple",
    "2443": "\u0120screaming",
    "2444": "pris",
    "2445": "\u0120clot",
    "2446": "\u0120turned",
    "2447": "\u0120bar",
    "2448": "\u0120bright",
    "2449": "\u0120spent",
    "2450": "\u0120dammit",
    "2451": "\u0120especially",
    "2452": "\u0120warm",
    "2453": "\u00ca\u013a",
    "2454": "\u0120sile",
    "2455": "\u0120comment",
    "2456": "\u0120disapp",
    "2457": "\u0120massive",
    "2458": "ills",
    "2459": "\u0120strong",
    "2460": "\u0120wake",
    "2461": "iet",
    "2462": "\u0120whether",
    "2463": "\u0120compl",
    "2464": "\u0120group",
    "2465": "\u0120tv",
    "2466": "read",
    "2467": "que",
    "2468": "urate",
    "2469": "\u0120stude",
    "2470": "\u0120shower",
    "2471": "\u0120opp",
    "2472": "\u0120breakfast",
    "2473": "\u0120sksksk",
    "2474": "\")",
    "2475": "\u0120otherwise",
    "2476": "\u0120traum",
    "2477": "\u0120plymouth",
    "2478": "\u0120pissed",
    "2479": "aw",
    "2480": "do",
    "2481": "tend",
    "2482": "\u0120vers",
    "2483": "\u0120chaos",
    "2484": "\u0120others",
    "2485": "\u0120easier",
    "2486": "\u0120poop",
    "2487": "\u0120london",
    "2488": "eng",
    "2489": "\u0120green",
    "2490": "\u0120100",
    "2491": "\u0120paid",
    "2492": "\u0120apolog",
    "2493": "\u0120fire",
    "2494": "\u0120uwu",
    "2495": "\u0120hm",
    "2496": "kers",
    "2497": "down",
    "2498": "esus",
    "2499": "\u0120remo",
    "2500": "\u0120ant",
    "2501": "\u0120six",
    "2502": "\u0120ended",
    "2503": "\u0120police",
    "2504": "\u0120due",
    "2505": "\u0120dans",
    "2506": "\u0120share",
    "2507": "\u0120young",
    "2508": "\u0120>:",
    "2509": "\u0120direct",
    "2510": "medi",
    "2511": "\u0120purple",
    "2512": "23",
    "2513": "het",
    "2514": "\u0120camer",
    "2515": "\u0120deser",
    "2516": "\u0120control",
    "2517": "\u0120recently",
    "2518": "\u0120kissing",
    "2519": "df",
    "2520": "sted",
    "2521": "\u0120spend",
    "2522": "\u0120beautiful",
    "2523": "zz",
    "2524": "\u0120leaves",
    "2525": "\u0120uh",
    "2526": "\u0120pour",
    "2527": "\u0120loveangle",
    "2528": "eg",
    "2529": "\u0120ig",
    "2530": "\u0120liked",
    "2531": "\u0120surpris",
    "2532": "what",
    "2533": "\u0120los",
    "2534": "\u0120personal",
    "2535": "',",
    "2536": "hugs",
    "2537": "\u0120however",
    "2538": "\u0120moves",
    "2539": "\u0120clearly",
    "2540": "\u0120stressed",
    "2541": "\u0120emotional",
    "2542": "\u0120helping",
    "2543": "\u0120accurate",
    "2544": "br",
    "2545": "mat",
    "2546": "ets",
    "2547": "\u0120against",
    "2548": "omen",
    "2549": "ump",
    "2550": "pected",
    "2551": "\u0120fight",
    "2552": "\u0120wife",
    "2553": "\u0120death",
    "2554": "\u0120crap",
    "2555": "\u0120ce",
    "2556": "\u0120argu",
    "2557": "\u0120shout",
    "2558": "\u0120amount",
    "2559": "\u0120taken",
    "2560": "\u0120yo",
    "2561": "any",
    "2562": "\u0120sofa",
    "2563": "\u0120interested",
    "2564": "\u0120project",
    "2565": "nse",
    "2566": "\u0120sitting",
    "2567": "()",
    "2568": "40",
    "2569": "pop",
    "2570": "\u0120dou",
    "2571": "\u0120pee",
    "2572": "\u0120ben",
    "2573": "\u0120hugging",
    "2574": "par",
    "2575": "\u0120certain",
    "2576": "\u0120sending",
    "2577": "\u0120attack",
    "2578": "\u0120cooking",
    "2579": "\u0120obs",
    "2580": "\u0120middle",
    "2581": "\u0120youtube",
    "2582": "go",
    "2583": "\u0120fake",
    "2584": "\u0120friday",
    "2585": "\u0120single",
    "2586": "\u0120yesss",
    "2587": "vi",
    "2588": "\u0120jesus",
    "2589": "tenor",
    "2590": "\u0120prefer",
    "2591": "ka",
    "2592": "ants",
    "2593": "\u0120organ",
    "2594": "dn",
    "2595": "ren",
    "2596": "\u0120dude",
    "2597": "\u0120ow",
    "2598": "lls",
    "2599": "pped",
    "2600": "ilt",
    "2601": "\u0120themselves",
    "2602": "\u0120choice",
    "2603": "ond",
    "2604": "ame",
    "2605": "\u0120attention",
    "2606": "\u0120smoked",
    "2607": "\u0120idiot",
    "2608": "gu",
    "2609": "log",
    "2610": "\u0120state",
    "2611": "\u0120bare",
    "2612": "\u0120considering",
    "2613": "\u0120ai",
    "2614": "\u0120lil",
    "2615": "\u0120que",
    "2616": "gs",
    "2617": "\u0120aa",
    "2618": "\u0120loads",
    "2619": "\u0120date",
    "2620": "\u0120expensive",
    "2621": "\u0120broken",
    "2622": "\u0120asher",
    "2623": "bot",
    "2624": "ular",
    "2625": "\u0120meaning",
    "2626": "\u0120mag",
    "2627": "\u0120card",
    "2628": "\u0120conne",
    "2629": "hol",
    "2630": "\u0120ont",
    "2631": "\u0120appro",
    "2632": "\u0120crazy",
    "2633": "sor",
    "2634": "\u0120rent",
    "2635": "\u0120grow",
    "2636": "1000",
    "2637": "ai",
    "2638": "ric",
    "2639": "\u0120accept",
    "2640": "\u0120focus",
    "2641": "\u0120finished",
    "2642": "ered",
    "2643": "text",
    "2644": "\u0120amb",
    "2645": "\u0120swear",
    "2646": "fy",
    "2647": "\u0120avo",
    "2648": "\u0120depe",
    "2649": "ove",
    "2650": "\u0120mas",
    "2651": "norm",
    "2652": "ises",
    "2653": "\u0120advice",
    "2654": "\u0120>:(",
    "2655": "itive",
    "2656": "ergy",
    "2657": "hahaha",
    "2658": "like",
    "2659": "igger",
    "2660": "\u00ca\u0137\u00e3\u0123\u00a3",
    "2661": "\u0120tic",
    "2662": "\u0120wall",
    "2663": "\u0120uns",
    "2664": "cle",
    "2665": "\u0120dress",
    "2666": "\u012017",
    "2667": "\u0120boobs",
    "2668": "\u0120typing",
    "2669": "\u0120kids",
    "2670": "21",
    "2671": "\u0120react",
    "2672": "45",
    "2673": "\u0120drugs",
    "2674": "\u0120:((",
    "2675": "tel",
    "2676": "26",
    "2677": "port",
    "2678": "ina",
    "2679": "\u0120pot",
    "2680": "\u0120access",
    "2681": "\u0120emo",
    "2682": "\u0120system",
    "2683": "\u0120repe",
    "2684": "\u0120express",
    "2685": "\u0120emp",
    "2686": "\u0120camera",
    "2687": "\u0120satur",
    "2688": "ager",
    "2689": "mi",
    "2690": "\u0120women",
    "2691": "\u0120realise",
    "2692": "\u0120manage",
    "2693": "\u0120sees",
    "2694": "ules",
    "2695": "iment",
    "2696": "ropri",
    "2697": "\u0120boi",
    "2698": "\u0120soft",
    "2699": "\u0120blood",
    "2700": "\u0120onto",
    "2701": "\u0120dest",
    "2702": "search",
    "2703": "\u0120smile",
    "2704": "\u0120secret",
    "2705": "\u0120offe",
    "2706": "\u0120kitty",
    "2707": "]:",
    "2708": "\u0120code",
    "2709": "\u0120view",
    "2710": "\u0120prote",
    "2711": "ially",
    "2712": "cel",
    "2713": "\u0120teen",
    "2714": "\u0120charac",
    "2715": "stairs",
    "2716": "uth",
    "2717": "\u0120rid",
    "2718": "\u0120walking",
    "2719": "\u0120memor",
    "2720": "oof",
    "2721": "\u0120offer",
    "2722": "\u0120quiet",
    "2723": "\u0120letter",
    "2724": "\u0120himself",
    "2725": "work",
    "2726": "\u0120beg",
    "2727": "imin",
    "2728": "\u0120vibes",
    "2729": "\u0120custom",
    "2730": "for",
    "2731": "\u0120hol",
    "2732": "\u0120absol",
    "2733": "whel",
    "2734": "\u0120opt",
    "2735": "ature",
    "2736": "\u0120respons",
    "2737": "\u0120communication",
    "2738": "bu",
    "2739": "\u0120oop",
    "2740": "\u0120pub",
    "2741": "ane",
    "2742": "aten",
    "2743": "iod",
    "2744": "rib",
    "2745": "\u0120box",
    "2746": "\u0120clear",
    "2747": "\u0120clothes",
    "2748": "\u0120energy",
    "2749": "\u0120given",
    "2750": "\u0120rip",
    "2751": "ift",
    "2752": "\u0120mot",
    "2753": "\u0120overwhel",
    "2754": "\u0120brit",
    "2755": "\u0120yeahhh",
    "2756": "\u0120fairly",
    "2757": "\u0120remind",
    "2758": "\u0120absolute",
    "2759": "\u0120respect",
    "2760": "rs",
    "2761": "\u0120bin",
    "2762": "\u0120pie",
    "2763": "\u0120waht",
    "2764": "\u0120feelings",
    "2765": "ocked",
    "2766": "ability",
    "2767": "\u0120hands",
    "2768": "\u0120awh",
    "2769": "\u0120whos",
    "2770": "\u0120reco",
    "2771": "\u0120finish",
    "2772": "\u0120welcome",
    "2773": "cal",
    "2774": "\u0120worked",
    "2775": "ours",
    "2776": "oint",
    "2777": "pro",
    "2778": "\u0120putting",
    "2779": "\u0120est",
    "2780": "irty",
    "2781": "\u0120retur",
    "2782": "\u0120av",
    "2783": "\u0120bts",
    "2784": "\u0120rele",
    "2785": "\u0120shouldnt",
    "2786": "\u0120poke",
    "2787": "\u0120admit",
    "2788": "\u0120medic",
    "2789": "\u0120truly",
    "2790": "\u0120beh",
    "2791": "\u0120fully",
    "2792": "\u0120changed",
    "2793": "but",
    "2794": "yyy",
    "2795": "\u0120sam",
    "2796": "astic",
    "2797": "\u012024",
    "2798": "\u0120photo",
    "2799": "\u0120\u00e2",
    "2800": "\u0120planning",
    "2801": "\u0120vibe",
    "2802": "ok",
    "2803": "\u0120gre",
    "2804": "\u0120elodies",
    "2805": "\u0120rock",
    "2806": "\u0120large",
    "2807": "\u0120complain",
    "2808": "miss",
    "2809": "igin",
    "2810": "\u0120period",
    "2811": "\u0120forgetting",
    "2812": "\u0120tre",
    "2813": "\u0120terr",
    "2814": "\u0120information",
    "2815": "\u0120cover",
    "2816": "22",
    "2817": "\u0120priv",
    "2818": "\u0120saturday",
    "2819": "uc",
    "2820": "icken",
    "2821": "ctive",
    "2822": "\u0120ignore",
    "2823": "\u0120particularly",
    "2824": "ropriate",
    "2825": "ws",
    "2826": "\u0120tim",
    "2827": "url",
    "2828": "\u0120petes",
    "2829": "aces",
    "2830": "\u0120pipe",
    "2831": "\u0120aud",
    "2832": "\u0120monday",
    "2833": "\u012050",
    "2834": "inger",
    "2835": "\u0120beha",
    "2836": "ole",
    "2837": "\u0120drop",
    "2838": "\u0120port",
    "2839": "\u0120thinks",
    "2840": "\u0120arr",
    "2841": "anger",
    "2842": "\u0120doctors",
    "2843": "\u0120continue",
    "2844": "ze",
    "2845": "\u0120bat",
    "2846": "\u0120awful",
    "2847": "\u0120helps",
    "2848": "bi",
    "2849": "dam",
    "2850": "\u0120detail",
    "2851": "\u0120treat",
    "2852": "raph",
    "2853": "\u0120immedi",
    "2854": "\u0120finding",
    "2855": "\u0120option",
    "2856": "?'",
    "2857": "ky",
    "2858": "\u0120ir",
    "2859": "ator",
    "2860": "\u0120remembering",
    "2861": "\u0120confir",
    "2862": "(\"",
    "2863": "\u0120lady",
    "2864": "\u0120power",
    "2865": "\u0120uncom",
    "2866": "\u0120pract",
    "2867": "\u0120temp",
    "2868": "\u0120kidding",
    "2869": "nel",
    "2870": "\u0120moved",
    "2871": "\u0120bby",
    "2872": "\u0120strange",
    "2873": "ground",
    "2874": "\u0120noise",
    "2875": "\u0120pack",
    "2876": "\u0120invol",
    "2877": "lr",
    "2878": "mg",
    "2879": "\u0120sal",
    "2880": "\u0120ly",
    "2881": "\u0120vag",
    "2882": "\u0120orange",
    "2883": "\u0120somebody",
    "2884": "\u0120_",
    "2885": "\u0120understanding",
    "2886": "\u0120closer",
    "2887": "\u0120avoid",
    "2888": "\u0120les",
    "2889": "\u0120kpop",
    "2890": "\u0120aint",
    "2891": "\u0120warn",
    "2892": "oring",
    "2893": "cou",
    "2894": "\u0120unf",
    "2895": "\u0120assa",
    "2896": "\u0120juice",
    "2897": "land",
    "2898": "cture",
    "2899": "\u0120truth",
    "2900": "\u0120property",
    "2901": "scribe",
    "2902": "\u0120sle",
    "2903": "\u0120mice",
    "2904": "\u0120um",
    "2905": "\u0120int",
    "2906": "\u0120stre",
    "2907": "ade",
    "2908": "\u0120communicate",
    "2909": "\u0120behind",
    "2910": "bal",
    "2911": "\u0120tit",
    "2912": "\u0120wooo",
    "2913": "\u0120feed",
    "2914": "\u0120alive",
    "2915": "\u0120drug",
    "2916": "fd",
    "2917": "amp",
    "2918": "\u0120waking",
    "2919": "\u0120keeps",
    "2920": "\u0120sky",
    "2921": "28",
    "2922": "\u0120link",
    "2923": "\u0120fucks",
    "2924": "arc",
    "2925": "\u0120incredibly",
    "2926": "\u012023",
    "2927": "\u0120normally",
    "2928": "oh",
    "2929": "\u0120megan",
    "2930": "\u0120fast",
    "2931": "\u0120exist",
    "2932": "\u0120eventually",
    "2933": "rd",
    "2934": "\u0120stopped",
    "2935": "\u0120america",
    "2936": "ienc",
    "2937": "sex",
    "2938": "\u0120fear",
    "2939": "pose",
    "2940": "\u0120occ",
    "2941": "lfr",
    "2942": "\u0120band",
    "2943": "\u0120bott",
    "2944": "\u0120cringe",
    "2945": "11",
    "2946": "itter",
    "2947": "\u0120herself",
    "2948": "\u0120pressure",
    "2949": "cing",
    "2950": "\u0120origin",
    "2951": "\u0120boom",
    "2952": "\u0120electronic",
    "2953": "\u0120fat",
    "2954": "\u0120thurs",
    "2955": "ggg",
    "2956": "aging",
    "2957": "\u0120confusing",
    "2958": "\u0120specif",
    "2959": "oss",
    "2960": "\u0120ball",
    "2961": "\u0120force",
    "2962": "verse",
    "2963": "cra",
    "2964": "igned",
    "2965": "\u0120computers",
    "2966": "\u0120hotel",
    "2967": "\u0120version",
    "2968": "dio",
    "2969": "\u0120lang",
    "2970": "\u0120beds",
    "2971": "\u0120alco",
    "2972": "\u0120adv",
    "2973": "\u0120mach",
    "2974": "face",
    "2975": "\u0120&",
    "2976": "ney",
    "2977": "lfriend",
    "2978": "\u0120wot",
    "2979": "vera",
    "2980": "\u0120kore",
    "2981": "aaay",
    "2982": "\u0120relax",
    "2983": "usive",
    "2984": "\u0120cost",
    "2985": "\u0120mac",
    "2986": "ipped",
    "2987": "\u0120forward",
    "2988": "\u0120distra",
    "2989": "\u00e2\u0122\u00bf",
    "2990": "\u0120stars",
    "2991": "\u0120term",
    "2992": "mes",
    "2993": "\u0120cir",
    "2994": "\u0120progra",
    "2995": "\u0120weeke",
    "2996": "\u0120nor",
    "2997": "leted",
    "2998": "\u0120ador",
    "2999": "\u0120missing",
    "3000": "\u0120rev",
    "3001": "\u0120matter",
    "3002": "\u0120seemed",
    "3003": "\u0120request",
    "3004": "\u0120fut",
    "3005": "\u0120bene",
    "3006": "ows",
    "3007": "\u0120decent",
    "3008": "\u0120desk",
    "3009": "\u0120piper",
    "3010": "\u0120eye",
    "3011": "\u0120cy",
    "3012": "\u0120frust",
    "3013": "\u0120raccoon",
    "3014": "\u0120price",
    "3015": "\u0120male",
    "3016": "\u0120deserve",
    "3017": "99",
    "3018": "\u0120porn",
    "3019": "\u0120hide",
    "3020": "icked",
    "3021": "\u0120current",
    "3022": "ior",
    "3023": "\u0120urself",
    "3024": "\u0120ident",
    "3025": "cat",
    "3026": "\u0120listens",
    "3027": "\u0120special",
    "3028": "\u0120student",
    "3029": "\u0120fill",
    "3030": "\u0120touches",
    "3031": "\u0120sleepy",
    "3032": "usted",
    "3033": "\u0120harsh",
    "3034": "\u0120boys",
    "3035": "rap",
    "3036": "ived",
    "3037": "\u0120langu",
    "3038": "\u0120alcohol",
    "3039": "sp",
    "3040": "\u0120mate",
    "3041": "\u0120stan",
    "3042": "\u0120expected",
    "3043": "\u0120werent",
    "3044": "\u0120across",
    "3045": "aling",
    "3046": "\u0120cup",
    "3047": "\u0120badly",
    "3048": "\u0120decision",
    "3049": "\u0120including",
    "3050": "ler",
    "3051": "vous",
    "3052": "\u0120ou",
    "3053": "\u0120depressed",
    "3054": "27",
    "3055": "la",
    "3056": "\u0120sake",
    "3057": "token",
    "3058": "aths",
    "3059": "ses",
    "3060": "\u0120ris",
    "3061": "\u0120town",
    "3062": "\u0120kevins",
    "3063": "\u0120whenever",
    "3064": "\u0120streaming",
    "3065": "ars",
    "3066": "nted",
    "3067": "\u0120burn",
    "3068": "dj",
    "3069": "\u0120ep",
    "3070": "\u0120roll",
    "3071": "iant",
    "3072": "\u0120company",
    "3073": "\u0120shitty",
    "3074": "\u0120appoint",
    "3075": "\u0120girlfriend",
    "3076": "\u0120taste",
    "3077": "sha",
    "3078": "ume",
    "3079": "\u0120eight",
    "3080": "\u0120cuddle",
    "3081": "\u0120within",
    "3082": "\u0120managed",
    "3083": "\u0120note",
    "3084": "\u0120analy",
    "3085": "\u0120lay",
    "3086": "\u0120reasons",
    "3087": "\u0120brighton",
    "3088": "bl",
    "3089": "\u0120son",
    "3090": "tence",
    "3091": "\u0120drum",
    "3092": "\u0120doctor",
    "3093": "\u0120jud",
    "3094": "\u0120save",
    "3095": "\u0120ways",
    "3096": "\u0120redd",
    "3097": "\u0120skills",
    "3098": "\u0120further",
    "3099": "\u0120ahhh",
    "3100": "\u0120rules",
    "3101": "pital",
    "3102": "hael",
    "3103": "\u0120bill",
    "3104": "\u0120none",
    "3105": "\u0120diag",
    "3106": "\u0120watched",
    "3107": "\u0120repeat",
    "3108": "\u0120{",
    "3109": "\u0120tor",
    "3110": "\u0120stat",
    "3111": "\u0120along",
    "3112": "\u0120bull",
    "3113": "\u0120grind",
    "3114": "\u0120photos",
    "3115": "\u0120oops",
    "3116": "\u0120behavi",
    "3117": "\u0120cris",
    "3118": "\u0120den",
    "3119": "\u0120therefore",
    "3120": "fc",
    "3121": "list",
    "3122": "\u0120lolol",
    "3123": "\u0120helpful",
    "3124": "\u0120dro",
    "3125": "\u0120pet",
    "3126": "\u0120park",
    "3127": "))",
    "3128": "itten",
    "3129": "\u0120ohh",
    "3130": "\u0120british",
    "3131": "bin",
    "3132": "\u0120chicken",
    "3133": "\u0120tty",
    "3134": "\u0120dep",
    "3135": "\u0120drag",
    "3136": "\u0120genre",
    "3137": "\u0120jk",
    "3138": "\u0120ofc",
    "3139": "\u0120plans",
    "3140": "\u0120froggys",
    "3141": "\u0120difference",
    "3142": "wh",
    "3143": "ality",
    "3144": "\u0120exis",
    "3145": "\u0120urs",
    "3146": "\u0120experienc",
    "3147": "\u0120exciting",
    "3148": "\u0120illeg",
    "3149": "\u0120metal",
    "3150": "\u0120embarr",
    "3151": "\u0120absolutely",
    "3152": "\u0120future",
    "3153": "bab",
    "3154": "\u0120youuu",
    "3155": "\u0120poor",
    "3156": "\u0120michael",
    "3157": "\u0120specifically",
    "3158": "ster",
    "3159": "uce",
    "3160": "\u0120mild",
    "3161": "ref",
    "3162": "\u0120nood",
    "3163": "\u0120attem",
    "3164": "\u0120sorted",
    "3165": "\u0120switch",
    "3166": "cri",
    "3167": "\u0120places",
    "3168": "\u0120hears",
    "3169": "\u0120lack",
    "3170": "\u0120learns",
    "3171": "\u0120running",
    "3172": "den",
    "3173": "tain",
    "3174": "ught",
    "3175": "\u0120impress",
    "3176": "\u0120purpose",
    "3177": "\u0120hyper",
    "3178": "\u0120options",
    "3179": "\u0120voc",
    "3180": "\u0120mc",
    "3181": "\u0120foot",
    "3182": "idence",
    "3183": "tedly",
    "3184": "\u0120tryna",
    "3185": "\u0120channel",
    "3186": "\u0120info",
    "3187": "\u0120training",
    "3188": "\u0120load",
    "3189": "pping",
    "3190": "\u0120print",
    "3191": "\u0120delive",
    "3192": "aks",
    "3193": "oin",
    "3194": "ints",
    "3195": "\u0120billy",
    "3196": "\u0120sched",
    "3197": "\u0120regard",
    "3198": "\u0120wro",
    "3199": "\u0120ble",
    "3200": "\u0120upd",
    "3201": "ave",
    "3202": "ton",
    "3203": "ye",
    "3204": "\u0120died",
    "3205": "\u0120dirty",
    "3206": "\u0120rece",
    "3207": "\u0120knowing",
    "3208": "\u0120unable",
    "3209": "\u0120equals",
    "3210": "\u0120nervous",
    "3211": "\u0120barely",
    "3212": "\u012025",
    "3213": "\u0120hurts",
    "3214": "\u0120shops",
    "3215": "\u0120weekend",
    "3216": "\u0120reddit",
    "3217": "lp",
    "3218": "under",
    "3219": "\u0120sunday",
    "3220": "ppy",
    "3221": "\u0120aware",
    "3222": "\u0120skin",
    "3223": "name",
    "3224": "\u0120gender",
    "3225": "\u0120hehehe",
    "3226": "\u0120adorable",
    "3227": "sed",
    "3228": "\u0120tune",
    "3229": "har",
    "3230": "idge",
    "3231": "\u0120bottom",
    "3232": "\u0120tro",
    "3233": "\u0120bum",
    "3234": "\u0120ruin",
    "3235": "\u0120mentioned",
    "3236": "\u0120surprised",
    "3237": "\u0120ttyl",
    "3238": "bing",
    "3239": "\u0120beat",
    "3240": "\u0120above",
    "3241": "\u0120minute",
    "3242": "\u0120constantly",
    "3243": "\u0120bb",
    "3244": "\u0120disg",
    "3245": "\u0120bedroom",
    "3246": "velop",
    "3247": "\u0120machine",
    "3248": "38",
    "3249": "oned",
    "3250": "att",
    "3251": "\u0120jess",
    "3252": "\u0120possibly",
    "3253": "\u0120>.>",
    "3254": "\u0120refe",
    "3255": "ionally",
    "3256": "\u0120eats",
    "3257": "\u0120dads",
    "3258": "\u0120assum",
    "3259": "\u0120mother",
    "3260": "\u0120lying",
    "3261": "\u0120kk",
    "3262": "\u0120moon",
    "3263": "vert",
    "3264": "\u0120picks",
    "3265": "\u0120account",
    "3266": "\u0120wrote",
    "3267": "\u0120washing",
    "3268": "play",
    "3269": "\u0120struggling",
    "3270": "\u0120mur",
    "3271": "\u0120cross",
    "3272": "\u0120land",
    "3273": "\u0120tax",
    "3274": "ested",
    "3275": "\u0120tend",
    "3276": "\u0120penis",
    "3277": "chan",
    "3278": "ulation",
    "3279": "\u0120jobs",
    "3280": "\u012040",
    "3281": "essed",
    "3282": "gged",
    "3283": "\u0120\u00f0\u0141\u013a",
    "3284": "\u0120bruh",
    "3285": "box",
    "3286": "\u00f3\u00be\u0128",
    "3287": "ution",
    "3288": "\u0120directly",
    "3289": "\u0120cake",
    "3290": "\u0120concer",
    "3291": "umblr",
    "3292": "29",
    "3293": "pre",
    "3294": "\u0120table",
    "3295": "\u0120bow",
    "3296": "\u0120quit",
    "3297": "\u0120tues",
    "3298": "\u0120delete",
    "3299": "\u0120cond",
    "3300": "\u0120paying",
    "3301": "\u0120worries",
    "3302": "\u0120copy",
    "3303": "\u0120profess",
    "3304": "66",
    "3305": "\u0120hom",
    "3306": "\u0120sadly",
    "3307": "\u0120double",
    "3308": "\u0120language",
    "3309": "pg",
    "3310": "\u0120maths",
    "3311": "\u0120dying",
    "3312": "\u0120honey",
    "3313": "ides",
    "3314": "alous",
    "3315": "\u0120neg",
    "3316": "\u0120interview",
    "3317": "\u0120mode",
    "3318": "\u0120banned",
    "3319": "bt",
    "3320": "\u0120mist",
    "3321": "ndent",
    "3322": "\u0120uuu",
    "3323": "\u0120heav",
    "3324": "\u0120stick",
    "3325": "\u0120sell",
    "3326": "\u0120spot",
    "3327": "\u0120everywhere",
    "3328": "\u0120drive",
    "3329": "\u0120holy",
    "3330": "\u0120apologise",
    "3331": "\u0120pokemon",
    "3332": "\u0120slept",
    "3333": "\u0120sand",
    "3334": "\u0120serious",
    "3335": "ried",
    "3336": "uff",
    "3337": "\u0120yee",
    "3338": "\u0120shad",
    "3339": "ncy",
    "3340": "\u0120fixed",
    "3341": "\u0120film",
    "3342": "\u0120rom",
    "3343": "\u0120cent",
    "3344": "\u0120pun",
    "3345": "\u0120gurl",
    "3346": "ien",
    "3347": "\u0120written",
    "3348": "\u0120phones",
    "3349": "\u0120embarass",
    "3350": "\u0120medication",
    "3351": "08",
    "3352": "\u0120breat",
    "3353": "uses",
    "3354": "\u0120lose",
    "3355": "\u0120summ",
    "3356": "\u0120seven",
    "3357": "\u012022",
    "3358": "ledge",
    "3359": "\u0120illegal",
    "3360": "48",
    "3361": "lent",
    "3362": "\u0120chall",
    "3363": "\u0120trip",
    "3364": "\u0120irl",
    "3365": "time",
    "3366": "\u0120joy",
    "3367": "\u0120anim",
    "3368": "amine",
    "3369": "\u0120final",
    "3370": "\u0120randomly",
    "3371": "\u0120emotions",
    "3372": "57",
    "3373": "mpt",
    "3374": "\u0120becom",
    "3375": "\u0120letting",
    "3376": "aime",
    "3377": "\u0120jum",
    "3378": "\u0120useful",
    "3379": "\u0120imposs",
    "3380": "\u0120jealous",
    "3381": "\u0120entirely",
    "3382": "\u00e2\u0122\u00a2\u00cc\u0122",
    "3383": "\u0120trauma",
    "3384": "\u0120immediately",
    "3385": "\u0120uncomfortable",
    "3386": "nit",
    "3387": "\u0120ate",
    "3388": "\u0120benef",
    "3389": "\u0120sarc",
    "3390": "\u0120pics",
    "3391": "\u0120american",
    "3392": "\u0120size",
    "3393": "\u0120lu",
    "3394": "\u0120anywhere",
    "3395": "\u0120bae",
    "3396": "\u0120wearing",
    "3397": "gpt",
    "3398": "\u0120sce",
    "3399": "ures",
    "3400": "\u0120begin",
    "3401": "):",
    "3402": "\u0120succ",
    "3403": "\u0120apply",
    "3404": "\u0120shame",
    "3405": "\u0120remix",
    "3406": "\u0120lowkey",
    "3407": "\u0120impossible",
    "3408": "\u0120stal",
    "3409": "\u0120whyyy",
    "3410": "\u0120impro",
    "3411": "\u0120glass",
    "3412": "\u0120depression",
    "3413": "\u0120loser",
    "3414": "\u0120private",
    "3415": "craft",
    "3416": "47",
    "3417": "tep",
    "3418": "\u0120aren",
    "3419": "ifying",
    "3420": "\u0120helped",
    "3421": "\u0120babies",
    "3422": "ograph",
    "3423": "\u0120inde",
    "3424": "ware",
    "3425": "\u0120excuse",
    "3426": "\u0120physical",
    "3427": "\u00e2\u0122\u00a2\u00cc\u0123",
    "3428": "gf",
    "3429": "\u0120led",
    "3430": "\u0120jour",
    "3431": "usting",
    "3432": "\u0120univers",
    "3433": "ya",
    "3434": "\u0120noice",
    "3435": "ctions",
    "3436": "\u0120cutie",
    "3437": "of",
    "3438": "\u0120fish",
    "3439": "\u0120cope",
    "3440": "male",
    "3441": "\u0120object",
    "3442": "\u0120return",
    "3443": "ights",
    "3444": "\u0120built",
    "3445": "\u0120jelly",
    "3446": "nb",
    "3447": "\u0120irr",
    "3448": "\u0120yeee",
    "3449": "\u0120nine",
    "3450": "\u0120ut",
    "3451": "\u0120image",
    "3452": "\u0120convo",
    "3453": "\u0120signific",
    "3454": "\u0120thursday",
    "3455": "aff",
    "3456": "\u0120bound",
    "3457": "\u0120hadn",
    "3458": "\u0120appear",
    "3459": "phone",
    "3460": "\u0120tf",
    "3461": "orted",
    "3462": "\u0120reach",
    "3463": "\u0120anime",
    "3464": "haps",
    "3465": "tems",
    "3466": "\u0120sho",
    "3467": "\u0120chips",
    "3468": "\u0120scr",
    "3469": "ires",
    "3470": "\u0120tracks",
    "3471": "\u0120aces",
    "3472": "\u0120humans",
    "3473": "tered",
    "3474": "ram",
    "3475": "\u0120max",
    "3476": "\u0120gran",
    "3477": "\u0120cleaning",
    "3478": "iculous",
    "3479": "ults",
    "3480": "\u0120assist",
    "3481": "\u0120stressful",
    "3482": "\u0120figured",
    "3483": "\u0120visit",
    "3484": "\u0120sou",
    "3485": "\u0120search",
    "3486": "\u0120keyboard",
    "3487": "\u0120quickly",
    "3488": "back",
    "3489": "\u0120gar",
    "3490": "\u0120ends",
    "3491": "\u0120perform",
    "3492": "\u0120pill",
    "3493": "\u0120context",
    "3494": "\u0120children",
    "3495": "\u0120depends",
    "3496": "\u0120rice",
    "3497": "\u0120deleted",
    "3498": "ulance",
    "3499": "\u0120team",
    "3500": "\u0120embarrass",
    "3501": "\u0120ded",
    "3502": "usion",
    "3503": "\u0120thre",
    "3504": "\u0120stab",
    "3505": "..?",
    "3506": "\u0120ens",
    "3507": "dis",
    "3508": "\u0120bang",
    "3509": "\u0120init",
    "3510": "\u0120kay",
    "3511": "\u0120shouting",
    "3512": "cher",
    "3513": "ration",
    "3514": "vant",
    "3515": "vices",
    "3516": "\u0120ahh",
    "3517": "\u0120danger",
    "3518": "urt",
    "3519": "\u0120yeh",
    "3520": "\u0120drama",
    "3521": "\u0120rac",
    "3522": "\u0120hiding",
    "3523": "\u0120laughing",
    "3524": "\u0120bon",
    "3525": "iding",
    "3526": "35",
    "3527": "\u0120page",
    "3528": "\u0120push",
    "3529": "ased",
    "3530": "\u0120abuse",
    "3531": "\u0120abusive",
    "3532": "\u0120suis",
    "3533": "\u0120exha",
    "3534": "\u0120comfortable",
    "3535": "\u0120tex",
    "3536": "\u0120chin",
    "3537": "\u0120cheap",
    "3538": "\u0120horny",
    "3539": "ged",
    "3540": "now",
    "3541": "\u0120bee",
    "3542": "idered",
    "3543": "dding",
    "3544": "\u0120joking",
    "3545": "\u0120twitter",
    "3546": "shit",
    "3547": "\u0120staying",
    "3548": "\u0120instru",
    "3549": "du",
    "3550": "\u0120pus",
    "3551": "\u0120hos",
    "3552": "\u0120chance",
    "3553": "\u0120usual",
    "3554": "\u0120waaa",
    "3555": "\u0120allows",
    "3556": "\u0120owo",
    "3557": "mission",
    "3558": "\u0120function",
    "3559": "\u0120lives",
    "3560": "\u0120eggs",
    "3561": "\u0120woods",
    "3562": "\u0120country",
    "3563": "\u0120smell",
    "3564": "\u0120ridiculous",
    "3565": "\u0120recogn",
    "3566": "\u0120agre",
    "3567": "quen",
    "3568": "\u0120counse",
    "3569": "\u0120seconds",
    "3570": "ml",
    "3571": "\u0120icon",
    "3572": "\u0120bigg",
    "3573": "\u0120fra",
    "3574": "oms",
    "3575": "\u0120imo",
    "3576": "\u0120rhy",
    "3577": "\u0120fuc",
    "3578": "\u0120activ",
    "3579": "\u0120perhaps",
    "3580": "\u0120breaks",
    "3581": "\u0120mistake",
    "3582": "just",
    "3583": "\u0120wedn",
    "3584": "\u0120bother",
    "3585": "\u0120bathroom",
    "3586": "berry",
    "3587": "\u0120character",
    "3588": "\u0120appointment",
    "3589": "\u0120wednes",
    "3590": "36",
    "3591": "46",
    "3592": "ges",
    "3593": "here",
    "3594": "\u0120mut",
    "3595": "\u0120mer",
    "3596": "olate",
    "3597": "bered",
    "3598": "\u0120apart",
    "3599": "\u0120silent",
    "3600": "\u0120irrit",
    "3601": "tre",
    "3602": "\u0120mov",
    "3603": "\u0120lead",
    "3604": "\u0120artic",
    "3605": "\u0120interest",
    "3606": "\u0120videos",
    "3607": "!',",
    "3608": "\u0120oppos",
    "3609": "39",
    "3610": "\u0120meee",
    "3611": "\u0120fancy",
    "3612": "\u0120naked",
    "3613": "ato",
    "3614": "\u0120brb",
    "3615": "\u012090",
    "3616": "ipping",
    "3617": "\u0120suggesting",
    "3618": "form",
    "3619": "ource",
    "3620": "dered",
    "3621": "fet",
    "3622": "\u0120itself",
    "3623": "\u0120chatgpt",
    "3624": "\u0120obvious",
    "3625": "\u0120wondering",
    "3626": "\u0120silence",
    "3627": "\u0120schedule",
    "3628": "\u0120yaaay",
    "3629": "\u0120enter",
    "3630": "\u0120tough",
    "3631": "\u0120appropriate",
    "3632": "fair",
    "3633": "\u0120showing",
    "3634": "\u0120experiment",
    "3635": "\u0120data",
    "3636": "\u0120vagina",
    "3637": "hha",
    "3638": "ister",
    "3639": "\u0120stic",
    "3640": "\u0120choo",
    "3641": "\u0120simple",
    "3642": "fortun",
    "3643": "\u0120public",
    "3644": "cess",
    "3645": "fw",
    "3646": "\u0120toi",
    "3647": "\u0120peen",
    "3648": "\u0120cance",
    "3649": "\u0120pretend",
    "3650": "ighten",
    "3651": "ances",
    "3652": "\u0120mixed",
    "3653": "\u0120ears",
    "3654": "\u0120bank",
    "3655": "fun",
    "3656": "pes",
    "3657": "\u0120ange",
    "3658": "\u0120wank",
    "3659": "\u0120paper",
    "3660": "\u0120marry",
    "3661": "\u0120grand",
    "3662": "\u0120verbal",
    "3663": "58",
    "3664": "rics",
    "3665": "\u0120names",
    "3666": "\u0120lege",
    "3667": "\u0120shouldn",
    "3668": "\u0120teach",
    "3669": "\u0120sus",
    "3670": "\u0120shy",
    "3671": "\u0120shirt",
    "3672": "\u0120butts",
    "3673": "iling",
    "3674": "\u0120adam",
    "3675": "\u0120offended",
    "3676": "\u0120original",
    "3677": "vid",
    "3678": "||",
    "3679": "stats",
    "3680": "\u0120deg",
    "3681": "\u0120comfy",
    "3682": "\u0120prescri",
    "3683": "\u0120grim",
    "3684": "\u0120added",
    "3685": "\u0120minecraft",
    "3686": "\u0120essent",
    "3687": "ging",
    "3688": "kj",
    "3689": "su",
    "3690": "\u0120trigger",
    "3691": "\u0120calls",
    "3692": "\u0120travel",
    "3693": "ao",
    "3694": "gl",
    "3695": "\u0120\u00f3\u00be",
    "3696": "ified",
    "3697": "\u0120considered",
    "3698": "\u0120tickets",
    "3699": "\u0120holiday",
    "3700": "\u0120agg",
    "3701": "\u0120inten",
    "3702": "icky",
    "3703": "\u0120coll",
    "3704": "\u0120joh",
    "3705": "\u0120remem",
    "3706": "\u0120situations",
    "3707": "that",
    "3708": "yes",
    "3709": "\u0120unfortun",
    "3710": "\u0120draws",
    "3711": "\u0120breaking",
    "3712": "\u0120indepe",
    "3713": "cting",
    "3714": "\u0120applic",
    "3715": "\u0120regret",
    "3716": "\u0120tasks",
    "3717": "\u0120au",
    "3718": "vere",
    "3719": "\u0120pure",
    "3720": "\u0120vio",
    "3721": "\u0120trash",
    "3722": "\u0120literal",
    "3723": "\u0120insane",
    "3724": "\u0120assume",
    "3725": "love",
    "3726": "well",
    "3727": "\u0120edit",
    "3728": "\u0120sksksks",
    "3729": "uino",
    "3730": "49",
    "3731": "ull",
    "3732": "\u0120dry",
    "3733": "ery",
    "3734": "\u0120hist",
    "3735": "\u0120>.<",
    "3736": "01",
    "3737": "va",
    "3738": "\u0120omggg",
    "3739": "\u0120talked",
    "3740": "ploy",
    "3741": "\u0120older",
    "3742": "\u0120christ",
    "3743": "\u0120negative",
    "3744": "\u0120opposite",
    "3745": "\u0120tatt",
    "3746": "\u0120cum",
    "3747": "let",
    "3748": "ley",
    "3749": "\u0120jimin",
    "3750": "\u0120advent",
    "3751": "\u0120harder",
    "3752": "\u0120setting",
    "3753": "\u0120technology",
    "3754": "\u0120overwhelmed",
    "3755": "\u0120assault",
    "3756": "\u0120diagn",
    "3757": "ium",
    "3758": "iest",
    "3759": "\u00e2\u013e",
    "3760": "\u0120prog",
    "3761": "\u0120veux",
    "3762": "\u0120cla",
    "3763": "\u0120epis",
    "3764": "aries",
    "3765": "\u0120lock",
    "3766": "\u0120frog",
    "3767": "\u0120remembered",
    "3768": "37",
    "3769": "acc",
    "3770": "\u0120dare",
    "3771": "\u0120net",
    "3772": "tery",
    "3773": "\u0120suit",
    "3774": "\u0120caused",
    "3775": "\u0120freaking",
    "3776": "\u0120promise",
    "3777": "cr",
    "3778": "\u0120storm",
    "3779": "\u0120convin",
    "3780": "\u0120shall",
    "3781": "\u0120chinese",
    "3782": "\u00e0\u00b7",
    "3783": "\u0120tha",
    "3784": "atic",
    "3785": "\u0120jam",
    "3786": "\u0120offic",
    "3787": "aaa",
    "3788": "\u0120solid",
    "3789": "di",
    "3790": "val",
    "3791": "\u0120alex",
    "3792": "ona",
    "3793": "utm",
    "3794": "\u0120stor",
    "3795": "\u0120manip",
    "3796": "\u0120sharing",
    "3797": "\u0120slowly",
    "3798": "\u0120meat",
    "3799": "\u0120ability",
    "3800": "though",
    "3801": "cious",
    "3802": "\u0120ground",
    "3803": "\u0120include",
    "3804": "\u0120unfortunately",
    "3805": "\u0120hous",
    "3806": "\u0120ranting",
    "3807": "\u0120tattoo",
    "3808": "bby",
    "3809": "dit",
    "3810": "\u0120\u00ca\u0137\u00e3\u0123\u00a3",
    "3811": "\u0120idfk",
    "3812": "\u0120choc",
    "3813": "\u0120charge",
    "3814": "\u0120provide",
    "3815": "\u0120delivery",
    "3816": "llm",
    "3817": "ank",
    "3818": "aming",
    "3819": "\u0120sauce",
    "3820": "\u0120develop",
    "3821": "phones",
    "3822": "\u0120ignoring",
    "3823": "\u0120progress",
    "3824": "bed",
    "3825": "kes",
    "3826": "\u0120showed",
    "3827": "\u012080",
    "3828": "\u0120common",
    "3829": "iction",
    "3830": "\u0120cunt",
    "3831": "\u0120physically",
    "3832": "\u0120memory",
    "3833": "\u0120attempt",
    "3834": "\u0120hospital",
    "3835": "\u0120tid",
    "3836": "\u0120pin",
    "3837": "asm",
    "3838": "\u0120js",
    "3839": "\u012021",
    "3840": "\u0120catch",
    "3841": "\u0120lights",
    "3842": "\u0120building",
    "3843": "\u0120judge",
    "3844": "\u0120prescription",
    "3845": "ingly",
    "3846": "\u0120shou",
    "3847": "\u0120var",
    "3848": "\u0120blame",
    "3849": "\u0120click",
    "3850": "\u0120mais",
    "3851": "\u0120steal",
    "3852": "\u0120topic",
    "3853": "\u0120replying",
    "3854": "\u0120following",
    "3855": "\u0120changing",
    "3856": "\u0120replied",
    "3857": "\u0120ambulance",
    "3858": "fety",
    "3859": "ural",
    "3860": "\u0120uhhh",
    "3861": "\u0120sounded",
    "3862": "\u0120adult",
    "3863": "\u0120boat",
    "3864": "\u0120news",
    "3865": "\u0120melt",
    "3866": "\u0120cap",
    "3867": "ables",
    "3868": "\u0120extre",
    "3869": "\u0120hoping",
    "3870": "\u0120downstairs",
    "3871": "\u0120understood",
    "3872": "\u0120aaagh",
    "3873": "\u0120enjoying",
    "3874": "\u0120lyrics",
    "3875": "\u0120tuesday",
    "3876": "\u0120aggress",
    "3877": "59",
    "3878": "hop",
    "3879": "\u0120nhs",
    "3880": "\u0120meth",
    "3881": "\u0120jfc",
    "3882": "\u0120research",
    "3883": "\u0120university",
    "3884": "sss",
    "3885": "\u0120env",
    "3886": "\u0120medical",
    "3887": "\u0120windows",
    "3888": "underst",
    "3889": "\u0120sandw",
    "3890": "\u0120wednesday",
    "3891": "uit",
    "3892": "\u0120cult",
    "3893": "\u0120lou",
    "3894": "\u0120bear",
    "3895": "\u0120dose",
    "3896": "gent",
    "3897": "\u0120void",
    "3898": "\u0120prior",
    "3899": "activ",
    "3900": "\u0120sympt",
    "3901": "\u0120audio",
    "3902": "lol",
    "3903": "\u0120mr",
    "3904": "\u0120dom",
    "3905": "ano",
    "3906": "\u0120kicked",
    "3907": "\u0120acting",
    "3908": "\u0120vocals",
    "3909": "omg",
    "3910": "\u0120wet",
    "3911": "rated",
    "3912": "\u0120lmaoo",
    "3913": "\u0120present",
    "3914": "\u0120service",
    "3915": "\u0120married",
    "3916": "\u0120challeng",
    "3917": "core",
    "3918": "gb",
    "3919": "icy",
    "3920": "str",
    "3921": "ational",
    "3922": "ibility",
    "3923": "\u0120clar",
    "3924": "\u0120club",
    "3925": "\u0120boob",
    "3926": "\u0120reasonable",
    "3927": "\u00ca\u013a\u00ca\u0136\u00e3\u0123\u00a3",
    "3928": "uro",
    "3929": "renc",
    "3930": "\u0120nat",
    "3931": "\u0120punch",
    "3932": "\u0120knowledge",
    "3933": "\u012028",
    "3934": "\u0120services",
    "3935": "\u0120posted",
    "3936": "charis",
    "3937": "\u0120effects",
    "3938": "\u0120ice",
    "3939": "\u0120toys",
    "3940": "ield",
    "3941": "\u0120king",
    "3942": "\u0120sorta",
    "3943": "\u0120prev",
    "3944": "\u0120simp",
    "3945": "\u0120module",
    "3946": "\u0120refer",
    "3947": "\u0120evil",
    "3948": "\u0120mouth",
    "3949": "icks",
    "3950": "\u0120attra",
    "3951": "ots",
    "3952": "\u0120encou",
    "3953": "\u0120female",
    "3954": "osis",
    "3955": "ships",
    "3956": "els",
    "3957": "\u0120visual",
    "3958": "\u0120argument",
    "3959": "\u0120rout",
    "3960": "\u0120safety",
    "3961": "ilities",
    "3962": "\u0120permission",
    "3963": "\u0120related",
    "3964": "baby",
    "3965": "jpg",
    "3966": "\u0120san",
    "3967": "\u0120uhh",
    "3968": "\u0120trou",
    "3969": "\u0120veget",
    "3970": "\u0120shows",
    "3971": "\u0120tenant",
    "3972": "\u0120born",
    "3973": "\u0120hanging",
    "3974": "\u0120mildly",
    "3975": "iry",
    "3976": "\u0120base",
    "3977": "isting",
    "3978": "\u0120pink",
    "3979": "\u0120hilar",
    "3980": "\u0120causing",
    "3981": "\u0120unfair",
    "3982": "\u0120easily",
    "3983": "07",
    "3984": "ony",
    "3985": "\u0120wedding",
    "3986": "\u0120business",
    "3987": "::",
    "3988": "\u0120intera",
    "3989": "ids",
    "3990": "raid",
    "3991": "\u0120ang",
    "3992": "\u0120neigh",
    "3993": "ils",
    "3994": "ggy",
    "3995": "\u0120unlike",
    "3996": "\u0120customer",
    "3997": "\u0120revision",
    "3998": "cord",
    "3999": "dr",
    "4000": "ians",
    "4001": "llo",
    "4002": "\u0120notes",
    "4003": "\u0120playlist",
    "4004": "\u0120complic",
    "4005": "\u0120legs",
    "4006": "\u0120goddam",
    "4007": "\u0120explaining",
    "4008": "\u0120shouted",
    "4009": "\u0120idc",
    "4010": "\u0120volu",
    "4011": "\u0120terms",
    "4012": "\u0120cookies",
    "4013": "\u0120example",
    "4014": "\u0120details",
    "4015": "\u0120murder",
    "4016": "af",
    "4017": "\u0120il",
    "4018": "test",
    "4019": "\u0120input",
    "4020": "\u0120lecture",
    "4021": "fff",
    "4022": "\u0120boss",
    "4023": "\u0120parts",
    "4024": "\u0120respond",
    "4025": "\u0120holding",
    "4026": "\u0120disgusting",
    "4027": "67",
    "4028": "\u0120si",
    "4029": "very",
    "4030": "\u0120ginger",
    "4031": "\u0120jus",
    "4032": "\u0120station",
    "4033": "\u0120feet",
    "4034": "\u0120reality",
    "4035": "\u0120reaction",
    "4036": "lit",
    "4037": "\u0120hat",
    "4038": "\u0120meal",
    "4039": "ette",
    "4040": "men",
    "4041": "estyle",
    "4042": "\u0120marks",
    "4043": "hetic",
    "4044": "\u0120empty",
    "4045": "\u0120terrible",
    "4046": "\u0120history",
    "4047": "\u0120neighb",
    "4048": "\u0120@",
    "4049": "isions",
    "4050": "\u0120ordered",
    "4051": "this",
    "4052": "\u0120potent",
    "4053": "\u0120repea",
    "4054": "boom",
    "4055": "\u0120explained",
    "4056": "\u0120independent",
    "4057": "\u0120\u00ca\u0137\u00e3\u0123\u00a3\u00ca\u013a",
    "4058": "05",
    "4059": "\u0120nom",
    "4060": "\u0120hig",
    "4061": "\u0120phr",
    "4062": "\u0120prin",
    "4063": "\u0120role",
    "4064": "hahah",
    "4065": "\u0120cod",
    "4066": "vered",
    "4067": "\u0120nick",
    "4068": "\u0120whis",
    "4069": "\u0120moi",
    "4070": "iber",
    "4071": "\u0120starts",
    "4072": "\u0120misunderst",
    "4073": "\u0120recording",
    "4074": "\u0120magic",
    "4075": "\u0120unsure",
    "4076": "ases",
    "4077": "\u0120rush",
    "4078": "\u0120separ",
    "4079": "ives",
    "4080": "ummy",
    "4081": "\u0120oml",
    "4082": "\u0120buying",
    "4083": "\u0120adding",
    "4084": "\u0120imagin",
    "4085": "sorry",
    "4086": "\u0120behaviour",
    "4087": "\u0120dig",
    "4088": "\u0120dating",
    "4089": "\u0120hoo",
    "4090": "\u0120study",
    "4091": "\u0120blind",
    "4092": "ized",
    "4093": "oom",
    "4094": "sing",
    "4095": "\u0120sea",
    "4096": "\u0120everyones",
    "4097": "\u0120harrow",
    "4098": "ussy",
    "4099": "\u0120chocolate",
    "4100": "88",
    "4101": "\u0120er",
    "4102": "\u0120itll",
    "4103": "illed",
    "4104": "\u0120store",
    "4105": "\u0120soc",
    "4106": "\u0120anger",
    "4107": "\u0120mua",
    "4108": "\u0120nap",
    "4109": "cco",
    "4110": "\u0120shopping",
    "4111": "\u0120chairs",
    "4112": "\u0120certainly",
    "4113": "\u0120involved",
    "4114": "\u0120degree",
    "4115": "can",
    "4116": "lines",
    "4117": "\u0120ave",
    "4118": "\u0120bes",
    "4119": "\u0120tooo",
    "4120": "\u0120area",
    "4121": "neur",
    "4122": "\u0120positive",
    "4123": "\u0120.",
    "4124": "rest",
    "4125": "\u0120cream",
    "4126": "\u0120forced",
    "4127": "iron",
    "4128": "cape",
    "4129": "\u0120radio",
    "4130": "\u0120advert",
    "4131": "\u0120skull",
    "4132": "\u0120potato",
    "4133": "\u0120scene",
    "4134": "\u0120hilarious",
    "4135": "44",
    "4136": "\u0120reee",
    "4137": "\u0120kink",
    "4138": "\u0120keys",
    "4139": "\u0120pregn",
    "4140": "\u0120nahhh",
    "4141": "\u0120afraid",
    "4142": "\u0120scam",
    "4143": "\u0120hole",
    "4144": "\u0120sentence",
    "4145": "\u0120midnight",
    "4146": "\u0120distracted",
    "4147": "bum",
    "4148": "\u0120ug",
    "4149": "\u0120jul",
    "4150": "\u0120dire",
    "4151": "\u0120homeless",
    "4152": "\u0120status",
    "4153": "\u0120dragon",
    "4154": "\u0120legend",
    "4155": "\u0120extreme",
    "4156": "mod",
    "4157": "\u0120tun",
    "4158": "ana",
    "4159": "output",
    "4160": "\u0120failed",
    "4161": "\u0120colours",
    "4162": "\u0120occas",
    "4163": "\u0120article",
    "4164": "dk",
    "4165": "\u0120lab",
    "4166": "icted",
    "4167": "\u0120ks",
    "4168": "antic",
    "4169": "\u0120proof",
    "4170": "\u0120bringing",
    "4171": "\u0120spamming",
    "4172": "\u0120acceptable",
    "4173": "band",
    "4174": "\u0120heat",
    "4175": "\u0120mega",
    "4176": "rose",
    "4177": "\u0120background",
    "4178": "\u0120checking",
    "4179": "\u0120flow",
    "4180": "\u0120basic",
    "4181": "\u0120pointless",
    "4182": "\u0120struggle",
    "4183": "\u0120street",
    "4184": "\u0120bullshit",
    "4185": "sr",
    "4186": "\u0120mal",
    "4187": "\u0120ton",
    "4188": "\u0120prop",
    "4189": "\u0120personally",
    "4190": "\u0120tes",
    "4191": "\u0120dy",
    "4192": "\u0120eaten",
    "4193": "\u0120staff",
    "4194": "\u0120upstairs",
    "4195": "\u0120sav",
    "4196": "\u0120device",
    "4197": "\u0120happiness",
    "4198": "\u0120coff",
    "4199": "\u0120decisions"
}