{
  "\u0120aut": 812,
  "aly": 1980,
  "\u0120tell": 583,
  "\u0120ive": 808,
  "\u0120extra": 1956,
  "\u0120these": 843,
  "body": 946,
  "log": 1153,
  "\u0120bir": 1494,
  "\u0120?": 1877,
  "\u0120he": 151,
  "ft": 733,
  "\u0120him": 425,
  "\u0120days": 1009,
  "fer": 1813,
  "yy": 1159,
  "\u0120game": 1148,
  "\u0120chr": 1689,
  "\u0120i": 73,
  "tw": 1203,
  "\u0120needs": 1170,
  "\u0120any": 273,
  "\u0120read": 728,
  "\u0120exist": 1684,
  "\u0120charis": 413,
  "\u0120hope": 611,
  "ping": 1122,
  "\u0120ret": 1941,
  "\u0120comp": 637,
  "\u0120couldnt": 1910,
  "ha": 292,
  "\u0120interest": 969,
  "\u0120man": 498,
  "\u0120rel": 963,
  "\u0120\"": 1252,
  "\u0120pres": 1412,
  "is": 113,
  "fore": 565,
  ":": 24,
  "\u0120sub": 1671,
  "ene": 1804,
  "\u0120aaa": 886,
  "\u0120(": 388,
  "\u0120j": 140,
  "\u0120gross": 1970,
  "\u0120fault": 1716,
  "ve": 121,
  "\u0120.": 1503,
  "\u0120head": 926,
  "\u0120ac": 990,
  "right": 436,
  "f": 38,
  "ast": 354,
  "\u0120point": 831,
  "\u0120b": 82,
  "\u0120bring": 1149,
  "\u0120just": 164,
  "i": 41,
  "\u0120made": 701,
  "\u0120techn": 1738,
  "\u0120wh": 109,
  "ror": 1832,
  "\u0120on": 138,
  "na": 268,
  "\u0120hi": 960,
  "lete": 1247,
  "mm": 530,
  "eee": 1374,
  "\u0120woman": 1736,
  "20": 1647,
  "?": 29,
  "uu": 1151,
  "as": 115,
  "ms": 606,
  "\u0120email": 1623,
  "\u0120tbh": 463,
  "\u0120cute": 713,
  "uss": 1257,
  "\u0120already": 826,
  "\u0120dunno": 390,
  "\u0120aww": 682,
  "\u0120diffic": 1464,
  "\u0120type": 1606,
  "\u0120health": 1263,
  "\u0120im": 154,
  "ues": 1098,
  "\u0120hard": 702,
  "are": 349,
  "\u0120can": 227,
  "\u0120o": 85,
  "\u0120god": 736,
  "\u0120own": 923,
  "\u0120theres": 1169,
  "\u0120lets": 1281,
  "\u0120bitch": 1712,
  "\u0120asked": 1188,
  "ned": 1651,
  "\u0120co": 460,
  "ld": 167,
  "\u0120try": 474,
  "\u0120window": 1665,
  "nt": 201,
  "\u0120quite": 1255,
  "angel": 1954,
  "\u0120music": 331,
  "ent": 176,
  "\u0120disc": 774,
  "\u0120kiss": 997,
  "\u0120boring": 1622,
  "ome": 206,
  "\u0120coming": 1065,
  "\u0120still": 476,
  "\u0120realised": 1765,
  "\u0120haven": 1523,
  "cri": 1423,
  "\u0120mood": 1055,
  "izz": 1506,
  "\u0120don": 187,
  "\u0120first": 720,
  "es": 105,
  "uck": 973,
  "\u0120school": 1094,
  "\u0120friends": 904,
  "ed": 108,
  "\u0120hy": 1690,
  "\u0120interesting": 1369,
  "\u0120:)": 410,
  "\u0120hello": 1884,
  "\u0120key": 1895,
  "\u0120deal": 1495,
  "iny": 1761,
  "ause": 213,
  "tle": 754,
  "ect": 1221,
  "\u0120month": 903,
  "ctor": 961,
  "\u0120support": 947,
  "o": 47,
  "\u0120being": 421,
  "\u0120hey": 920,
  "ll": 101,
  "\u0120your": 275,
  "ies": 579,
  "fully": 1489,
  "\u0120<": 464,
  "ics": 1116,
  "\u0120often": 1556,
  "\u0120wor": 216,
  "\u0120mod": 1797,
  "reat": 609,
  "\u0120fr": 303,
  "\u0120kevin": 234,
  "\u0120way": 519,
  "\u0120h": 84,
  "\u0120sigh": 652,
  "k": 43,
  "ans": 742,
  "\u0120use": 695,
  "\u0120sent": 994,
  "\u0120arsed": 1541,
  "\u0120laptop": 1986,
  "\u0120hold": 1800,
  "ndom": 1047,
  "\u0120fin": 848,
  "\u0120discuss": 1965,
  "\u0120server": 1979,
  "\u0120close": 1694,
  "ber": 524,
  "\u0120ex": 261,
  "ense": 931,
  "\u0120brain": 1318,
  "\u0120cre": 1082,
  "\u0120rec": 1032,
  "\u0120want": 242,
  "ont": 630,
  "\u0120ref": 1491,
  "\u0120bor": 1218,
  "ten": 1044,
  "\u0120legit": 966,
  "\u0120inc": 888,
  "\u0120coll": 1339,
  "ory": 1190,
  "\u0120bye": 1515,
  "ger": 1923,
  "\u0120girl": 945,
  "\u0120what": 157,
  "\u0120perfect": 1156,
  "\u0120dancing": 1364,
  "ict": 719,
  "\u0120saw": 1186,
  "ract": 1200,
  "\u0120everything": 869,
  "\u0120obviously": 1583,
  "\u0120next": 983,
  "\u0120swear": 1816,
  "\u0120jokes": 1381,
  "\u0120today": 691,
  "\u012010": 928,
  "\u0120act": 393,
  "\u0120plan": 854,
  "ure": 467,
  "\u0120bus": 1136,
  "\u0120uk": 1709,
  "\u0120ba": 1997,
  "eric": 1681,
  "\u0120different": 1036,
  "age": 556,
  "ord": 671,
  "\u0120ask": 659,
  "ier": 1294,
  "<UNK>": 0,
  "ied": 1202,
  "ind": 269,
  "\u0120ri": 1427,
  "\u0120else": 935,
  "\u0120ext": 1278,
  "\u0120two": 953,
  "\u0120throw": 1888,
  "\u0120ab": 226,
  "sw": 934,
  "\u0120appre": 1271,
  "\u0120agree": 1449,
  "\u0120honestly": 1114,
  "\u0120both": 758,
  "\u0120feeling": 773,
  "@": 30,
  "ion": 202,
  "\u0120was": 153,
  "ear": 506,
  "\u0120all": 250,
  "\u0120oo": 756,
  "\u0120song": 1003,
  "le": 129,
  "\u0120ago": 1231,
  "im": 190,
  "\u0120pet": 665,
  "ose": 1420,
  "ner": 993,
  "\u0120for": 149,
  "fect": 819,
  "ip": 590,
  "led": 1196,
  "\u0120earlier": 1770,
  "\u0120boom": 1625,
  "\u0120keep": 782,
  "\u0120cat": 653,
  "\u0120happ": 485,
  "\u0120mom": 1195,
  "\u0120full": 1447,
  "\u0120second": 1219,
  "\u0120sur": 1287,
  "\u0120weird": 624,
  "\u0120tbf": 948,
  "\u0120fix": 1838,
  "\u0120scary": 1722,
  "\u0120cour": 1230,
  "get": 634,
  "\u0120eng": 822,
  "\u0120told": 817,
  "ually": 409,
  "\u0120d": 86,
  "\u0120dis": 502,
  "\u0120finally": 1701,
  "\u0120tired": 1266,
  "\u0120course": 1362,
  "erg": 1641,
  "\u0120mult": 1936,
  "\u0120cudd": 1260,
  "\u0120nobody": 1305,
  "iv": 1142,
  "\u0120talk": 534,
  "ably": 450,
  "\u0120det": 1779,
  "\u0120sat": 1593,
  "it": 112,
  "!": 1,
  "\u0120geor": 557,
  "osed": 1434,
  "\u0120ooh": 1092,
  "co": 727,
  "\u0120some": 312,
  "\u0120btw": 1301,
  "\u0120war": 1282,
  "pe": 422,
  "\u0120us": 397,
  "\u0120arg": 1852,
  "ce": 198,
  "ea": 188,
  "po": 863,
  "\u0120import": 1363,
  "\u0120c": 90,
  "\u0120strugg": 1851,
  "\u0120train": 1284,
  "bb": 1553,
  "\u0120pl": 254,
  "lect": 1443,
  "\u0120ama": 1388,
  "ically": 664,
  "oice": 1370,
  "\u0120enjo": 1289,
  "\u0120ter": 1391,
  "\u0120cop": 1667,
  "z": 58,
  "\u0120defin": 1405,
  "js": 1773,
  "\u0120supp": 614,
  "\u0120bro": 632,
  "\u0120going": 486,
  "\u0120hows": 1679,
  "\u0120poss": 1121,
  "\u0120appreciate": 1597,
  "ater": 627,
  "\u0120fro": 676,
  "]": 64,
  "\u0120seems": 944,
  "\u0120current": 1425,
  "\u0120bo": 441,
  "ta": 802,
  "\u0120she": 284,
  "\u0120touch": 1859,
  "\u0120is": 132,
  "\u0120important": 1428,
  "\u0120here": 529,
  "\u0120says": 1332,
  "iet": 984,
  "\u0120wed": 1705,
  "\u0120reme": 715,
  "\u0120weed": 1107,
  "\u0120ed": 1367,
  "lled": 1949,
  "\u0120listened": 1767,
  "ck": 160,
  "\u0120waiting": 1963,
  "oo": 137,
  "ooo": 1938,
  "9": 23,
  "\u0120anything": 654,
  "vers": 1193,
  "\u0120luck": 1424,
  "\u0120sucks": 1740,
  "\u0120amount": 1982,
  "\u0120allow": 1232,
  "\u0120event": 1580,
  "\u0120find": 673,
  "ak": 738,
  "my": 1592,
  "\u0120bab": 600,
  "\u0120theyre": 1562,
  "\u0120ty": 972,
  "\u0120ide": 1983,
  "\u0120s": 77,
  "1": 15,
  "\u0120colour": 1314,
  "mail": 1560,
  "llow": 1225,
  "lt": 996,
  "ious": 618,
  "mit": 1129,
  "lp": 447,
  "\u0120awk": 1152,
  "no": 283,
  "\u0120per": 672,
  "\u0120med": 640,
  "\u0120emot": 1214,
  "\u0120definitely": 1656,
  "\u0120good": 341,
  "\u0120fig": 1299,
  "\u0120very": 562,
  "\u0120tb": 377,
  "\u0120kinda": 650,
  "\u0120having": 740,
  "\u0120didn": 762,
  "\u0120hug": 1008,
  "10": 1206,
  "\u0120social": 1756,
  "\u0120our": 794,
  "boomra": 1889,
  "\u0120whats": 1128,
  "\u0120high": 1059,
  "100": 1229,
  "\u0120worse": 1292,
  "\u0120basically": 1161,
  "ap": 1239,
  "\u0120situ": 1385,
  "\u0120played": 1389,
  "\u0120mix": 1508,
  "ma": 177,
  "\u0120place": 1015,
  "pm": 1426,
  "\u0120men": 1826,
  "ps": 857,
  "ried": 734,
  "\u0120dist": 1429,
  "\u0120accidentally": 1996,
  "ang": 559,
  "\u0120boy": 1123,
  "ilst": 1353,
  "ry": 197,
  "\u0120change": 1467,
  "at": 88,
  "\u0120over": 459,
  "\u0120tomorrow": 912,
  "\u0120sonic": 1608,
  "\u0120until": 1210,
  "ight": 293,
  "\u0120list": 294,
  "\u0120son": 694,
  "\u0120proble": 1050,
  "\u0120rest": 1297,
  "oint": 1529,
  "\u0120om": 299,
  "\u0120dj": 1062,
  "yes": 1224,
  "\u0120wait": 499,
  "\u0120fre": 877,
  "\u0120win": 1759,
  "\u0120properly": 1887,
  "\u0120nope": 1930,
  "ron": 1525,
  "\u0120worst": 1763,
  "\u0120open": 1171,
  "\u0120leg": 768,
  "roid": 1827,
  "\u0120before": 601,
  "oke": 988,
  "ily": 1018,
  "\u0120ho": 986,
  "\u0120communic": 1453,
  "\u0120pete": 787,
  "\u0120wont": 776,
  "air": 998,
  "\u0120without": 1023,
  "\u0120relation": 1645,
  "\u0120internet": 1831,
  "~": 60,
  "\u0120sp": 297,
  "\u0120working": 1063,
  "ence": 801,
  "\u0120elodie": 644,
  "\u0120sweet": 1501,
  "\u0120why": 183,
  "=": 27,
  "\u0120more": 350,
  "ins": 1548,
  "\u0120em": 646,
  "\u0120fine": 760,
  "\u0120hur": 1033,
  "\u0120set": 1048,
  "book": 1714,
  "ness": 1226,
  "ather": 1311,
  "el": 981,
  "00": 566,
  "\u012030": 1781,
  "v": 54,
  "ute": 1277,
  "\u0120qu": 508,
  "\u0120bre": 858,
  "\u0120er": 1817,
  "\u0120contact": 1976,
  "\u0120answer": 1078,
  "up": 1404,
  "?!": 1433,
  "\u0120trying": 681,
  "\u0120babe": 1475,
  "\u0120se": 271,
  "\u0120dun": 379,
  "\u0120home": 775,
  "\u0120notice": 1998,
  "ss": 622,
  "all": 150,
  "rr": 1517,
  "\u0120were": 334,
  "ance": 576,
  "\u0120complete": 1546,
  "\u0120much": 416,
  "\u0120fucks": 1358,
  "ep": 267,
  "\u0120wom": 1192,
  "ity": 610,
  "\u0120pa": 1422,
  "\u0120honest": 896,
  "\u0120ha": 125,
  "\u0120dad": 739,
  "\u0120forgot": 1607,
  "\u0120acc": 700,
  "\u0120exp": 1201,
  "\u0120st": 148,
  "\u0120mad": 560,
  "_": 32,
  "\u0120re": 141,
  "eep": 706,
  "\u0120expect": 1394,
  "out": 168,
  "\u0120thing": 359,
  "\u0120move": 1096,
  "\u0120unless": 1646,
  "ret": 1439,
  "\u0120confused": 1470,
  "\u0120won": 1901,
  "ud": 400,
  "\u0120yesterday": 1320,
  "so": 315,
  "\u0120end": 749,
  "..": 220,
  "\u0120kill": 1089,
  "\u0120are": 212,
  "\u0120alone": 1245,
  "\u0120into": 588,
  "\u0120space": 1437,
  "\u0120tru": 1692,
  "\u0120felt": 1312,
  "\u0120a": 75,
  "\u0120inf": 1167,
  "pped": 1768,
  "\u0120correct": 1892,
  "\u0120hor": 800,
  "\u0120geepy": 918,
  "umber": 1799,
  "\u0120whilst": 1372,
  "\u0120understand": 743,
  "\u0120years": 1038,
  "\u0120outside": 1538,
  "\u0120am": 263,
  "\u0120has": 505,
  "\u0120cannot": 1896,
  "a": 33,
  "\u0120its": 207,
  "itch": 1127,
  "\u0120low": 1570,
  "\u0120old": 829,
  "nday": 1658,
  "<": 26,
  "\u0120mus": 317,
  "\u013f": 71,
  "\u0120top": 1340,
  "\u0120car": 1228,
  "\u0120stuck": 1792,
  "ail": 1612,
  "ations": 1290,
  "'t": 221,
  "\u0120decided": 1937,
  "\u0120hit": 1860,
  "\u0120apo": 1903,
  "use": 182,
  "\u0120video": 1208,
  "\u0120reading": 1772,
  "ic": 123,
  "u": 53,
  "\u0120help": 462,
  "\u0120yay": 704,
  "ng": 1512,
  "ccoon": 1584,
  "\u0120random": 1143,
  "ings": 1617,
  "\u0120under": 587,
  "\u0120elect": 1715,
  "ase": 420,
  "\u0120thanks": 685,
  "\u0120tim": 339,
  "\u0120take": 674,
  "ges": 1542,
  "\u0120com": 326,
  "\u0120awes": 982,
  "\u0120part": 631,
  "\u0120great": 933,
  "rent": 730,
  "\u0120later": 745,
  "\u0120mar": 1137,
  "\u0120message": 1269,
  "\u0120goog": 1633,
  "ual": 752,
  "ken": 1197,
  "ake": 1342,
  "inge": 1962,
  "on": 100,
  "cks": 1030,
  "\u0120cor": 1331,
  "\u0120stress": 1026,
  "\u0120obv": 1306,
  "les": 726,
  "\u0120die": 1614,
  "\u0120stop": 709,
  "hing": 384,
  "ill": 200,
  "\u0120start": 658,
  "mor": 781,
  "\u0120walk": 1466,
  "\u0120might": 570,
  "\u0120americ": 1724,
  "\u0120br": 759,
  "\u0120mins": 1125,
  "\u0120stra": 1380,
  "\u0120sol": 1806,
  "4": 18,
  "\u0120exam": 1931,
  "\u0120thats": 318,
  "em": 1272,
  "\u0120yet": 1105,
  "\u0120did": 245,
  "\u0120night": 725,
  "\u0120ge": 542,
  "\u0120scream": 1666,
  "udd": 1106,
  "\u0120kind": 480,
  "\u0120mor": 1280,
  "tu": 1951,
  "\u0120sl": 809,
  "\u0120word": 598,
  "\u0120through": 897,
  "\u0120class": 1383,
  "\u0120one": 281,
  "\u0120each": 1220,
  "\u0120nd": 1350,
  "ut": 124,
  "\u0120ta": 469,
  "\u0120an": 162,
  "ash": 1073,
  "\u0120wonder": 1639,
  "ess": 247,
  "\u0120ew": 1160,
  "...": 423,
  "\u0120ve": 1430,
  "ower": 1871,
  "\u0120sw": 1014,
  "yed": 1554,
  "wise": 1977,
  "\u0120track": 1881,
  "ways": 633,
  "ub": 1087,
  "ish": 478,
  "\u0120late": 1309,
  "\u0120anxiety": 1323,
  "\u0120cry": 914,
  "\u0120happen": 772,
  "art": 361,
  "outh": 1513,
  "\u0120equ": 1780,
  "\u0120bread": 1934,
  "\u0120appointment": 1795,
  "\u0120not": 155,
  "\u0120seen": 1345,
  "\u0120horrible": 1097,
  "\u0120hear": 1177,
  "\u0120froggy": 803,
  "\u0120giving": 1940,
  "\u0120ass": 836,
  "\u0120val": 1505,
  "ie": 329,
  "\u0120bu": 711,
  "\u0120op": 873,
  "iz": 838,
  "\u0120pop": 1519,
  "ack": 367,
  "\u0120toilet": 1822,
  "\u0120inter": 965,
  "\u0120spend": 1794,
  "\u0120rn": 1233,
  "un": 214,
  "\u0120pot": 1890,
  "oud": 1083,
  "\u0120though": 735,
  "\u0120cou": 1534,
  "res": 309,
  "\u0120stream": 596,
  "\u0120form": 1985,
  "ty": 491,
  "\u0120damn": 1348,
  "\u0120which": 552,
  "ody": 714,
  "\u0120writing": 1992,
  "way": 449,
  "\u0120feel": 302,
  "\u0120happy": 795,
  "\u0120shes": 939,
  "\u0120hot": 1071,
  "\u0120scared": 985,
  "\u0120christ": 1771,
  "\u0120id": 515,
  "anc": 807,
  "\u0120saying": 786,
  "\u0120ple": 509,
  "\u0120stay": 1074,
  "\u0120months": 1279,
  "\u0120cl": 612,
  "ra": 222,
  "\u0120almost": 1483,
  "wh": 847,
  "(": 6,
  "inner": 1933,
  "\u0120dec": 805,
  "\u0120boo": 656,
  "\u012012": 1444,
  "\u0120started": 1327,
  "\u0120rap": 1858,
  "io": 1543,
  "\u0120flat": 1662,
  "\u0120wi": 1640,
  "\u0120doing": 531,
  "\u0120lovely": 1680,
  "ific": 1222,
  "\u0120words": 1643,
  "\u0120only": 411,
  "ions": 686,
  "ames": 1173,
  "alth": 1191,
  "\u0120quest": 1217,
  "\u0120plz": 1413,
  "\u0120:'": 1409,
  "\u0120bit": 479,
  "\u0120myself": 667,
  "sy": 1611,
  "\u0120lot": 577,
  "ick": 406,
  "ah": 1879,
  "\u0120remember": 744,
  "ither": 850,
  "ght": 185,
  "ys": 550,
  "\u0120rather": 1634,
  "\u0120attack": 1663,
  "\u0120hung": 1613,
  "ade": 1861,
  "\u0120ke": 209,
  "\u0120fun": 660,
  "ction": 1132,
  "\u0120actual": 1828,
  "lo": 445,
  "\u0120pretty": 769,
  "ide": 484,
  "\u0120n": 97,
  "\u0120relationship": 1669,
  "\u0120dead": 1655,
  "\u0120the": 94,
  "\u0120ob": 1000,
  "\u0120using": 1274,
  "\u0120l": 89,
  "\u0120best": 797,
  "gr": 1066,
  "ho": 1927,
  "\u0120college": 1990,
  "king": 218,
  "ugh": 1454,
  "\u0120found": 1025,
  "we": 696,
  "\u0120cons": 958,
  "\u0120by": 461,
  "\u0120cause": 340,
  "\u0120wants": 1175,
  "\u0120they": 224,
  "\u0120between": 1510,
  "ience": 1533,
  "\u0120ent": 1117,
  "\u0120living": 1809,
  "ents": 1516,
  "\u0120contin": 1841,
  "self": 503,
  "ge": 241,
  "\u0120fucking": 604,
  "ently": 1478,
  "ot": 174,
  "ke": 117,
  "\u0120kid": 938,
  "oup": 1713,
  "'re": 291,
  "mme": 1814,
  "\u0120isnt": 1150,
  "haha": 1753,
  "\u0120rem": 1638,
  "s": 51,
  "\u0120sc": 418,
  "ig": 419,
  "ided": 1627,
  "\u0120parent": 1442,
  "one": 306,
  "\u0120who": 375,
  "rect": 1530,
  "\u0120manag": 1837,
  "\u0120count": 1488,
  "\u0120rude": 1172,
  "\u0120sit": 866,
  "ns": 1748,
  "\u0120wanted": 832,
  "leep": 483,
  "\u0120y": 93,
  "gn": 968,
  "aring": 1566,
  "\u0120sense": 1182,
  "jo": 1189,
  "\u0120fact": 1626,
  "sh": 692,
  "\u0120wow": 1019,
  "\u0120angle": 1067,
  "ye": 1734,
  "\u0120now": 255,
  "\u0120isn": 1319,
  "ming": 1436,
  "ately": 1706,
  "\u0120said": 512,
  "\u0120anyone": 1328,
  "\u0120sm": 549,
  "\u0120nah": 766,
  "\u0120sometimes": 1075,
  "inking": 816,
  "\u0120than": 330,
  "\u0120free": 1035,
  "lling": 1371,
  "\u0120sim": 1064,
  "\u0120poop": 1587,
  "\u0120call": 547,
  "med": 1039,
  "\u0120sch": 927,
  "\u0120awesome": 1013,
  "\u0120wasnt": 1238,
  "\u0120shut": 1939,
  "\u0120anno": 788,
  "op": 203,
  "\u0120ill": 619,
  "p": 48,
  "sed": 1061,
  "ugs": 1338,
  "\u0120defo": 1865,
  "\u00a6": 62,
  "ere": 368,
  "\u0120hours": 845,
  "\u0120things": 567,
  "eah": 253,
  "per": 443,
  "'ve": 475,
  "\u0120you": 104,
  "ac": 1086,
  "df": 1596,
  "\u0120gir": 780,
  "\u0120stand": 1730,
  "\u0120issues": 1502,
  "ratewaifu": 1531,
  "ble": 540,
  "\u0120boof": 1498,
  "\u0120incl": 1581,
  "\u0120": 66,
  "\u0120wanna": 433,
  "\u0120send": 867,
  "\u0120address": 1603,
  "\u0120lots": 1618,
  "eed": 1854,
  "xt": 684,
  "gg": 338,
  "\u0120tu": 1678,
  "\u0120normal": 1704,
  "not": 1256,
  "\u0120des": 894,
  "\u0120could": 429,
  "\u0120sure": 608,
  "pecially": 1815,
  "\u0120ar": 451,
  "\u01203": 545,
  "b": 34,
  "ink": 239,
  "ath": 906,
  "ru": 1967,
  "\u0120reg": 1258,
  "\u0120ever": 643,
  "\u0120oof": 1468,
  "red": 879,
  "ffect": 1882,
  "aa": 621,
  "\u0120aw": 343,
  "ich": 514,
  "\u0120sort": 1628,
  "\u0120min": 635,
  "ced": 1696,
  "\u0120tech": 1095,
  "pr": 1752,
  "\u0120finish": 1762,
  "\u0120forever": 1782,
  "\u0120never": 538,
  "\u0120norm": 1267,
  "\u0120okay": 940,
  "\u0120may": 456,
  "q": 49,
  "\u0120eas": 1134,
  "\u0120forg": 1490,
  "fort": 1672,
  "bi": 1168,
  "\u0120commun": 1240,
  "\u0120other": 553,
  "\u0120bed": 806,
  "\u0120egg": 1484,
  "\u0120true": 661,
  "\u0120rep": 1076,
  "\u0120dra": 1461,
  "\u0120panic": 1589,
  "ised": 971,
  "\u0120adhd": 1843,
  ";": 25,
  "\u0120apparent": 1286,
  "\u0120wo": 1315,
  "irst": 708,
  "ci": 536,
  "\u0120ag": 376,
  "\u0120wa": 380,
  "\u0120liter": 648,
  "\u0120another": 1204,
  "\u012020": 1146,
  "\u0120*": 528,
  "\u0120supposed": 1545,
  "li": 783,
  "\u0120picture": 1265,
  "ise": 617,
  "\u0120def": 917,
  "\u0120watching": 1485,
  "\u0120z": 1588,
  "act": 554,
  "\u0120long": 657,
  "\u0120hop": 555,
  "id": 145,
  "du": 1261,
  "\u0120asleep": 1731,
  "\u0120expl": 942,
  "\u0120bad": 471,
  "al": 146,
  "\u0120imp": 804,
  "\u0120similar": 1902,
  "be": 453,
  "\u0120boi": 890,
  "\u0120step": 1920,
  "\u0120world": 1544,
  "w": 55,
  "\u0120v": 280,
  "\u0120sor": 314,
  "\u0120creep": 1594,
  "\u0120there": 398,
  "ts": 885,
  "\u0120vis": 1448,
  "ksks": 1774,
  "\u0120pro": 257,
  "\u0120sh": 152,
  "ire": 541,
  "\u0120far": 1396,
  "\u0120anxious": 1630,
  "\u0120unt": 1139,
  "\u0120:(": 427,
  "\u0120drink": 1719,
  "ple": 892,
  "\u0120see": 344,
  "\u0120hair": 1275,
  "\u0120straight": 1853,
  "\u0120ten": 1386,
  "\u0120knew": 1636,
  "\u0120di": 1776,
  "\u0120iss": 1090,
  "\u0120self": 1180,
  "\u0120me": 118,
  "\u0120che": 677,
  "\u0120-": 313,
  "\u0120talking": 792,
  "'": 5,
  "\u0120al": 210,
  "\u0120waht": 1234,
  "\u0120asking": 1335,
  "ward": 815,
  "\u0120uni": 1027,
  "read": 638,
  "rate": 1333,
  "\u0120bas": 835,
  "nd": 95,
  "us": 110,
  "ver": 163,
  "ross": 1237,
  "\u0120mean": 323,
  "cially": 1518,
  "ult": 626,
  "5": 19,
  "\u0120haha": 363,
  "\u0120ch": 196,
  "kes": 525,
  "\u0120arent": 1915,
  "\u0120yes": 322,
  "ons": 1223,
  "\u0120telling": 1539,
  "|": 59,
  "ar": 130,
  "ew": 1361,
  "\u0120pict": 1001,
  "\u0120tra": 666,
  "\u0120requ": 1621,
  "se": 180,
  "\u0120pan": 1249,
  "ved": 820,
  "\u0120parents": 1532,
  "\u0120hum": 1216,
  "arent": 851,
  "vent": 731,
  "mas": 1864,
  "\u0120sin": 1212,
  "\u0120chang": 1609,
  "\u0120autism": 1520,
  "\u0120ner": 1869,
  "lly": 962,
  "\u0120hand": 1184,
  "\u0120lea": 687,
  "\u0120computer": 1379,
  "\u0120able": 1031,
  "\u0120getting": 698,
  "its": 1418,
  "\u0120really": 296,
  "arch": 1808,
  "ead": 902,
  "\u0120such": 1077,
  "\u0120mum": 639,
  "'s": 217,
  "\u0120heard": 1754,
  "\u0120big": 952,
  "\u0120cuddles": 1925,
  "\u0120r": 258,
  "\u0120goo": 1355,
  "\u0120int": 417,
  "\u0120te": 355,
  "\u0120je": 870,
  "\u0120tonight": 1522,
  "pid": 1555,
  "\u0120pre": 523,
  "\u0120couple": 1867,
  "m": 45,
  "\u0120bra": 1053,
  "\u0120sn": 1943,
  "\u0120least": 784,
  "utes": 1578,
  "\u0120half": 1213,
  "\u0120mine": 837,
  "\u0120probably": 472,
  "th": 211,
  "uring": 1254,
  "\u0120annoying": 1028,
  "\u0120post": 1178,
  "jk": 1565,
  "il": 300,
  "\u0120glad": 1248,
  "re": 83,
  "\u0120eating": 1918,
  "\u0120boyfriend": 1743,
  "\u0120house": 668,
  "\u0120plym": 1928,
  "\u0120record": 1995,
  "\u0120this": 194,
  "\u0120forget": 1056,
  "\u0120light": 1373,
  "\u0120dont": 248,
  "\u0120stud": 1165,
  "%": 3,
  "\u0120go": 232,
  "ii": 1435,
  "ning": 690,
  "\u0120vape": 1747,
  "mber": 683,
  "enc": 1325,
  "\u0120buy": 1472,
  "et": 133,
  "set": 1183,
  "h": 40,
  "\u0120sorry": 351,
  "yle": 1673,
  "\u0120conc": 1790,
  "\u0120mu": 407,
  "\u0120door": 1351,
  "\u0120pizza": 1922,
  "\u0120bored": 1037,
  "\u0120play": 424,
  "\u0120new": 721,
  "itely": 1582,
  "\u0120fall": 1835,
  "ct": 175,
  "\u0120leave": 908,
  "cess": 1537,
  "\u0120case": 1737,
  "[": 63,
  "\u0120gen": 833,
  "fair": 1805,
  "\u0120f": 91,
  "\u0120meant": 929,
  "\u0120wind": 1509,
  "pl": 548,
  "\u0120bag": 1783,
  "\u0120whole": 1052,
  "\u0120online": 1702,
  "en": 102,
  "iety": 1276,
  "der": 1133,
  "\u0120pers": 620,
  "ative": 1552,
  "stand": 712,
  "kr": 1054,
  "\u01207": 1163,
  "\u0120follow": 1559,
  "atter": 1599,
  "day": 494,
  "\u0120har": 593,
  "\u0120chill": 1840,
  "\u0120those": 1012,
  "cept": 955,
  "\u0120also": 345,
  "c": 35,
  "\u0120and": 111,
  "gether": 1101,
  "\u0120sign": 1479,
  "ive": 356,
  "\u01201": 337,
  "\u0120genuine": 1873,
  "umb": 987,
  "os": 573,
  "\u0120fur": 1728,
  "\u0120fuck": 259,
  "\u0120with": 193,
  "\u0120ment": 924,
  "\u0120cool": 537,
  "\u0120colle": 1807,
  "\u0120clo": 1112,
  "\u0120le": 324,
  "\u0120care": 821,
  "ter": 262,
  "friend": 1610,
  "unch": 825,
  "ism": 1085,
  "cc": 489,
  "\u0120sleep": 520,
  "\u0120wr": 602,
  "\u0120embar": 1846,
  "\u0120like": 165,
  "0": 14,
  "\u0120th": 78,
  "\u0120tou": 1631,
  "fic": 1346,
  "\u0120ready": 1862,
  "ject": 1401,
  "lic": 1568,
  "\u0120pur": 1270,
  "\u0120effect": 1919,
  "am": 169,
  "end": 366,
  "\u0120look": 544,
  "\u0120alright": 1268,
  "\u0120tast": 1872,
  "\u0120week": 1046,
  "\u0120awake": 1961,
  "ing": 87,
  "he": 1395,
  "\u0120it": 107,
  "\u0120mess": 723,
  "\u0120str": 915,
  "\u0120time": 386,
  "\u0120cu": 1833,
  "\u0120instead": 1120,
  "\u0120danc": 1310,
  "\u00a3": 61,
  "\u20ac": 747,
  "app": 1457,
  "cond": 1185,
  "\u0120trans": 1492,
  "\u0120doesnt": 846,
  "\u0120jo": 513,
  "???": 868,
  "ite": 328,
  "\u0120spec": 1438,
  "ust": 156,
  "\u0120many": 1049,
  "\u0120cam": 1802,
  "\u0120ste": 1810,
  "\u0120upset": 1375,
  "\u0120lear": 1403,
  "ht": 1104,
  "\u0120meds": 1158,
  "\u0120mental": 1316,
  "ones": 1524,
  "\u0120gu": 442,
  "\u0120jesus": 1642,
  "\u0120trust": 1698,
  "\u0120cut": 586,
  "\u0120cle": 855,
  "\u0120proper": 1060,
  "\u0120comm": 992,
  "vo": 1550,
  "\u0120question": 1885,
  "\u0120hopefully": 1764,
  "antly": 1921,
  "ach": 729,
  "unk": 1452,
  "ities": 1907,
  "\u0120my": 139,
  "est": 289,
  "ens": 670,
  "ats": 1760,
  "vin": 233,
  "\u0120bought": 1886,
  "zing": 1298,
  "\u0120spea": 779,
  "\u0120pay": 1006,
  "able": 578,
  "rop": 1344,
  "\u0120ins": 964,
  "\u0120every": 412,
  "\u0120pret": 697,
  "\u0120prof": 1981,
  "\u0120please": 521,
  "ointment": 1735,
  "\u0120somet": 446,
  "\u0120x": 265,
  "ange": 755,
  "\u0120bot": 623,
  "\u0120swe": 1330,
  "\u0120reply": 1499,
  "\u0120tr": 401,
  "\u0120accept": 1974,
  "\u0120tried": 1387,
  "\u0120had": 389,
  "\u0120autistic": 1573,
  "+": 9,
  "\u0120write": 1720,
  "\u0120prom": 1824,
  "ress": 466,
  "\u01204": 675,
  "\u0120ma": 238,
  "\u0120does": 373,
  "\u0120super": 881,
  "\u0120:/": 1070,
  "ne": 834,
  "r": 50,
  "\u0120ang": 767,
  ">": 28,
  "\u0120yo": 1777,
  "\u0120hate": 282,
  "3": 17,
  "night": 1207,
  "\u0120mind": 1119,
  "\u0120mention": 1955,
  "\u0120get": 231,
  "\u0120engl": 980,
  "$": 65,
  "\u0120stu": 497,
  "\u0120ima": 1198,
  "\u01205": 718,
  "\u0120ohh": 251,
  "\u0120press": 1880,
  "\u0120e": 119,
  ".": 12,
  "and": 432,
  "\u0120vi": 1648,
  "\u0120un": 402,
  "\u0120soo": 1749,
  "\u0120quick": 1825,
  "\u0120star": 1991,
  "ul": 321,
  "\u0120totally": 1989,
  "\u0120gener": 1417,
  "\u0120contro": 1708,
  "\u0120laugh": 1801,
  "\u0120money": 970,
  "\u0120sound": 518,
  "\u0120taking": 1496,
  "\u0120mic": 1855,
  "\u0120do": 128,
  "ox": 1215,
  "ould": 208,
  "\u0120;": 1209,
  "\u0120lit": 470,
  "\u0120feels": 1359,
  "\u0120m": 80,
  "2": 16,
  "iss": 481,
  "\u0120ban": 1397,
  "\u0120ad": 473,
  "ering": 1324,
  "\u0120figure": 1415,
  "\u0120face": 889,
  "\u0120ca": 793,
  "\u0120them": 371,
  "lym": 1878,
  "\u0120miss": 757,
  "\u0120xxx": 1926,
  "\u0120,": 1329,
  "\u0120toile": 1785,
  "\u0120kept": 1975,
  "\u0120nothing": 871,
  "ired": 979,
  "\u0120'": 288,
  "\u0120once": 1099,
  "\u0120looks": 1022,
  "\u0120happened": 1313,
  "\u0120inv": 1291,
  "\u0120slight": 1677,
  "\u0120called": 1144,
  "\u0120fe": 595,
  "ild": 874,
  "\u0120messag": 1445,
  "ch": 173,
  "\u0120adv": 1551,
  "\u0120at": 192,
  "\u0120consid": 1378,
  "\u0120char": 372,
  "\u0120ev": 1757,
  "ign": 921,
  "ung": 1382,
  "ny": 1020,
  "\u0120anx": 922,
  "\u0120geep": 900,
  "\u0120while": 1451,
  "\u0120gone": 1798,
  "\u0120ace": 830,
  "\u0120shit": 468,
  "\u0120actually": 493,
  "\u0120sudd": 1906,
  "\u0120inside": 1778,
  "!!!": 841,
  "\u0120fl": 689,
  "\u0120creat": 1834,
  "\u0120know": 244,
  "ue": 430,
  "\u0120will": 310,
  "ug": 605,
  "\u0120either": 1021,
  "\u0120when": 287,
  "\u0120need": 298,
  "\u0120down": 649,
  "ures": 1440,
  "000": 1710,
  "hood": 70,
  "\u0120reason": 770,
  "ee": 172,
  "uine": 1857,
  "\u0120repl": 1950,
  "ween": 1459,
  "\u0120after": 616,
  "\u0120ign": 1487,
  "\u0120mo": 435,
  "\u0120inst": 814,
  "\u0120away": 951,
  "\u0120means": 810,
  "\u0120wasn": 1288,
  "\u0120kevins": 853,
  "thers": 1897,
  "\u0120safe": 1458,
  "ird": 592,
  "att": 1868,
  "ound": 325,
  "\u0120enjoy": 1742,
  "iced": 1973,
  "ape": 1295,
  "boom": 1844,
  "\u0120dep": 995,
  "ible": 936,
  "\u0120wouldnt": 1637,
  "mon": 1644,
  "\u0120hang": 1650,
  "pp": 223,
  "iew": 1480,
  "ave": 1368,
  "\u0120off": 496,
  "\u0120back": 504,
  "ated": 707,
  "\u0120her": 364,
  "ow": 135,
  "\u0120as": 204,
  "\u0120speak": 999,
  "\u0120moment": 1244,
  "\u0120dance": 1253,
  "\u01202": 404,
  "tho": 1577,
  "an": 99,
  "gging": 1788,
  "\u0120mon": 717,
  "\u0120lunch": 937,
  "ving": 431,
  "vel": 1205,
  "\u0120last": 813,
  "less": 876,
  "\u0120must": 1227,
  "\u0120yeah": 256,
  "\u0120games": 1407,
  "\u0120eff": 1527,
  "\u0120bel": 1093,
  "most": 1414,
  "\u0120black": 1745,
  "\u0120clean": 1377,
  "\u0120hmm": 974,
  "\u0120pain": 1109,
  "\u0120t": 74,
  "\u0120playing": 748,
  "\u0120accident": 1463,
  "row": 569,
  "\u0120ones": 1293,
  "\u0120well": 378,
  ")": 7,
  "erest": 959,
  "hd": 1493,
  "\u0120most": 849,
  "\u0120u": 116,
  "\u0120food": 763,
  "ored": 916,
  "ard": 457,
  "orm": 746,
  "to": 1558,
  "\u0120idea": 907,
  "\u0120guys": 1131,
  "\u0120gonna": 546,
  "ree": 589,
  "ating": 722,
  "\u0120process": 1875,
  "iding": 1958,
  "\u0120allowed": 1486,
  "\u0120ro": 580,
  "\u0120name": 930,
  "\u0120kn": 236,
  "\u0120dumb": 1242,
  "\u0120amazing": 1465,
  "\u0120fail": 1476,
  "\u0120entire": 1659,
  "ked": 1081,
  "ling": 1181,
  "\u0120ser": 778,
  "\u0120es": 1211,
  "wa": 1164,
  "oney": 880,
  "\u0120english": 1243,
  "\u0120around": 932,
  "ol": 641,
  "\u0120needed": 1563,
  "\u0120cheese": 1408,
  "ped": 1624,
  "ain": 352,
  "\u0120pack": 1944,
  "av": 1966,
  "\u0120slow": 1959,
  "\u0120same": 490,
  "\u0120to": 96,
  "\u0120tho": 374,
  "\u0120let": 574,
  "\u0120pr": 703,
  "\u0120seem": 1241,
  "\u0120gotta": 1041,
  "\u0120early": 1988,
  "\u0120xd": 342,
  "\u0120gay": 1115,
  "wu": 1421,
  "\u0120sexy": 1567,
  "mo": 954,
  "\u01206": 978,
  "\u0120fren": 1347,
  "com": 1766,
  "\u0120discord": 1140,
  "\u0120main": 1072,
  "\u0120cr": 840,
  "\u0120check": 1157,
  "\u0120boomboomraccoon": 1909,
  "ensive": 1693,
  "\u0120loud": 1870,
  "\u0120usually": 1507,
  "gin": 1697,
  "mpt": 1775,
  "\u0120we": 136,
  "\u0120sy": 1080,
  "ding": 1733,
  "\u0120put": 741,
  "\u0120run": 1432,
  "ition": 1574,
  "\u0120watch": 827,
  "\u0120took": 1598,
  "ready": 818,
  "\u0120gra": 1460,
  "ever": 1473,
  "\u0120res": 891,
  "eel": 295,
  "\u0120happening": 1741,
  "\u0120hell": 1069,
  "\u0120yours": 1819,
  "bsite": 568,
  "\u0120favour": 1477,
  "als": 1135,
  "\u0120used": 864,
  "\u0120mid": 1416,
  "iting": 1262,
  "\u0120depress": 1575,
  "\u0120france": 1891,
  "thing": 492,
  "d": 36,
  "\u0120morning": 1481,
  "\u0120side": 1932,
  "/": 13,
  "\u0120phone": 790,
  "\"": 2,
  "g": 39,
  "\u0120fit": 1994,
  "\u0120fo": 949,
  "\u0120poo": 1304,
  "\u0120nice": 551,
  "\u0120ph": 584,
  "oon": 1365,
  "\u0120or": 215,
  "n": 46,
  "\u0120tw": 571,
  "\u0120body": 1602,
  "\u0120shop": 811,
  "\u0120right": 533,
  "\u0120gr": 925,
  "-": 11,
  "\u0120suck": 1695,
  "\u0120coo": 1811,
  "other": 1045,
  "\u0120problem": 1354,
  "cial": 1154,
  "\u0120huge": 1984,
  "\u0120drunk": 1751,
  "\u0120literally": 679,
  "\u0120speaking": 1725,
  "\u0120life": 543,
  "cked": 1632,
  "'ll": 495,
  "\u0120funny": 1474,
  "me": 452,
  "gram": 1849,
  "\u0120pass": 1668,
  "hh": 240,
  "\u0120his": 636,
  "\u0120li": 142,
  "or": 103,
  "\u0120from": 385,
  "ort": 437,
  "ace": 669,
  "\u0120wan": 405,
  "7": 21,
  "\u0120ye": 1746,
  "\u0120chat": 1179,
  "\u0120show": 771,
  "\u0120gets": 1707,
  "\u0120loo": 311,
  "\u0120believe": 1406,
  "ial": 1572,
  "\u0120where": 607,
  "\u0120done": 798,
  "used": 1043,
  "ese": 1088,
  "\u0120would": 382,
  "\u0120add": 844,
  "ml": 1945,
  "\u0120meh": 1303,
  "ode": 1441,
  "ption": 1579,
  "ush": 1236,
  "\u0120smink": 1504,
  "st": 189,
  "\u0120de": 304,
  "\u0120cra": 977,
  "ag": 454,
  "\u0120again": 564,
  "\u0120till": 1536,
  "\u0120scre": 1711,
  "\u0120af": 572,
  "\u0120make": 414,
  "\u0120listening": 399,
  "her": 516,
  "\u0120emb": 1540,
  "\u0120gave": 1755,
  "*": 8,
  "\u0120few": 1337,
  "\u0120people": 396,
  ",": 10,
  "\u0120sake": 1360,
  "ine": 333,
  "\u0120vide": 1068,
  "ert": 1400,
  "\u0120listen": 319,
  "ket": 1786,
  "\u0120spam": 1399,
  "&": 4,
  "\u0120huh": 1971,
  "\u0120explain": 1126,
  "icul": 1595,
  "\u0120ear": 1176,
  "\u0120something": 532,
  "\u0120makes": 751,
  "ers": 346,
  "\u0120especially": 1866,
  "\u0120tomor": 898,
  "\u0120possible": 1500,
  "\u0120smo": 1924,
  "\u0120bi": 1194,
  "\u0120but": 143,
  "riend": 487,
  "ou": 81,
  "very": 285,
  "\u0120come": 511,
  "iously": 1007,
  "\u0120fore": 1471,
  "sol": 1916,
  "\u0120:'(": 1446,
  "\u0120fu": 237,
  "\u0120worth": 1812,
  "\u0120year": 628,
  "ir": 184,
  "atch": 699,
  "\u0120better": 662,
  "\u0120out": 277,
  "\u0120doctor": 1057,
  "\u0120sad": 753,
  "\u0120if": 219,
  "\u0120idk": 68,
  "\u0120hour": 655,
  "\u0120butt": 1431,
  "gan": 1758,
  "\u0120sec": 1456,
  "\u0120bec": 286,
  "\u0120sounds": 663,
  "ark": 1750,
  "\u0120psych": 1972,
  "ilar": 1564,
  "\u0120since": 1264,
  "ux": 1987,
  "esus": 1604,
  "\u0120ages": 1549,
  "\u0120scr": 1820,
  "\u0120sudden": 1913,
  "igh": 510,
  "illy": 1948,
  "\u0120favourite": 1586,
  "\u0120wish": 1029,
  "\u0120friend": 558,
  "\u0120dick": 899,
  "\u0120apparently": 1307,
  "\u0120yourself": 1352,
  "\u0120wal": 1040,
  "\u0120prob": 395,
  "\u0120boomboomra": 1900,
  "\u0120red": 1935,
  "bs": 444,
  "\u0120meow": 1455,
  "\u0120diffe": 905,
  "ant": 171,
  "\u0120pe": 357,
  "ary": 852,
  "ven": 264,
  "\u0120guy": 1124,
  "oc": 1410,
  "ugg": 1343,
  "aking": 1914,
  "\u0120be": 120,
  "ason": 737,
  "if": 365,
  "\u0120always": 647,
  "\u0120wee": 705,
  "ful": 750,
  "\u0120love": 276,
  "\u0120minutes": 1660,
  "side": 1349,
  "ally": 170,
  "istic": 1300,
  "\u0120ikr": 1091,
  "\u0120omg": 348,
  "j": 42,
  "\u0120break": 1103,
  "\u0120exper": 1246,
  "ian": 1462,
  "\u0120crying": 1591,
  "\u0120test": 1993,
  "\u0120slightly": 1784,
  "\u0120difficult": 1547,
  "ate": 205,
  "\u0120kit": 1654,
  "\u0120child": 1571,
  "ur": 274,
  "\u0120less": 911,
  "line": 1108,
  "ces": 1863,
  "nder": 500,
  "in": 79,
  "ile": 710,
  "\u0120pu": 1729,
  "\u0120baby": 785,
  "\u0120gre": 1615,
  "\u0120maybe": 585,
  "\u0120les": 1899,
  "\u0120wrong": 893,
  "!!": 392,
  "ream": 488,
  "aut": 1883,
  "\u0120program": 1947,
  "\u0120imag": 1683,
  "\u0120youre": 1402,
  "\u0120guess": 764,
  "\u0120awkward": 1174,
  "ation": 394,
  "\u0120:": 181,
  "\u0120omfg": 1326,
  "\u0120meet": 1147,
  "\u0120su": 225,
  "ood": 246,
  "\u0120kids": 1744,
  "lier": 1723,
  "\u0120mass": 1769,
  "\u0120vib": 1803,
  "\u0120con": 332,
  "ought": 526,
  "\u0120worry": 967,
  "\u0120give": 799,
  "\u0120app": 501,
  "ass": 522,
  "\u0120lie": 1682,
  "\u0120ver": 1787,
  "\u0120everyone": 887,
  "\u0120fa": 308,
  "\u0120fair": 581,
  "\u0120etc": 1100,
  "\u0120rly": 1166,
  "\u0120indeed": 1960,
  "\u0120plus": 1830,
  "\u0120job": 975,
  "\u0120pri": 1526,
  "\u0120during": 1585,
  "\u0120na": 615,
  "\u0120tot": 1670,
  "\u012015": 1818,
  "\u0120xox": 1674,
  "ist": 229,
  "\u0120together": 1113,
  "\u0120el": 458,
  "ates": 1283,
  "\u0120cur": 1084,
  "ared": 861,
  "ool": 438,
  "\u0120piss": 1911,
  "\u0120pic": 1652,
  "\u0120;)": 1285,
  "\u0120elod": 594,
  "\u0120think": 266,
  "\u0120bet": 539,
  "\u0120sexual": 1898,
  "omet": 439,
  "using": 1356,
  "\u0120spe": 910,
  "ook": 943,
  "\u0120ok": 270,
  "\u0120say": 335,
  "\u0120got": 370,
  "dd": 824,
  "\u0120art": 1336,
  "ting": 408,
  "\u0120exc": 1051,
  "\u0120wouldn": 1717,
  "ore": 228,
  "\u0120load": 1664,
  "\u0120seeing": 1732,
  "\u0120suggest": 1357,
  "\u0120effort": 1616,
  "\u0120att": 883,
  "\u0120dif": 693,
  "\u0120work": 426,
  "ying": 629,
  "\u0120gon": 527,
  "ident": 1110,
  "\u0120sing": 1569,
  "\u0120works": 1469,
  "pt": 440,
  "x": 56,
  "\u0120hurt": 1411,
  "\u0120white": 1845,
  "\u0120french": 1450,
  "\u0120website": 575,
  "ional": 1419,
  "\u0120so": 166,
  "om": 126,
  "\u0120ra": 563,
  "ith": 179,
  "\u0120>": 1334,
  "\u0120cant": 465,
  "ves": 842,
  "\u0120sk": 1058,
  "\u0120k": 161,
  "\u0120belie": 1250,
  "\u0120about": 249,
  "\u0120their": 678,
  "\u0120messages": 1957,
  "\u0120pick": 1657,
  "\u0120dream": 1969,
  "ame": 301,
  "\u0120et": 828,
  "\u0120leaving": 1842,
  "zy": 1721,
  "ough": 381,
  "\u0120hon": 856,
  "ab": 235,
  "fg": 1042,
  "\u0120boobs": 1952,
  "y": 57,
  "\u0120par": 1141,
  "od": 307,
  "ong": 369,
  "\u0120compl": 1726,
  "\u0120tea": 1829,
  "gh": 147,
  "\u0120tri": 1321,
  "\u0120brb": 724,
  "\u0120mainly": 1393,
  "\u0120cold": 1727,
  "\u0120uwu": 1605,
  "ice": 336,
  "\u0120comment": 1590,
  "\u0120seriously": 1699,
  "te": 613,
  "\u0120dog": 1392,
  "ifu": 1482,
  "ous": 415,
  "\u0120room": 976,
  "ks": 327,
  "\u0120text": 1514,
  "\u0120excited": 1917,
  "\u01208": 1130,
  "\u0120comput": 1259,
  "l": 44,
  "\u0120that": 127,
  "\u0120of": 144,
  "\u0120live": 991,
  "\u0120should": 434,
  "\u0120human": 1685,
  "\u0120tal": 403,
  "\u0120valid": 1856,
  "\u0120bar": 1908,
  "\u0120pls": 69,
  "lf": 358,
  "\u0120went": 1011,
  "\u0120become": 1942,
  "^": 31,
  "ph": 1017,
  "ouse": 645,
  "\u0120umm": 957,
  "\u0120worried": 1273,
  "\u01209": 1118,
  "ia": 1296,
  "\u0120tv": 1535,
  "\u0120ind": 989,
  "\u0120little": 882,
  "bo": 859,
  "\u0120real": 625,
  "\u0120cal": 1521,
  "`": 67,
  "\u0120water": 1675,
  "\u0120exactly": 956,
  "\u0120fam": 1398,
  "\u0120day": 455,
  "wn": 477,
  "\u0120thought": 582,
  "waifu": 1528,
  "\u0120rant": 1687,
  "\u0120cook": 1964,
  "\u0120dri": 1893,
  "\u0120gi": 1016,
  "\u0120psy": 1894,
  "ted": 1079,
  "\u0120times": 1010,
  "\u0120sometim": 1024,
  "\u0120dire": 1791,
  "rible": 1005,
  "\u0120ne": 191,
  "ren": 1384,
  "ship": 1376,
  "mao": 195,
  "\u0120moving": 1691,
  "\u0120no": 114,
  "\u0120eat": 878,
  "\u0120didnt": 591,
  "airs": 1848,
  "\u0120person": 642,
  "6": 20,
  "arly": 860,
  "e": 37,
  "ly": 134,
  "\u0120even": 305,
  "ited": 1322,
  "ertain": 1847,
  "\u0120sa": 316,
  "fu": 1162,
  "\u0120la": 761,
  "\u0120enough": 777,
  "ri": 178,
  "\u0120too": 278,
  "\u0120thinking": 913,
  "ered": 1102,
  "\u0120been": 362,
  "\u0120because": 320,
  "\u0120w": 76,
  "8": 22,
  "ical": 1034,
  "\u0120turn": 1302,
  "\u0120non": 1145,
  "\u0120exact": 875,
  "\u0120frogg": 716,
  "\u0120proud": 1953,
  "\u0120foc": 1904,
  "ff": 428,
  "\u0120cos": 72,
  "\u0120thr": 862,
  "qu": 360,
  "pect": 895,
  "\u0120left": 1002,
  "\u0120du": 1929,
  "angle": 1629,
  "\u0120george": 603,
  "vour": 1366,
  "!?": 688,
  "\u0120in": 131,
  "er": 92,
  "ices": 1823,
  "'d": 482,
  "\u0120bl": 597,
  "ggest": 1235,
  "where": 1789,
  "\u0120dam": 919,
  "\u0120birth": 1557,
  "\u0120g": 106,
  "\u0120sick": 1251,
  "ment": 517,
  "int": 535,
  "terday": 1317,
  "\u0120shout": 1905,
  "\u0120order": 1390,
  "\u0120except": 1511,
  "room": 1836,
  "\u0120pee": 1561,
  "\u0120p": 98,
  "\u0120stuff": 599,
  "ib": 865,
  "\u0120small": 1601,
  "\u0120gl": 909,
  "\u0120havent": 1111,
  "\u0120stupid": 1635,
  "\u0120anyway": 791,
  "\u0120xx": 1341,
  "\u0120thank": 765,
  "\u0120conf": 789,
  "hs": 1796,
  "\u0120appreci": 1308,
  "t": 52,
  "\u0120hu": 901,
  "own": 1874,
  "\u0120making": 884,
  "\u0120card": 1912,
  "ro": 158,
  "\u0120ur": 347,
  "ther": 507,
  "\u0120dr": 651,
  "\u0120three": 1688,
  "\u0120pizz": 1850,
  "\u0120lo": 230,
  "\u0120how": 260,
  "ay": 122,
  "\u0120smoke": 1576,
  "\u0120currently": 1821,
  "\u0120twice": 1155,
  "'m": 252,
  "\u0120past": 1138,
  "\u0120weeks": 1620,
  "our": 290,
  "ptop": 1968,
  "ad": 159,
  "\u0120intern": 1649,
  "\u0120situation": 1686,
  "\u0120up": 243,
  "??": 448,
  "\u0120hes": 839,
  "\u0120meme": 1661,
  "\u0120have": 186,
  "ount": 872,
  "um": 272,
  "\u0120suppose": 1703,
  "\u0120peop": 387,
  "\u0120answ": 950,
  "\u012011": 1676,
  "\u0120col": 1199,
  "\u0120doesn": 1004,
  "ibly": 1718,
  "nds": 1793,
  "\u0120cont": 732,
  "\u0120sex": 680,
  "\u0120phys": 1839,
  "\u0120en": 383,
  "\u0120then": 353,
  "\u012018": 1978,
  "ising": 1619,
  "ix": 823,
  "oth": 1700,
  "\u0120completely": 1946,
  "\u0120lmao": 199,
  "\u0120blue": 1876,
  "ude": 796,
  "\u0120met": 1653,
  "\u0120po": 391,
  "fe": 279,
  "\u0120looking": 561,
  "urn": 941,
  "\u0120came": 1187,
  "\u0120flo": 1739,
  "iday": 1600,
  "ility": 1497,
  "#": 1999,
  "\\": 2000,
  "{": 2001,
  "}": 2002,
  "\u00a1": 2003,
  "\u00a2": 2004,
  "\u00a4": 2005,
  "\u00a5": 2006,
  "\u00a7": 2007,
  "\u00a8": 2008,
  "\u00a9": 2009,
  "\u00aa": 2010,
  "\u00ab": 2011,
  "\u00ac": 2012,
  "\u00ae": 2013,
  "\u00af": 2014,
  "\u00b0": 2015,
  "\u00b1": 2016,
  "\u00b2": 2017,
  "\u00b3": 2018,
  "\u00b4": 2019,
  "\u00b5": 2020,
  "\u00b6": 2021,
  "\u00b7": 2022,
  "\u00b8": 2023,
  "\u00b9": 2024,
  "\u00ba": 2025,
  "\u00bb": 2026,
  "\u00bc": 2027,
  "\u00bd": 2028,
  "\u00be": 2029,
  "\u00bf": 2030,
  "\u00c2": 2031,
  "\u00c3": 2032,
  "\u00c4": 2033,
  "\u00c5": 2034,
  "\u00c6": 2035,
  "\u00c7": 2036,
  "\u00c9": 2037,
  "\u00ca": 2038,
  "\u00cb": 2039,
  "\u00cc": 2040,
  "\u00ce": 2041,
  "\u00cf": 2042,
  "\u00d0": 2043,
  "\u00d1": 2044,
  "\u00d4": 2045,
  "\u00d7": 2046,
  "\u00d8": 2047,
  "\u00d9": 2048,
  "\u00e0": 2049,
  "\u00e1": 2050,
  "\u00e2": 2051,
  "\u00e3": 2052,
  "\u00e5": 2053,
  "\u00e6": 2054,
  "\u00e8": 2055,
  "\u00e9": 2056,
  "\u00ea": 2057,
  "\u00eb": 2058,
  "\u00ec": 2059,
  "\u00ed": 2060,
  "\u00ef": 2061,
  "\u00f0": 2062,
  "\u00f3": 2063,
  "\u0122": 2064,
  "\u0123": 2065,
  "\u0124": 2066,
  "\u0125": 2067,
  "\u0126": 2068,
  "\u0127": 2069,
  "\u0128": 2070,
  "\u0129": 2071,
  "\u012a": 2072,
  "\u012b": 2073,
  "\u012c": 2074,
  "\u012d": 2075,
  "\u012e": 2076,
  "\u012f": 2077,
  "\u0130": 2078,
  "\u0131": 2079,
  "\u0132": 2080,
  "\u0133": 2081,
  "\u0134": 2082,
  "\u0135": 2083,
  "\u0136": 2084,
  "\u0137": 2085,
  "\u0138": 2086,
  "\u0139": 2087,
  "\u013a": 2088,
  "\u013b": 2089,
  "\u013c": 2090,
  "\u013d": 2091,
  "\u013e": 2092,
  "\u0140": 2093,
  "\u0141": 2094,
  "\u0142": 2095,
  "\u0143": 2096,
  "hat": 2097,
  "\u0120cha": 2098,
  "ris": 2099,
  "een": 2100,
  "\u0120eve": 2101,
  "\u0120whe": 2102,
  "\u0120lis": 2103,
  "\u0120fee": 2104,
  "ca": 2105,
  "\u0120lol": 2106,
  "\u0120oh": 2107,
  "ime": 2108,
  "\u0120q": 2109,
  "han": 2110,
  "ays": 2111,
  "\u0120vo": 2112,
  "\u0120beca": 2113,
  "rain": 2114,
  "\u0120thou": 2115,
  "\u0120voice": 2116,
  "\u0120lma": 2117,
  "ds": 2118,
  "arn": 2119,
  "oy": 2120,
  "\u0120hel": 2121,
  "ww": 2122,
  "\u0120learn": 2123,
  "orge": 2124,
  "iend": 2125,
  "\u00e2\u0122": 2126,
  "mb": 2127,
  "tt": 2128,
  "\u0120wanting": 2129,
  "\u0120draw": 2130,
  "cking": 2131,
  "gle": 2132,
  "\u0120sca": 2133,
  "\u0120smoking": 2134,
  "tera": 2135,
  ":/": 2136,
  "che": 2137,
  "imes": 2138,
  "ady": 2139,
  "\u0120htt": 2140,
  "\u0120litera": 2141,
  "\u0120needing": 2142,
  "ffe": 2143,
  "og": 2144,
  "\u0120tur": 2145,
  "tf": 2146,
  "\u0120underst": 2147,
  "\u0120hearing": 2148,
  "\u00e2\u0122\u013b": 2149,
  "\u0120sha": 2150,
  "\u0120learning": 2151,
  "fa": 2152,
  "\u0120https": 2153,
  "\u0120soon": 2154,
  "tty": 2155,
  "\u00c2\u00a3": 2156,
  "nce": 2157,
  "\u0120hahaha": 2158,
  "\u0120wtf": 2159,
  "\u0120ann": 2160,
  "\u0120touching": 2161,
  "\u0120someone": 2162,
  "\u0120=": 2163,
  "\u0120cats": 2164,
  "\u0120\u00c2\u00a3": 2165,
  "uter": 2166,
  "\u0120ga": 2167,
  "\u0120annoy": 2168,
  "\u0120picking": 2169,
  "\u0120inte": 2170,
  "tes": 2171,
  "www": 2172,
  "\u0120sen": 2173,
  "\u0120drawing": 2174,
  "eet": 2175,
  "de": 2176,
  "\":": 2177,
  "\u0120thoughts": 2178,
  "rently": 2179,
  "\u0120cuz": 2180,
  "\u0120ugh": 2181,
  "whe": 2182,
  "\u0120intere": 2183,
  "esome": 2184,
  "\u0120[": 2185,
  "\u0120lm": 2186,
  "\u00f0\u0141": 2187,
  "az": 2188,
  "nth": 2189,
  "\u0120lmfa": 2190,
  "\u0120chan": 2191,
  "\u0120joke": 2192,
  "cent": 2193,
  "ards": 2194,
  "\u0120ideas": 2195,
  "hed": 2196,
  "\u0120fan": 2197,
  "ker": 2198,
  "tra": 2199,
  "\u0120sna": 2200,
  "itar": 2201,
  "press": 2202,
  "\u0120synth": 2203,
  "\u0120guitar": 2204,
  "\u00f3\u00be": 2205,
  "\u0120ring": 2206,
  "cted": 2207,
  "\u0120lmfao": 2208,
  "\u00c4\u00a1": 2209,
  "\u0120worr": 2210,
  "tent": 2211,
  "tead": 2212,
  "olog": 2213,
  "\u0120rain": 2214,
  "\u0120chair": 2215,
  "\u0120resp": 2216,
  "\u0120blan": 2217,
  "sting": 2218,
  "\u0120sun": 2219,
  "\u0120drinking": 2220,
  "\u0120decks": 2221,
  "eepy": 2222,
  "\u0120sminking": 2223,
  "je": 2224,
  "\u0120lmaooo": 2225,
  "more": 2226,
  "ube": 2227,
  "lle": 2228,
  "nc": 2229,
  "nts": 2230,
  "hhh": 2231,
  "\u0120dark": 2232,
  "by": 2233,
  "py": 2234,
  "30": 2235,
  "\u0120oven": 2236,
  "\u0120seco": 2237,
  "\u0120nooo": 2238,
  "\u0120anymore": 2239,
  "ider": 2240,
  "ments": 2241,
  "joy": 2242,
  "gry": 2243,
  "\u0120da": 2244,
  "\u0120\u00e2\u0122": 2245,
  "\u0120turnt": 2246,
  "indow": 2247,
  "reen": 2248,
  "\u0120turntable": 2249,
  "come": 2250,
  "\u01200": 2251,
  "\u0120mark": 2252,
  "wards": 2253,
  "\u0120known": 2254,
  "sc": 2255,
  "\u00c3\u00a9": 2256,
  "\u0120ele": 2257,
  "\u0120awww": 2258,
  "ched": 2259,
  "\u0120mixer": 2260,
  "\u0120snacks": 2261,
  "fs": 2262,
  "ffic": 2263,
  "light": 2264,
  "\u0120appa": 2265,
  "'.": 2266,
  "\u0120amaz": 2267,
  "ancing": 2268,
  "ages": 2269,
  "\u0120jon": 2270,
  "\u0120#": 2271,
  "\",": 2272,
  "\u0120horr": 2273,
  "nch": 2274,
  "\u0120ooo": 2275,
  "ors": 2276,
  "\u0120pi": 2277,
  "\u0120ey": 2278,
  "ba": 2279,
  "fr": 2280,
  "\u00e3\u0123": 2281,
  "view": 2282,
  "\u00e3\u0123\u00a3": 2283,
  "igg": 2284,
  "how": 2285,
  "\u0120ap": 2286,
  "\u0120ah": 2287,
  "the": 2288,
  "\u0120dw": 2289,
  "\u0120blanket": 2290,
  "\u0120chris": 2291,
  "ches": 2292,
  "vice": 2293,
  "\u0120phot": 2294,
  "tem": 2295,
  "\u0120songs": 2296,
  "hes": 2297,
  "\u0120loving": 2298,
  "\u0120atta": 2299,
  "\u0120sugg": 2300,
  "\u0120create": 2301,
  "\u0120sksks": 2302,
  "\u0120proc": 2303,
  "\u0120opin": 2304,
  "\u0120bur": 2305,
  "'(": 2306,
  "\u0120wha": 2307,
  "\u0120\u00e2\u0122\u013a": 2308,
  "\u0120toy": 2309,
  "\u0120\u00f0\u0141": 2310,
  "\u0120va": 2311,
  "\u0120tas": 2312,
  "ips": 2313,
  "net": 2314,
  "),": 2315,
  "\u0120hun": 2316,
  "odu": 2317,
  "\u0120yep": 2318,
  "\u0120darkness": 2319,
  "iving": 2320,
  "\u0120voices": 2321,
  "\u0120gun": 2322,
  "12": 2323,
  "ture": 2324,
  "\u0120likes": 2325,
  "\u0120mat": 2326,
  "\u0120somehow": 2327,
  "\u0120idek": 2328,
  "ters": 2329,
  "ipp": 2330,
  "\u0120takes": 2331,
  "\u0120daylight": 2332,
  "ads": 2333,
  "sent": 2334,
  "ob": 2335,
  "\u0120towards": 2336,
  "tm": 2337,
  "uk": 2338,
  "yout": 2339,
  "\u0120lost": 2340,
  "\u0120loves": 2341,
  "\u0120cree": 2342,
  "put": 2343,
  "\u0120numb": 2344,
  "\u0120wood": 2345,
  "wor": 2346,
  "nded": 2347,
  "gy": 2348,
  "\u0120hating": 2349,
  "\u0120opinion": 2350,
  "cited": 2351,
  "\u0120dinner": 2352,
  "oman": 2353,
  "mp": 2354,
  "\u0120fav": 2355,
  "watch": 2356,
  "33": 2357,
  "\u0120wear": 2358,
  "\u0120hid": 2359,
  "\u0120droid": 2360,
  "\u0120bou": 2361,
  "aged": 2362,
  "\u0120hehe": 2363,
  "\u0120fuckin": 2364,
  "\u0120heating": 2365,
  "\u0120oooh": 2366,
  "\u0120looked": 2367,
  "dy": 2368,
  "\u0120convers": 2369,
  "\u0120comes": 2370,
  "\u0120pos": 2371,
  "\u0120age": 2372,
  "\u00e2\u0122\u00a2": 2373,
  "\u0120evening": 2374,
  "\u0120consider": 2375,
  "!'": 2376,
  "ring": 2377,
  "\u0120book": 2378,
  "\u0120mome": 2379,
  "\u0120wat": 2380,
  "15": 2381,
  "\u0120passage": 2382,
  "\u0120gunna": 2383,
  "kk": 2384,
  "\u0120dat": 2385,
  "mer": 2386,
  "\u0120doct": 2387,
  "\u0120pen": 2388,
  "gra": 2389,
  "\u00ca\u0137": 2390,
  "\u0120loool": 2391,
  "\u0120del": 2392,
  "\u0120creating": 2393,
  "cl": 2394,
  "man": 2395,
  "\u012014": 2396,
  "cu": 2397,
  "ga": 2398,
  "\u00ca\u0136": 2399,
  "tever": 2400,
  "hy": 2401,
  "\u0120twitch": 2402,
  "\u0120cho": 2403,
  "\u0120pasta": 2404,
  "\u0120pc": 2405,
  "\u0120http": 2406,
  "ex": 2407,
  "\u0120google": 2408,
  "irt": 2409,
  "nn": 2410,
  "\u0120mil": 2411,
  "youtube": 2412,
  "\u0120sooo": 2413,
  "ock": 2414,
  "dden": 2415,
  "\u0120birthday": 2416,
  "\u0120cba": 2417,
  "\u0120mouse": 2418,
  "nding": 2419,
  "\u0120pat": 2420,
  "\u0120four": 2421,
  "\u0120tiny": 2422,
  "\u0120broke": 2423,
  "\u0120loved": 2424,
  "\u0120webs": 2425,
  "ls": 2426,
  "\u0120cock": 2427,
  "\u0120pas": 2428,
  "rac": 2429,
  "con": 2430,
  "\u0120ess": 2431,
  "\u0120ffs": 2432,
  "ology": 2433,
  "\u0120bath": 2434,
  "17": 2435,
  "\u0120whatever": 2436,
  "\u0120hmmm": 2437,
  "ule": 2438,
  "\u0120angry": 2439,
  "\u0120perf": 2440,
  "\u0120fell": 2441,
  "ision": 2442,
  "\u0120calm": 2443,
  "lu": 2444,
  "key": 2445,
  "\u0120android": 2446,
  "cer": 2447,
  "\u0120mee": 2448,
  "cha": 2449,
  "fk": 2450,
  "sel": 2451,
  "24": 2452,
  "ured": 2453,
  "onse": 2454,
  "\u0120recent": 2455,
  "scri": 2456,
  "\u0120fil": 2457,
  "16": 2458,
  "\u0120woo": 2459,
  "\u0120eyes": 2460,
  "25": 2461,
  "ient": 2462,
  "\u0120loveangel": 2463,
  "\u0120/": 2464,
  "board": 2465,
  "\u0120ya": 2466,
  "tr": 2467,
  "\u0120finis": 2468,
  "\u0120easy": 2469,
  "\u0120mis": 2470,
  "\u0120knows": 2471,
  "ife": 2472,
  "\u0120conversation": 2473,
  "\u0120brains": 2474,
  "\u0120screen": 2475,
  "ines": 2476,
  "\u0120eh": 2477,
  "\u0120response": 2478,
  "\u012019": 2479,
  "gif": 2480,
  "\u0120+": 2481,
  "selves": 2482,
  "\u0120cares": 2483,
  "\u0120problems": 2484,
  "\u0120level": 2485,
  "ral": 2486,
  "iness": 2487,
  "\u0120short": 2488,
  "\u0120atm": 2489,
  "\u0120hates": 2490,
  "\u0120five": 2491,
  "\u0120lemme": 2492,
  "cy": 2493,
  "\u0120beaut": 2494,
  "\u0120noticed": 2495,
  "iple": 2496,
  "\u0120cust": 2497,
  "\u0120missed": 2498,
  "\u0120number": 2499,
  "\u00ca\u0136\u00e3\u0123\u00a3": 2500,
  "\u0120log": 2501,
  "uin": 2502,
  "\u0120produ": 2503,
  "\u0120bru": 2504,
  "\u0120essay": 2505,
  "\u0120sys": 2506,
  "rew": 2507,
  "rence": 2508,
  "\u0120gives": 2509,
  "\u0120based": 2510,
  "ify": 2511,
  "ize": 2512,
  "\u0120conta": 2513,
  "\u0120walked": 2514,
  "\u0120somewhere": 2515,
  "\u0120near": 2516,
  "\u012013": 2517,
  "\u0120ohhh": 2518,
  "\u0120deep": 2519,
  "\u0120const": 2520,
  "load": 2521,
  "eer": 2522,
  "orn": 2523,
  "tmas": 2524,
  "\u0120suddenly": 2525,
  "une": 2526,
  "\u0120family": 2527,
  "\u0120starting": 2528,
  "\u0120incred": 2529,
  "\u0120front": 2530,
  "ively": 2531,
  "\u00e2\u0122\u00a2\u00cc": 2532,
  "\u0120clos": 2533,
  "\u0120party": 2534,
  "ital": 2535,
  "\u0120goes": 2536,
  "pa": 2537,
  "esss": 2538,
  "\u0120christmas": 2539,
  "\u0120story": 2540,
  "\u0120girls": 2541,
  "\u0120hungry": 2542,
  "\u0120creepy": 2543,
  "\u0120round": 2544,
  "14": 2545,
  "\u0120pol": 2546,
  "\u0120hugs": 2547,
  "aked": 2548,
  "urs": 2549,
  "\u0120floor": 2550,
  "\u0120squ": 2551,
  "\u0120ran": 2552,
  "\u0120heart": 2553,
  "\u0120join": 2554,
  "\u0120>.": 2555,
  "\u0120busy": 2556,
  "\u012016": 2557,
  "\u0120england": 2558,
  "fast": 2559,
  "\u0120silly": 2560,
  "iful": 2561,
  "ancy": 2562,
  "\u0120technically": 2563,
  "\u0120partner": 2564,
  "\u0120general": 2565,
  "oot": 2566,
  "fortable": 2567,
  "\u0120inform": 2568,
  "\u0120air": 2569,
  "\u0120happens": 2570,
  "iot": 2571,
  "\u0120experience": 2572,
  "\u0120questions": 2573,
  "\u0120xoxo": 2574,
  "19": 2575,
  "\u0120decide": 2576,
  "13": 2577,
  "lex": 2578,
  "\u0120longer": 2579,
  "\u0120brother": 2580,
  "ronic": 2581,
  "\u0120style": 2582,
  "\u0120woke": 2583,
  "\u0120includ": 2584,
  "head": 2585,
  "kets": 2586,
  "ik": 2587,
  "\u0120wel": 2588,
  "\u0120imagine": 2589,
  "\u0120build": 2590,
  "tention": 2591,
  "\u0120sme": 2592,
  "\u0120bass": 2593,
  "\u0120singing": 2594,
  "\u0120issue": 2595,
  "dle": 2596,
  "min": 2597,
  "\u0120nic": 2598,
  "\u0120neither": 2599,
  "chen": 2600,
  "ax": 2601,
  "\u0120lar": 2602,
  "\u0120yh": 2603,
  "ndon": 2604,
  "ists": 2605,
  "fl": 2606,
  "\u0120likely": 2607,
  "\u0120facebook": 2608,
  "\u0120specific": 2609,
  "\u0120yout": 2610,
  "\u0120spo": 2611,
  "\u0120mums": 2612,
  "\u0120particul": 2613,
  "\u0120prov": 2614,
  "\u0120sleeping": 2615,
  "\u0120warm": 2616,
  "\u0120genuinely": 2617,
  "\u0120nearly": 2618,
  "\u0120calling": 2619,
  "50": 2620,
  "tern": 2621,
  "\u0120fucked": 2622,
  "\u0120sens": 2623,
  "18": 2624,
  "\u0120soup": 2625,
  "\u0120ju": 2626,
  "\u0120meeting": 2627,
  "you": 2628,
  "\u0120ily": 2629,
  "iled": 2630,
  "\u0120milk": 2631,
  "\u0120line": 2632,
  "\u0120annoyed": 2633,
  "\u0120odd": 2634,
  "\u0120couldn": 2635,
  "\u0120kitchen": 2636,
  "\u0120argo": 2637,
  "\u0120multiple": 2638,
  "\u0120screaming": 2639,
  "pris": 2640,
  "\u0120clot": 2641,
  "\u0120turned": 2642,
  "\u0120bright": 2643,
  "\u0120spent": 2644,
  "\u0120dammit": 2645,
  "\u00ca\u013a": 2646,
  "\u0120sile": 2647,
  "\u0120disapp": 2648,
  "\u0120massive": 2649,
  "ills": 2650,
  "\u0120strong": 2651,
  "\u0120wake": 2652,
  "\u0120whether": 2653,
  "\u0120group": 2654,
  "que": 2655,
  "urate": 2656,
  "\u0120stude": 2657,
  "\u0120shower": 2658,
  "\u0120opp": 2659,
  "\u0120breakfast": 2660,
  "\u0120sksksk": 2661,
  "\")": 2662,
  "\u0120otherwise": 2663,
  "\u0120traum": 2664,
  "\u0120plymouth": 2665,
  "\u0120pissed": 2666,
  "aw": 2667,
  "do": 2668,
  "tend": 2669,
  "\u0120vers": 2670,
  "\u0120chaos": 2671,
  "\u0120others": 2672,
  "\u0120easier": 2673,
  "\u0120london": 2674,
  "eng": 2675,
  "\u0120green": 2676,
  "\u0120100": 2677,
  "\u0120paid": 2678,
  "\u0120apolog": 2679,
  "\u0120fire": 2680,
  "\u0120hm": 2681,
  "kers": 2682,
  "down": 2683,
  "\u0120remo": 2684,
  "\u0120ant": 2685,
  "\u0120six": 2686,
  "\u0120ended": 2687,
  "\u0120due": 2688,
  "\u0120dans": 2689,
  "\u0120share": 2690,
  "\u0120young": 2691,
  "\u0120>:": 2692,
  "\u0120direct": 2693,
  "medi": 2694,
  "\u0120purple": 2695,
  "23": 2696,
  "het": 2697,
  "\u0120camer": 2698,
  "\u0120deser": 2699,
  "\u0120control": 2700,
  "\u0120recently": 2701,
  "\u0120kissing": 2702,
  "sted": 2703,
  "\u0120beautiful": 2704,
  "zz": 2705,
  "\u0120leaves": 2706,
  "\u0120uh": 2707,
  "\u0120pour": 2708,
  "\u0120loveangle": 2709,
  "eg": 2710,
  "\u0120ig": 2711,
  "\u0120liked": 2712,
  "\u0120surpris": 2713,
  "what": 2714,
  "\u0120los": 2715,
  "\u0120personal": 2716,
  "',": 2717,
  "hugs": 2718,
  "\u0120however": 2719,
  "\u0120moves": 2720,
  "\u0120clearly": 2721,
  "\u0120stressed": 2722,
  "\u0120emotional": 2723,
  "\u0120helping": 2724,
  "\u0120accurate": 2725,
  "br": 2726,
  "mat": 2727,
  "ets": 2728,
  "\u0120against": 2729,
  "omen": 2730,
  "ump": 2731,
  "pected": 2732,
  "\u0120fight": 2733,
  "\u0120wife": 2734,
  "\u0120death": 2735,
  "\u0120crap": 2736,
  "\u0120ce": 2737,
  "\u0120argu": 2738,
  "\u0120taken": 2739,
  "any": 2740,
  "\u0120sofa": 2741,
  "\u0120interested": 2742,
  "\u0120project": 2743,
  "nse": 2744,
  "\u0120sitting": 2745,
  "()": 2746,
  "40": 2747,
  "pop": 2748,
  "\u0120dou": 2749,
  "\u0120ben": 2750,
  "\u0120hugging": 2751,
  "par": 2752,
  "\u0120certain": 2753,
  "\u0120sending": 2754,
  "\u0120cooking": 2755,
  "\u0120obs": 2756,
  "\u0120middle": 2757,
  "\u0120youtube": 2758,
  "go": 2759,
  "\u0120fake": 2760,
  "\u0120friday": 2761,
  "\u0120single": 2762,
  "\u0120yesss": 2763,
  "vi": 2764,
  "tenor": 2765,
  "\u0120prefer": 2766,
  "ka": 2767,
  "ants": 2768,
  "\u0120organ": 2769,
  "dn": 2770,
  "\u0120dude": 2771,
  "\u0120ow": 2772,
  "lls": 2773,
  "ilt": 2774,
  "\u0120themselves": 2775,
  "\u0120choice": 2776,
  "ond": 2777,
  "\u0120attention": 2778,
  "\u0120smoked": 2779,
  "\u0120idiot": 2780,
  "gu": 2781,
  "\u0120state": 2782,
  "\u0120bare": 2783,
  "\u0120considering": 2784,
  "\u0120ai": 2785,
  "\u0120lil": 2786,
  "\u0120que": 2787,
  "gs": 2788,
  "\u0120aa": 2789,
  "\u0120loads": 2790,
  "\u0120date": 2791,
  "\u0120expensive": 2792,
  "\u0120broken": 2793,
  "\u0120asher": 2794,
  "bot": 2795,
  "ular": 2796,
  "\u0120meaning": 2797,
  "\u0120mag": 2798,
  "\u0120conne": 2799,
  "hol": 2800,
  "\u0120ont": 2801,
  "\u0120appro": 2802,
  "\u0120crazy": 2803,
  "sor": 2804,
  "\u0120rent": 2805,
  "\u0120grow": 2806,
  "1000": 2807,
  "ai": 2808,
  "ric": 2809,
  "\u0120focus": 2810,
  "\u0120finished": 2811,
  "text": 2812,
  "\u0120amb": 2813,
  "fy": 2814,
  "\u0120avo": 2815,
  "\u0120depe": 2816,
  "ove": 2817,
  "\u0120mas": 2818,
  "norm": 2819,
  "ises": 2820,
  "\u0120advice": 2821,
  "\u0120>:(": 2822,
  "itive": 2823,
  "ergy": 2824,
  "hahaha": 2825,
  "like": 2826,
  "igger": 2827,
  "\u00ca\u0137\u00e3\u0123\u00a3": 2828,
  "\u0120tic": 2829,
  "\u0120wall": 2830,
  "\u0120uns": 2831,
  "cle": 2832,
  "\u0120dress": 2833,
  "\u012017": 2834,
  "\u0120typing": 2835,
  "21": 2836,
  "\u0120react": 2837,
  "45": 2838,
  "\u0120drugs": 2839,
  "\u0120:((": 2840,
  "tel": 2841,
  "26": 2842,
  "port": 2843,
  "ina": 2844,
  "\u0120access": 2845,
  "\u0120emo": 2846,
  "\u0120system": 2847,
  "\u0120repe": 2848,
  "\u0120express": 2849,
  "\u0120emp": 2850,
  "\u0120camera": 2851,
  "\u0120satur": 2852,
  "ager": 2853,
  "mi": 2854,
  "\u0120women": 2855,
  "\u0120realise": 2856,
  "\u0120manage": 2857,
  "\u0120sees": 2858,
  "ules": 2859,
  "iment": 2860,
  "ropri": 2861,
  "\u0120soft": 2862,
  "\u0120blood": 2863,
  "\u0120onto": 2864,
  "\u0120dest": 2865,
  "search": 2866,
  "\u0120smile": 2867,
  "\u0120secret": 2868,
  "\u0120offe": 2869,
  "\u0120kitty": 2870,
  "]:": 2871,
  "\u0120code": 2872,
  "\u0120view": 2873,
  "\u0120prote": 2874,
  "ially": 2875,
  "cel": 2876,
  "\u0120teen": 2877,
  "\u0120charac": 2878,
  "stairs": 2879,
  "uth": 2880,
  "\u0120rid": 2881,
  "\u0120walking": 2882,
  "\u0120memor": 2883,
  "oof": 2884,
  "\u0120offer": 2885,
  "\u0120quiet": 2886,
  "\u0120letter": 2887,
  "\u0120himself": 2888,
  "work": 2889,
  "\u0120beg": 2890,
  "imin": 2891,
  "\u0120vibes": 2892,
  "\u0120custom": 2893,
  "for": 2894,
  "\u0120hol": 2895,
  "\u0120absol": 2896,
  "whel": 2897,
  "\u0120opt": 2898,
  "ature": 2899,
  "\u0120respons": 2900,
  "\u0120communication": 2901,
  "bu": 2902,
  "\u0120oop": 2903,
  "\u0120pub": 2904,
  "ane": 2905,
  "aten": 2906,
  "iod": 2907,
  "rib": 2908,
  "\u0120box": 2909,
  "\u0120clear": 2910,
  "\u0120clothes": 2911,
  "\u0120energy": 2912,
  "\u0120given": 2913,
  "\u0120rip": 2914,
  "ift": 2915,
  "\u0120mot": 2916,
  "\u0120overwhel": 2917,
  "\u0120brit": 2918,
  "\u0120yeahhh": 2919,
  "\u0120fairly": 2920,
  "\u0120remind": 2921,
  "\u0120absolute": 2922,
  "\u0120respect": 2923,
  "rs": 2924,
  "\u0120bin": 2925,
  "\u0120pie": 2926,
  "\u0120feelings": 2927,
  "ocked": 2928,
  "ability": 2929,
  "\u0120hands": 2930,
  "\u0120awh": 2931,
  "\u0120whos": 2932,
  "\u0120reco": 2933,
  "\u0120welcome": 2934,
  "cal": 2935,
  "\u0120worked": 2936,
  "ours": 2937,
  "pro": 2938,
  "\u0120putting": 2939,
  "\u0120est": 2940,
  "irty": 2941,
  "\u0120retur": 2942,
  "\u0120av": 2943,
  "\u0120bts": 2944,
  "\u0120rele": 2945,
  "\u0120shouldnt": 2946,
  "\u0120poke": 2947,
  "\u0120admit": 2948,
  "\u0120medic": 2949,
  "\u0120truly": 2950,
  "\u0120beh": 2951,
  "\u0120fully": 2952,
  "\u0120changed": 2953,
  "but": 2954,
  "yyy": 2955,
  "\u0120sam": 2956,
  "astic": 2957,
  "\u012024": 2958,
  "\u0120photo": 2959,
  "\u0120\u00e2": 2960,
  "\u0120planning": 2961,
  "\u0120vibe": 2962,
  "ok": 2963,
  "\u0120elodies": 2964,
  "\u0120rock": 2965,
  "\u0120large": 2966,
  "\u0120complain": 2967,
  "miss": 2968,
  "igin": 2969,
  "\u0120period": 2970,
  "\u0120forgetting": 2971,
  "\u0120tre": 2972,
  "\u0120terr": 2973,
  "\u0120information": 2974,
  "\u0120cover": 2975,
  "22": 2976,
  "\u0120priv": 2977,
  "\u0120saturday": 2978,
  "uc": 2979,
  "icken": 2980,
  "ctive": 2981,
  "\u0120ignore": 2982,
  "\u0120particularly": 2983,
  "ropriate": 2984,
  "ws": 2985,
  "url": 2986,
  "\u0120petes": 2987,
  "aces": 2988,
  "\u0120pipe": 2989,
  "\u0120aud": 2990,
  "\u0120monday": 2991,
  "\u012050": 2992,
  "inger": 2993,
  "\u0120beha": 2994,
  "ole": 2995,
  "\u0120drop": 2996,
  "\u0120port": 2997,
  "\u0120thinks": 2998,
  "\u0120arr": 2999,
  "anger": 3000,
  "\u0120doctors": 3001,
  "\u0120continue": 3002,
  "ze": 3003,
  "\u0120bat": 3004,
  "\u0120awful": 3005,
  "\u0120helps": 3006,
  "dam": 3007,
  "\u0120detail": 3008,
  "\u0120treat": 3009,
  "raph": 3010,
  "\u0120immedi": 3011,
  "\u0120finding": 3012,
  "\u0120option": 3013,
  "?'": 3014,
  "ky": 3015,
  "\u0120ir": 3016,
  "ator": 3017,
  "\u0120remembering": 3018,
  "\u0120confir": 3019,
  "(\"": 3020,
  "\u0120lady": 3021,
  "\u0120power": 3022,
  "\u0120uncom": 3023,
  "\u0120pract": 3024,
  "\u0120temp": 3025,
  "\u0120kidding": 3026,
  "nel": 3027,
  "\u0120moved": 3028,
  "\u0120bby": 3029,
  "\u0120strange": 3030,
  "ground": 3031,
  "\u0120noise": 3032,
  "\u0120invol": 3033,
  "lr": 3034,
  "mg": 3035,
  "\u0120sal": 3036,
  "\u0120ly": 3037,
  "\u0120vag": 3038,
  "\u0120orange": 3039,
  "\u0120somebody": 3040,
  "\u0120_": 3041,
  "\u0120understanding": 3042,
  "\u0120closer": 3043,
  "\u0120avoid": 3044,
  "\u0120kpop": 3045,
  "\u0120aint": 3046,
  "\u0120warn": 3047,
  "oring": 3048,
  "cou": 3049,
  "\u0120unf": 3050,
  "\u0120assa": 3051,
  "\u0120juice": 3052,
  "cture": 3053,
  "\u0120truth": 3054,
  "\u0120property": 3055,
  "scribe": 3056,
  "\u0120sle": 3057,
  "\u0120mice": 3058,
  "\u0120um": 3059,
  "\u0120stre": 3060,
  "\u0120communicate": 3061,
  "\u0120behind": 3062,
  "bal": 3063,
  "\u0120tit": 3064,
  "\u0120wooo": 3065,
  "\u0120feed": 3066,
  "\u0120alive": 3067,
  "\u0120drug": 3068,
  "fd": 3069,
  "land": 3070,
  "amp": 3071,
  "\u0120waking": 3072,
  "\u0120keeps": 3073,
  "\u0120sky": 3074,
  "28": 3075,
  "\u0120link": 3076,
  "arc": 3077,
  "\u0120incredibly": 3078,
  "\u012023": 3079,
  "\u0120normally": 3080,
  "oh": 3081,
  "\u0120megan": 3082,
  "\u0120fast": 3083,
  "\u0120eventually": 3084,
  "rd": 3085,
  "\u0120stopped": 3086,
  "\u0120america": 3087,
  "ienc": 3088,
  "sex": 3089,
  "\u0120fear": 3090,
  "pose": 3091,
  "\u0120occ": 3092,
  "lfr": 3093,
  "\u0120band": 3094,
  "\u0120bott": 3095,
  "\u0120cringe": 3096,
  "11": 3097,
  "itter": 3098,
  "\u0120herself": 3099,
  "\u0120pressure": 3100,
  "cing": 3101,
  "\u0120origin": 3102,
  "\u0120electronic": 3103,
  "\u0120fat": 3104,
  "\u0120thurs": 3105,
  "ggg": 3106,
  "aging": 3107,
  "\u0120confusing": 3108,
  "\u0120specif": 3109,
  "oss": 3110,
  "\u0120ball": 3111,
  "\u0120force": 3112,
  "verse": 3113,
  "cra": 3114,
  "igned": 3115,
  "\u0120computers": 3116,
  "\u0120hotel": 3117,
  "\u0120version": 3118,
  "dio": 3119,
  "\u0120lang": 3120,
  "\u0120beds": 3121,
  "\u0120alco": 3122,
  "\u0120mach": 3123,
  "face": 3124,
  "\u0120&": 3125,
  "ney": 3126,
  "lfriend": 3127,
  "\u0120wot": 3128,
  "vera": 3129,
  "\u0120kore": 3130,
  "aaay": 3131,
  "\u0120relax": 3132,
  "usive": 3133,
  "\u0120cost": 3134,
  "\u0120mac": 3135,
  "ipped": 3136,
  "\u0120forward": 3137,
  "\u0120distra": 3138,
  "\u00e2\u0122\u00bf": 3139,
  "\u0120stars": 3140,
  "\u0120term": 3141,
  "mes": 3142,
  "\u0120cir": 3143,
  "\u0120progra": 3144,
  "\u0120weeke": 3145,
  "\u0120nor": 3146,
  "leted": 3147,
  "\u0120ador": 3148,
  "\u0120missing": 3149,
  "\u0120rev": 3150,
  "\u0120matter": 3151,
  "\u0120seemed": 3152,
  "\u0120request": 3153,
  "\u0120fut": 3154,
  "\u0120bene": 3155,
  "ows": 3156,
  "\u0120decent": 3157,
  "\u0120desk": 3158,
  "\u0120piper": 3159,
  "\u0120eye": 3160,
  "\u0120cy": 3161,
  "\u0120frust": 3162,
  "\u0120raccoon": 3163,
  "\u0120price": 3164,
  "\u0120male": 3165,
  "\u0120deserve": 3166,
  "99": 3167,
  "\u0120porn": 3168,
  "\u0120hide": 3169,
  "icked": 3170,
  "ior": 3171,
  "\u0120urself": 3172,
  "\u0120ident": 3173,
  "cat": 3174,
  "\u0120listens": 3175,
  "\u0120special": 3176,
  "\u0120student": 3177,
  "\u0120fill": 3178,
  "\u0120touches": 3179,
  "\u0120sleepy": 3180,
  "usted": 3181,
  "\u0120harsh": 3182,
  "\u0120boys": 3183,
  "rap": 3184,
  "ived": 3185,
  "\u0120langu": 3186,
  "\u0120alcohol": 3187,
  "sp": 3188,
  "\u0120mate": 3189,
  "\u0120stan": 3190,
  "\u0120expected": 3191,
  "\u0120werent": 3192,
  "\u0120across": 3193,
  "aling": 3194,
  "\u0120cup": 3195,
  "\u0120badly": 3196,
  "\u0120decision": 3197,
  "\u0120including": 3198,
  "ler": 3199,
  "vous": 3200,
  "\u0120ou": 3201,
  "\u0120depressed": 3202,
  "27": 3203,
  "la": 3204,
  "token": 3205,
  "aths": 3206,
  "ses": 3207,
  "\u0120ris": 3208,
  "\u0120town": 3209,
  "\u0120whenever": 3210,
  "\u0120streaming": 3211,
  "ars": 3212,
  "nted": 3213,
  "\u0120burn": 3214,
  "dj": 3215,
  "\u0120ep": 3216,
  "\u0120roll": 3217,
  "iant": 3218,
  "\u0120company": 3219,
  "\u0120shitty": 3220,
  "\u0120appoint": 3221,
  "\u0120girlfriend": 3222,
  "\u0120taste": 3223,
  "sha": 3224,
  "ume": 3225,
  "\u0120eight": 3226,
  "\u0120cuddle": 3227,
  "\u0120within": 3228,
  "\u0120managed": 3229,
  "\u0120note": 3230,
  "\u0120analy": 3231,
  "\u0120lay": 3232,
  "\u0120reasons": 3233,
  "\u0120brighton": 3234,
  "bl": 3235,
  "tence": 3236,
  "\u0120drum": 3237,
  "\u0120jud": 3238,
  "\u0120save": 3239,
  "\u0120ways": 3240,
  "\u0120redd": 3241,
  "\u0120skills": 3242,
  "\u0120further": 3243,
  "\u0120ahhh": 3244,
  "\u0120rules": 3245,
  "pital": 3246,
  "hael": 3247,
  "\u0120bill": 3248,
  "\u0120none": 3249,
  "\u0120diag": 3250,
  "\u0120watched": 3251,
  "\u0120repeat": 3252,
  "\u0120{": 3253,
  "\u0120tor": 3254,
  "\u0120stat": 3255,
  "\u0120along": 3256,
  "\u0120bull": 3257,
  "\u0120grind": 3258,
  "\u0120photos": 3259,
  "\u0120oops": 3260,
  "\u0120behavi": 3261,
  "\u0120cris": 3262,
  "\u0120den": 3263,
  "\u0120therefore": 3264,
  "fc": 3265,
  "list": 3266,
  "\u0120lolol": 3267,
  "\u0120helpful": 3268,
  "\u0120dro": 3269,
  "\u0120park": 3270,
  "))": 3271,
  "itten": 3272,
  "\u0120british": 3273,
  "bin": 3274,
  "\u0120chicken": 3275,
  "\u0120tty": 3276,
  "\u0120drag": 3277,
  "\u0120genre": 3278,
  "\u0120jk": 3279,
  "\u0120ofc": 3280,
  "\u0120plans": 3281,
  "\u0120froggys": 3282,
  "\u0120difference": 3283,
  "ality": 3284,
  "\u0120exis": 3285,
  "\u0120urs": 3286,
  "\u0120experienc": 3287,
  "\u0120exciting": 3288,
  "\u0120illeg": 3289,
  "\u0120metal": 3290,
  "\u0120embarr": 3291,
  "\u0120absolutely": 3292,
  "\u0120future": 3293,
  "bab": 3294,
  "\u0120youuu": 3295,
  "\u0120poor": 3296,
  "\u0120michael": 3297,
  "\u0120specifically": 3298,
  "ster": 3299,
  "uce": 3300,
  "\u0120mild": 3301,
  "ref": 3302,
  "\u0120nood": 3303,
  "\u0120attem": 3304,
  "\u0120sorted": 3305,
  "\u0120switch": 3306,
  "\u0120places": 3307,
  "\u0120hears": 3308,
  "\u0120lack": 3309,
  "\u0120learns": 3310,
  "\u0120running": 3311,
  "den": 3312,
  "tain": 3313,
  "ught": 3314,
  "\u0120impress": 3315,
  "\u0120purpose": 3316,
  "\u0120hyper": 3317,
  "\u0120options": 3318,
  "\u0120voc": 3319,
  "\u0120mc": 3320,
  "\u0120foot": 3321,
  "idence": 3322,
  "tedly": 3323,
  "\u0120tryna": 3324,
  "\u0120channel": 3325,
  "\u0120info": 3326,
  "\u0120training": 3327,
  "pping": 3328,
  "\u0120print": 3329,
  "\u0120delive": 3330,
  "aks": 3331,
  "oin": 3332,
  "ints": 3333,
  "\u0120billy": 3334,
  "\u0120sched": 3335,
  "\u0120regard": 3336,
  "\u0120wro": 3337,
  "\u0120ble": 3338,
  "\u0120upd": 3339,
  "ton": 3340,
  "\u0120died": 3341,
  "\u0120dirty": 3342,
  "\u0120rece": 3343,
  "\u0120knowing": 3344,
  "\u0120unable": 3345,
  "\u0120equals": 3346,
  "\u0120nervous": 3347,
  "\u0120barely": 3348,
  "\u012025": 3349,
  "\u0120hurts": 3350,
  "\u0120shops": 3351,
  "\u0120weekend": 3352,
  "\u0120reddit": 3353,
  "under": 3354,
  "\u0120sunday": 3355,
  "ppy": 3356,
  "\u0120aware": 3357,
  "\u0120skin": 3358,
  "name": 3359,
  "\u0120gender": 3360,
  "\u0120hehehe": 3361,
  "\u0120adorable": 3362,
  "\u0120tune": 3363,
  "har": 3364,
  "idge": 3365,
  "\u0120bottom": 3366,
  "\u0120tro": 3367,
  "\u0120bum": 3368,
  "\u0120ruin": 3369,
  "\u0120mentioned": 3370,
  "\u0120surprised": 3371,
  "\u0120ttyl": 3372,
  "bing": 3373,
  "\u0120beat": 3374,
  "\u0120above": 3375,
  "\u0120minute": 3376,
  "\u0120constantly": 3377,
  "\u0120bb": 3378,
  "\u0120disg": 3379,
  "\u0120bedroom": 3380,
  "velop": 3381,
  "\u0120machine": 3382,
  "38": 3383,
  "oned": 3384,
  "\u0120jess": 3385,
  "\u0120possibly": 3386,
  "\u0120>.>": 3387,
  "\u0120refe": 3388,
  "ionally": 3389,
  "\u0120eats": 3390,
  "\u0120dads": 3391,
  "\u0120assum": 3392,
  "\u0120mother": 3393,
  "\u0120lying": 3394,
  "\u0120kk": 3395,
  "\u0120moon": 3396,
  "vert": 3397,
  "\u0120picks": 3398,
  "\u0120account": 3399,
  "\u0120wrote": 3400,
  "\u0120washing": 3401,
  "play": 3402,
  "\u0120struggling": 3403,
  "\u0120mur": 3404,
  "\u0120cross": 3405,
  "\u0120tax": 3406,
  "ested": 3407,
  "\u0120tend": 3408,
  "\u0120penis": 3409,
  "chan": 3410,
  "ulation": 3411,
  "\u0120jobs": 3412,
  "\u012040": 3413,
  "essed": 3414,
  "gged": 3415,
  "\u0120\u00f0\u0141\u013a": 3416,
  "\u0120bruh": 3417,
  "box": 3418,
  "\u00f3\u00be\u0128": 3419,
  "ution": 3420,
  "\u0120directly": 3421,
  "\u0120cake": 3422,
  "\u0120concer": 3423,
  "umblr": 3424,
  "29": 3425,
  "pre": 3426,
  "\u0120table": 3427,
  "\u0120bow": 3428,
  "\u0120quit": 3429,
  "\u0120tues": 3430,
  "\u0120delete": 3431,
  "\u0120cond": 3432,
  "\u0120paying": 3433,
  "\u0120worries": 3434,
  "\u0120copy": 3435,
  "\u0120profess": 3436,
  "66": 3437,
  "\u0120hom": 3438,
  "\u0120sadly": 3439,
  "\u0120double": 3440,
  "\u0120language": 3441,
  "pg": 3442,
  "\u0120maths": 3443,
  "\u0120dying": 3444,
  "\u0120honey": 3445,
  "ides": 3446,
  "alous": 3447,
  "\u0120neg": 3448,
  "\u0120interview": 3449,
  "\u0120mode": 3450,
  "\u0120banned": 3451,
  "bt": 3452,
  "\u0120mist": 3453,
  "ndent": 3454,
  "\u0120uuu": 3455,
  "\u0120heav": 3456,
  "\u0120stick": 3457,
  "\u0120sell": 3458,
  "\u0120spot": 3459,
  "\u0120everywhere": 3460,
  "\u0120drive": 3461,
  "\u0120holy": 3462,
  "\u0120apologise": 3463,
  "\u0120pokemon": 3464,
  "\u0120slept": 3465,
  "\u0120sand": 3466,
  "\u0120serious": 3467,
  "uff": 3468,
  "\u0120yee": 3469,
  "\u0120shad": 3470,
  "ncy": 3471,
  "\u0120fixed": 3472,
  "\u0120film": 3473,
  "\u0120rom": 3474,
  "\u0120cent": 3475,
  "\u0120pun": 3476,
  "\u0120gurl": 3477,
  "ien": 3478,
  "\u0120written": 3479,
  "\u0120phones": 3480,
  "\u0120embarass": 3481,
  "\u0120medication": 3482,
  "08": 3483,
  "\u0120breat": 3484,
  "uses": 3485,
  "\u0120lose": 3486,
  "\u0120summ": 3487,
  "\u0120seven": 3488,
  "\u012022": 3489,
  "ledge": 3490,
  "\u0120illegal": 3491,
  "48": 3492,
  "lent": 3493,
  "\u0120chall": 3494,
  "\u0120trip": 3495,
  "\u0120irl": 3496,
  "time": 3497,
  "\u0120joy": 3498,
  "\u0120anim": 3499,
  "amine": 3500,
  "\u0120final": 3501,
  "\u0120randomly": 3502,
  "\u0120emotions": 3503,
  "57": 3504,
  "\u0120becom": 3505,
  "\u0120letting": 3506,
  "aime": 3507,
  "\u0120jum": 3508,
  "\u0120useful": 3509,
  "\u0120imposs": 3510,
  "\u0120jealous": 3511,
  "\u0120entirely": 3512,
  "\u00e2\u0122\u00a2\u00cc\u0122": 3513,
  "\u0120trauma": 3514,
  "\u0120immediately": 3515,
  "\u0120uncomfortable": 3516,
  "nit": 3517,
  "\u0120ate": 3518,
  "\u0120benef": 3519,
  "\u0120sarc": 3520,
  "\u0120pics": 3521,
  "\u0120american": 3522,
  "\u0120size": 3523,
  "\u0120lu": 3524,
  "\u0120anywhere": 3525,
  "\u0120bae": 3526,
  "\u0120wearing": 3527,
  "gpt": 3528,
  "\u0120sce": 3529,
  "\u0120begin": 3530,
  "):": 3531,
  "\u0120succ": 3532,
  "\u0120apply": 3533,
  "\u0120shame": 3534,
  "\u0120remix": 3535,
  "\u0120lowkey": 3536,
  "\u0120impossible": 3537,
  "\u0120stal": 3538,
  "\u0120whyyy": 3539,
  "\u0120impro": 3540,
  "\u0120glass": 3541,
  "\u0120depression": 3542,
  "\u0120loser": 3543,
  "\u0120private": 3544,
  "craft": 3545,
  "47": 3546,
  "tep": 3547,
  "\u0120aren": 3548,
  "ifying": 3549,
  "\u0120helped": 3550,
  "\u0120babies": 3551,
  "ograph": 3552,
  "\u0120inde": 3553,
  "ware": 3554,
  "\u0120excuse": 3555,
  "\u0120physical": 3556,
  "\u00e2\u0122\u00a2\u00cc\u0123": 3557,
  "gf": 3558,
  "\u0120led": 3559,
  "\u0120jour": 3560,
  "usting": 3561,
  "\u0120univers": 3562,
  "ya": 3563,
  "\u0120noice": 3564,
  "ctions": 3565,
  "\u0120cutie": 3566,
  "of": 3567,
  "\u0120fish": 3568,
  "\u0120cope": 3569,
  "male": 3570,
  "\u0120object": 3571,
  "\u0120return": 3572,
  "ights": 3573,
  "\u0120built": 3574,
  "\u0120jelly": 3575,
  "nb": 3576,
  "\u0120irr": 3577,
  "\u0120yeee": 3578,
  "\u0120nine": 3579,
  "\u0120ut": 3580,
  "\u0120image": 3581,
  "\u0120convo": 3582,
  "\u0120signific": 3583,
  "\u0120thursday": 3584,
  "aff": 3585,
  "\u0120bound": 3586,
  "\u0120hadn": 3587,
  "\u0120appear": 3588,
  "phone": 3589,
  "\u0120tf": 3590,
  "orted": 3591,
  "\u0120reach": 3592,
  "\u0120anime": 3593,
  "haps": 3594,
  "tems": 3595,
  "\u0120sho": 3596,
  "\u0120chips": 3597,
  "ires": 3598,
  "\u0120tracks": 3599,
  "\u0120aces": 3600,
  "\u0120humans": 3601,
  "tered": 3602,
  "ram": 3603,
  "\u0120max": 3604,
  "\u0120gran": 3605,
  "\u0120cleaning": 3606,
  "iculous": 3607,
  "ults": 3608,
  "\u0120assist": 3609,
  "\u0120stressful": 3610,
  "\u0120figured": 3611,
  "\u0120visit": 3612,
  "\u0120sou": 3613,
  "\u0120search": 3614,
  "\u0120keyboard": 3615,
  "\u0120quickly": 3616,
  "back": 3617,
  "\u0120gar": 3618,
  "\u0120ends": 3619,
  "\u0120perform": 3620,
  "\u0120pill": 3621,
  "\u0120context": 3622,
  "\u0120children": 3623,
  "\u0120depends": 3624,
  "\u0120rice": 3625,
  "\u0120deleted": 3626,
  "ulance": 3627,
  "\u0120team": 3628,
  "\u0120embarrass": 3629,
  "\u0120ded": 3630,
  "usion": 3631,
  "\u0120thre": 3632,
  "\u0120stab": 3633,
  "..?": 3634,
  "\u0120ens": 3635,
  "dis": 3636,
  "\u0120bang": 3637,
  "\u0120init": 3638,
  "\u0120kay": 3639,
  "\u0120shouting": 3640,
  "cher": 3641,
  "ration": 3642,
  "vant": 3643,
  "vices": 3644,
  "\u0120ahh": 3645,
  "\u0120danger": 3646,
  "urt": 3647,
  "\u0120yeh": 3648,
  "\u0120drama": 3649,
  "\u0120rac": 3650,
  "\u0120hiding": 3651,
  "\u0120laughing": 3652,
  "\u0120bon": 3653,
  "35": 3654,
  "\u0120page": 3655,
  "\u0120push": 3656,
  "ased": 3657,
  "\u0120abuse": 3658,
  "\u0120abusive": 3659,
  "ged": 3660,
  "\u0120suis": 3661,
  "\u0120exha": 3662,
  "\u0120comfortable": 3663,
  "\u0120tex": 3664,
  "\u0120chin": 3665,
  "\u0120cheap": 3666,
  "\u0120horny": 3667,
  "now": 3668,
  "\u0120bee": 3669,
  "idered": 3670,
  "dding": 3671,
  "\u0120joking": 3672,
  "\u0120twitter": 3673,
  "shit": 3674,
  "\u0120staying": 3675,
  "\u0120instru": 3676,
  "\u0120pus": 3677,
  "\u0120hos": 3678,
  "\u0120chance": 3679,
  "\u0120usual": 3680,
  "\u0120waaa": 3681,
  "\u0120allows": 3682,
  "\u0120owo": 3683,
  "mission": 3684,
  "\u0120function": 3685,
  "\u0120lives": 3686,
  "\u0120eggs": 3687,
  "\u0120woods": 3688,
  "\u0120country": 3689,
  "\u0120smell": 3690,
  "\u0120ridiculous": 3691,
  "\u0120recogn": 3692,
  "\u0120agre": 3693,
  "quen": 3694,
  "\u0120counse": 3695,
  "\u0120seconds": 3696,
  "\u0120icon": 3697,
  "\u0120bigg": 3698,
  "\u0120fra": 3699,
  "oms": 3700,
  "\u0120imo": 3701,
  "\u0120rhy": 3702,
  "\u0120fuc": 3703,
  "\u0120activ": 3704,
  "\u0120perhaps": 3705,
  "\u0120breaks": 3706,
  "\u0120mistake": 3707,
  "just": 3708,
  "\u0120wedn": 3709,
  "\u0120bother": 3710,
  "\u0120bathroom": 3711,
  "berry": 3712,
  "\u0120character": 3713,
  "\u0120wednes": 3714,
  "36": 3715,
  "46": 3716,
  "here": 3717,
  "\u0120mut": 3718,
  "\u0120mer": 3719,
  "olate": 3720,
  "bered": 3721,
  "\u0120apart": 3722,
  "\u0120silent": 3723,
  "\u0120irrit": 3724,
  "tre": 3725,
  "\u0120mov": 3726,
  "\u0120lead": 3727,
  "\u0120artic": 3728,
  "\u0120videos": 3729,
  "!',": 3730,
  "\u0120oppos": 3731,
  "39": 3732,
  "\u0120meee": 3733,
  "\u0120fancy": 3734,
  "\u0120naked": 3735,
  "ato": 3736,
  "\u012090": 3737,
  "ipping": 3738,
  "\u0120suggesting": 3739,
  "form": 3740,
  "ource": 3741,
  "dered": 3742,
  "fet": 3743,
  "\u0120itself": 3744,
  "\u0120chatgpt": 3745,
  "\u0120obvious": 3746,
  "\u0120wondering": 3747,
  "\u0120silence": 3748,
  "\u0120schedule": 3749,
  "\u0120yaaay": 3750,
  "\u0120enter": 3751,
  "\u0120tough": 3752,
  "\u0120appropriate": 3753,
  "\u0120showing": 3754,
  "\u0120experiment": 3755,
  "\u0120data": 3756,
  "\u0120vagina": 3757,
  "hha": 3758,
  "ister": 3759,
  "\u0120stic": 3760,
  "\u0120choo": 3761,
  "\u0120simple": 3762,
  "fortun": 3763,
  "\u0120public": 3764,
  "fw": 3765,
  "\u0120toi": 3766,
  "\u0120peen": 3767,
  "\u0120cance": 3768,
  "\u0120pretend": 3769,
  "ighten": 3770,
  "ances": 3771,
  "\u0120mixed": 3772,
  "\u0120ears": 3773,
  "\u0120bank": 3774,
  "fun": 3775,
  "pes": 3776,
  "\u0120ange": 3777,
  "\u0120wank": 3778,
  "\u0120paper": 3779,
  "\u0120marry": 3780,
  "\u0120grand": 3781,
  "\u0120verbal": 3782,
  "58": 3783,
  "rics": 3784,
  "\u0120names": 3785,
  "\u0120lege": 3786,
  "\u0120shouldn": 3787,
  "\u0120teach": 3788,
  "\u0120sus": 3789,
  "\u0120shy": 3790,
  "\u0120shirt": 3791,
  "\u0120butts": 3792,
  "iling": 3793,
  "\u0120adam": 3794,
  "\u0120offended": 3795,
  "\u0120original": 3796,
  "vid": 3797,
  "||": 3798,
  "stats": 3799,
  "\u0120deg": 3800,
  "\u0120comfy": 3801,
  "\u0120prescri": 3802,
  "\u0120grim": 3803,
  "\u0120added": 3804,
  "\u0120minecraft": 3805,
  "\u0120essent": 3806,
  "ging": 3807,
  "kj": 3808,
  "su": 3809,
  "\u0120trigger": 3810,
  "\u0120calls": 3811,
  "\u0120travel": 3812,
  "ao": 3813,
  "gl": 3814,
  "\u0120\u00f3\u00be": 3815,
  "ified": 3816,
  "\u0120considered": 3817,
  "\u0120tickets": 3818,
  "\u0120holiday": 3819,
  "\u0120agg": 3820,
  "\u0120inten": 3821,
  "icky": 3822,
  "\u0120joh": 3823,
  "\u0120remem": 3824,
  "\u0120situations": 3825,
  "that": 3826,
  "\u0120unfortun": 3827,
  "\u0120draws": 3828,
  "\u0120breaking": 3829,
  "\u0120indepe": 3830,
  "cting": 3831,
  "\u0120applic": 3832,
  "\u0120regret": 3833,
  "\u0120tasks": 3834,
  "\u0120au": 3835,
  "vere": 3836,
  "\u0120pure": 3837,
  "\u0120vio": 3838,
  "\u0120trash": 3839,
  "\u0120literal": 3840,
  "\u0120insane": 3841,
  "\u0120assume": 3842,
  "love": 3843,
  "well": 3844,
  "\u0120edit": 3845,
  "\u0120sksksks": 3846,
  "uino": 3847,
  "49": 3848,
  "ull": 3849,
  "\u0120dry": 3850,
  "ery": 3851,
  "\u0120hist": 3852,
  "\u0120>.<": 3853,
  "01": 3854,
  "va": 3855,
  "\u0120omggg": 3856,
  "\u0120talked": 3857,
  "ploy": 3858,
  "\u0120older": 3859,
  "\u0120negative": 3860,
  "\u0120opposite": 3861,
  "\u0120tatt": 3862,
  "\u0120cum": 3863,
  "let": 3864,
  "ley": 3865,
  "\u0120jimin": 3866,
  "\u0120advent": 3867,
  "\u0120harder": 3868,
  "\u0120setting": 3869,
  "\u0120technology": 3870,
  "\u0120overwhelmed": 3871,
  "\u0120assault": 3872,
  "\u0120diagn": 3873,
  "ium": 3874,
  "iest": 3875,
  "\u00e2\u013e": 3876,
  "\u0120prog": 3877,
  "\u0120veux": 3878,
  "\u0120cla": 3879,
  "\u0120epis": 3880,
  "aries": 3881,
  "\u0120lock": 3882,
  "\u0120frog": 3883,
  "\u0120remembered": 3884,
  "37": 3885,
  "acc": 3886,
  "\u0120dare": 3887,
  "\u0120net": 3888,
  "tery": 3889,
  "\u0120suit": 3890,
  "\u0120caused": 3891,
  "\u0120freaking": 3892,
  "\u0120promise": 3893,
  "cr": 3894,
  "\u0120storm": 3895,
  "\u0120convin": 3896,
  "\u0120shall": 3897,
  "\u0120chinese": 3898,
  "\u00e0\u00b7": 3899,
  "\u0120tha": 3900,
  "atic": 3901,
  "\u0120jam": 3902,
  "\u0120offic": 3903,
  "aaa": 3904,
  "\u0120solid": 3905,
  "di": 3906,
  "val": 3907,
  "\u0120alex": 3908,
  "ona": 3909,
  "utm": 3910,
  "\u0120stor": 3911,
  "\u0120manip": 3912,
  "\u0120sharing": 3913,
  "\u0120slowly": 3914,
  "\u0120meat": 3915,
  "\u0120ability": 3916,
  "though": 3917,
  "cious": 3918,
  "\u0120ground": 3919,
  "\u0120include": 3920,
  "\u0120unfortunately": 3921,
  "\u0120hous": 3922,
  "\u0120ranting": 3923,
  "\u0120tattoo": 3924,
  "bby": 3925,
  "dit": 3926,
  "\u0120\u00ca\u0137\u00e3\u0123\u00a3": 3927,
  "\u0120idfk": 3928,
  "\u0120choc": 3929,
  "\u0120charge": 3930,
  "\u0120provide": 3931,
  "\u0120delivery": 3932,
  "llm": 3933,
  "ank": 3934,
  "aming": 3935,
  "\u0120sauce": 3936,
  "\u0120develop": 3937,
  "phones": 3938,
  "\u0120ignoring": 3939,
  "\u0120progress": 3940,
  "bed": 3941,
  "\u0120showed": 3942,
  "\u012080": 3943,
  "\u0120common": 3944,
  "iction": 3945,
  "\u0120cunt": 3946,
  "\u0120physically": 3947,
  "\u0120memory": 3948,
  "\u0120attempt": 3949,
  "\u0120hospital": 3950,
  "\u0120tid": 3951,
  "\u0120pin": 3952,
  "asm": 3953,
  "\u0120js": 3954,
  "\u012021": 3955,
  "\u0120catch": 3956,
  "\u0120lights": 3957,
  "\u0120building": 3958,
  "\u0120judge": 3959,
  "\u0120prescription": 3960,
  "ingly": 3961,
  "\u0120shou": 3962,
  "\u0120var": 3963,
  "\u0120blame": 3964,
  "\u0120click": 3965,
  "\u0120mais": 3966,
  "\u0120steal": 3967,
  "\u0120topic": 3968,
  "\u0120replying": 3969,
  "\u0120following": 3970,
  "\u0120changing": 3971,
  "\u0120replied": 3972,
  "\u0120ambulance": 3973,
  "fety": 3974,
  "ural": 3975,
  "\u0120uhhh": 3976,
  "\u0120sounded": 3977,
  "\u0120adult": 3978,
  "\u0120boat": 3979,
  "\u0120news": 3980,
  "\u0120melt": 3981,
  "\u0120cap": 3982,
  "ables": 3983,
  "\u0120extre": 3984,
  "\u0120hoping": 3985,
  "\u0120downstairs": 3986,
  "\u0120understood": 3987,
  "\u0120aaagh": 3988,
  "\u0120enjoying": 3989,
  "\u0120lyrics": 3990,
  "\u0120tuesday": 3991,
  "\u0120aggress": 3992,
  "59": 3993,
  "hop": 3994,
  "\u0120nhs": 3995,
  "\u0120meth": 3996,
  "\u0120jfc": 3997,
  "\u0120research": 3998,
  "\u0120university": 3999,
  "sss": 4000,
  "\u0120env": 4001,
  "\u0120medical": 4002,
  "\u0120windows": 4003,
  "underst": 4004,
  "\u0120sandw": 4005,
  "\u0120wednesday": 4006,
  "uit": 4007,
  "\u0120cult": 4008,
  "\u0120lou": 4009,
  "\u0120bear": 4010,
  "\u0120dose": 4011,
  "gent": 4012,
  "\u0120void": 4013,
  "\u0120prior": 4014,
  "activ": 4015,
  "\u0120sympt": 4016,
  "\u0120audio": 4017,
  "lol": 4018,
  "\u0120mr": 4019,
  "\u0120dom": 4020,
  "ano": 4021,
  "\u0120kicked": 4022,
  "\u0120acting": 4023,
  "\u0120vocals": 4024,
  "omg": 4025,
  "\u0120wet": 4026,
  "rated": 4027,
  "\u0120lmaoo": 4028,
  "\u0120present": 4029,
  "\u0120service": 4030,
  "\u0120married": 4031,
  "\u0120challeng": 4032,
  "core": 4033,
  "gb": 4034,
  "icy": 4035,
  "str": 4036,
  "ational": 4037,
  "ibility": 4038,
  "\u0120clar": 4039,
  "\u0120club": 4040,
  "\u0120boob": 4041,
  "\u0120reasonable": 4042,
  "\u00ca\u013a\u00ca\u0136\u00e3\u0123\u00a3": 4043,
  "uro": 4044,
  "renc": 4045,
  "\u0120nat": 4046,
  "\u0120punch": 4047,
  "\u0120knowledge": 4048,
  "\u012028": 4049,
  "\u0120services": 4050,
  "\u0120posted": 4051,
  "charis": 4052,
  "\u0120effects": 4053,
  "\u0120ice": 4054,
  "\u0120toys": 4055,
  "ield": 4056,
  "\u0120king": 4057,
  "\u0120sorta": 4058,
  "\u0120prev": 4059,
  "\u0120simp": 4060,
  "\u0120module": 4061,
  "\u0120refer": 4062,
  "\u0120evil": 4063,
  "\u0120mouth": 4064,
  "icks": 4065,
  "\u0120attra": 4066,
  "ots": 4067,
  "\u0120encou": 4068,
  "\u0120female": 4069,
  "osis": 4070,
  "ships": 4071,
  "els": 4072,
  "\u0120visual": 4073,
  "\u0120argument": 4074,
  "\u0120rout": 4075,
  "\u0120safety": 4076,
  "ilities": 4077,
  "\u0120permission": 4078,
  "\u0120related": 4079,
  "baby": 4080,
  "jpg": 4081,
  "\u0120san": 4082,
  "\u0120uhh": 4083,
  "\u0120trou": 4084,
  "\u0120veget": 4085,
  "\u0120shows": 4086,
  "\u0120tenant": 4087,
  "\u0120born": 4088,
  "\u0120hanging": 4089,
  "\u0120mildly": 4090,
  "iry": 4091,
  "\u0120base": 4092,
  "isting": 4093,
  "\u0120pink": 4094,
  "\u0120hilar": 4095,
  "\u0120causing": 4096,
  "\u0120unfair": 4097,
  "\u0120easily": 4098,
  "07": 4099,
  "ony": 4100,
  "\u0120wedding": 4101,
  "\u0120business": 4102,
  "::": 4103,
  "\u0120intera": 4104,
  "ids": 4105,
  "raid": 4106,
  "\u0120neigh": 4107,
  "ils": 4108,
  "ggy": 4109,
  "\u0120unlike": 4110,
  "\u0120customer": 4111,
  "\u0120revision": 4112,
  "cord": 4113,
  "dr": 4114,
  "ians": 4115,
  "llo": 4116,
  "\u0120notes": 4117,
  "\u0120playlist": 4118,
  "\u0120complic": 4119,
  "\u0120legs": 4120,
  "\u0120goddam": 4121,
  "\u0120explaining": 4122,
  "\u0120shouted": 4123,
  "\u0120idc": 4124,
  "\u0120volu": 4125,
  "\u0120terms": 4126,
  "\u0120cookies": 4127,
  "\u0120example": 4128,
  "\u0120details": 4129,
  "\u0120murder": 4130,
  "af": 4131,
  "\u0120il": 4132,
  "test": 4133,
  "\u0120input": 4134,
  "\u0120lecture": 4135,
  "fff": 4136,
  "\u0120boss": 4137,
  "\u0120parts": 4138,
  "\u0120respond": 4139,
  "\u0120holding": 4140,
  "\u0120disgusting": 4141,
  "67": 4142,
  "\u0120si": 4143,
  "\u0120ginger": 4144,
  "\u0120jus": 4145,
  "\u0120station": 4146,
  "\u0120feet": 4147,
  "\u0120reality": 4148,
  "\u0120reaction": 4149,
  "lit": 4150,
  "\u0120hat": 4151,
  "\u0120meal": 4152,
  "ette": 4153,
  "men": 4154,
  "estyle": 4155,
  "\u0120marks": 4156,
  "hetic": 4157,
  "\u0120empty": 4158,
  "\u0120terrible": 4159,
  "\u0120history": 4160,
  "\u0120neighb": 4161,
  "\u0120@": 4162,
  "isions": 4163,
  "\u0120ordered": 4164,
  "this": 4165,
  "\u0120potent": 4166,
  "\u0120repea": 4167,
  "\u0120explained": 4168,
  "\u0120independent": 4169,
  "\u0120\u00ca\u0137\u00e3\u0123\u00a3\u00ca\u013a": 4170,
  "05": 4171,
  "\u0120nom": 4172,
  "\u0120hig": 4173,
  "\u0120phr": 4174,
  "\u0120prin": 4175,
  "\u0120role": 4176,
  "hahah": 4177,
  "\u0120cod": 4178,
  "vered": 4179,
  "\u0120nick": 4180,
  "\u0120whis": 4181,
  "\u0120moi": 4182,
  "iber": 4183,
  "\u0120starts": 4184,
  "\u0120misunderst": 4185,
  "\u0120recording": 4186,
  "\u0120magic": 4187,
  "\u0120unsure": 4188,
  "ases": 4189,
  "\u0120rush": 4190,
  "\u0120separ": 4191,
  "ives": 4192,
  "ummy": 4193,
  "\u0120oml": 4194,
  "\u0120buying": 4195,
  "\u0120adding": 4196,
  "\u0120imagin": 4197,
  "sorry": 4198,
  "\u0120behaviour": 4199,
  "\u0120dig": 4200,
  "\u0120dating": 4201,
  "\u0120hoo": 4202,
  "\u0120study": 4203,
  "\u0120blind": 4204,
  "ized": 4205,
  "oom": 4206,
  "sing": 4207,
  "\u0120sea": 4208,
  "\u0120everyones": 4209,
  "\u0120harrow": 4210,
  "ussy": 4211,
  "\u0120chocolate": 4212,
  "88": 4213,
  "\u0120itll": 4214,
  "illed": 4215,
  "\u0120store": 4216,
  "\u0120soc": 4217,
  "\u0120anger": 4218,
  "\u0120mua": 4219,
  "\u0120nap": 4220,
  "cco": 4221,
  "\u0120shopping": 4222,
  "\u0120chairs": 4223,
  "\u0120certainly": 4224,
  "\u0120involved": 4225,
  "\u0120degree": 4226,
  "can": 4227,
  "lines": 4228,
  "\u0120ave": 4229,
  "\u0120bes": 4230,
  "\u0120tooo": 4231,
  "\u0120area": 4232,
  "neur": 4233,
  "\u0120positive": 4234,
  "rest": 4235,
  "\u0120cream": 4236,
  "\u0120forced": 4237,
  "iron": 4238,
  "cape": 4239,
  "\u0120radio": 4240,
  "\u0120advert": 4241,
  "\u0120skull": 4242,
  "\u0120potato": 4243,
  "\u0120scene": 4244,
  "\u0120hilarious": 4245,
  "44": 4246,
  "\u0120reee": 4247,
  "\u0120kink": 4248,
  "\u0120keys": 4249,
  "\u0120pregn": 4250,
  "\u0120nahhh": 4251,
  "\u0120afraid": 4252,
  "\u0120scam": 4253,
  "\u0120hole": 4254,
  "\u0120sentence": 4255,
  "\u0120midnight": 4256,
  "\u0120distracted": 4257,
  "bum": 4258,
  "\u0120ug": 4259,
  "\u0120jul": 4260,
  "\u0120homeless": 4261,
  "\u0120status": 4262,
  "\u0120dragon": 4263,
  "\u0120legend": 4264,
  "\u0120extreme": 4265,
  "mod": 4266,
  "\u0120tun": 4267,
  "ana": 4268,
  "output": 4269,
  "\u0120failed": 4270,
  "\u0120colours": 4271,
  "\u0120occas": 4272,
  "\u0120article": 4273,
  "dk": 4274,
  "\u0120lab": 4275,
  "icted": 4276,
  "\u0120ks": 4277,
  "antic": 4278,
  "\u0120proof": 4279,
  "\u0120bringing": 4280,
  "\u0120spamming": 4281,
  "\u0120acceptable": 4282,
  "band": 4283,
  "\u0120heat": 4284,
  "\u0120mega": 4285,
  "rose": 4286,
  "\u0120background": 4287,
  "\u0120checking": 4288,
  "\u0120flow": 4289,
  "\u0120basic": 4290,
  "\u0120pointless": 4291,
  "\u0120struggle": 4292,
  "\u0120street": 4293,
  "\u0120bullshit": 4294,
  "sr": 4295,
  "\u0120mal": 4296,
  "\u0120ton": 4297,
  "\u0120prop": 4298,
  "\u0120personally": 4299,
  "\u0120tes": 4300,
  "\u0120dy": 4301,
  "\u0120eaten": 4302,
  "\u0120staff": 4303,
  "\u0120upstairs": 4304,
  "\u0120sav": 4305,
  "\u0120device": 4306,
  "\u0120happiness": 4307,
  "\u0120coff": 4308,
  "\u0120decisions": 4309,
  "\u0120levels": 4310,
  "32": 4311,
  "87": 4312
}