{
  "812": "\u0120aut",
  "1980": "aly",
  "583": "\u0120tell",
  "808": "\u0120ive",
  "1956": "\u0120extra",
  "843": "\u0120these",
  "946": "body",
  "1153": "log",
  "1494": "\u0120bir",
  "1877": "\u0120?",
  "151": "\u0120he",
  "733": "ft",
  "425": "\u0120him",
  "1009": "\u0120days",
  "1813": "fer",
  "1159": "yy",
  "1148": "\u0120game",
  "1689": "\u0120chr",
  "73": "\u0120i",
  "1203": "tw",
  "1170": "\u0120needs",
  "273": "\u0120any",
  "728": "\u0120read",
  "1684": "\u0120exist",
  "413": "\u0120charis",
  "611": "\u0120hope",
  "1122": "ping",
  "1941": "\u0120ret",
  "637": "\u0120comp",
  "1910": "\u0120couldnt",
  "292": "ha",
  "969": "\u0120interest",
  "498": "\u0120man",
  "963": "\u0120rel",
  "1252": "\u0120\"",
  "1412": "\u0120pres",
  "113": "is",
  "565": "fore",
  "24": ":",
  "1671": "\u0120sub",
  "1804": "ene",
  "886": "\u0120aaa",
  "388": "\u0120(",
  "140": "\u0120j",
  "1970": "\u0120gross",
  "1716": "\u0120fault",
  "121": "ve",
  "1503": "\u0120.",
  "926": "\u0120head",
  "990": "\u0120ac",
  "436": "right",
  "38": "f",
  "354": "ast",
  "831": "\u0120point",
  "82": "\u0120b",
  "1149": "\u0120bring",
  "164": "\u0120just",
  "41": "i",
  "701": "\u0120made",
  "1738": "\u0120techn",
  "109": "\u0120wh",
  "1832": "ror",
  "138": "\u0120on",
  "268": "na",
  "960": "\u0120hi",
  "1247": "lete",
  "530": "mm",
  "1374": "eee",
  "1736": "\u0120woman",
  "1647": "20",
  "29": "?",
  "1151": "uu",
  "115": "as",
  "606": "ms",
  "1623": "\u0120email",
  "463": "\u0120tbh",
  "713": "\u0120cute",
  "1257": "uss",
  "826": "\u0120already",
  "390": "\u0120dunno",
  "682": "\u0120aww",
  "1464": "\u0120diffic",
  "1606": "\u0120type",
  "1263": "\u0120health",
  "154": "\u0120im",
  "1098": "ues",
  "702": "\u0120hard",
  "349": "are",
  "227": "\u0120can",
  "85": "\u0120o",
  "736": "\u0120god",
  "923": "\u0120own",
  "1169": "\u0120theres",
  "1281": "\u0120lets",
  "1712": "\u0120bitch",
  "1188": "\u0120asked",
  "1651": "ned",
  "460": "\u0120co",
  "167": "ld",
  "474": "\u0120try",
  "1665": "\u0120window",
  "201": "nt",
  "1255": "\u0120quite",
  "1954": "angel",
  "331": "\u0120music",
  "176": "ent",
  "774": "\u0120disc",
  "997": "\u0120kiss",
  "1622": "\u0120boring",
  "206": "ome",
  "1065": "\u0120coming",
  "476": "\u0120still",
  "1765": "\u0120realised",
  "1523": "\u0120haven",
  "1423": "cri",
  "1055": "\u0120mood",
  "1506": "izz",
  "187": "\u0120don",
  "720": "\u0120first",
  "105": "es",
  "973": "uck",
  "1094": "\u0120school",
  "904": "\u0120friends",
  "108": "ed",
  "1690": "\u0120hy",
  "1369": "\u0120interesting",
  "410": "\u0120:)",
  "1884": "\u0120hello",
  "1895": "\u0120key",
  "1495": "\u0120deal",
  "1761": "iny",
  "213": "ause",
  "754": "tle",
  "1221": "ect",
  "903": "\u0120month",
  "961": "ctor",
  "947": "\u0120support",
  "47": "o",
  "421": "\u0120being",
  "920": "\u0120hey",
  "101": "ll",
  "275": "\u0120your",
  "579": "ies",
  "1489": "fully",
  "464": "\u0120<",
  "1116": "ics",
  "1556": "\u0120often",
  "216": "\u0120wor",
  "1797": "\u0120mod",
  "609": "reat",
  "303": "\u0120fr",
  "234": "\u0120kevin",
  "519": "\u0120way",
  "84": "\u0120h",
  "652": "\u0120sigh",
  "43": "k",
  "742": "ans",
  "695": "\u0120use",
  "994": "\u0120sent",
  "1541": "\u0120arsed",
  "1986": "\u0120laptop",
  "1800": "\u0120hold",
  "1047": "ndom",
  "848": "\u0120fin",
  "1965": "\u0120discuss",
  "1979": "\u0120server",
  "1694": "\u0120close",
  "524": "ber",
  "261": "\u0120ex",
  "931": "ense",
  "1318": "\u0120brain",
  "1082": "\u0120cre",
  "1032": "\u0120rec",
  "242": "\u0120want",
  "630": "ont",
  "1491": "\u0120ref",
  "1218": "\u0120bor",
  "1044": "ten",
  "966": "\u0120legit",
  "888": "\u0120inc",
  "1339": "\u0120coll",
  "1190": "ory",
  "1515": "\u0120bye",
  "1923": "ger",
  "945": "\u0120girl",
  "157": "\u0120what",
  "1156": "\u0120perfect",
  "1364": "\u0120dancing",
  "719": "ict",
  "1186": "\u0120saw",
  "1200": "ract",
  "869": "\u0120everything",
  "1583": "\u0120obviously",
  "983": "\u0120next",
  "1816": "\u0120swear",
  "1381": "\u0120jokes",
  "691": "\u0120today",
  "928": "\u012010",
  "393": "\u0120act",
  "854": "\u0120plan",
  "467": "ure",
  "1136": "\u0120bus",
  "1709": "\u0120uk",
  "1997": "\u0120ba",
  "1681": "eric",
  "1036": "\u0120different",
  "556": "age",
  "671": "ord",
  "659": "\u0120ask",
  "1294": "ier",
  "0": "<UNK>",
  "1202": "ied",
  "269": "ind",
  "1427": "\u0120ri",
  "935": "\u0120else",
  "1278": "\u0120ext",
  "953": "\u0120two",
  "1888": "\u0120throw",
  "226": "\u0120ab",
  "934": "sw",
  "1271": "\u0120appre",
  "1449": "\u0120agree",
  "1114": "\u0120honestly",
  "758": "\u0120both",
  "773": "\u0120feeling",
  "30": "@",
  "202": "ion",
  "153": "\u0120was",
  "506": "ear",
  "250": "\u0120all",
  "756": "\u0120oo",
  "1003": "\u0120song",
  "129": "le",
  "1231": "\u0120ago",
  "190": "im",
  "665": "\u0120pet",
  "1420": "ose",
  "993": "ner",
  "149": "\u0120for",
  "819": "fect",
  "590": "ip",
  "1196": "led",
  "1770": "\u0120earlier",
  "1625": "\u0120boom",
  "782": "\u0120keep",
  "653": "\u0120cat",
  "485": "\u0120happ",
  "1195": "\u0120mom",
  "1447": "\u0120full",
  "1219": "\u0120second",
  "1287": "\u0120sur",
  "624": "\u0120weird",
  "948": "\u0120tbf",
  "1838": "\u0120fix",
  "1722": "\u0120scary",
  "1230": "\u0120cour",
  "634": "get",
  "822": "\u0120eng",
  "817": "\u0120told",
  "409": "ually",
  "86": "\u0120d",
  "502": "\u0120dis",
  "1701": "\u0120finally",
  "1266": "\u0120tired",
  "1362": "\u0120course",
  "1641": "erg",
  "1936": "\u0120mult",
  "1260": "\u0120cudd",
  "1305": "\u0120nobody",
  "1142": "iv",
  "534": "\u0120talk",
  "450": "ably",
  "1779": "\u0120det",
  "1593": "\u0120sat",
  "112": "it",
  "1": "!",
  "557": "\u0120geor",
  "1434": "osed",
  "1092": "\u0120ooh",
  "727": "co",
  "312": "\u0120some",
  "1301": "\u0120btw",
  "1282": "\u0120war",
  "422": "pe",
  "397": "\u0120us",
  "1852": "\u0120arg",
  "198": "ce",
  "188": "ea",
  "863": "po",
  "1363": "\u0120import",
  "90": "\u0120c",
  "1851": "\u0120strugg",
  "1284": "\u0120train",
  "1553": "bb",
  "254": "\u0120pl",
  "1443": "lect",
  "1388": "\u0120ama",
  "664": "ically",
  "1370": "oice",
  "1289": "\u0120enjo",
  "1391": "\u0120ter",
  "1667": "\u0120cop",
  "58": "z",
  "1405": "\u0120defin",
  "1773": "js",
  "614": "\u0120supp",
  "632": "\u0120bro",
  "486": "\u0120going",
  "1679": "\u0120hows",
  "1121": "\u0120poss",
  "1597": "\u0120appreciate",
  "627": "ater",
  "676": "\u0120fro",
  "64": "]",
  "944": "\u0120seems",
  "1425": "\u0120current",
  "441": "\u0120bo",
  "802": "ta",
  "284": "\u0120she",
  "1859": "\u0120touch",
  "132": "\u0120is",
  "1428": "\u0120important",
  "529": "\u0120here",
  "1332": "\u0120says",
  "984": "iet",
  "1705": "\u0120wed",
  "715": "\u0120reme",
  "1107": "\u0120weed",
  "1367": "\u0120ed",
  "1949": "lled",
  "1767": "\u0120listened",
  "160": "ck",
  "1963": "\u0120waiting",
  "137": "oo",
  "1938": "ooo",
  "23": "9",
  "654": "\u0120anything",
  "1193": "vers",
  "1424": "\u0120luck",
  "1740": "\u0120sucks",
  "1982": "\u0120amount",
  "1232": "\u0120allow",
  "1580": "\u0120event",
  "673": "\u0120find",
  "738": "ak",
  "1592": "my",
  "600": "\u0120bab",
  "1562": "\u0120theyre",
  "972": "\u0120ty",
  "1983": "\u0120ide",
  "77": "\u0120s",
  "15": "1",
  "1314": "\u0120colour",
  "1560": "mail",
  "1225": "llow",
  "996": "lt",
  "618": "ious",
  "1129": "mit",
  "447": "lp",
  "1152": "\u0120awk",
  "283": "no",
  "672": "\u0120per",
  "640": "\u0120med",
  "1214": "\u0120emot",
  "1656": "\u0120definitely",
  "341": "\u0120good",
  "1299": "\u0120fig",
  "562": "\u0120very",
  "377": "\u0120tb",
  "650": "\u0120kinda",
  "740": "\u0120having",
  "762": "\u0120didn",
  "1008": "\u0120hug",
  "1206": "10",
  "1756": "\u0120social",
  "794": "\u0120our",
  "1889": "boomra",
  "1128": "\u0120whats",
  "1059": "\u0120high",
  "1229": "100",
  "1292": "\u0120worse",
  "1161": "\u0120basically",
  "1239": "ap",
  "1385": "\u0120situ",
  "1389": "\u0120played",
  "1508": "\u0120mix",
  "177": "ma",
  "1015": "\u0120place",
  "1426": "pm",
  "1826": "\u0120men",
  "857": "ps",
  "734": "ried",
  "1429": "\u0120dist",
  "1996": "\u0120accidentally",
  "559": "ang",
  "1123": "\u0120boy",
  "1353": "ilst",
  "197": "ry",
  "1467": "\u0120change",
  "88": "at",
  "459": "\u0120over",
  "912": "\u0120tomorrow",
  "1608": "\u0120sonic",
  "1210": "\u0120until",
  "293": "ight",
  "294": "\u0120list",
  "694": "\u0120son",
  "1050": "\u0120proble",
  "1297": "\u0120rest",
  "1529": "oint",
  "299": "\u0120om",
  "1062": "\u0120dj",
  "1224": "yes",
  "499": "\u0120wait",
  "877": "\u0120fre",
  "1759": "\u0120win",
  "1887": "\u0120properly",
  "1930": "\u0120nope",
  "1525": "ron",
  "1763": "\u0120worst",
  "1171": "\u0120open",
  "768": "\u0120leg",
  "1827": "roid",
  "601": "\u0120before",
  "988": "oke",
  "1018": "ily",
  "986": "\u0120ho",
  "1453": "\u0120communic",
  "787": "\u0120pete",
  "776": "\u0120wont",
  "998": "air",
  "1023": "\u0120without",
  "1645": "\u0120relation",
  "1831": "\u0120internet",
  "60": "~",
  "297": "\u0120sp",
  "1063": "\u0120working",
  "801": "ence",
  "644": "\u0120elodie",
  "1501": "\u0120sweet",
  "183": "\u0120why",
  "27": "=",
  "350": "\u0120more",
  "1548": "ins",
  "646": "\u0120em",
  "760": "\u0120fine",
  "1033": "\u0120hur",
  "1048": "\u0120set",
  "1714": "book",
  "1226": "ness",
  "1311": "ather",
  "981": "el",
  "566": "00",
  "1781": "\u012030",
  "54": "v",
  "1277": "ute",
  "508": "\u0120qu",
  "858": "\u0120bre",
  "1817": "\u0120er",
  "1976": "\u0120contact",
  "1078": "\u0120answer",
  "1404": "up",
  "1433": "?!",
  "681": "\u0120trying",
  "1475": "\u0120babe",
  "271": "\u0120se",
  "379": "\u0120dun",
  "775": "\u0120home",
  "1998": "\u0120notice",
  "622": "ss",
  "150": "all",
  "1517": "rr",
  "334": "\u0120were",
  "576": "ance",
  "1546": "\u0120complete",
  "416": "\u0120much",
  "1358": "\u0120fucks",
  "267": "ep",
  "1192": "\u0120wom",
  "610": "ity",
  "1422": "\u0120pa",
  "896": "\u0120honest",
  "125": "\u0120ha",
  "739": "\u0120dad",
  "1607": "\u0120forgot",
  "700": "\u0120acc",
  "1201": "\u0120exp",
  "148": "\u0120st",
  "560": "\u0120mad",
  "32": "_",
  "141": "\u0120re",
  "706": "eep",
  "1394": "\u0120expect",
  "168": "out",
  "359": "\u0120thing",
  "1096": "\u0120move",
  "1646": "\u0120unless",
  "1439": "ret",
  "1470": "\u0120confused",
  "1901": "\u0120won",
  "400": "ud",
  "1320": "\u0120yesterday",
  "315": "so",
  "749": "\u0120end",
  "220": "..",
  "1089": "\u0120kill",
  "212": "\u0120are",
  "1245": "\u0120alone",
  "588": "\u0120into",
  "1437": "\u0120space",
  "1692": "\u0120tru",
  "1312": "\u0120felt",
  "75": "\u0120a",
  "1167": "\u0120inf",
  "1768": "pped",
  "1892": "\u0120correct",
  "800": "\u0120hor",
  "918": "\u0120geepy",
  "1799": "umber",
  "1372": "\u0120whilst",
  "743": "\u0120understand",
  "1038": "\u0120years",
  "1538": "\u0120outside",
  "263": "\u0120am",
  "505": "\u0120has",
  "1896": "\u0120cannot",
  "33": "a",
  "207": "\u0120its",
  "1127": "itch",
  "1570": "\u0120low",
  "829": "\u0120old",
  "1658": "nday",
  "26": "<",
  "317": "\u0120mus",
  "71": "\u013f",
  "1340": "\u0120top",
  "1228": "\u0120car",
  "1792": "\u0120stuck",
  "1612": "ail",
  "1290": "ations",
  "221": "'t",
  "1937": "\u0120decided",
  "1860": "\u0120hit",
  "1903": "\u0120apo",
  "182": "use",
  "1208": "\u0120video",
  "1772": "\u0120reading",
  "123": "ic",
  "53": "u",
  "462": "\u0120help",
  "704": "\u0120yay",
  "1512": "ng",
  "1584": "ccoon",
  "1143": "\u0120random",
  "1617": "ings",
  "587": "\u0120under",
  "1715": "\u0120elect",
  "420": "ase",
  "685": "\u0120thanks",
  "339": "\u0120tim",
  "674": "\u0120take",
  "1542": "ges",
  "326": "\u0120com",
  "982": "\u0120awes",
  "631": "\u0120part",
  "933": "\u0120great",
  "730": "rent",
  "745": "\u0120later",
  "1137": "\u0120mar",
  "1269": "\u0120message",
  "1633": "\u0120goog",
  "752": "ual",
  "1197": "ken",
  "1342": "ake",
  "1962": "inge",
  "100": "on",
  "1030": "cks",
  "1331": "\u0120cor",
  "1026": "\u0120stress",
  "1306": "\u0120obv",
  "726": "les",
  "1614": "\u0120die",
  "709": "\u0120stop",
  "384": "hing",
  "200": "ill",
  "658": "\u0120start",
  "781": "mor",
  "1466": "\u0120walk",
  "570": "\u0120might",
  "1724": "\u0120americ",
  "759": "\u0120br",
  "1125": "\u0120mins",
  "1380": "\u0120stra",
  "1806": "\u0120sol",
  "18": "4",
  "1931": "\u0120exam",
  "318": "\u0120thats",
  "1272": "em",
  "1105": "\u0120yet",
  "245": "\u0120did",
  "725": "\u0120night",
  "542": "\u0120ge",
  "1666": "\u0120scream",
  "1106": "udd",
  "480": "\u0120kind",
  "1280": "\u0120mor",
  "1951": "tu",
  "809": "\u0120sl",
  "598": "\u0120word",
  "897": "\u0120through",
  "1383": "\u0120class",
  "281": "\u0120one",
  "1220": "\u0120each",
  "1350": "\u0120nd",
  "124": "ut",
  "469": "\u0120ta",
  "162": "\u0120an",
  "1073": "ash",
  "1639": "\u0120wonder",
  "247": "ess",
  "1160": "\u0120ew",
  "423": "...",
  "1430": "\u0120ve",
  "1871": "ower",
  "1014": "\u0120sw",
  "1554": "yed",
  "1977": "wise",
  "1881": "\u0120track",
  "633": "ways",
  "1087": "ub",
  "478": "ish",
  "1309": "\u0120late",
  "1323": "\u0120anxiety",
  "914": "\u0120cry",
  "772": "\u0120happen",
  "361": "art",
  "1513": "outh",
  "1780": "\u0120equ",
  "1934": "\u0120bread",
  "1795": "\u0120appointment",
  "155": "\u0120not",
  "1345": "\u0120seen",
  "1097": "\u0120horrible",
  "1177": "\u0120hear",
  "803": "\u0120froggy",
  "1940": "\u0120giving",
  "836": "\u0120ass",
  "1505": "\u0120val",
  "329": "ie",
  "711": "\u0120bu",
  "873": "\u0120op",
  "838": "iz",
  "1519": "\u0120pop",
  "367": "ack",
  "1822": "\u0120toilet",
  "965": "\u0120inter",
  "1794": "\u0120spend",
  "1233": "\u0120rn",
  "214": "un",
  "1890": "\u0120pot",
  "1083": "oud",
  "735": "\u0120though",
  "1534": "\u0120cou",
  "309": "res",
  "596": "\u0120stream",
  "1985": "\u0120form",
  "491": "ty",
  "1348": "\u0120damn",
  "552": "\u0120which",
  "714": "ody",
  "1992": "\u0120writing",
  "449": "way",
  "302": "\u0120feel",
  "795": "\u0120happy",
  "939": "\u0120shes",
  "1071": "\u0120hot",
  "985": "\u0120scared",
  "1771": "\u0120christ",
  "515": "\u0120id",
  "807": "anc",
  "786": "\u0120saying",
  "509": "\u0120ple",
  "1074": "\u0120stay",
  "1279": "\u0120months",
  "612": "\u0120cl",
  "222": "ra",
  "1483": "\u0120almost",
  "847": "wh",
  "6": "(",
  "1933": "inner",
  "805": "\u0120dec",
  "656": "\u0120boo",
  "1444": "\u012012",
  "1327": "\u0120started",
  "1858": "\u0120rap",
  "1543": "io",
  "1662": "\u0120flat",
  "1640": "\u0120wi",
  "531": "\u0120doing",
  "1680": "\u0120lovely",
  "1222": "ific",
  "1643": "\u0120words",
  "411": "\u0120only",
  "686": "ions",
  "1173": "ames",
  "1191": "alth",
  "1217": "\u0120quest",
  "1413": "\u0120plz",
  "1409": "\u0120:'",
  "479": "\u0120bit",
  "667": "\u0120myself",
  "1611": "sy",
  "577": "\u0120lot",
  "406": "ick",
  "1879": "ah",
  "744": "\u0120remember",
  "850": "ither",
  "185": "ght",
  "550": "ys",
  "1634": "\u0120rather",
  "1663": "\u0120attack",
  "1613": "\u0120hung",
  "1861": "ade",
  "209": "\u0120ke",
  "660": "\u0120fun",
  "1132": "ction",
  "1828": "\u0120actual",
  "445": "lo",
  "769": "\u0120pretty",
  "484": "ide",
  "97": "\u0120n",
  "1669": "\u0120relationship",
  "1655": "\u0120dead",
  "94": "\u0120the",
  "1000": "\u0120ob",
  "1274": "\u0120using",
  "89": "\u0120l",
  "797": "\u0120best",
  "1066": "gr",
  "1927": "ho",
  "1990": "\u0120college",
  "218": "king",
  "1454": "ugh",
  "1025": "\u0120found",
  "696": "we",
  "958": "\u0120cons",
  "461": "\u0120by",
  "340": "\u0120cause",
  "1175": "\u0120wants",
  "224": "\u0120they",
  "1510": "\u0120between",
  "1533": "ience",
  "1117": "\u0120ent",
  "1809": "\u0120living",
  "1516": "ents",
  "1841": "\u0120contin",
  "503": "self",
  "241": "ge",
  "604": "\u0120fucking",
  "1478": "ently",
  "174": "ot",
  "117": "ke",
  "938": "\u0120kid",
  "1713": "oup",
  "291": "'re",
  "1814": "mme",
  "1150": "\u0120isnt",
  "1753": "haha",
  "1638": "\u0120rem",
  "51": "s",
  "418": "\u0120sc",
  "419": "ig",
  "1627": "ided",
  "1442": "\u0120parent",
  "306": "one",
  "375": "\u0120who",
  "1530": "rect",
  "1837": "\u0120manag",
  "1488": "\u0120count",
  "1172": "\u0120rude",
  "866": "\u0120sit",
  "1748": "ns",
  "832": "\u0120wanted",
  "483": "leep",
  "93": "\u0120y",
  "968": "gn",
  "1566": "aring",
  "1182": "\u0120sense",
  "1189": "jo",
  "1626": "\u0120fact",
  "692": "sh",
  "1019": "\u0120wow",
  "1067": "\u0120angle",
  "1734": "ye",
  "255": "\u0120now",
  "1319": "\u0120isn",
  "1436": "ming",
  "1706": "ately",
  "512": "\u0120said",
  "1328": "\u0120anyone",
  "549": "\u0120sm",
  "766": "\u0120nah",
  "1075": "\u0120sometimes",
  "816": "inking",
  "330": "\u0120than",
  "1035": "\u0120free",
  "1371": "lling",
  "1064": "\u0120sim",
  "1587": "\u0120poop",
  "547": "\u0120call",
  "1039": "med",
  "927": "\u0120sch",
  "1013": "\u0120awesome",
  "1238": "\u0120wasnt",
  "1939": "\u0120shut",
  "788": "\u0120anno",
  "203": "op",
  "619": "\u0120ill",
  "48": "p",
  "1061": "sed",
  "1338": "ugs",
  "1865": "\u0120defo",
  "62": "\u00a6",
  "368": "ere",
  "845": "\u0120hours",
  "567": "\u0120things",
  "253": "eah",
  "443": "per",
  "475": "'ve",
  "104": "\u0120you",
  "1086": "ac",
  "1596": "df",
  "780": "\u0120gir",
  "1730": "\u0120stand",
  "1502": "\u0120issues",
  "1531": "ratewaifu",
  "540": "ble",
  "1498": "\u0120boof",
  "1581": "\u0120incl",
  "66": "\u0120",
  "433": "\u0120wanna",
  "867": "\u0120send",
  "1603": "\u0120address",
  "1618": "\u0120lots",
  "1854": "eed",
  "684": "xt",
  "338": "gg",
  "1678": "\u0120tu",
  "1704": "\u0120normal",
  "1256": "not",
  "894": "\u0120des",
  "429": "\u0120could",
  "608": "\u0120sure",
  "1815": "pecially",
  "451": "\u0120ar",
  "545": "\u01203",
  "34": "b",
  "239": "ink",
  "906": "ath",
  "1967": "ru",
  "1258": "\u0120reg",
  "643": "\u0120ever",
  "1468": "\u0120oof",
  "879": "red",
  "1882": "ffect",
  "621": "aa",
  "343": "\u0120aw",
  "514": "ich",
  "1628": "\u0120sort",
  "635": "\u0120min",
  "1696": "ced",
  "1095": "\u0120tech",
  "1752": "pr",
  "1762": "\u0120finish",
  "1782": "\u0120forever",
  "538": "\u0120never",
  "1267": "\u0120norm",
  "940": "\u0120okay",
  "456": "\u0120may",
  "49": "q",
  "1134": "\u0120eas",
  "1490": "\u0120forg",
  "1672": "fort",
  "1168": "bi",
  "1240": "\u0120commun",
  "553": "\u0120other",
  "806": "\u0120bed",
  "1484": "\u0120egg",
  "661": "\u0120true",
  "1076": "\u0120rep",
  "1461": "\u0120dra",
  "1589": "\u0120panic",
  "971": "ised",
  "1843": "\u0120adhd",
  "25": ";",
  "1286": "\u0120apparent",
  "1315": "\u0120wo",
  "708": "irst",
  "536": "ci",
  "376": "\u0120ag",
  "380": "\u0120wa",
  "648": "\u0120liter",
  "1204": "\u0120another",
  "1146": "\u012020",
  "528": "\u0120*",
  "1545": "\u0120supposed",
  "783": "li",
  "1265": "\u0120picture",
  "617": "ise",
  "917": "\u0120def",
  "1485": "\u0120watching",
  "1588": "\u0120z",
  "554": "act",
  "657": "\u0120long",
  "555": "\u0120hop",
  "145": "id",
  "1261": "du",
  "1731": "\u0120asleep",
  "942": "\u0120expl",
  "471": "\u0120bad",
  "146": "al",
  "804": "\u0120imp",
  "1902": "\u0120similar",
  "453": "be",
  "890": "\u0120boi",
  "1920": "\u0120step",
  "1544": "\u0120world",
  "55": "w",
  "280": "\u0120v",
  "314": "\u0120sor",
  "1594": "\u0120creep",
  "398": "\u0120there",
  "885": "ts",
  "1448": "\u0120vis",
  "1774": "ksks",
  "257": "\u0120pro",
  "152": "\u0120sh",
  "541": "ire",
  "1396": "\u0120far",
  "1630": "\u0120anxious",
  "1139": "\u0120unt",
  "427": "\u0120:(",
  "1719": "\u0120drink",
  "892": "ple",
  "344": "\u0120see",
  "1275": "\u0120hair",
  "1853": "\u0120straight",
  "1386": "\u0120ten",
  "1636": "\u0120knew",
  "1776": "\u0120di",
  "1090": "\u0120iss",
  "1180": "\u0120self",
  "118": "\u0120me",
  "677": "\u0120che",
  "313": "\u0120-",
  "792": "\u0120talking",
  "5": "'",
  "210": "\u0120al",
  "1234": "\u0120waht",
  "1335": "\u0120asking",
  "815": "ward",
  "1027": "\u0120uni",
  "638": "read",
  "1333": "rate",
  "835": "\u0120bas",
  "95": "nd",
  "110": "us",
  "163": "ver",
  "1237": "ross",
  "323": "\u0120mean",
  "1518": "cially",
  "626": "ult",
  "19": "5",
  "363": "\u0120haha",
  "196": "\u0120ch",
  "525": "kes",
  "1915": "\u0120arent",
  "322": "\u0120yes",
  "1223": "ons",
  "1539": "\u0120telling",
  "59": "|",
  "130": "ar",
  "1361": "ew",
  "1001": "\u0120pict",
  "666": "\u0120tra",
  "1621": "\u0120requ",
  "180": "se",
  "1249": "\u0120pan",
  "820": "ved",
  "1532": "\u0120parents",
  "1216": "\u0120hum",
  "851": "arent",
  "731": "vent",
  "1864": "mas",
  "1212": "\u0120sin",
  "1609": "\u0120chang",
  "1520": "\u0120autism",
  "1869": "\u0120ner",
  "962": "lly",
  "1184": "\u0120hand",
  "687": "\u0120lea",
  "1379": "\u0120computer",
  "1031": "\u0120able",
  "698": "\u0120getting",
  "1418": "its",
  "296": "\u0120really",
  "1808": "arch",
  "902": "ead",
  "1077": "\u0120such",
  "639": "\u0120mum",
  "217": "'s",
  "1754": "\u0120heard",
  "952": "\u0120big",
  "1925": "\u0120cuddles",
  "258": "\u0120r",
  "1355": "\u0120goo",
  "417": "\u0120int",
  "355": "\u0120te",
  "870": "\u0120je",
  "1522": "\u0120tonight",
  "1555": "pid",
  "523": "\u0120pre",
  "1867": "\u0120couple",
  "45": "m",
  "1053": "\u0120bra",
  "1943": "\u0120sn",
  "784": "\u0120least",
  "1578": "utes",
  "1213": "\u0120half",
  "837": "\u0120mine",
  "472": "\u0120probably",
  "211": "th",
  "1254": "uring",
  "1028": "\u0120annoying",
  "1178": "\u0120post",
  "1565": "jk",
  "300": "il",
  "1248": "\u0120glad",
  "83": "re",
  "1918": "\u0120eating",
  "1743": "\u0120boyfriend",
  "668": "\u0120house",
  "1928": "\u0120plym",
  "1995": "\u0120record",
  "194": "\u0120this",
  "1056": "\u0120forget",
  "1373": "\u0120light",
  "248": "\u0120dont",
  "1165": "\u0120stud",
  "3": "%",
  "232": "\u0120go",
  "1435": "ii",
  "690": "ning",
  "1747": "\u0120vape",
  "683": "mber",
  "1325": "enc",
  "1472": "\u0120buy",
  "133": "et",
  "1183": "set",
  "40": "h",
  "351": "\u0120sorry",
  "1673": "yle",
  "1790": "\u0120conc",
  "407": "\u0120mu",
  "1351": "\u0120door",
  "1922": "\u0120pizza",
  "1037": "\u0120bored",
  "424": "\u0120play",
  "721": "\u0120new",
  "1582": "itely",
  "1835": "\u0120fall",
  "175": "ct",
  "908": "\u0120leave",
  "1537": "cess",
  "1737": "\u0120case",
  "63": "[",
  "833": "\u0120gen",
  "1805": "fair",
  "91": "\u0120f",
  "929": "\u0120meant",
  "1509": "\u0120wind",
  "548": "pl",
  "1783": "\u0120bag",
  "1052": "\u0120whole",
  "1702": "\u0120online",
  "102": "en",
  "1276": "iety",
  "1133": "der",
  "620": "\u0120pers",
  "1552": "ative",
  "712": "stand",
  "1054": "kr",
  "1163": "\u01207",
  "1559": "\u0120follow",
  "1599": "atter",
  "494": "day",
  "593": "\u0120har",
  "1840": "\u0120chill",
  "1012": "\u0120those",
  "955": "cept",
  "345": "\u0120also",
  "35": "c",
  "111": "\u0120and",
  "1101": "gether",
  "1479": "\u0120sign",
  "356": "ive",
  "337": "\u01201",
  "1873": "\u0120genuine",
  "987": "umb",
  "573": "os",
  "1728": "\u0120fur",
  "259": "\u0120fuck",
  "193": "\u0120with",
  "924": "\u0120ment",
  "537": "\u0120cool",
  "1807": "\u0120colle",
  "1112": "\u0120clo",
  "324": "\u0120le",
  "821": "\u0120care",
  "262": "ter",
  "1610": "friend",
  "825": "unch",
  "1085": "ism",
  "489": "cc",
  "520": "\u0120sleep",
  "602": "\u0120wr",
  "1846": "\u0120embar",
  "165": "\u0120like",
  "14": "0",
  "78": "\u0120th",
  "1631": "\u0120tou",
  "1346": "fic",
  "1862": "\u0120ready",
  "1401": "ject",
  "1568": "lic",
  "1270": "\u0120pur",
  "1919": "\u0120effect",
  "169": "am",
  "366": "end",
  "544": "\u0120look",
  "1268": "\u0120alright",
  "1872": "\u0120tast",
  "1046": "\u0120week",
  "1961": "\u0120awake",
  "87": "ing",
  "1395": "he",
  "107": "\u0120it",
  "723": "\u0120mess",
  "915": "\u0120str",
  "386": "\u0120time",
  "1833": "\u0120cu",
  "1120": "\u0120instead",
  "1310": "\u0120danc",
  "61": "\u00a3",
  "747": "\u20ac",
  "1457": "app",
  "1185": "cond",
  "1492": "\u0120trans",
  "846": "\u0120doesnt",
  "513": "\u0120jo",
  "868": "???",
  "328": "ite",
  "1438": "\u0120spec",
  "156": "ust",
  "1049": "\u0120many",
  "1802": "\u0120cam",
  "1810": "\u0120ste",
  "1375": "\u0120upset",
  "1403": "\u0120lear",
  "1104": "ht",
  "1158": "\u0120meds",
  "1316": "\u0120mental",
  "1524": "ones",
  "442": "\u0120gu",
  "1642": "\u0120jesus",
  "1698": "\u0120trust",
  "586": "\u0120cut",
  "855": "\u0120cle",
  "1060": "\u0120proper",
  "992": "\u0120comm",
  "1550": "vo",
  "1885": "\u0120question",
  "1764": "\u0120hopefully",
  "1921": "antly",
  "729": "ach",
  "1452": "unk",
  "1907": "ities",
  "139": "\u0120my",
  "289": "est",
  "670": "ens",
  "1760": "ats",
  "233": "vin",
  "1886": "\u0120bought",
  "1298": "zing",
  "779": "\u0120spea",
  "1006": "\u0120pay",
  "578": "able",
  "1344": "rop",
  "964": "\u0120ins",
  "412": "\u0120every",
  "697": "\u0120pret",
  "1981": "\u0120prof",
  "521": "\u0120please",
  "1735": "ointment",
  "446": "\u0120somet",
  "265": "\u0120x",
  "755": "ange",
  "623": "\u0120bot",
  "1330": "\u0120swe",
  "1499": "\u0120reply",
  "401": "\u0120tr",
  "1974": "\u0120accept",
  "1387": "\u0120tried",
  "389": "\u0120had",
  "1573": "\u0120autistic",
  "9": "+",
  "1720": "\u0120write",
  "1824": "\u0120prom",
  "466": "ress",
  "675": "\u01204",
  "238": "\u0120ma",
  "373": "\u0120does",
  "881": "\u0120super",
  "1070": "\u0120:/",
  "834": "ne",
  "50": "r",
  "767": "\u0120ang",
  "28": ">",
  "1777": "\u0120yo",
  "282": "\u0120hate",
  "17": "3",
  "1207": "night",
  "1119": "\u0120mind",
  "1955": "\u0120mention",
  "231": "\u0120get",
  "980": "\u0120engl",
  "65": "$",
  "497": "\u0120stu",
  "1198": "\u0120ima",
  "718": "\u01205",
  "251": "\u0120ohh",
  "1880": "\u0120press",
  "119": "\u0120e",
  "12": ".",
  "432": "and",
  "1648": "\u0120vi",
  "402": "\u0120un",
  "1749": "\u0120soo",
  "1825": "\u0120quick",
  "1991": "\u0120star",
  "321": "ul",
  "1989": "\u0120totally",
  "1417": "\u0120gener",
  "1708": "\u0120contro",
  "1801": "\u0120laugh",
  "970": "\u0120money",
  "518": "\u0120sound",
  "1496": "\u0120taking",
  "1855": "\u0120mic",
  "128": "\u0120do",
  "1215": "ox",
  "208": "ould",
  "1209": "\u0120;",
  "470": "\u0120lit",
  "1359": "\u0120feels",
  "80": "\u0120m",
  "16": "2",
  "481": "iss",
  "1397": "\u0120ban",
  "473": "\u0120ad",
  "1324": "ering",
  "1415": "\u0120figure",
  "889": "\u0120face",
  "793": "\u0120ca",
  "371": "\u0120them",
  "1878": "lym",
  "757": "\u0120miss",
  "1926": "\u0120xxx",
  "1329": "\u0120,",
  "1785": "\u0120toile",
  "1975": "\u0120kept",
  "871": "\u0120nothing",
  "979": "ired",
  "288": "\u0120'",
  "1099": "\u0120once",
  "1022": "\u0120looks",
  "1313": "\u0120happened",
  "1291": "\u0120inv",
  "1677": "\u0120slight",
  "1144": "\u0120called",
  "595": "\u0120fe",
  "874": "ild",
  "1445": "\u0120messag",
  "173": "ch",
  "1551": "\u0120adv",
  "192": "\u0120at",
  "1378": "\u0120consid",
  "372": "\u0120char",
  "1757": "\u0120ev",
  "921": "ign",
  "1382": "ung",
  "1020": "ny",
  "922": "\u0120anx",
  "900": "\u0120geep",
  "1451": "\u0120while",
  "1798": "\u0120gone",
  "830": "\u0120ace",
  "468": "\u0120shit",
  "493": "\u0120actually",
  "1906": "\u0120sudd",
  "1778": "\u0120inside",
  "841": "!!!",
  "689": "\u0120fl",
  "1834": "\u0120creat",
  "244": "\u0120know",
  "430": "ue",
  "310": "\u0120will",
  "605": "ug",
  "1021": "\u0120either",
  "287": "\u0120when",
  "298": "\u0120need",
  "649": "\u0120down",
  "1440": "ures",
  "1710": "000",
  "70": "hood",
  "770": "\u0120reason",
  "172": "ee",
  "1857": "uine",
  "1950": "\u0120repl",
  "1459": "ween",
  "616": "\u0120after",
  "1487": "\u0120ign",
  "435": "\u0120mo",
  "814": "\u0120inst",
  "951": "\u0120away",
  "810": "\u0120means",
  "1288": "\u0120wasn",
  "853": "\u0120kevins",
  "1897": "thers",
  "1458": "\u0120safe",
  "592": "ird",
  "1868": "att",
  "325": "ound",
  "1742": "\u0120enjoy",
  "1973": "iced",
  "1295": "ape",
  "1844": "boom",
  "995": "\u0120dep",
  "936": "ible",
  "1637": "\u0120wouldnt",
  "1644": "mon",
  "1650": "\u0120hang",
  "223": "pp",
  "1480": "iew",
  "1368": "ave",
  "496": "\u0120off",
  "504": "\u0120back",
  "707": "ated",
  "364": "\u0120her",
  "135": "ow",
  "204": "\u0120as",
  "999": "\u0120speak",
  "1244": "\u0120moment",
  "1253": "\u0120dance",
  "404": "\u01202",
  "1577": "tho",
  "99": "an",
  "1788": "gging",
  "717": "\u0120mon",
  "937": "\u0120lunch",
  "431": "ving",
  "1205": "vel",
  "813": "\u0120last",
  "876": "less",
  "1227": "\u0120must",
  "256": "\u0120yeah",
  "1407": "\u0120games",
  "1527": "\u0120eff",
  "1093": "\u0120bel",
  "1414": "most",
  "1745": "\u0120black",
  "1377": "\u0120clean",
  "974": "\u0120hmm",
  "1109": "\u0120pain",
  "74": "\u0120t",
  "748": "\u0120playing",
  "1463": "\u0120accident",
  "569": "row",
  "1293": "\u0120ones",
  "378": "\u0120well",
  "7": ")",
  "959": "erest",
  "1493": "hd",
  "849": "\u0120most",
  "116": "\u0120u",
  "763": "\u0120food",
  "916": "ored",
  "457": "ard",
  "746": "orm",
  "1558": "to",
  "907": "\u0120idea",
  "1131": "\u0120guys",
  "546": "\u0120gonna",
  "589": "ree",
  "722": "ating",
  "1875": "\u0120process",
  "1958": "iding",
  "1486": "\u0120allowed",
  "580": "\u0120ro",
  "930": "\u0120name",
  "236": "\u0120kn",
  "1242": "\u0120dumb",
  "1465": "\u0120amazing",
  "1476": "\u0120fail",
  "1659": "\u0120entire",
  "1081": "ked",
  "1181": "ling",
  "778": "\u0120ser",
  "1211": "\u0120es",
  "1164": "wa",
  "880": "oney",
  "1243": "\u0120english",
  "932": "\u0120around",
  "641": "ol",
  "1563": "\u0120needed",
  "1408": "\u0120cheese",
  "1624": "ped",
  "352": "ain",
  "1944": "\u0120pack",
  "1966": "av",
  "1959": "\u0120slow",
  "490": "\u0120same",
  "96": "\u0120to",
  "374": "\u0120tho",
  "574": "\u0120let",
  "703": "\u0120pr",
  "1241": "\u0120seem",
  "1041": "\u0120gotta",
  "1988": "\u0120early",
  "342": "\u0120xd",
  "1115": "\u0120gay",
  "1421": "wu",
  "1567": "\u0120sexy",
  "954": "mo",
  "978": "\u01206",
  "1347": "\u0120fren",
  "1766": "com",
  "1140": "\u0120discord",
  "1072": "\u0120main",
  "840": "\u0120cr",
  "1157": "\u0120check",
  "1909": "\u0120boomboomraccoon",
  "1693": "ensive",
  "1870": "\u0120loud",
  "1507": "\u0120usually",
  "1697": "gin",
  "1775": "mpt",
  "136": "\u0120we",
  "1080": "\u0120sy",
  "1733": "ding",
  "741": "\u0120put",
  "1432": "\u0120run",
  "1574": "ition",
  "827": "\u0120watch",
  "1598": "\u0120took",
  "818": "ready",
  "1460": "\u0120gra",
  "1473": "ever",
  "891": "\u0120res",
  "295": "eel",
  "1741": "\u0120happening",
  "1069": "\u0120hell",
  "1819": "\u0120yours",
  "568": "bsite",
  "1477": "\u0120favour",
  "1135": "als",
  "864": "\u0120used",
  "1416": "\u0120mid",
  "1262": "iting",
  "1575": "\u0120depress",
  "1891": "\u0120france",
  "492": "thing",
  "36": "d",
  "1481": "\u0120morning",
  "1932": "\u0120side",
  "13": "/",
  "790": "\u0120phone",
  "2": "\"",
  "39": "g",
  "1994": "\u0120fit",
  "949": "\u0120fo",
  "1304": "\u0120poo",
  "551": "\u0120nice",
  "584": "\u0120ph",
  "1365": "oon",
  "215": "\u0120or",
  "46": "n",
  "571": "\u0120tw",
  "1602": "\u0120body",
  "811": "\u0120shop",
  "533": "\u0120right",
  "925": "\u0120gr",
  "11": "-",
  "1695": "\u0120suck",
  "1811": "\u0120coo",
  "1045": "other",
  "1354": "\u0120problem",
  "1154": "cial",
  "1984": "\u0120huge",
  "1751": "\u0120drunk",
  "679": "\u0120literally",
  "1725": "\u0120speaking",
  "543": "\u0120life",
  "1632": "cked",
  "495": "'ll",
  "1474": "\u0120funny",
  "452": "me",
  "1849": "gram",
  "1668": "\u0120pass",
  "240": "hh",
  "636": "\u0120his",
  "142": "\u0120li",
  "103": "or",
  "385": "\u0120from",
  "437": "ort",
  "669": "ace",
  "405": "\u0120wan",
  "21": "7",
  "1746": "\u0120ye",
  "1179": "\u0120chat",
  "771": "\u0120show",
  "1707": "\u0120gets",
  "311": "\u0120loo",
  "1406": "\u0120believe",
  "1572": "ial",
  "607": "\u0120where",
  "798": "\u0120done",
  "1043": "used",
  "1088": "ese",
  "382": "\u0120would",
  "844": "\u0120add",
  "1945": "ml",
  "1303": "\u0120meh",
  "1441": "ode",
  "1579": "ption",
  "1236": "ush",
  "1504": "\u0120smink",
  "189": "st",
  "304": "\u0120de",
  "977": "\u0120cra",
  "454": "ag",
  "564": "\u0120again",
  "1536": "\u0120till",
  "1711": "\u0120scre",
  "572": "\u0120af",
  "414": "\u0120make",
  "399": "\u0120listening",
  "516": "her",
  "1540": "\u0120emb",
  "1755": "\u0120gave",
  "8": "*",
  "1337": "\u0120few",
  "396": "\u0120people",
  "10": ",",
  "1360": "\u0120sake",
  "333": "ine",
  "1068": "\u0120vide",
  "1400": "ert",
  "319": "\u0120listen",
  "1786": "ket",
  "1399": "\u0120spam",
  "4": "&",
  "1971": "\u0120huh",
  "1126": "\u0120explain",
  "1595": "icul",
  "1176": "\u0120ear",
  "532": "\u0120something",
  "751": "\u0120makes",
  "346": "ers",
  "1866": "\u0120especially",
  "898": "\u0120tomor",
  "1500": "\u0120possible",
  "1924": "\u0120smo",
  "1194": "\u0120bi",
  "143": "\u0120but",
  "487": "riend",
  "81": "ou",
  "285": "very",
  "511": "\u0120come",
  "1007": "iously",
  "1471": "\u0120fore",
  "1916": "sol",
  "1446": "\u0120:'(",
  "237": "\u0120fu",
  "1812": "\u0120worth",
  "628": "\u0120year",
  "184": "ir",
  "699": "atch",
  "662": "\u0120better",
  "277": "\u0120out",
  "1057": "\u0120doctor",
  "753": "\u0120sad",
  "219": "\u0120if",
  "68": "\u0120idk",
  "655": "\u0120hour",
  "1431": "\u0120butt",
  "1758": "gan",
  "1456": "\u0120sec",
  "286": "\u0120bec",
  "663": "\u0120sounds",
  "1750": "ark",
  "1972": "\u0120psych",
  "1564": "ilar",
  "1264": "\u0120since",
  "1987": "ux",
  "1604": "esus",
  "1549": "\u0120ages",
  "1820": "\u0120scr",
  "1913": "\u0120sudden",
  "510": "igh",
  "1948": "illy",
  "1586": "\u0120favourite",
  "1029": "\u0120wish",
  "558": "\u0120friend",
  "899": "\u0120dick",
  "1307": "\u0120apparently",
  "1352": "\u0120yourself",
  "1040": "\u0120wal",
  "395": "\u0120prob",
  "1900": "\u0120boomboomra",
  "1935": "\u0120red",
  "444": "bs",
  "1455": "\u0120meow",
  "905": "\u0120diffe",
  "171": "ant",
  "357": "\u0120pe",
  "852": "ary",
  "264": "ven",
  "1124": "\u0120guy",
  "1410": "oc",
  "1343": "ugg",
  "1914": "aking",
  "120": "\u0120be",
  "737": "ason",
  "365": "if",
  "647": "\u0120always",
  "705": "\u0120wee",
  "750": "ful",
  "276": "\u0120love",
  "1660": "\u0120minutes",
  "1349": "side",
  "170": "ally",
  "1300": "istic",
  "1091": "\u0120ikr",
  "348": "\u0120omg",
  "42": "j",
  "1103": "\u0120break",
  "1246": "\u0120exper",
  "1462": "ian",
  "1591": "\u0120crying",
  "1993": "\u0120test",
  "1784": "\u0120slightly",
  "1547": "\u0120difficult",
  "205": "ate",
  "1654": "\u0120kit",
  "1571": "\u0120child",
  "274": "ur",
  "911": "\u0120less",
  "1108": "line",
  "1863": "ces",
  "500": "nder",
  "79": "in",
  "710": "ile",
  "1729": "\u0120pu",
  "785": "\u0120baby",
  "1615": "\u0120gre",
  "585": "\u0120maybe",
  "1899": "\u0120les",
  "893": "\u0120wrong",
  "392": "!!",
  "488": "ream",
  "1883": "aut",
  "1947": "\u0120program",
  "1683": "\u0120imag",
  "1402": "\u0120youre",
  "764": "\u0120guess",
  "1174": "\u0120awkward",
  "394": "ation",
  "181": "\u0120:",
  "1326": "\u0120omfg",
  "1147": "\u0120meet",
  "225": "\u0120su",
  "246": "ood",
  "1744": "\u0120kids",
  "1723": "lier",
  "1769": "\u0120mass",
  "1803": "\u0120vib",
  "332": "\u0120con",
  "526": "ought",
  "967": "\u0120worry",
  "799": "\u0120give",
  "501": "\u0120app",
  "522": "ass",
  "1682": "\u0120lie",
  "1787": "\u0120ver",
  "887": "\u0120everyone",
  "308": "\u0120fa",
  "581": "\u0120fair",
  "1100": "\u0120etc",
  "1166": "\u0120rly",
  "1960": "\u0120indeed",
  "1830": "\u0120plus",
  "975": "\u0120job",
  "1526": "\u0120pri",
  "1585": "\u0120during",
  "615": "\u0120na",
  "1670": "\u0120tot",
  "1818": "\u012015",
  "1674": "\u0120xox",
  "229": "ist",
  "1113": "\u0120together",
  "458": "\u0120el",
  "1283": "ates",
  "1084": "\u0120cur",
  "861": "ared",
  "438": "ool",
  "1911": "\u0120piss",
  "1652": "\u0120pic",
  "1285": "\u0120;)",
  "594": "\u0120elod",
  "266": "\u0120think",
  "539": "\u0120bet",
  "1898": "\u0120sexual",
  "439": "omet",
  "1356": "using",
  "910": "\u0120spe",
  "943": "ook",
  "270": "\u0120ok",
  "335": "\u0120say",
  "370": "\u0120got",
  "824": "dd",
  "1336": "\u0120art",
  "408": "ting",
  "1051": "\u0120exc",
  "1717": "\u0120wouldn",
  "228": "ore",
  "1664": "\u0120load",
  "1732": "\u0120seeing",
  "1357": "\u0120suggest",
  "1616": "\u0120effort",
  "883": "\u0120att",
  "693": "\u0120dif",
  "426": "\u0120work",
  "629": "ying",
  "527": "\u0120gon",
  "1110": "ident",
  "1569": "\u0120sing",
  "1469": "\u0120works",
  "440": "pt",
  "56": "x",
  "1411": "\u0120hurt",
  "1845": "\u0120white",
  "1450": "\u0120french",
  "575": "\u0120website",
  "1419": "ional",
  "166": "\u0120so",
  "126": "om",
  "563": "\u0120ra",
  "179": "ith",
  "1334": "\u0120>",
  "465": "\u0120cant",
  "842": "ves",
  "1058": "\u0120sk",
  "161": "\u0120k",
  "1250": "\u0120belie",
  "249": "\u0120about",
  "678": "\u0120their",
  "1957": "\u0120messages",
  "1657": "\u0120pick",
  "1969": "\u0120dream",
  "301": "ame",
  "828": "\u0120et",
  "1842": "\u0120leaving",
  "1721": "zy",
  "381": "ough",
  "856": "\u0120hon",
  "235": "ab",
  "1042": "fg",
  "1952": "\u0120boobs",
  "57": "y",
  "1141": "\u0120par",
  "307": "od",
  "369": "ong",
  "1726": "\u0120compl",
  "1829": "\u0120tea",
  "147": "gh",
  "1321": "\u0120tri",
  "724": "\u0120brb",
  "1393": "\u0120mainly",
  "1727": "\u0120cold",
  "1605": "\u0120uwu",
  "336": "ice",
  "1590": "\u0120comment",
  "1699": "\u0120seriously",
  "613": "te",
  "1392": "\u0120dog",
  "1482": "ifu",
  "415": "ous",
  "976": "\u0120room",
  "327": "ks",
  "1514": "\u0120text",
  "1917": "\u0120excited",
  "1130": "\u01208",
  "1259": "\u0120comput",
  "44": "l",
  "127": "\u0120that",
  "144": "\u0120of",
  "991": "\u0120live",
  "434": "\u0120should",
  "1685": "\u0120human",
  "403": "\u0120tal",
  "1856": "\u0120valid",
  "1908": "\u0120bar",
  "69": "\u0120pls",
  "358": "lf",
  "1011": "\u0120went",
  "1942": "\u0120become",
  "31": "^",
  "1017": "ph",
  "645": "ouse",
  "957": "\u0120umm",
  "1273": "\u0120worried",
  "1118": "\u01209",
  "1296": "ia",
  "1535": "\u0120tv",
  "989": "\u0120ind",
  "882": "\u0120little",
  "859": "bo",
  "625": "\u0120real",
  "1521": "\u0120cal",
  "67": "`",
  "1675": "\u0120water",
  "956": "\u0120exactly",
  "1398": "\u0120fam",
  "455": "\u0120day",
  "477": "wn",
  "582": "\u0120thought",
  "1528": "waifu",
  "1687": "\u0120rant",
  "1964": "\u0120cook",
  "1893": "\u0120dri",
  "1016": "\u0120gi",
  "1894": "\u0120psy",
  "1079": "ted",
  "1010": "\u0120times",
  "1024": "\u0120sometim",
  "1791": "\u0120dire",
  "1005": "rible",
  "191": "\u0120ne",
  "1384": "ren",
  "1376": "ship",
  "195": "mao",
  "1691": "\u0120moving",
  "114": "\u0120no",
  "878": "\u0120eat",
  "591": "\u0120didnt",
  "1848": "airs",
  "642": "\u0120person",
  "20": "6",
  "860": "arly",
  "37": "e",
  "134": "ly",
  "305": "\u0120even",
  "1322": "ited",
  "1847": "ertain",
  "316": "\u0120sa",
  "1162": "fu",
  "761": "\u0120la",
  "777": "\u0120enough",
  "178": "ri",
  "278": "\u0120too",
  "913": "\u0120thinking",
  "1102": "ered",
  "362": "\u0120been",
  "320": "\u0120because",
  "76": "\u0120w",
  "22": "8",
  "1034": "ical",
  "1302": "\u0120turn",
  "1145": "\u0120non",
  "875": "\u0120exact",
  "716": "\u0120frogg",
  "1953": "\u0120proud",
  "1904": "\u0120foc",
  "428": "ff",
  "72": "\u0120cos",
  "862": "\u0120thr",
  "360": "qu",
  "895": "pect",
  "1002": "\u0120left",
  "1929": "\u0120du",
  "1629": "angle",
  "603": "\u0120george",
  "1366": "vour",
  "688": "!?",
  "131": "\u0120in",
  "92": "er",
  "1823": "ices",
  "482": "'d",
  "597": "\u0120bl",
  "1235": "ggest",
  "1789": "where",
  "919": "\u0120dam",
  "1557": "\u0120birth",
  "106": "\u0120g",
  "1251": "\u0120sick",
  "517": "ment",
  "535": "int",
  "1317": "terday",
  "1905": "\u0120shout",
  "1390": "\u0120order",
  "1511": "\u0120except",
  "1836": "room",
  "1561": "\u0120pee",
  "98": "\u0120p",
  "599": "\u0120stuff",
  "865": "ib",
  "1601": "\u0120small",
  "909": "\u0120gl",
  "1111": "\u0120havent",
  "1635": "\u0120stupid",
  "791": "\u0120anyway",
  "1341": "\u0120xx",
  "765": "\u0120thank",
  "789": "\u0120conf",
  "1796": "hs",
  "1308": "\u0120appreci",
  "52": "t",
  "901": "\u0120hu",
  "1874": "own",
  "884": "\u0120making",
  "1912": "\u0120card",
  "158": "ro",
  "347": "\u0120ur",
  "507": "ther",
  "651": "\u0120dr",
  "1688": "\u0120three",
  "1850": "\u0120pizz",
  "230": "\u0120lo",
  "260": "\u0120how",
  "122": "ay",
  "1576": "\u0120smoke",
  "1821": "\u0120currently",
  "1155": "\u0120twice",
  "252": "'m",
  "1138": "\u0120past",
  "1620": "\u0120weeks",
  "290": "our",
  "1968": "ptop",
  "159": "ad",
  "1649": "\u0120intern",
  "1686": "\u0120situation",
  "243": "\u0120up",
  "448": "??",
  "839": "\u0120hes",
  "1661": "\u0120meme",
  "186": "\u0120have",
  "872": "ount",
  "272": "um",
  "1703": "\u0120suppose",
  "387": "\u0120peop",
  "950": "\u0120answ",
  "1676": "\u012011",
  "1199": "\u0120col",
  "1004": "\u0120doesn",
  "1718": "ibly",
  "1793": "nds",
  "732": "\u0120cont",
  "680": "\u0120sex",
  "1839": "\u0120phys",
  "383": "\u0120en",
  "353": "\u0120then",
  "1978": "\u012018",
  "1619": "ising",
  "823": "ix",
  "1700": "oth",
  "1946": "\u0120completely",
  "199": "\u0120lmao",
  "1876": "\u0120blue",
  "796": "ude",
  "1653": "\u0120met",
  "391": "\u0120po",
  "279": "fe",
  "561": "\u0120looking",
  "941": "urn",
  "1187": "\u0120came",
  "1739": "\u0120flo",
  "1600": "iday",
  "1497": "ility",
  "1999": "#",
  "2000": "\\",
  "2001": "{",
  "2002": "}",
  "2003": "\u00a1",
  "2004": "\u00a2",
  "2005": "\u00a4",
  "2006": "\u00a5",
  "2007": "\u00a7",
  "2008": "\u00a8",
  "2009": "\u00a9",
  "2010": "\u00aa",
  "2011": "\u00ab",
  "2012": "\u00ac",
  "2013": "\u00ae",
  "2014": "\u00af",
  "2015": "\u00b0",
  "2016": "\u00b1",
  "2017": "\u00b2",
  "2018": "\u00b3",
  "2019": "\u00b4",
  "2020": "\u00b5",
  "2021": "\u00b6",
  "2022": "\u00b7",
  "2023": "\u00b8",
  "2024": "\u00b9",
  "2025": "\u00ba",
  "2026": "\u00bb",
  "2027": "\u00bc",
  "2028": "\u00bd",
  "2029": "\u00be",
  "2030": "\u00bf",
  "2031": "\u00c2",
  "2032": "\u00c3",
  "2033": "\u00c4",
  "2034": "\u00c5",
  "2035": "\u00c6",
  "2036": "\u00c7",
  "2037": "\u00c9",
  "2038": "\u00ca",
  "2039": "\u00cb",
  "2040": "\u00cc",
  "2041": "\u00ce",
  "2042": "\u00cf",
  "2043": "\u00d0",
  "2044": "\u00d1",
  "2045": "\u00d4",
  "2046": "\u00d7",
  "2047": "\u00d8",
  "2048": "\u00d9",
  "2049": "\u00e0",
  "2050": "\u00e1",
  "2051": "\u00e2",
  "2052": "\u00e3",
  "2053": "\u00e5",
  "2054": "\u00e6",
  "2055": "\u00e8",
  "2056": "\u00e9",
  "2057": "\u00ea",
  "2058": "\u00eb",
  "2059": "\u00ec",
  "2060": "\u00ed",
  "2061": "\u00ef",
  "2062": "\u00f0",
  "2063": "\u00f3",
  "2064": "\u0122",
  "2065": "\u0123",
  "2066": "\u0124",
  "2067": "\u0125",
  "2068": "\u0126",
  "2069": "\u0127",
  "2070": "\u0128",
  "2071": "\u0129",
  "2072": "\u012a",
  "2073": "\u012b",
  "2074": "\u012c",
  "2075": "\u012d",
  "2076": "\u012e",
  "2077": "\u012f",
  "2078": "\u0130",
  "2079": "\u0131",
  "2080": "\u0132",
  "2081": "\u0133",
  "2082": "\u0134",
  "2083": "\u0135",
  "2084": "\u0136",
  "2085": "\u0137",
  "2086": "\u0138",
  "2087": "\u0139",
  "2088": "\u013a",
  "2089": "\u013b",
  "2090": "\u013c",
  "2091": "\u013d",
  "2092": "\u013e",
  "2093": "\u0140",
  "2094": "\u0141",
  "2095": "\u0142",
  "2096": "\u0143",
  "2097": "hat",
  "2098": "\u0120cha",
  "2099": "ris",
  "2100": "een",
  "2101": "\u0120eve",
  "2102": "\u0120whe",
  "2103": "\u0120lis",
  "2104": "\u0120fee",
  "2105": "ca",
  "2106": "\u0120lol",
  "2107": "\u0120oh",
  "2108": "ime",
  "2109": "\u0120q",
  "2110": "han",
  "2111": "ays",
  "2112": "\u0120vo",
  "2113": "\u0120beca",
  "2114": "rain",
  "2115": "\u0120thou",
  "2116": "\u0120voice",
  "2117": "\u0120lma",
  "2118": "ds",
  "2119": "arn",
  "2120": "oy",
  "2121": "\u0120hel",
  "2122": "ww",
  "2123": "\u0120learn",
  "2124": "orge",
  "2125": "iend",
  "2126": "\u00e2\u0122",
  "2127": "mb",
  "2128": "tt",
  "2129": "\u0120wanting",
  "2130": "\u0120draw",
  "2131": "cking",
  "2132": "gle",
  "2133": "\u0120sca",
  "2134": "\u0120smoking",
  "2135": "tera",
  "2136": ":/",
  "2137": "che",
  "2138": "imes",
  "2139": "ady",
  "2140": "\u0120htt",
  "2141": "\u0120litera",
  "2142": "\u0120needing",
  "2143": "ffe",
  "2144": "og",
  "2145": "\u0120tur",
  "2146": "tf",
  "2147": "\u0120underst",
  "2148": "\u0120hearing",
  "2149": "\u00e2\u0122\u013b",
  "2150": "\u0120sha",
  "2151": "\u0120learning",
  "2152": "fa",
  "2153": "\u0120https",
  "2154": "\u0120soon",
  "2155": "tty",
  "2156": "\u00c2\u00a3",
  "2157": "nce",
  "2158": "\u0120hahaha",
  "2159": "\u0120wtf",
  "2160": "\u0120ann",
  "2161": "\u0120touching",
  "2162": "\u0120someone",
  "2163": "\u0120=",
  "2164": "\u0120cats",
  "2165": "\u0120\u00c2\u00a3",
  "2166": "uter",
  "2167": "\u0120ga",
  "2168": "\u0120annoy",
  "2169": "\u0120picking",
  "2170": "\u0120inte",
  "2171": "tes",
  "2172": "www",
  "2173": "\u0120sen",
  "2174": "\u0120drawing",
  "2175": "eet",
  "2176": "de",
  "2177": "\":",
  "2178": "\u0120thoughts",
  "2179": "rently",
  "2180": "\u0120cuz",
  "2181": "\u0120ugh",
  "2182": "whe",
  "2183": "\u0120intere",
  "2184": "esome",
  "2185": "\u0120[",
  "2186": "\u0120lm",
  "2187": "\u00f0\u0141",
  "2188": "az",
  "2189": "nth",
  "2190": "\u0120lmfa",
  "2191": "\u0120chan",
  "2192": "\u0120joke",
  "2193": "cent",
  "2194": "ards",
  "2195": "\u0120ideas",
  "2196": "hed",
  "2197": "\u0120fan",
  "2198": "ker",
  "2199": "tra",
  "2200": "\u0120sna",
  "2201": "itar",
  "2202": "press",
  "2203": "\u0120synth",
  "2204": "\u0120guitar",
  "2205": "\u00f3\u00be",
  "2206": "\u0120ring",
  "2207": "cted",
  "2208": "\u0120lmfao",
  "2209": "\u00c4\u00a1",
  "2210": "\u0120worr",
  "2211": "tent",
  "2212": "tead",
  "2213": "olog",
  "2214": "\u0120rain",
  "2215": "\u0120chair",
  "2216": "\u0120resp",
  "2217": "\u0120blan",
  "2218": "sting",
  "2219": "\u0120sun",
  "2220": "\u0120drinking",
  "2221": "\u0120decks",
  "2222": "eepy",
  "2223": "\u0120sminking",
  "2224": "je",
  "2225": "\u0120lmaooo",
  "2226": "more",
  "2227": "ube",
  "2228": "lle",
  "2229": "nc",
  "2230": "nts",
  "2231": "hhh",
  "2232": "\u0120dark",
  "2233": "by",
  "2234": "py",
  "2235": "30",
  "2236": "\u0120oven",
  "2237": "\u0120seco",
  "2238": "\u0120nooo",
  "2239": "\u0120anymore",
  "2240": "ider",
  "2241": "ments",
  "2242": "joy",
  "2243": "gry",
  "2244": "\u0120da",
  "2245": "\u0120\u00e2\u0122",
  "2246": "\u0120turnt",
  "2247": "indow",
  "2248": "reen",
  "2249": "\u0120turntable",
  "2250": "come",
  "2251": "\u01200",
  "2252": "\u0120mark",
  "2253": "wards",
  "2254": "\u0120known",
  "2255": "sc",
  "2256": "\u00c3\u00a9",
  "2257": "\u0120ele",
  "2258": "\u0120awww",
  "2259": "ched",
  "2260": "\u0120mixer",
  "2261": "\u0120snacks",
  "2262": "fs",
  "2263": "ffic",
  "2264": "light",
  "2265": "\u0120appa",
  "2266": "'.",
  "2267": "\u0120amaz",
  "2268": "ancing",
  "2269": "ages",
  "2270": "\u0120jon",
  "2271": "\u0120#",
  "2272": "\",",
  "2273": "\u0120horr",
  "2274": "nch",
  "2275": "\u0120ooo",
  "2276": "ors",
  "2277": "\u0120pi",
  "2278": "\u0120ey",
  "2279": "ba",
  "2280": "fr",
  "2281": "\u00e3\u0123",
  "2282": "view",
  "2283": "\u00e3\u0123\u00a3",
  "2284": "igg",
  "2285": "how",
  "2286": "\u0120ap",
  "2287": "\u0120ah",
  "2288": "the",
  "2289": "\u0120dw",
  "2290": "\u0120blanket",
  "2291": "\u0120chris",
  "2292": "ches",
  "2293": "vice",
  "2294": "\u0120phot",
  "2295": "tem",
  "2296": "\u0120songs",
  "2297": "hes",
  "2298": "\u0120loving",
  "2299": "\u0120atta",
  "2300": "\u0120sugg",
  "2301": "\u0120create",
  "2302": "\u0120sksks",
  "2303": "\u0120proc",
  "2304": "\u0120opin",
  "2305": "\u0120bur",
  "2306": "'(",
  "2307": "\u0120wha",
  "2308": "\u0120\u00e2\u0122\u013a",
  "2309": "\u0120toy",
  "2310": "\u0120\u00f0\u0141",
  "2311": "\u0120va",
  "2312": "\u0120tas",
  "2313": "ips",
  "2314": "net",
  "2315": "),",
  "2316": "\u0120hun",
  "2317": "odu",
  "2318": "\u0120yep",
  "2319": "\u0120darkness",
  "2320": "iving",
  "2321": "\u0120voices",
  "2322": "\u0120gun",
  "2323": "12",
  "2324": "ture",
  "2325": "\u0120likes",
  "2326": "\u0120mat",
  "2327": "\u0120somehow",
  "2328": "\u0120idek",
  "2329": "ters",
  "2330": "ipp",
  "2331": "\u0120takes",
  "2332": "\u0120daylight",
  "2333": "ads",
  "2334": "sent",
  "2335": "ob",
  "2336": "\u0120towards",
  "2337": "tm",
  "2338": "uk",
  "2339": "yout",
  "2340": "\u0120lost",
  "2341": "\u0120loves",
  "2342": "\u0120cree",
  "2343": "put",
  "2344": "\u0120numb",
  "2345": "\u0120wood",
  "2346": "wor",
  "2347": "nded",
  "2348": "gy",
  "2349": "\u0120hating",
  "2350": "\u0120opinion",
  "2351": "cited",
  "2352": "\u0120dinner",
  "2353": "oman",
  "2354": "mp",
  "2355": "\u0120fav",
  "2356": "watch",
  "2357": "33",
  "2358": "\u0120wear",
  "2359": "\u0120hid",
  "2360": "\u0120droid",
  "2361": "\u0120bou",
  "2362": "aged",
  "2363": "\u0120hehe",
  "2364": "\u0120fuckin",
  "2365": "\u0120heating",
  "2366": "\u0120oooh",
  "2367": "\u0120looked",
  "2368": "dy",
  "2369": "\u0120convers",
  "2370": "\u0120comes",
  "2371": "\u0120pos",
  "2372": "\u0120age",
  "2373": "\u00e2\u0122\u00a2",
  "2374": "\u0120evening",
  "2375": "\u0120consider",
  "2376": "!'",
  "2377": "ring",
  "2378": "\u0120book",
  "2379": "\u0120mome",
  "2380": "\u0120wat",
  "2381": "15",
  "2382": "\u0120passage",
  "2383": "\u0120gunna",
  "2384": "kk",
  "2385": "\u0120dat",
  "2386": "mer",
  "2387": "\u0120doct",
  "2388": "\u0120pen",
  "2389": "gra",
  "2390": "\u00ca\u0137",
  "2391": "\u0120loool",
  "2392": "\u0120del",
  "2393": "\u0120creating",
  "2394": "cl",
  "2395": "man",
  "2396": "\u012014",
  "2397": "cu",
  "2398": "ga",
  "2399": "\u00ca\u0136",
  "2400": "tever",
  "2401": "hy",
  "2402": "\u0120twitch",
  "2403": "\u0120cho",
  "2404": "\u0120pasta",
  "2405": "\u0120pc",
  "2406": "\u0120http",
  "2407": "ex",
  "2408": "\u0120google",
  "2409": "irt",
  "2410": "nn",
  "2411": "\u0120mil",
  "2412": "youtube",
  "2413": "\u0120sooo",
  "2414": "ock",
  "2415": "dden",
  "2416": "\u0120birthday",
  "2417": "\u0120cba",
  "2418": "\u0120mouse",
  "2419": "nding",
  "2420": "\u0120pat",
  "2421": "\u0120four",
  "2422": "\u0120tiny",
  "2423": "\u0120broke",
  "2424": "\u0120loved",
  "2425": "\u0120webs",
  "2426": "ls",
  "2427": "\u0120cock",
  "2428": "\u0120pas",
  "2429": "rac",
  "2430": "con",
  "2431": "\u0120ess",
  "2432": "\u0120ffs",
  "2433": "ology",
  "2434": "\u0120bath",
  "2435": "17",
  "2436": "\u0120whatever",
  "2437": "\u0120hmmm",
  "2438": "ule",
  "2439": "\u0120angry",
  "2440": "\u0120perf",
  "2441": "\u0120fell",
  "2442": "ision",
  "2443": "\u0120calm",
  "2444": "lu",
  "2445": "key",
  "2446": "\u0120android",
  "2447": "cer",
  "2448": "\u0120mee",
  "2449": "cha",
  "2450": "fk",
  "2451": "sel",
  "2452": "24",
  "2453": "ured",
  "2454": "onse",
  "2455": "\u0120recent",
  "2456": "scri",
  "2457": "\u0120fil",
  "2458": "16",
  "2459": "\u0120woo",
  "2460": "\u0120eyes",
  "2461": "25",
  "2462": "ient",
  "2463": "\u0120loveangel",
  "2464": "\u0120/",
  "2465": "board",
  "2466": "\u0120ya",
  "2467": "tr",
  "2468": "\u0120finis",
  "2469": "\u0120easy",
  "2470": "\u0120mis",
  "2471": "\u0120knows",
  "2472": "ife",
  "2473": "\u0120conversation",
  "2474": "\u0120brains",
  "2475": "\u0120screen",
  "2476": "ines",
  "2477": "\u0120eh",
  "2478": "\u0120response",
  "2479": "\u012019",
  "2480": "gif",
  "2481": "\u0120+",
  "2482": "selves",
  "2483": "\u0120cares",
  "2484": "\u0120problems",
  "2485": "\u0120level",
  "2486": "ral",
  "2487": "iness",
  "2488": "\u0120short",
  "2489": "\u0120atm",
  "2490": "\u0120hates",
  "2491": "\u0120five",
  "2492": "\u0120lemme",
  "2493": "cy",
  "2494": "\u0120beaut",
  "2495": "\u0120noticed",
  "2496": "iple",
  "2497": "\u0120cust",
  "2498": "\u0120missed",
  "2499": "\u0120number",
  "2500": "\u00ca\u0136\u00e3\u0123\u00a3",
  "2501": "\u0120log",
  "2502": "uin",
  "2503": "\u0120produ",
  "2504": "\u0120bru",
  "2505": "\u0120essay",
  "2506": "\u0120sys",
  "2507": "rew",
  "2508": "rence",
  "2509": "\u0120gives",
  "2510": "\u0120based",
  "2511": "ify",
  "2512": "ize",
  "2513": "\u0120conta",
  "2514": "\u0120walked",
  "2515": "\u0120somewhere",
  "2516": "\u0120near",
  "2517": "\u012013",
  "2518": "\u0120ohhh",
  "2519": "\u0120deep",
  "2520": "\u0120const",
  "2521": "load",
  "2522": "eer",
  "2523": "orn",
  "2524": "tmas",
  "2525": "\u0120suddenly",
  "2526": "une",
  "2527": "\u0120family",
  "2528": "\u0120starting",
  "2529": "\u0120incred",
  "2530": "\u0120front",
  "2531": "ively",
  "2532": "\u00e2\u0122\u00a2\u00cc",
  "2533": "\u0120clos",
  "2534": "\u0120party",
  "2535": "ital",
  "2536": "\u0120goes",
  "2537": "pa",
  "2538": "esss",
  "2539": "\u0120christmas",
  "2540": "\u0120story",
  "2541": "\u0120girls",
  "2542": "\u0120hungry",
  "2543": "\u0120creepy",
  "2544": "\u0120round",
  "2545": "14",
  "2546": "\u0120pol",
  "2547": "\u0120hugs",
  "2548": "aked",
  "2549": "urs",
  "2550": "\u0120floor",
  "2551": "\u0120squ",
  "2552": "\u0120ran",
  "2553": "\u0120heart",
  "2554": "\u0120join",
  "2555": "\u0120>.",
  "2556": "\u0120busy",
  "2557": "\u012016",
  "2558": "\u0120england",
  "2559": "fast",
  "2560": "\u0120silly",
  "2561": "iful",
  "2562": "ancy",
  "2563": "\u0120technically",
  "2564": "\u0120partner",
  "2565": "\u0120general",
  "2566": "oot",
  "2567": "fortable",
  "2568": "\u0120inform",
  "2569": "\u0120air",
  "2570": "\u0120happens",
  "2571": "iot",
  "2572": "\u0120experience",
  "2573": "\u0120questions",
  "2574": "\u0120xoxo",
  "2575": "19",
  "2576": "\u0120decide",
  "2577": "13",
  "2578": "lex",
  "2579": "\u0120longer",
  "2580": "\u0120brother",
  "2581": "ronic",
  "2582": "\u0120style",
  "2583": "\u0120woke",
  "2584": "\u0120includ",
  "2585": "head",
  "2586": "kets",
  "2587": "ik",
  "2588": "\u0120wel",
  "2589": "\u0120imagine",
  "2590": "\u0120build",
  "2591": "tention",
  "2592": "\u0120sme",
  "2593": "\u0120bass",
  "2594": "\u0120singing",
  "2595": "\u0120issue",
  "2596": "dle",
  "2597": "min",
  "2598": "\u0120nic",
  "2599": "\u0120neither",
  "2600": "chen",
  "2601": "ax",
  "2602": "\u0120lar",
  "2603": "\u0120yh",
  "2604": "ndon",
  "2605": "ists",
  "2606": "fl",
  "2607": "\u0120likely",
  "2608": "\u0120facebook",
  "2609": "\u0120specific",
  "2610": "\u0120yout",
  "2611": "\u0120spo",
  "2612": "\u0120mums",
  "2613": "\u0120particul",
  "2614": "\u0120prov",
  "2615": "\u0120sleeping",
  "2616": "\u0120warm",
  "2617": "\u0120genuinely",
  "2618": "\u0120nearly",
  "2619": "\u0120calling",
  "2620": "50",
  "2621": "tern",
  "2622": "\u0120fucked",
  "2623": "\u0120sens",
  "2624": "18",
  "2625": "\u0120soup",
  "2626": "\u0120ju",
  "2627": "\u0120meeting",
  "2628": "you",
  "2629": "\u0120ily",
  "2630": "iled",
  "2631": "\u0120milk",
  "2632": "\u0120line",
  "2633": "\u0120annoyed",
  "2634": "\u0120odd",
  "2635": "\u0120couldn",
  "2636": "\u0120kitchen",
  "2637": "\u0120argo",
  "2638": "\u0120multiple",
  "2639": "\u0120screaming",
  "2640": "pris",
  "2641": "\u0120clot",
  "2642": "\u0120turned",
  "2643": "\u0120bright",
  "2644": "\u0120spent",
  "2645": "\u0120dammit",
  "2646": "\u00ca\u013a",
  "2647": "\u0120sile",
  "2648": "\u0120disapp",
  "2649": "\u0120massive",
  "2650": "ills",
  "2651": "\u0120strong",
  "2652": "\u0120wake",
  "2653": "\u0120whether",
  "2654": "\u0120group",
  "2655": "que",
  "2656": "urate",
  "2657": "\u0120stude",
  "2658": "\u0120shower",
  "2659": "\u0120opp",
  "2660": "\u0120breakfast",
  "2661": "\u0120sksksk",
  "2662": "\")",
  "2663": "\u0120otherwise",
  "2664": "\u0120traum",
  "2665": "\u0120plymouth",
  "2666": "\u0120pissed",
  "2667": "aw",
  "2668": "do",
  "2669": "tend",
  "2670": "\u0120vers",
  "2671": "\u0120chaos",
  "2672": "\u0120others",
  "2673": "\u0120easier",
  "2674": "\u0120london",
  "2675": "eng",
  "2676": "\u0120green",
  "2677": "\u0120100",
  "2678": "\u0120paid",
  "2679": "\u0120apolog",
  "2680": "\u0120fire",
  "2681": "\u0120hm",
  "2682": "kers",
  "2683": "down",
  "2684": "\u0120remo",
  "2685": "\u0120ant",
  "2686": "\u0120six",
  "2687": "\u0120ended",
  "2688": "\u0120due",
  "2689": "\u0120dans",
  "2690": "\u0120share",
  "2691": "\u0120young",
  "2692": "\u0120>:",
  "2693": "\u0120direct",
  "2694": "medi",
  "2695": "\u0120purple",
  "2696": "23",
  "2697": "het",
  "2698": "\u0120camer",
  "2699": "\u0120deser",
  "2700": "\u0120control",
  "2701": "\u0120recently",
  "2702": "\u0120kissing",
  "2703": "sted",
  "2704": "\u0120beautiful",
  "2705": "zz",
  "2706": "\u0120leaves",
  "2707": "\u0120uh",
  "2708": "\u0120pour",
  "2709": "\u0120loveangle",
  "2710": "eg",
  "2711": "\u0120ig",
  "2712": "\u0120liked",
  "2713": "\u0120surpris",
  "2714": "what",
  "2715": "\u0120los",
  "2716": "\u0120personal",
  "2717": "',",
  "2718": "hugs",
  "2719": "\u0120however",
  "2720": "\u0120moves",
  "2721": "\u0120clearly",
  "2722": "\u0120stressed",
  "2723": "\u0120emotional",
  "2724": "\u0120helping",
  "2725": "\u0120accurate",
  "2726": "br",
  "2727": "mat",
  "2728": "ets",
  "2729": "\u0120against",
  "2730": "omen",
  "2731": "ump",
  "2732": "pected",
  "2733": "\u0120fight",
  "2734": "\u0120wife",
  "2735": "\u0120death",
  "2736": "\u0120crap",
  "2737": "\u0120ce",
  "2738": "\u0120argu",
  "2739": "\u0120taken",
  "2740": "any",
  "2741": "\u0120sofa",
  "2742": "\u0120interested",
  "2743": "\u0120project",
  "2744": "nse",
  "2745": "\u0120sitting",
  "2746": "()",
  "2747": "40",
  "2748": "pop",
  "2749": "\u0120dou",
  "2750": "\u0120ben",
  "2751": "\u0120hugging",
  "2752": "par",
  "2753": "\u0120certain",
  "2754": "\u0120sending",
  "2755": "\u0120cooking",
  "2756": "\u0120obs",
  "2757": "\u0120middle",
  "2758": "\u0120youtube",
  "2759": "go",
  "2760": "\u0120fake",
  "2761": "\u0120friday",
  "2762": "\u0120single",
  "2763": "\u0120yesss",
  "2764": "vi",
  "2765": "tenor",
  "2766": "\u0120prefer",
  "2767": "ka",
  "2768": "ants",
  "2769": "\u0120organ",
  "2770": "dn",
  "2771": "\u0120dude",
  "2772": "\u0120ow",
  "2773": "lls",
  "2774": "ilt",
  "2775": "\u0120themselves",
  "2776": "\u0120choice",
  "2777": "ond",
  "2778": "\u0120attention",
  "2779": "\u0120smoked",
  "2780": "\u0120idiot",
  "2781": "gu",
  "2782": "\u0120state",
  "2783": "\u0120bare",
  "2784": "\u0120considering",
  "2785": "\u0120ai",
  "2786": "\u0120lil",
  "2787": "\u0120que",
  "2788": "gs",
  "2789": "\u0120aa",
  "2790": "\u0120loads",
  "2791": "\u0120date",
  "2792": "\u0120expensive",
  "2793": "\u0120broken",
  "2794": "\u0120asher",
  "2795": "bot",
  "2796": "ular",
  "2797": "\u0120meaning",
  "2798": "\u0120mag",
  "2799": "\u0120conne",
  "2800": "hol",
  "2801": "\u0120ont",
  "2802": "\u0120appro",
  "2803": "\u0120crazy",
  "2804": "sor",
  "2805": "\u0120rent",
  "2806": "\u0120grow",
  "2807": "1000",
  "2808": "ai",
  "2809": "ric",
  "2810": "\u0120focus",
  "2811": "\u0120finished",
  "2812": "text",
  "2813": "\u0120amb",
  "2814": "fy",
  "2815": "\u0120avo",
  "2816": "\u0120depe",
  "2817": "ove",
  "2818": "\u0120mas",
  "2819": "norm",
  "2820": "ises",
  "2821": "\u0120advice",
  "2822": "\u0120>:(",
  "2823": "itive",
  "2824": "ergy",
  "2825": "hahaha",
  "2826": "like",
  "2827": "igger",
  "2828": "\u00ca\u0137\u00e3\u0123\u00a3",
  "2829": "\u0120tic",
  "2830": "\u0120wall",
  "2831": "\u0120uns",
  "2832": "cle",
  "2833": "\u0120dress",
  "2834": "\u012017",
  "2835": "\u0120typing",
  "2836": "21",
  "2837": "\u0120react",
  "2838": "45",
  "2839": "\u0120drugs",
  "2840": "\u0120:((",
  "2841": "tel",
  "2842": "26",
  "2843": "port",
  "2844": "ina",
  "2845": "\u0120access",
  "2846": "\u0120emo",
  "2847": "\u0120system",
  "2848": "\u0120repe",
  "2849": "\u0120express",
  "2850": "\u0120emp",
  "2851": "\u0120camera",
  "2852": "\u0120satur",
  "2853": "ager",
  "2854": "mi",
  "2855": "\u0120women",
  "2856": "\u0120realise",
  "2857": "\u0120manage",
  "2858": "\u0120sees",
  "2859": "ules",
  "2860": "iment",
  "2861": "ropri",
  "2862": "\u0120soft",
  "2863": "\u0120blood",
  "2864": "\u0120onto",
  "2865": "\u0120dest",
  "2866": "search",
  "2867": "\u0120smile",
  "2868": "\u0120secret",
  "2869": "\u0120offe",
  "2870": "\u0120kitty",
  "2871": "]:",
  "2872": "\u0120code",
  "2873": "\u0120view",
  "2874": "\u0120prote",
  "2875": "ially",
  "2876": "cel",
  "2877": "\u0120teen",
  "2878": "\u0120charac",
  "2879": "stairs",
  "2880": "uth",
  "2881": "\u0120rid",
  "2882": "\u0120walking",
  "2883": "\u0120memor",
  "2884": "oof",
  "2885": "\u0120offer",
  "2886": "\u0120quiet",
  "2887": "\u0120letter",
  "2888": "\u0120himself",
  "2889": "work",
  "2890": "\u0120beg",
  "2891": "imin",
  "2892": "\u0120vibes",
  "2893": "\u0120custom",
  "2894": "for",
  "2895": "\u0120hol",
  "2896": "\u0120absol",
  "2897": "whel",
  "2898": "\u0120opt",
  "2899": "ature",
  "2900": "\u0120respons",
  "2901": "\u0120communication",
  "2902": "bu",
  "2903": "\u0120oop",
  "2904": "\u0120pub",
  "2905": "ane",
  "2906": "aten",
  "2907": "iod",
  "2908": "rib",
  "2909": "\u0120box",
  "2910": "\u0120clear",
  "2911": "\u0120clothes",
  "2912": "\u0120energy",
  "2913": "\u0120given",
  "2914": "\u0120rip",
  "2915": "ift",
  "2916": "\u0120mot",
  "2917": "\u0120overwhel",
  "2918": "\u0120brit",
  "2919": "\u0120yeahhh",
  "2920": "\u0120fairly",
  "2921": "\u0120remind",
  "2922": "\u0120absolute",
  "2923": "\u0120respect",
  "2924": "rs",
  "2925": "\u0120bin",
  "2926": "\u0120pie",
  "2927": "\u0120feelings",
  "2928": "ocked",
  "2929": "ability",
  "2930": "\u0120hands",
  "2931": "\u0120awh",
  "2932": "\u0120whos",
  "2933": "\u0120reco",
  "2934": "\u0120welcome",
  "2935": "cal",
  "2936": "\u0120worked",
  "2937": "ours",
  "2938": "pro",
  "2939": "\u0120putting",
  "2940": "\u0120est",
  "2941": "irty",
  "2942": "\u0120retur",
  "2943": "\u0120av",
  "2944": "\u0120bts",
  "2945": "\u0120rele",
  "2946": "\u0120shouldnt",
  "2947": "\u0120poke",
  "2948": "\u0120admit",
  "2949": "\u0120medic",
  "2950": "\u0120truly",
  "2951": "\u0120beh",
  "2952": "\u0120fully",
  "2953": "\u0120changed",
  "2954": "but",
  "2955": "yyy",
  "2956": "\u0120sam",
  "2957": "astic",
  "2958": "\u012024",
  "2959": "\u0120photo",
  "2960": "\u0120\u00e2",
  "2961": "\u0120planning",
  "2962": "\u0120vibe",
  "2963": "ok",
  "2964": "\u0120elodies",
  "2965": "\u0120rock",
  "2966": "\u0120large",
  "2967": "\u0120complain",
  "2968": "miss",
  "2969": "igin",
  "2970": "\u0120period",
  "2971": "\u0120forgetting",
  "2972": "\u0120tre",
  "2973": "\u0120terr",
  "2974": "\u0120information",
  "2975": "\u0120cover",
  "2976": "22",
  "2977": "\u0120priv",
  "2978": "\u0120saturday",
  "2979": "uc",
  "2980": "icken",
  "2981": "ctive",
  "2982": "\u0120ignore",
  "2983": "\u0120particularly",
  "2984": "ropriate",
  "2985": "ws",
  "2986": "url",
  "2987": "\u0120petes",
  "2988": "aces",
  "2989": "\u0120pipe",
  "2990": "\u0120aud",
  "2991": "\u0120monday",
  "2992": "\u012050",
  "2993": "inger",
  "2994": "\u0120beha",
  "2995": "ole",
  "2996": "\u0120drop",
  "2997": "\u0120port",
  "2998": "\u0120thinks",
  "2999": "\u0120arr",
  "3000": "anger",
  "3001": "\u0120doctors",
  "3002": "\u0120continue",
  "3003": "ze",
  "3004": "\u0120bat",
  "3005": "\u0120awful",
  "3006": "\u0120helps",
  "3007": "dam",
  "3008": "\u0120detail",
  "3009": "\u0120treat",
  "3010": "raph",
  "3011": "\u0120immedi",
  "3012": "\u0120finding",
  "3013": "\u0120option",
  "3014": "?'",
  "3015": "ky",
  "3016": "\u0120ir",
  "3017": "ator",
  "3018": "\u0120remembering",
  "3019": "\u0120confir",
  "3020": "(\"",
  "3021": "\u0120lady",
  "3022": "\u0120power",
  "3023": "\u0120uncom",
  "3024": "\u0120pract",
  "3025": "\u0120temp",
  "3026": "\u0120kidding",
  "3027": "nel",
  "3028": "\u0120moved",
  "3029": "\u0120bby",
  "3030": "\u0120strange",
  "3031": "ground",
  "3032": "\u0120noise",
  "3033": "\u0120invol",
  "3034": "lr",
  "3035": "mg",
  "3036": "\u0120sal",
  "3037": "\u0120ly",
  "3038": "\u0120vag",
  "3039": "\u0120orange",
  "3040": "\u0120somebody",
  "3041": "\u0120_",
  "3042": "\u0120understanding",
  "3043": "\u0120closer",
  "3044": "\u0120avoid",
  "3045": "\u0120kpop",
  "3046": "\u0120aint",
  "3047": "\u0120warn",
  "3048": "oring",
  "3049": "cou",
  "3050": "\u0120unf",
  "3051": "\u0120assa",
  "3052": "\u0120juice",
  "3053": "cture",
  "3054": "\u0120truth",
  "3055": "\u0120property",
  "3056": "scribe",
  "3057": "\u0120sle",
  "3058": "\u0120mice",
  "3059": "\u0120um",
  "3060": "\u0120stre",
  "3061": "\u0120communicate",
  "3062": "\u0120behind",
  "3063": "bal",
  "3064": "\u0120tit",
  "3065": "\u0120wooo",
  "3066": "\u0120feed",
  "3067": "\u0120alive",
  "3068": "\u0120drug",
  "3069": "fd",
  "3070": "land",
  "3071": "amp",
  "3072": "\u0120waking",
  "3073": "\u0120keeps",
  "3074": "\u0120sky",
  "3075": "28",
  "3076": "\u0120link",
  "3077": "arc",
  "3078": "\u0120incredibly",
  "3079": "\u012023",
  "3080": "\u0120normally",
  "3081": "oh",
  "3082": "\u0120megan",
  "3083": "\u0120fast",
  "3084": "\u0120eventually",
  "3085": "rd",
  "3086": "\u0120stopped",
  "3087": "\u0120america",
  "3088": "ienc",
  "3089": "sex",
  "3090": "\u0120fear",
  "3091": "pose",
  "3092": "\u0120occ",
  "3093": "lfr",
  "3094": "\u0120band",
  "3095": "\u0120bott",
  "3096": "\u0120cringe",
  "3097": "11",
  "3098": "itter",
  "3099": "\u0120herself",
  "3100": "\u0120pressure",
  "3101": "cing",
  "3102": "\u0120origin",
  "3103": "\u0120electronic",
  "3104": "\u0120fat",
  "3105": "\u0120thurs",
  "3106": "ggg",
  "3107": "aging",
  "3108": "\u0120confusing",
  "3109": "\u0120specif",
  "3110": "oss",
  "3111": "\u0120ball",
  "3112": "\u0120force",
  "3113": "verse",
  "3114": "cra",
  "3115": "igned",
  "3116": "\u0120computers",
  "3117": "\u0120hotel",
  "3118": "\u0120version",
  "3119": "dio",
  "3120": "\u0120lang",
  "3121": "\u0120beds",
  "3122": "\u0120alco",
  "3123": "\u0120mach",
  "3124": "face",
  "3125": "\u0120&",
  "3126": "ney",
  "3127": "lfriend",
  "3128": "\u0120wot",
  "3129": "vera",
  "3130": "\u0120kore",
  "3131": "aaay",
  "3132": "\u0120relax",
  "3133": "usive",
  "3134": "\u0120cost",
  "3135": "\u0120mac",
  "3136": "ipped",
  "3137": "\u0120forward",
  "3138": "\u0120distra",
  "3139": "\u00e2\u0122\u00bf",
  "3140": "\u0120stars",
  "3141": "\u0120term",
  "3142": "mes",
  "3143": "\u0120cir",
  "3144": "\u0120progra",
  "3145": "\u0120weeke",
  "3146": "\u0120nor",
  "3147": "leted",
  "3148": "\u0120ador",
  "3149": "\u0120missing",
  "3150": "\u0120rev",
  "3151": "\u0120matter",
  "3152": "\u0120seemed",
  "3153": "\u0120request",
  "3154": "\u0120fut",
  "3155": "\u0120bene",
  "3156": "ows",
  "3157": "\u0120decent",
  "3158": "\u0120desk",
  "3159": "\u0120piper",
  "3160": "\u0120eye",
  "3161": "\u0120cy",
  "3162": "\u0120frust",
  "3163": "\u0120raccoon",
  "3164": "\u0120price",
  "3165": "\u0120male",
  "3166": "\u0120deserve",
  "3167": "99",
  "3168": "\u0120porn",
  "3169": "\u0120hide",
  "3170": "icked",
  "3171": "ior",
  "3172": "\u0120urself",
  "3173": "\u0120ident",
  "3174": "cat",
  "3175": "\u0120listens",
  "3176": "\u0120special",
  "3177": "\u0120student",
  "3178": "\u0120fill",
  "3179": "\u0120touches",
  "3180": "\u0120sleepy",
  "3181": "usted",
  "3182": "\u0120harsh",
  "3183": "\u0120boys",
  "3184": "rap",
  "3185": "ived",
  "3186": "\u0120langu",
  "3187": "\u0120alcohol",
  "3188": "sp",
  "3189": "\u0120mate",
  "3190": "\u0120stan",
  "3191": "\u0120expected",
  "3192": "\u0120werent",
  "3193": "\u0120across",
  "3194": "aling",
  "3195": "\u0120cup",
  "3196": "\u0120badly",
  "3197": "\u0120decision",
  "3198": "\u0120including",
  "3199": "ler",
  "3200": "vous",
  "3201": "\u0120ou",
  "3202": "\u0120depressed",
  "3203": "27",
  "3204": "la",
  "3205": "token",
  "3206": "aths",
  "3207": "ses",
  "3208": "\u0120ris",
  "3209": "\u0120town",
  "3210": "\u0120whenever",
  "3211": "\u0120streaming",
  "3212": "ars",
  "3213": "nted",
  "3214": "\u0120burn",
  "3215": "dj",
  "3216": "\u0120ep",
  "3217": "\u0120roll",
  "3218": "iant",
  "3219": "\u0120company",
  "3220": "\u0120shitty",
  "3221": "\u0120appoint",
  "3222": "\u0120girlfriend",
  "3223": "\u0120taste",
  "3224": "sha",
  "3225": "ume",
  "3226": "\u0120eight",
  "3227": "\u0120cuddle",
  "3228": "\u0120within",
  "3229": "\u0120managed",
  "3230": "\u0120note",
  "3231": "\u0120analy",
  "3232": "\u0120lay",
  "3233": "\u0120reasons",
  "3234": "\u0120brighton",
  "3235": "bl",
  "3236": "tence",
  "3237": "\u0120drum",
  "3238": "\u0120jud",
  "3239": "\u0120save",
  "3240": "\u0120ways",
  "3241": "\u0120redd",
  "3242": "\u0120skills",
  "3243": "\u0120further",
  "3244": "\u0120ahhh",
  "3245": "\u0120rules",
  "3246": "pital",
  "3247": "hael",
  "3248": "\u0120bill",
  "3249": "\u0120none",
  "3250": "\u0120diag",
  "3251": "\u0120watched",
  "3252": "\u0120repeat",
  "3253": "\u0120{",
  "3254": "\u0120tor",
  "3255": "\u0120stat",
  "3256": "\u0120along",
  "3257": "\u0120bull",
  "3258": "\u0120grind",
  "3259": "\u0120photos",
  "3260": "\u0120oops",
  "3261": "\u0120behavi",
  "3262": "\u0120cris",
  "3263": "\u0120den",
  "3264": "\u0120therefore",
  "3265": "fc",
  "3266": "list",
  "3267": "\u0120lolol",
  "3268": "\u0120helpful",
  "3269": "\u0120dro",
  "3270": "\u0120park",
  "3271": "))",
  "3272": "itten",
  "3273": "\u0120british",
  "3274": "bin",
  "3275": "\u0120chicken",
  "3276": "\u0120tty",
  "3277": "\u0120drag",
  "3278": "\u0120genre",
  "3279": "\u0120jk",
  "3280": "\u0120ofc",
  "3281": "\u0120plans",
  "3282": "\u0120froggys",
  "3283": "\u0120difference",
  "3284": "ality",
  "3285": "\u0120exis",
  "3286": "\u0120urs",
  "3287": "\u0120experienc",
  "3288": "\u0120exciting",
  "3289": "\u0120illeg",
  "3290": "\u0120metal",
  "3291": "\u0120embarr",
  "3292": "\u0120absolutely",
  "3293": "\u0120future",
  "3294": "bab",
  "3295": "\u0120youuu",
  "3296": "\u0120poor",
  "3297": "\u0120michael",
  "3298": "\u0120specifically",
  "3299": "ster",
  "3300": "uce",
  "3301": "\u0120mild",
  "3302": "ref",
  "3303": "\u0120nood",
  "3304": "\u0120attem",
  "3305": "\u0120sorted",
  "3306": "\u0120switch",
  "3307": "\u0120places",
  "3308": "\u0120hears",
  "3309": "\u0120lack",
  "3310": "\u0120learns",
  "3311": "\u0120running",
  "3312": "den",
  "3313": "tain",
  "3314": "ught",
  "3315": "\u0120impress",
  "3316": "\u0120purpose",
  "3317": "\u0120hyper",
  "3318": "\u0120options",
  "3319": "\u0120voc",
  "3320": "\u0120mc",
  "3321": "\u0120foot",
  "3322": "idence",
  "3323": "tedly",
  "3324": "\u0120tryna",
  "3325": "\u0120channel",
  "3326": "\u0120info",
  "3327": "\u0120training",
  "3328": "pping",
  "3329": "\u0120print",
  "3330": "\u0120delive",
  "3331": "aks",
  "3332": "oin",
  "3333": "ints",
  "3334": "\u0120billy",
  "3335": "\u0120sched",
  "3336": "\u0120regard",
  "3337": "\u0120wro",
  "3338": "\u0120ble",
  "3339": "\u0120upd",
  "3340": "ton",
  "3341": "\u0120died",
  "3342": "\u0120dirty",
  "3343": "\u0120rece",
  "3344": "\u0120knowing",
  "3345": "\u0120unable",
  "3346": "\u0120equals",
  "3347": "\u0120nervous",
  "3348": "\u0120barely",
  "3349": "\u012025",
  "3350": "\u0120hurts",
  "3351": "\u0120shops",
  "3352": "\u0120weekend",
  "3353": "\u0120reddit",
  "3354": "under",
  "3355": "\u0120sunday",
  "3356": "ppy",
  "3357": "\u0120aware",
  "3358": "\u0120skin",
  "3359": "name",
  "3360": "\u0120gender",
  "3361": "\u0120hehehe",
  "3362": "\u0120adorable",
  "3363": "\u0120tune",
  "3364": "har",
  "3365": "idge",
  "3366": "\u0120bottom",
  "3367": "\u0120tro",
  "3368": "\u0120bum",
  "3369": "\u0120ruin",
  "3370": "\u0120mentioned",
  "3371": "\u0120surprised",
  "3372": "\u0120ttyl",
  "3373": "bing",
  "3374": "\u0120beat",
  "3375": "\u0120above",
  "3376": "\u0120minute",
  "3377": "\u0120constantly",
  "3378": "\u0120bb",
  "3379": "\u0120disg",
  "3380": "\u0120bedroom",
  "3381": "velop",
  "3382": "\u0120machine",
  "3383": "38",
  "3384": "oned",
  "3385": "\u0120jess",
  "3386": "\u0120possibly",
  "3387": "\u0120>.>",
  "3388": "\u0120refe",
  "3389": "ionally",
  "3390": "\u0120eats",
  "3391": "\u0120dads",
  "3392": "\u0120assum",
  "3393": "\u0120mother",
  "3394": "\u0120lying",
  "3395": "\u0120kk",
  "3396": "\u0120moon",
  "3397": "vert",
  "3398": "\u0120picks",
  "3399": "\u0120account",
  "3400": "\u0120wrote",
  "3401": "\u0120washing",
  "3402": "play",
  "3403": "\u0120struggling",
  "3404": "\u0120mur",
  "3405": "\u0120cross",
  "3406": "\u0120tax",
  "3407": "ested",
  "3408": "\u0120tend",
  "3409": "\u0120penis",
  "3410": "chan",
  "3411": "ulation",
  "3412": "\u0120jobs",
  "3413": "\u012040",
  "3414": "essed",
  "3415": "gged",
  "3416": "\u0120\u00f0\u0141\u013a",
  "3417": "\u0120bruh",
  "3418": "box",
  "3419": "\u00f3\u00be\u0128",
  "3420": "ution",
  "3421": "\u0120directly",
  "3422": "\u0120cake",
  "3423": "\u0120concer",
  "3424": "umblr",
  "3425": "29",
  "3426": "pre",
  "3427": "\u0120table",
  "3428": "\u0120bow",
  "3429": "\u0120quit",
  "3430": "\u0120tues",
  "3431": "\u0120delete",
  "3432": "\u0120cond",
  "3433": "\u0120paying",
  "3434": "\u0120worries",
  "3435": "\u0120copy",
  "3436": "\u0120profess",
  "3437": "66",
  "3438": "\u0120hom",
  "3439": "\u0120sadly",
  "3440": "\u0120double",
  "3441": "\u0120language",
  "3442": "pg",
  "3443": "\u0120maths",
  "3444": "\u0120dying",
  "3445": "\u0120honey",
  "3446": "ides",
  "3447": "alous",
  "3448": "\u0120neg",
  "3449": "\u0120interview",
  "3450": "\u0120mode",
  "3451": "\u0120banned",
  "3452": "bt",
  "3453": "\u0120mist",
  "3454": "ndent",
  "3455": "\u0120uuu",
  "3456": "\u0120heav",
  "3457": "\u0120stick",
  "3458": "\u0120sell",
  "3459": "\u0120spot",
  "3460": "\u0120everywhere",
  "3461": "\u0120drive",
  "3462": "\u0120holy",
  "3463": "\u0120apologise",
  "3464": "\u0120pokemon",
  "3465": "\u0120slept",
  "3466": "\u0120sand",
  "3467": "\u0120serious",
  "3468": "uff",
  "3469": "\u0120yee",
  "3470": "\u0120shad",
  "3471": "ncy",
  "3472": "\u0120fixed",
  "3473": "\u0120film",
  "3474": "\u0120rom",
  "3475": "\u0120cent",
  "3476": "\u0120pun",
  "3477": "\u0120gurl",
  "3478": "ien",
  "3479": "\u0120written",
  "3480": "\u0120phones",
  "3481": "\u0120embarass",
  "3482": "\u0120medication",
  "3483": "08",
  "3484": "\u0120breat",
  "3485": "uses",
  "3486": "\u0120lose",
  "3487": "\u0120summ",
  "3488": "\u0120seven",
  "3489": "\u012022",
  "3490": "ledge",
  "3491": "\u0120illegal",
  "3492": "48",
  "3493": "lent",
  "3494": "\u0120chall",
  "3495": "\u0120trip",
  "3496": "\u0120irl",
  "3497": "time",
  "3498": "\u0120joy",
  "3499": "\u0120anim",
  "3500": "amine",
  "3501": "\u0120final",
  "3502": "\u0120randomly",
  "3503": "\u0120emotions",
  "3504": "57",
  "3505": "\u0120becom",
  "3506": "\u0120letting",
  "3507": "aime",
  "3508": "\u0120jum",
  "3509": "\u0120useful",
  "3510": "\u0120imposs",
  "3511": "\u0120jealous",
  "3512": "\u0120entirely",
  "3513": "\u00e2\u0122\u00a2\u00cc\u0122",
  "3514": "\u0120trauma",
  "3515": "\u0120immediately",
  "3516": "\u0120uncomfortable",
  "3517": "nit",
  "3518": "\u0120ate",
  "3519": "\u0120benef",
  "3520": "\u0120sarc",
  "3521": "\u0120pics",
  "3522": "\u0120american",
  "3523": "\u0120size",
  "3524": "\u0120lu",
  "3525": "\u0120anywhere",
  "3526": "\u0120bae",
  "3527": "\u0120wearing",
  "3528": "gpt",
  "3529": "\u0120sce",
  "3530": "\u0120begin",
  "3531": "):",
  "3532": "\u0120succ",
  "3533": "\u0120apply",
  "3534": "\u0120shame",
  "3535": "\u0120remix",
  "3536": "\u0120lowkey",
  "3537": "\u0120impossible",
  "3538": "\u0120stal",
  "3539": "\u0120whyyy",
  "3540": "\u0120impro",
  "3541": "\u0120glass",
  "3542": "\u0120depression",
  "3543": "\u0120loser",
  "3544": "\u0120private",
  "3545": "craft",
  "3546": "47",
  "3547": "tep",
  "3548": "\u0120aren",
  "3549": "ifying",
  "3550": "\u0120helped",
  "3551": "\u0120babies",
  "3552": "ograph",
  "3553": "\u0120inde",
  "3554": "ware",
  "3555": "\u0120excuse",
  "3556": "\u0120physical",
  "3557": "\u00e2\u0122\u00a2\u00cc\u0123",
  "3558": "gf",
  "3559": "\u0120led",
  "3560": "\u0120jour",
  "3561": "usting",
  "3562": "\u0120univers",
  "3563": "ya",
  "3564": "\u0120noice",
  "3565": "ctions",
  "3566": "\u0120cutie",
  "3567": "of",
  "3568": "\u0120fish",
  "3569": "\u0120cope",
  "3570": "male",
  "3571": "\u0120object",
  "3572": "\u0120return",
  "3573": "ights",
  "3574": "\u0120built",
  "3575": "\u0120jelly",
  "3576": "nb",
  "3577": "\u0120irr",
  "3578": "\u0120yeee",
  "3579": "\u0120nine",
  "3580": "\u0120ut",
  "3581": "\u0120image",
  "3582": "\u0120convo",
  "3583": "\u0120signific",
  "3584": "\u0120thursday",
  "3585": "aff",
  "3586": "\u0120bound",
  "3587": "\u0120hadn",
  "3588": "\u0120appear",
  "3589": "phone",
  "3590": "\u0120tf",
  "3591": "orted",
  "3592": "\u0120reach",
  "3593": "\u0120anime",
  "3594": "haps",
  "3595": "tems",
  "3596": "\u0120sho",
  "3597": "\u0120chips",
  "3598": "ires",
  "3599": "\u0120tracks",
  "3600": "\u0120aces",
  "3601": "\u0120humans",
  "3602": "tered",
  "3603": "ram",
  "3604": "\u0120max",
  "3605": "\u0120gran",
  "3606": "\u0120cleaning",
  "3607": "iculous",
  "3608": "ults",
  "3609": "\u0120assist",
  "3610": "\u0120stressful",
  "3611": "\u0120figured",
  "3612": "\u0120visit",
  "3613": "\u0120sou",
  "3614": "\u0120search",
  "3615": "\u0120keyboard",
  "3616": "\u0120quickly",
  "3617": "back",
  "3618": "\u0120gar",
  "3619": "\u0120ends",
  "3620": "\u0120perform",
  "3621": "\u0120pill",
  "3622": "\u0120context",
  "3623": "\u0120children",
  "3624": "\u0120depends",
  "3625": "\u0120rice",
  "3626": "\u0120deleted",
  "3627": "ulance",
  "3628": "\u0120team",
  "3629": "\u0120embarrass",
  "3630": "\u0120ded",
  "3631": "usion",
  "3632": "\u0120thre",
  "3633": "\u0120stab",
  "3634": "..?",
  "3635": "\u0120ens",
  "3636": "dis",
  "3637": "\u0120bang",
  "3638": "\u0120init",
  "3639": "\u0120kay",
  "3640": "\u0120shouting",
  "3641": "cher",
  "3642": "ration",
  "3643": "vant",
  "3644": "vices",
  "3645": "\u0120ahh",
  "3646": "\u0120danger",
  "3647": "urt",
  "3648": "\u0120yeh",
  "3649": "\u0120drama",
  "3650": "\u0120rac",
  "3651": "\u0120hiding",
  "3652": "\u0120laughing",
  "3653": "\u0120bon",
  "3654": "35",
  "3655": "\u0120page",
  "3656": "\u0120push",
  "3657": "ased",
  "3658": "\u0120abuse",
  "3659": "\u0120abusive",
  "3660": "ged",
  "3661": "\u0120suis",
  "3662": "\u0120exha",
  "3663": "\u0120comfortable",
  "3664": "\u0120tex",
  "3665": "\u0120chin",
  "3666": "\u0120cheap",
  "3667": "\u0120horny",
  "3668": "now",
  "3669": "\u0120bee",
  "3670": "idered",
  "3671": "dding",
  "3672": "\u0120joking",
  "3673": "\u0120twitter",
  "3674": "shit",
  "3675": "\u0120staying",
  "3676": "\u0120instru",
  "3677": "\u0120pus",
  "3678": "\u0120hos",
  "3679": "\u0120chance",
  "3680": "\u0120usual",
  "3681": "\u0120waaa",
  "3682": "\u0120allows",
  "3683": "\u0120owo",
  "3684": "mission",
  "3685": "\u0120function",
  "3686": "\u0120lives",
  "3687": "\u0120eggs",
  "3688": "\u0120woods",
  "3689": "\u0120country",
  "3690": "\u0120smell",
  "3691": "\u0120ridiculous",
  "3692": "\u0120recogn",
  "3693": "\u0120agre",
  "3694": "quen",
  "3695": "\u0120counse",
  "3696": "\u0120seconds",
  "3697": "\u0120icon",
  "3698": "\u0120bigg",
  "3699": "\u0120fra",
  "3700": "oms",
  "3701": "\u0120imo",
  "3702": "\u0120rhy",
  "3703": "\u0120fuc",
  "3704": "\u0120activ",
  "3705": "\u0120perhaps",
  "3706": "\u0120breaks",
  "3707": "\u0120mistake",
  "3708": "just",
  "3709": "\u0120wedn",
  "3710": "\u0120bother",
  "3711": "\u0120bathroom",
  "3712": "berry",
  "3713": "\u0120character",
  "3714": "\u0120wednes",
  "3715": "36",
  "3716": "46",
  "3717": "here",
  "3718": "\u0120mut",
  "3719": "\u0120mer",
  "3720": "olate",
  "3721": "bered",
  "3722": "\u0120apart",
  "3723": "\u0120silent",
  "3724": "\u0120irrit",
  "3725": "tre",
  "3726": "\u0120mov",
  "3727": "\u0120lead",
  "3728": "\u0120artic",
  "3729": "\u0120videos",
  "3730": "!',",
  "3731": "\u0120oppos",
  "3732": "39",
  "3733": "\u0120meee",
  "3734": "\u0120fancy",
  "3735": "\u0120naked",
  "3736": "ato",
  "3737": "\u012090",
  "3738": "ipping",
  "3739": "\u0120suggesting",
  "3740": "form",
  "3741": "ource",
  "3742": "dered",
  "3743": "fet",
  "3744": "\u0120itself",
  "3745": "\u0120chatgpt",
  "3746": "\u0120obvious",
  "3747": "\u0120wondering",
  "3748": "\u0120silence",
  "3749": "\u0120schedule",
  "3750": "\u0120yaaay",
  "3751": "\u0120enter",
  "3752": "\u0120tough",
  "3753": "\u0120appropriate",
  "3754": "\u0120showing",
  "3755": "\u0120experiment",
  "3756": "\u0120data",
  "3757": "\u0120vagina",
  "3758": "hha",
  "3759": "ister",
  "3760": "\u0120stic",
  "3761": "\u0120choo",
  "3762": "\u0120simple",
  "3763": "fortun",
  "3764": "\u0120public",
  "3765": "fw",
  "3766": "\u0120toi",
  "3767": "\u0120peen",
  "3768": "\u0120cance",
  "3769": "\u0120pretend",
  "3770": "ighten",
  "3771": "ances",
  "3772": "\u0120mixed",
  "3773": "\u0120ears",
  "3774": "\u0120bank",
  "3775": "fun",
  "3776": "pes",
  "3777": "\u0120ange",
  "3778": "\u0120wank",
  "3779": "\u0120paper",
  "3780": "\u0120marry",
  "3781": "\u0120grand",
  "3782": "\u0120verbal",
  "3783": "58",
  "3784": "rics",
  "3785": "\u0120names",
  "3786": "\u0120lege",
  "3787": "\u0120shouldn",
  "3788": "\u0120teach",
  "3789": "\u0120sus",
  "3790": "\u0120shy",
  "3791": "\u0120shirt",
  "3792": "\u0120butts",
  "3793": "iling",
  "3794": "\u0120adam",
  "3795": "\u0120offended",
  "3796": "\u0120original",
  "3797": "vid",
  "3798": "||",
  "3799": "stats",
  "3800": "\u0120deg",
  "3801": "\u0120comfy",
  "3802": "\u0120prescri",
  "3803": "\u0120grim",
  "3804": "\u0120added",
  "3805": "\u0120minecraft",
  "3806": "\u0120essent",
  "3807": "ging",
  "3808": "kj",
  "3809": "su",
  "3810": "\u0120trigger",
  "3811": "\u0120calls",
  "3812": "\u0120travel",
  "3813": "ao",
  "3814": "gl",
  "3815": "\u0120\u00f3\u00be",
  "3816": "ified",
  "3817": "\u0120considered",
  "3818": "\u0120tickets",
  "3819": "\u0120holiday",
  "3820": "\u0120agg",
  "3821": "\u0120inten",
  "3822": "icky",
  "3823": "\u0120joh",
  "3824": "\u0120remem",
  "3825": "\u0120situations",
  "3826": "that",
  "3827": "\u0120unfortun",
  "3828": "\u0120draws",
  "3829": "\u0120breaking",
  "3830": "\u0120indepe",
  "3831": "cting",
  "3832": "\u0120applic",
  "3833": "\u0120regret",
  "3834": "\u0120tasks",
  "3835": "\u0120au",
  "3836": "vere",
  "3837": "\u0120pure",
  "3838": "\u0120vio",
  "3839": "\u0120trash",
  "3840": "\u0120literal",
  "3841": "\u0120insane",
  "3842": "\u0120assume",
  "3843": "love",
  "3844": "well",
  "3845": "\u0120edit",
  "3846": "\u0120sksksks",
  "3847": "uino",
  "3848": "49",
  "3849": "ull",
  "3850": "\u0120dry",
  "3851": "ery",
  "3852": "\u0120hist",
  "3853": "\u0120>.<",
  "3854": "01",
  "3855": "va",
  "3856": "\u0120omggg",
  "3857": "\u0120talked",
  "3858": "ploy",
  "3859": "\u0120older",
  "3860": "\u0120negative",
  "3861": "\u0120opposite",
  "3862": "\u0120tatt",
  "3863": "\u0120cum",
  "3864": "let",
  "3865": "ley",
  "3866": "\u0120jimin",
  "3867": "\u0120advent",
  "3868": "\u0120harder",
  "3869": "\u0120setting",
  "3870": "\u0120technology",
  "3871": "\u0120overwhelmed",
  "3872": "\u0120assault",
  "3873": "\u0120diagn",
  "3874": "ium",
  "3875": "iest",
  "3876": "\u00e2\u013e",
  "3877": "\u0120prog",
  "3878": "\u0120veux",
  "3879": "\u0120cla",
  "3880": "\u0120epis",
  "3881": "aries",
  "3882": "\u0120lock",
  "3883": "\u0120frog",
  "3884": "\u0120remembered",
  "3885": "37",
  "3886": "acc",
  "3887": "\u0120dare",
  "3888": "\u0120net",
  "3889": "tery",
  "3890": "\u0120suit",
  "3891": "\u0120caused",
  "3892": "\u0120freaking",
  "3893": "\u0120promise",
  "3894": "cr",
  "3895": "\u0120storm",
  "3896": "\u0120convin",
  "3897": "\u0120shall",
  "3898": "\u0120chinese",
  "3899": "\u00e0\u00b7",
  "3900": "\u0120tha",
  "3901": "atic",
  "3902": "\u0120jam",
  "3903": "\u0120offic",
  "3904": "aaa",
  "3905": "\u0120solid",
  "3906": "di",
  "3907": "val",
  "3908": "\u0120alex",
  "3909": "ona",
  "3910": "utm",
  "3911": "\u0120stor",
  "3912": "\u0120manip",
  "3913": "\u0120sharing",
  "3914": "\u0120slowly",
  "3915": "\u0120meat",
  "3916": "\u0120ability",
  "3917": "though",
  "3918": "cious",
  "3919": "\u0120ground",
  "3920": "\u0120include",
  "3921": "\u0120unfortunately",
  "3922": "\u0120hous",
  "3923": "\u0120ranting",
  "3924": "\u0120tattoo",
  "3925": "bby",
  "3926": "dit",
  "3927": "\u0120\u00ca\u0137\u00e3\u0123\u00a3",
  "3928": "\u0120idfk",
  "3929": "\u0120choc",
  "3930": "\u0120charge",
  "3931": "\u0120provide",
  "3932": "\u0120delivery",
  "3933": "llm",
  "3934": "ank",
  "3935": "aming",
  "3936": "\u0120sauce",
  "3937": "\u0120develop",
  "3938": "phones",
  "3939": "\u0120ignoring",
  "3940": "\u0120progress",
  "3941": "bed",
  "3942": "\u0120showed",
  "3943": "\u012080",
  "3944": "\u0120common",
  "3945": "iction",
  "3946": "\u0120cunt",
  "3947": "\u0120physically",
  "3948": "\u0120memory",
  "3949": "\u0120attempt",
  "3950": "\u0120hospital",
  "3951": "\u0120tid",
  "3952": "\u0120pin",
  "3953": "asm",
  "3954": "\u0120js",
  "3955": "\u012021",
  "3956": "\u0120catch",
  "3957": "\u0120lights",
  "3958": "\u0120building",
  "3959": "\u0120judge",
  "3960": "\u0120prescription",
  "3961": "ingly",
  "3962": "\u0120shou",
  "3963": "\u0120var",
  "3964": "\u0120blame",
  "3965": "\u0120click",
  "3966": "\u0120mais",
  "3967": "\u0120steal",
  "3968": "\u0120topic",
  "3969": "\u0120replying",
  "3970": "\u0120following",
  "3971": "\u0120changing",
  "3972": "\u0120replied",
  "3973": "\u0120ambulance",
  "3974": "fety",
  "3975": "ural",
  "3976": "\u0120uhhh",
  "3977": "\u0120sounded",
  "3978": "\u0120adult",
  "3979": "\u0120boat",
  "3980": "\u0120news",
  "3981": "\u0120melt",
  "3982": "\u0120cap",
  "3983": "ables",
  "3984": "\u0120extre",
  "3985": "\u0120hoping",
  "3986": "\u0120downstairs",
  "3987": "\u0120understood",
  "3988": "\u0120aaagh",
  "3989": "\u0120enjoying",
  "3990": "\u0120lyrics",
  "3991": "\u0120tuesday",
  "3992": "\u0120aggress",
  "3993": "59",
  "3994": "hop",
  "3995": "\u0120nhs",
  "3996": "\u0120meth",
  "3997": "\u0120jfc",
  "3998": "\u0120research",
  "3999": "\u0120university",
  "4000": "sss",
  "4001": "\u0120env",
  "4002": "\u0120medical",
  "4003": "\u0120windows",
  "4004": "underst",
  "4005": "\u0120sandw",
  "4006": "\u0120wednesday",
  "4007": "uit",
  "4008": "\u0120cult",
  "4009": "\u0120lou",
  "4010": "\u0120bear",
  "4011": "\u0120dose",
  "4012": "gent",
  "4013": "\u0120void",
  "4014": "\u0120prior",
  "4015": "activ",
  "4016": "\u0120sympt",
  "4017": "\u0120audio",
  "4018": "lol",
  "4019": "\u0120mr",
  "4020": "\u0120dom",
  "4021": "ano",
  "4022": "\u0120kicked",
  "4023": "\u0120acting",
  "4024": "\u0120vocals",
  "4025": "omg",
  "4026": "\u0120wet",
  "4027": "rated",
  "4028": "\u0120lmaoo",
  "4029": "\u0120present",
  "4030": "\u0120service",
  "4031": "\u0120married",
  "4032": "\u0120challeng",
  "4033": "core",
  "4034": "gb",
  "4035": "icy",
  "4036": "str",
  "4037": "ational",
  "4038": "ibility",
  "4039": "\u0120clar",
  "4040": "\u0120club",
  "4041": "\u0120boob",
  "4042": "\u0120reasonable",
  "4043": "\u00ca\u013a\u00ca\u0136\u00e3\u0123\u00a3",
  "4044": "uro",
  "4045": "renc",
  "4046": "\u0120nat",
  "4047": "\u0120punch",
  "4048": "\u0120knowledge",
  "4049": "\u012028",
  "4050": "\u0120services",
  "4051": "\u0120posted",
  "4052": "charis",
  "4053": "\u0120effects",
  "4054": "\u0120ice",
  "4055": "\u0120toys",
  "4056": "ield",
  "4057": "\u0120king",
  "4058": "\u0120sorta",
  "4059": "\u0120prev",
  "4060": "\u0120simp",
  "4061": "\u0120module",
  "4062": "\u0120refer",
  "4063": "\u0120evil",
  "4064": "\u0120mouth",
  "4065": "icks",
  "4066": "\u0120attra",
  "4067": "ots",
  "4068": "\u0120encou",
  "4069": "\u0120female",
  "4070": "osis",
  "4071": "ships",
  "4072": "els",
  "4073": "\u0120visual",
  "4074": "\u0120argument",
  "4075": "\u0120rout",
  "4076": "\u0120safety",
  "4077": "ilities",
  "4078": "\u0120permission",
  "4079": "\u0120related",
  "4080": "baby",
  "4081": "jpg",
  "4082": "\u0120san",
  "4083": "\u0120uhh",
  "4084": "\u0120trou",
  "4085": "\u0120veget",
  "4086": "\u0120shows",
  "4087": "\u0120tenant",
  "4088": "\u0120born",
  "4089": "\u0120hanging",
  "4090": "\u0120mildly",
  "4091": "iry",
  "4092": "\u0120base",
  "4093": "isting",
  "4094": "\u0120pink",
  "4095": "\u0120hilar",
  "4096": "\u0120causing",
  "4097": "\u0120unfair",
  "4098": "\u0120easily",
  "4099": "07",
  "4100": "ony",
  "4101": "\u0120wedding",
  "4102": "\u0120business",
  "4103": "::",
  "4104": "\u0120intera",
  "4105": "ids",
  "4106": "raid",
  "4107": "\u0120neigh",
  "4108": "ils",
  "4109": "ggy",
  "4110": "\u0120unlike",
  "4111": "\u0120customer",
  "4112": "\u0120revision",
  "4113": "cord",
  "4114": "dr",
  "4115": "ians",
  "4116": "llo",
  "4117": "\u0120notes",
  "4118": "\u0120playlist",
  "4119": "\u0120complic",
  "4120": "\u0120legs",
  "4121": "\u0120goddam",
  "4122": "\u0120explaining",
  "4123": "\u0120shouted",
  "4124": "\u0120idc",
  "4125": "\u0120volu",
  "4126": "\u0120terms",
  "4127": "\u0120cookies",
  "4128": "\u0120example",
  "4129": "\u0120details",
  "4130": "\u0120murder",
  "4131": "af",
  "4132": "\u0120il",
  "4133": "test",
  "4134": "\u0120input",
  "4135": "\u0120lecture",
  "4136": "fff",
  "4137": "\u0120boss",
  "4138": "\u0120parts",
  "4139": "\u0120respond",
  "4140": "\u0120holding",
  "4141": "\u0120disgusting",
  "4142": "67",
  "4143": "\u0120si",
  "4144": "\u0120ginger",
  "4145": "\u0120jus",
  "4146": "\u0120station",
  "4147": "\u0120feet",
  "4148": "\u0120reality",
  "4149": "\u0120reaction",
  "4150": "lit",
  "4151": "\u0120hat",
  "4152": "\u0120meal",
  "4153": "ette",
  "4154": "men",
  "4155": "estyle",
  "4156": "\u0120marks",
  "4157": "hetic",
  "4158": "\u0120empty",
  "4159": "\u0120terrible",
  "4160": "\u0120history",
  "4161": "\u0120neighb",
  "4162": "\u0120@",
  "4163": "isions",
  "4164": "\u0120ordered",
  "4165": "this",
  "4166": "\u0120potent",
  "4167": "\u0120repea",
  "4168": "\u0120explained",
  "4169": "\u0120independent",
  "4170": "\u0120\u00ca\u0137\u00e3\u0123\u00a3\u00ca\u013a",
  "4171": "05",
  "4172": "\u0120nom",
  "4173": "\u0120hig",
  "4174": "\u0120phr",
  "4175": "\u0120prin",
  "4176": "\u0120role",
  "4177": "hahah",
  "4178": "\u0120cod",
  "4179": "vered",
  "4180": "\u0120nick",
  "4181": "\u0120whis",
  "4182": "\u0120moi",
  "4183": "iber",
  "4184": "\u0120starts",
  "4185": "\u0120misunderst",
  "4186": "\u0120recording",
  "4187": "\u0120magic",
  "4188": "\u0120unsure",
  "4189": "ases",
  "4190": "\u0120rush",
  "4191": "\u0120separ",
  "4192": "ives",
  "4193": "ummy",
  "4194": "\u0120oml",
  "4195": "\u0120buying",
  "4196": "\u0120adding",
  "4197": "\u0120imagin",
  "4198": "sorry",
  "4199": "\u0120behaviour",
  "4200": "\u0120dig",
  "4201": "\u0120dating",
  "4202": "\u0120hoo",
  "4203": "\u0120study",
  "4204": "\u0120blind",
  "4205": "ized",
  "4206": "oom",
  "4207": "sing",
  "4208": "\u0120sea",
  "4209": "\u0120everyones",
  "4210": "\u0120harrow",
  "4211": "ussy",
  "4212": "\u0120chocolate",
  "4213": "88",
  "4214": "\u0120itll",
  "4215": "illed",
  "4216": "\u0120store",
  "4217": "\u0120soc",
  "4218": "\u0120anger",
  "4219": "\u0120mua",
  "4220": "\u0120nap",
  "4221": "cco",
  "4222": "\u0120shopping",
  "4223": "\u0120chairs",
  "4224": "\u0120certainly",
  "4225": "\u0120involved",
  "4226": "\u0120degree",
  "4227": "can",
  "4228": "lines",
  "4229": "\u0120ave",
  "4230": "\u0120bes",
  "4231": "\u0120tooo",
  "4232": "\u0120area",
  "4233": "neur",
  "4234": "\u0120positive",
  "4235": "rest",
  "4236": "\u0120cream",
  "4237": "\u0120forced",
  "4238": "iron",
  "4239": "cape",
  "4240": "\u0120radio",
  "4241": "\u0120advert",
  "4242": "\u0120skull",
  "4243": "\u0120potato",
  "4244": "\u0120scene",
  "4245": "\u0120hilarious",
  "4246": "44",
  "4247": "\u0120reee",
  "4248": "\u0120kink",
  "4249": "\u0120keys",
  "4250": "\u0120pregn",
  "4251": "\u0120nahhh",
  "4252": "\u0120afraid",
  "4253": "\u0120scam",
  "4254": "\u0120hole",
  "4255": "\u0120sentence",
  "4256": "\u0120midnight",
  "4257": "\u0120distracted",
  "4258": "bum",
  "4259": "\u0120ug",
  "4260": "\u0120jul",
  "4261": "\u0120homeless",
  "4262": "\u0120status",
  "4263": "\u0120dragon",
  "4264": "\u0120legend",
  "4265": "\u0120extreme",
  "4266": "mod",
  "4267": "\u0120tun",
  "4268": "ana",
  "4269": "output",
  "4270": "\u0120failed",
  "4271": "\u0120colours",
  "4272": "\u0120occas",
  "4273": "\u0120article",
  "4274": "dk",
  "4275": "\u0120lab",
  "4276": "icted",
  "4277": "\u0120ks",
  "4278": "antic",
  "4279": "\u0120proof",
  "4280": "\u0120bringing",
  "4281": "\u0120spamming",
  "4282": "\u0120acceptable",
  "4283": "band",
  "4284": "\u0120heat",
  "4285": "\u0120mega",
  "4286": "rose",
  "4287": "\u0120background",
  "4288": "\u0120checking",
  "4289": "\u0120flow",
  "4290": "\u0120basic",
  "4291": "\u0120pointless",
  "4292": "\u0120struggle",
  "4293": "\u0120street",
  "4294": "\u0120bullshit",
  "4295": "sr",
  "4296": "\u0120mal",
  "4297": "\u0120ton",
  "4298": "\u0120prop",
  "4299": "\u0120personally",
  "4300": "\u0120tes",
  "4301": "\u0120dy",
  "4302": "\u0120eaten",
  "4303": "\u0120staff",
  "4304": "\u0120upstairs",
  "4305": "\u0120sav",
  "4306": "\u0120device",
  "4307": "\u0120happiness",
  "4308": "\u0120coff",
  "4309": "\u0120decisions",
  "4310": "\u0120levels",
  "4311": "32",
  "4312": "87"
}