{
    "357": "\u0120se",
    "194": "\u0106",
    "1451": "\u0120fully",
    "695": "\u0120never",
    "916": "\u0120reason",
    "429": "\u0120some",
    "60": "]",
    "900": "\u0120fine",
    "437": "\u0120ok",
    "272": "at",
    "1256": "\u0120check",
    "514": "are",
    "654": "\u0120man",
    "644": "\u0120him",
    "124": "\u00c0",
    "886": "\u0120\u00c2\u00a3",
    "1615": "ret",
    "1415": "\u0120va",
    "45": "N",
    "426": "\u0120up",
    "1258": "\u0120poss",
    "808": "\u0120talk",
    "968": "!!!",
    "1200": "\u0120:/",
    "604": "ving",
    "1812": "ames",
    "162": "\u00e6",
    "636": "\u0120still",
    "61": "^",
    "1664": "aring",
    "1082": "ub",
    "85": "v",
    "1575": "\u0120oof",
    "1222": "\u0120sometimes",
    "325": "\u0120j",
    "1136": "\u0120went",
    "861": "ated",
    "1542": "\u0120figure",
    "1476": "ather",
    "884": "\u0120their",
    "1820": "ibly",
    "1374": "\u0120cour",
    "1014": "iz",
    "499": "\u01201",
    "598": "\u0120her",
    "8": ")",
    "1997": "\u0120effect",
    "430": "un",
    "729": "\u0120ph",
    "1027": "\u0120dec",
    "1422": "als",
    "536": "\u0120:(",
    "1473": "\u0120saw",
    "1123": "\u0120sent",
    "629": "\u0120day",
    "1823": "\u0120heard",
    "1283": "\u0120bring",
    "849": "ouse",
    "248": "\u013c",
    "961": "\u0120happen",
    "703": "\u0120other",
    "914": "\u0120bl",
    "79": "p",
    "807": "\u0120fun",
    "281": "nt",
    "1538": "vo",
    "101": "\u00a8",
    "982": "arent",
    "353": "ro",
    "117": "\u00b9",
    "1464": "\u0120vo",
    "1410": "\u0120inv",
    "765": "\u0120after",
    "1711": "\u0120plymouth",
    "1706": "\u0120cal",
    "1303": "ling",
    "589": "ous",
    "1314": "\u0120hand",
    "179": "\u00f7",
    "1435": "\u0120turn",
    "857": "hing",
    "452": "\u0120really",
    "504": "ep",
    "102": "\u00a9",
    "534": "\u0120gonna",
    "1873": "wh",
    "343": "oo",
    "919": "\u0120enough",
    "953": "\u0120big",
    "386": "\u0120ch",
    "26": ";",
    "373": "ea",
    "1937": "umber",
    "370": "use",
    "1863": "\u012030",
    "641": "pe",
    "501": "\u0120cause",
    "25": ":",
    "1836": "\u0120human",
    "1144": "iet",
    "1058": "\u0120own",
    "1489": "ics",
    "892": "ful",
    "302": "\u0120do",
    "734": "\u0120tell",
    "539": "\u0120cant",
    "1277": "\u0120ent",
    "1170": "\u0120different",
    "1919": "pr",
    "200": "\u010c",
    "1262": "\u0120mar",
    "1957": "\u0120correct",
    "453": "\u0120about",
    "675": "ream",
    "99": "\u00a6",
    "149": "\u00d9",
    "1782": "\u0120lie",
    "17": "2",
    "835": "\u0120lea",
    "1288": "\u0120inf",
    "482": "so",
    "171": "\u00ef",
    "1483": "\u0120light",
    "802": "\u0120long",
    "912": "ans",
    "1954": "\u0120adhd",
    "390": "\u0120dont",
    "1945": "\u0120sol",
    "1075": "\u0120reme",
    "978": "\u0120most",
    "909": "\u0120guess",
    "1063": "\u0120spe",
    "1016": "\u0120att",
    "858": "\u0120stop",
    "1106": "ead",
    "967": "\u0120bas",
    "1753": "\u0120itll",
    "468": "\u0120bo",
    "1585": "ese",
    "538": "ist",
    "1532": "\u0120ama",
    "1180": "\u0120means",
    "1405": "\u0120months",
    "1651": "ever",
    "1713": "oon",
    "1673": "\u0120incl",
    "1742": "\u0120knew",
    "1779": "\u0120finish",
    "819": "\u0120tra",
    "1500": "\u0120interesting",
    "1947": "\u0120ye",
    "1950": "\u0120leaving",
    "1805": "\u0120seriously",
    "389": "\u0120with",
    "227": "\u0127",
    "485": "il",
    "1092": "gn",
    "1173": "\u0120live",
    "1932": "\u0120fall",
    "195": "\u0107",
    "856": "\u0120che",
    "960": "ward",
    "957": "\u0120already",
    "313": "ic",
    "493": "\u0120because",
    "1211": "\u0120main",
    "1171": "\u0120mix",
    "1065": "ense",
    "723": "\u0120lot",
    "105": "\u00ac",
    "1864": "\u0120cold",
    "1749": "\u0120rather",
    "924": "\u0120our",
    "1110": "\u01206",
    "1620": "\u0120lear",
    "550": "\u0120(",
    "1184": "ces",
    "155": "\u00df",
    "1659": "\u0120difficult",
    "1413": "\u0120message",
    "911": "ne",
    "531": "\u0120te",
    "1680": "\u0120event",
    "477": "\u0120love",
    "834": "ord",
    "1672": "\u0120needed",
    "448": "\u0120x",
    "222": "\u0122",
    "922": "nth",
    "1193": "\u0120week",
    "1345": "\u0120bor",
    "109": "\u00b1",
    "32": "A",
    "682": "\u0120sound",
    "1878": "\u0120mod",
    "535": "ong",
    "1004": "\u0120aaa",
    "417": "\u0120they",
    "1318": "alth",
    "1555": "\u012012",
    "677": "\u0120kind",
    "1375": "night",
    "1089": "\u00f0\u0141",
    "1523": "\u0120course",
    "1181": "ner",
    "694": "ish",
    "1677": "\u0120ages",
    "82": "s",
    "392": "est",
    "9": "*",
    "1692": "\u0120plym",
    "97": "\u00a4",
    "1191": "\u0120many",
    "1393": "\u0120reg",
    "257": "\u0120t",
    "465": "very",
    "1379": "ia",
    "1115": "pam",
    "1728": "\u0120sonic",
    "1224": "\u0120answer",
    "1851": "iday",
    "122": "\u00be",
    "1761": "ns",
    "473": "ers",
    "67": "d",
    "1632": "\u0120space",
    "1034": "\u0120bro",
    "1215": "udd",
    "637": "\u0120try",
    "1285": "\u0120kit",
    "769": "\u0120take",
    "1377": "\u0120norm",
    "1416": "\u0120couldnt",
    "1349": "\u0120emot",
    "1132": "\u0120wow",
    "1299": "\u0120dra",
    "1234": "\u0120vide",
    "1471": "\u0120few",
    "31": "@",
    "1906": "\u0120inside",
    "1148": "\u0120instaspam",
    "649": "\u0120off",
    "267": "\u0120h",
    "287": "or",
    "1399": "ced",
    "64": "a",
    "1367": "\u0120face",
    "262": "ou",
    "1678": "yed",
    "490": "ul",
    "1273": "\u0120bye",
    "1799": "ensive",
    "1412": "\u0120;)",
    "806": "\u0120tr",
    "1530": "ggy",
    "55": "X",
    "1641": "\u0120parents",
    "1101": "\u0120cr",
    "1121": "\u0120awesome",
    "1320": "other",
    "1308": "\u0120random",
    "642": "ase",
    "377": "\u0120lmao",
    "1533": "\u0120far",
    "1549": "ake",
    "1514": "tt",
    "708": "\u0120elod",
    "1696": "\u0120pictures",
    "1009": "\u0120kevins",
    "1362": "\u0120\"",
    "1164": "\u0120rel",
    "899": "\u0120la",
    "523": "\u0120int",
    "1551": "\u0120gener",
    "1105": "\u0120money",
    "112": "\u00b4",
    "1911": "\u0120boom",
    "951": "\u0120wasnt",
    "950": "get",
    "63": "`",
    "519": "\u0120ri",
    "599": "pt",
    "811": "her",
    "712": "ys",
    "331": "id",
    "537": "\u0120got",
    "954": "\u0120shes",
    "865": "\u01205",
    "976": "\u0120hours",
    "1936": "\u0120col",
    "671": "day",
    "1059": "ild",
    "1614": "\u0120intern",
    "660": "\u0120happ",
    "330": "all",
    "1650": "hd",
    "1622": "\u0120taking",
    "384": "ce",
    "659": "ood",
    "1204": "umb",
    "742": "\u0120fe",
    "1438": "\u0120appreci",
    "511": "\u0120sorry",
    "12": "-",
    "39": "H",
    "757": "\u0120hope",
    "1323": "ping",
    "921": "\u0120home",
    "1816": "\u0120imag",
    "311": "ay",
    "1886": "\u0120three",
    "1505": "\u0120cor",
    "1691": "icul",
    "160": "\u00e4",
    "1178": "used",
    "1370": "yy",
    "1577": "not",
    "1203": "\u0120hot",
    "441": "\u0120how",
    "396": "\u0120or",
    "946": "\u0120shop",
    "1074": "sw",
    "593": "\u0120being",
    "1868": "\u0120enjoy",
    "1939": "ina",
    "1600": "\u0120body",
    "1083": "\u0120exactly",
    "233": "\u012d",
    "585": "\u0120make",
    "369": "st",
    "1021": "ence",
    "651": "\u0120thank",
    "1041": "ored",
    "1084": "\u0120word",
    "772": "\u0120boi",
    "1043": "\u0120tomorrow",
    "843": "\u0120getting",
    "1883": "lly",
    "1347": "iv",
    "1966": "\u0120especially",
    "467": "res",
    "818": "les",
    "1466": "\u0120pur",
    "1390": "\u0120quite",
    "1257": "\u0120mind",
    "1139": "\u0120bruv",
    "1832": "fa",
    "1644": "ming",
    "424": "\u0120ma",
    "358": "ch",
    "169": "\u00ed",
    "896": "\u0120end",
    "658": "\u0120app",
    "383": "\u0120as",
    "1095": "\u0120fro",
    "1719": "\u0120mon",
    "497": "\u0120le",
    "551": "\u0120them",
    "427": "ab",
    "970": "\u0120wanted",
    "474": "\u0120even",
    "1508": "\u0120expect",
    "1335": "\u0120pan",
    "606": "ure",
    "1206": "\u0120weed",
    "391": "od",
    "211": "\u0117",
    "607": "\u0120ive",
    "1540": "\u0120run",
    "363": "\u0120have",
    "209": "\u0115",
    "1867": "nday",
    "1624": "\u0120cu",
    "1355": "ific",
    "1365": "llow",
    "1636": "pid",
    "37": "F",
    "1302": "\u0120rude",
    "588": "ide",
    "188": "\u0100",
    "81": "r",
    "1513": "\u0120ter",
    "1305": "ken",
    "624": "\u0120ar",
    "1168": "\u0120cons",
    "1099": "\u0120bru",
    "1167": "\u0120annoying",
    "680": "\u0120qu",
    "760": "ip",
    "214": "\u011a",
    "459": "\u0120too",
    "1481": "\u0120suggest",
    "183": "\u00fb",
    "798": "land",
    "740": "\u0120fair",
    "1905": "\u0120kore",
    "315": "\u0120in",
    "1208": "\u0120bra",
    "635": "gg",
    "1772": "\u0120hun",
    "576": "\u0120only",
    "215": "\u011b",
    "764": "\u0120real",
    "19": "4",
    "628": "ment",
    "1895": "\u0120youll",
    "1942": "\u0120strugg",
    "1364": "\u0120london",
    "1062": "\u0120fo",
    "1226": "\u0120iss",
    "1229": "\u0120lets",
    "595": "...",
    "1890": "eed",
    "965": "\u0120care",
    "676": "\u0120life",
    "1126": "\u0120next",
    "1573": "\u0120spec",
    "987": "???",
    "1024": "pect",
    "1333": "\u01207",
    "1185": "ten",
    "1885": "\u0120toile",
    "1876": "ors",
    "120": "\u00bc",
    "1423": "istic",
    "1977": "\u0120bought",
    "229": "\u0129",
    "732": "\u0120doing",
    "283": "\u0120g",
    "560": "\u0120act",
    "486": "\u0120from",
    "90": "{",
    "852": "\u0120yay",
    "434": "\u0120yeah",
    "1929": "oup",
    "1119": "\u0120wi",
    "1334": "ger",
    "1336": "\u0120waht",
    "328": "\u0120of",
    "1143": "aspam",
    "176": "\u00f4",
    "1044": "ath",
    "673": "cc",
    "1264": "mit",
    "1373": "\u0120dumb",
    "1594": "\u0120ign",
    "298": "an",
    "1502": "\u0120youve",
    "1858": "\u0120gave",
    "1474": "\u0120hows",
    "398": "\u0120ke",
    "1679": "\u0120mixer",
    "767": "able",
    "527": "\u0120po",
    "1767": "gin",
    "793": "\u0120stream",
    "1889": "nds",
    "770": "reat",
    "1241": "\u0120yet",
    "371": "\u0120why",
    "1510": "\u0120sake",
    "1109": "\u0120coming",
    "717": "\u0120af",
    "1880": "\u0120slightly",
    "1606": "\u0120class",
    "581": "\u0120pl",
    "1848": "\u0120kids",
    "1198": "\u0120place",
    "1758": "ative",
    "1973": "\u0120window",
    "147": "\u00d7",
    "1163": "ical",
    "704": "\u0120again",
    "382": "\u0120lo",
    "1402": "\u0120belie",
    "632": "\u0120should",
    "1149": "ily",
    "1254": "\u0120instead",
    "1674": "ition",
    "837": "ose",
    "178": "\u00f6",
    "670": "\u0120na",
    "873": "\u0120cl",
    "823": "\u0120di",
    "938": "\u0120give",
    "1618": "\u0120issues",
    "1611": "its",
    "1834": "lect",
    "836": "\u0120use",
    "1304": "\u01208",
    "256": "\u0120i",
    "1485": "\u0120feels",
    "1564": "\u0120vis",
    "470": "eel",
    "1769": "\u0120words",
    "466": "ind",
    "1352": "\u0120ago",
    "51": "T",
    "432": "\u0120thats",
    "1727": "\u0120email",
    "1064": "\u0120kid",
    "1842": "eee",
    "1916": "\u0120swear",
    "1874": "any",
    "1153": "ph",
    "948": "\u0120last",
    "139": "\u00cf",
    "1307": "\u0120chat",
    "570": "\u0120wan",
    "1853": "\u0120birth",
    "1717": "\u0120lots",
    "1877": "haha",
    "1839": "\u0120drunk",
    "345": "\u0120k",
    "341": "\u0120just",
    "1732": "\u0120weeks",
    "138": "\u00ce",
    "1992": "\u0120foc",
    "889": "\u0120having",
    "709": "\u0120mad",
    "992": "\u0120cle",
    "1216": "we",
    "423": "vin",
    "1338": "\u0120sin",
    "180": "\u00f8",
    "520": "\u0120en",
    "1647": "\u0120supposed",
    "561": "!!",
    "1358": "\u0120asked",
    "771": "ious",
    "1981": "\u0120du",
    "18": "3",
    "860": "irst",
    "402": "\u0120your",
    "196": "\u0108",
    "799": "\u0120eng",
    "1036": "\u0120leave",
    "347": "\u0120like",
    "1918": "\u0120manag",
    "479": "ight",
    "1433": "ins",
    "1408": "\u0120war",
    "790": "\u0120liter",
    "317": "\u0120on",
    "1019": "\u0120res",
    "1357": "\u0120allow",
    "813": "\u0120sex",
    "1103": "po",
    "1697": "ned",
    "230": "\u012a",
    "1190": "\u0120gi",
    "1956": "\u0120vape",
    "697": "\u0120cool",
    "574": "ually",
    "106": "\u00ae",
    "979": "\u0120baby",
    "52": "U",
    "1293": "\u0120basically",
    "1429": "\u0120dru",
    "1175": "\u0120exc",
    "993": "\u0120dick",
    "440": "\u0120fr",
    "1630": "\u0120pri",
    "897": "ried",
    "895": "gs",
    "685": "\u0120person",
    "1188": "\u0120mood",
    "1629": "\u0120possible",
    "1129": "\u0120whats",
    "663": "ag",
    "1687": "\u0120during",
    "1007": "\u0120list",
    "1763": "\u0120sub",
    "1243": "der",
    "318": "gh",
    "1458": "ier",
    "201": "\u010d",
    "409": "ee",
    "217": "\u011d",
    "623": "\u0120charis",
    "279": "\u0120the",
    "1197": "\u0120working",
    "661": "\u0120come",
    "145": "\u00d5",
    "1563": "\u0120parent",
    "365": "\u0120ohh",
    "1419": "\u0120apparent",
    "1409": "\u0120ext",
    "1912": "cer",
    "851": "\u0120hard",
    "1060": "\u0120loo",
    "1944": "\u0120press",
    "1825": "\u0120write",
    "1983": "\u0120process",
    "1751": "\u0120unless",
    "1725": "\u0120itd",
    "454": "ven",
    "1638": "\u0120trans",
    "1806": "\u0120wind",
    "1747": "mon",
    "1220": "\u0120kill",
    "110": "\u00b2",
    "1654": "\u0120wants",
    "1297": "ash",
    "788": "\u0120ge",
    "372": "ir",
    "626": "ard",
    "864": "\u0120england",
    "718": "\u0120let",
    "1050": "\u0120inter",
    "1821": "ail",
    "1518": "wu",
    "706": "\u0120ple",
    "1703": "\u0120wed",
    "1325": "og",
    "1401": "\u0120spa",
    "690": "kes",
    "442": "\u0120ex",
    "1831": "\u0120case",
    "1384": "\u0120sweet",
    "721": "os",
    "123": "\u00bf",
    "1145": "\u0120looks",
    "224": "\u0124",
    "1368": "\u0120str",
    "69": "f",
    "821": "\u0120exp",
    "478": "la",
    "1699": "\u0120appreciate",
    "832": "tle",
    "838": "\u0120his",
    "646": "\u0120dis",
    "1250": "line",
    "1298": "\u0120spea",
    "1400": "\u0120thinking",
    "187": "\u00ff",
    "741": "ree",
    "699": "\u0120bet",
    "1484": "ilst",
    "1430": "\u0120fig",
    "981": "\u0120read",
    "96": "\u00a3",
    "923": "\u0120keep",
    "758": "\u0120sure",
    "1972": "\u0120straight",
    "142": "\u00d2",
    "294": "\u0120be",
    "1817": "\u0120contro",
    "1733": "\u0120panic",
    "1529": "\u0120fam",
    "1015": "\u0120pla",
    "883": "\u0120put",
    "733": "row",
    "1840": "\u0120sucks",
    "471": "\u0120bec",
    "1536": "\u0120pop",
    "1965": "\u0120met",
    "158": "\u00e2",
    "803": "\u0120hour",
    "277": "er",
    "132": "\u00c8",
    "28": "=",
    "1284": "oud",
    "301": "\u0120me",
    "998": "\u0120head",
    "901": "\u0120both",
    "348": "me",
    "1766": "\u012011",
    "1376": "ren",
    "801": "\u0120hu",
    "356": "ant",
    "1053": "\u0120meant",
    "73": "j",
    "394": "ould",
    "600": "\u0120wanna",
    "1389": "oment",
    "743": "\u0120cut",
    "778": "ying",
    "705": "ance",
    "1503": "\u0120consid",
    "1838": "\u0120social",
    "1657": "lym",
    "1001": "\u0120friends",
    "1894": "\u0120worst",
    "1042": "\u0120idea",
    "1891": "\u012015",
    "621": "\u0120may",
    "1907": "\u0120living",
    "1764": "\u0120complete",
    "762": "\u0120wo",
    "1925": "ube",
    "152": "\u00dc",
    "1979": "ccoon",
    "418": "\u0120sa",
    "77": "n",
    "693": "ud",
    "1537": "ugh",
    "163": "\u00e7",
    "428": "\u0120fuck",
    "1045": "\u0120butt",
    "1289": "cial",
    "1648": "\u0120autism",
    "817": "\u0120ask",
    "1025": "\u0120full",
    "1324": "\u0120pa",
    "1467": "rop",
    "1862": "\u0120det",
    "1613": "\u0120forg",
    "340": "\u0120so",
    "62": "_",
    "388": "\u0120at",
    "1386": "ons",
    "1244": "gether",
    "1695": "\u0120sat",
    "307": "\u0120that",
    "98": "\u00a5",
    "907": "\u0120makes",
    "126": "\u00c2",
    "1037": "\u0120less",
    "308": "\u0120ha",
    "1436": "\u0120top",
    "53": "V",
    "13": ".",
    "379": "ry",
    "956": "\u0120girl",
    "1578": "?!",
    "620": "\u0120shit",
    "1637": "\u0120tonight",
    "1951": "\u0120slow",
    "1046": "ange",
    "185": "\u00fd",
    "752": "\u0120sch",
    "1057": "dd",
    "1926": "\u0120currently",
    "496": "\u0120than",
    "568": "\u0120yes",
    "1130": "air",
    "1554": "gry",
    "544": "qu",
    "1570": "\u0120messag",
    "439": "\u0120now",
    "1156": "\u0120free",
    "235": "\u012f",
    "205": "\u0111",
    "665": "\u0120bit",
    "890": "\u0120bab",
    "880": "\u0120new",
    "1073": "\u0120away",
    "460": "\u0120out",
    "1688": "\u0120thatd",
    "1913": "\u0120comment",
    "462": "ur",
    "1440": "rate",
    "300": "ke",
    "80": "q",
    "608": "\u0120by",
    "1597": "\u0120fail",
    "1271": "\u0120ew",
    "1507": "\u0120experi",
    "580": "\u0120had",
    "1822": "\u0120stand",
    "1011": "\u0120room",
    "1949": "\u0120touch",
    "1456": "ffic",
    "828": "ue",
    "1331": "\u0120listen",
    "481": "\u0120-",
    "804": "\u0120start",
    "1709": "\u0120requ",
    "1327": "\u0120;",
    "121": "\u00bd",
    "1428": "ction",
    "225": "\u0125",
    "21": "6",
    "1961": "\u0120men",
    "375": "\u0120this",
    "263": "in",
    "245": "\u0139",
    "1028": "\u0120mine",
    "1055": "\u0120watch",
    "980": "ither",
    "972": "\u0120add",
    "54": "W",
    "352": "\u0120an",
    "1372": "\u0120seem",
    "739": "\u0120hey",
    "92": "}",
    "751": "ber",
    "72": "i",
    "1625": "ility",
    "1941": "\u0120contin",
    "1574": "\u0120relationship",
    "1986": "ats",
    "175": "\u00f3",
    "1017": "ount",
    "1038": "\u0120des",
    "1552": "\u0120speak",
    "1777": "\u0120minutes",
    "810": "\u0120geor",
    "1828": "\u0120techn",
    "252": "\u0140",
    "893": "\u0120fl",
    "736": "\u0120please",
    "59": "\\",
    "260": "\u0120th",
    "1459": "\u0120damn",
    "516": "\u0120see",
    "963": "\u0120boo",
    "1286": "\u0120meds",
    "489": "\u0120hon",
    "416": "ink",
    "296": "it",
    "1870": "iny",
    "612": "\u0120didnt",
    "1924": "\u0120server",
    "532": "\u0120right",
    "1528": "ert",
    "1998": "\u0120type",
    "1771": "20",
    "1434": "\u0120apparently",
    "1088": "\u0120dad",
    "154": "\u00de",
    "866": "\u0120first",
    "47": "P",
    "104": "\u00ab",
    "1515": "\u0120door",
    "977": "ved",
    "664": "\u0120self",
    "1056": "\u0120music",
    "323": "\u0120go",
    "634": "\u0120ad",
    "1635": "cially",
    "1581": "\u0120meow",
    "1807": "\u0120close",
    "1829": "\u0120gre",
    "1962": "\u0120dri",
    "464": "\u0120v",
    "565": "\u0120way",
    "1292": "\u0120swe",
    "1460": "\u0120needs",
    "411": "ill",
    "293": "ve",
    "1866": "ark",
    "1326": "set",
    "393": "ause",
    "264": "\u0120m",
    "1287": "\u0120meet",
    "503": "\u0120mu",
    "1076": "\u0120gl",
    "1788": "\u0120rant",
    "127": "\u00c3",
    "1879": "ones",
    "882": "\u0120george",
    "1496": "\u0120youd",
    "1245": "ident",
    "1504": "\u0120stra",
    "1236": "\u0120horrible",
    "288": "\u0120it",
    "334": "\u0120for",
    "1792": "\u0120situation",
    "495": "\u0120sp",
    "1735": "\u0120jesus",
    "111": "\u00b3",
    "1135": "\u0120days",
    "783": "\u0120doesnt",
    "1160": "\u0120bored",
    "1486": "lling",
    "1531": "\u0120clean",
    "1454": "\u0120yester",
    "1253": "\u0120guy",
    "1708": "\u0120address",
    "1993": "\u0120pizz",
    "669": "igh",
    "991": "\u0120sit",
    "190": "\u0102",
    "250": "\u013e",
    "1023": "ire",
    "1760": "ided",
    "688": "\u0120here",
    "1810": "\u0120trust",
    "41": "J",
    "648": "\u0120look",
    "84": "u",
    "727": "\u0120sm",
    "1601": "sent",
    "413": "\u0120are",
    "1341": "\u0120second",
    "1186": "\u0120ind",
    "1887": "\u0120hold",
    "1006": "oney",
    "786": "ity",
    "615": "lp",
    "1172": "\u0120ac",
    "170": "\u00ee",
    "1397": "\u0120video",
    "362": "ome",
    "1663": "\u0120val",
    "1694": "gr",
    "269": "\u0120y",
    "461": "ru",
    "844": "xt",
    "1884": "\u0120laugh",
    "1212": "\u0120name",
    "874": "\u0120mess",
    "552": "ack",
    "1090": "\u0120game",
    "1261": "\u0120guys",
    "1768": "cked",
    "945": "\u0120leg",
    "1002": "\u0120sl",
    "410": "\u0120wor",
    "1522": "\u0120\u00f0\u0141",
    "529": "art",
    "1346": "\u0120par",
    "730": "\u0120thought",
    "1275": "\u0120non",
    "1158": "\u0120years",
    "913": "\u0120imp",
    "425": "\u0120kevin",
    "1026": "\u0120op",
    "1447": "em",
    "1801": "gu",
    "1550": "ional",
    "1378": "ester",
    "193": "\u0105",
    "543": "\u0120dun",
    "541": "\u0120work",
    "643": "wn",
    "1492": "using",
    "1740": "\u0120child",
    "1317": "ory",
    "1337": "\u0120open",
    "1469": "ering",
    "1553": "unch",
    "1054": "\u0120def",
    "1425": "\u0120poo",
    "1748": "\u0120anxious",
    "1330": "\u0120bla",
    "903": "ib",
    "1856": "\u0120fan",
    "888": "\u0120oo",
    "1802": "\u0120water",
    "971": "\u0120old",
    "374": "ith",
    "1315": "\u0120xx",
    "1278": "ny",
    "156": "\u00e0",
    "271": "\u0120c",
    "872": "\u0120night",
    "842": "\u0120bu",
    "1329": "ox",
    "559": "\u0120say",
    "681": "\u0120nice",
    "1535": "\u0120pee",
    "133": "\u00c9",
    "412": "na",
    "1804": "\u0120est",
    "591": "\u0120much",
    "129": "\u00c5",
    "1572": "\u0120agree",
    "1860": "\u0120mass",
    "1791": "izz",
    "350": "\u0120u",
    "135": "\u00cb",
    "140": "\u00d0",
    "1112": "\u0120interest",
    "95": "\u00a2",
    "1795": "\u0120bir",
    "492": "\u01203",
    "1796": "\u0120lovely",
    "378": "\u0120ne",
    "840": "ions",
    "782": "\u0120part",
    "322": "\u0120re",
    "34": "C",
    "1649": "oint",
    "1698": "\u0120jes",
    "1179": "\u0120song",
    "1930": "airs",
    "714": "ope",
    "14": "/",
    "1803": "\u0120gets",
    "1871": "ket",
    "438": "ge",
    "990": "\u0120bed",
    "1665": "\u0120arsed",
    "1122": "\u0120dep",
    "1166": "uck",
    "191": "\u0103",
    "1240": "\u0120stay",
    "702": "ms",
    "766": "ict",
    "1988": "own",
    "1125": "\u0120dam",
    "258": "\u0120a",
    "1850": "\u0120woman",
    "1111": "\u0120awes",
    "870": "\u00c2\u00a3",
    "1437": "\u0120exper",
    "1309": "\u0120came",
    "1227": "\u0120hell",
    "119": "\u00bb",
    "943": "\u0120br",
    "584": "\u0120con",
    "792": "ady",
    "1539": "pm",
    "1990": "ities",
    "1322": "ures",
    "510": "\u0120ti",
    "1161": "\u0120able",
    "1559": "osed",
    "969": "\u0120told",
    "776": "ang",
    "1639": "\u0120fact",
    "918": "\u0120pretty",
    "1750": "\u0120adv",
    "775": "\u0120year",
    "244": "\u0138",
    "1350": "ndon",
    "756": "\u0120inst",
    "1276": "\u0120called",
    "422": "\u0120all",
    "1371": "\u0120hum",
    "613": "lo",
    "1607": "\u0120allowed",
    "1780": "\u0120internet",
    "1294": "\u0120stud",
    "68": "e",
    "1837": "\u0120seeing",
    "1882": "\u0120appoint",
    "763": "\u0120ca",
    "737": "ies",
    "1933": "\u0120actual",
    "231": "\u012b",
    "1653": "\u0120depress",
    "1778": "\u0120stru",
    "286": "es",
    "1980": "uine",
    "1974": "\u0120creat",
    "975": "\u0120fin",
    "1142": "\u0120gay",
    "1875": "\u0120cam",
    "1855": "\u0120side",
    "631": "ress",
    "304": "is",
    "1824": "\u0120fur",
    "785": "ways",
    "955": "\u0120havent",
    "1154": "\u0120stress",
    "71": "h",
    "316": "ow",
    "141": "\u00d1",
    "1479": "\u0120anyone",
    "1210": "ndom",
    "1526": "\u0120spam",
    "522": "ast",
    "1744": "\u0120hy",
    "1602": "\u0120amer",
    "1605": "\u0120almost",
    "942": "bs",
    "1843": "ye",
    "1343": "\u0120another",
    "731": "age",
    "236": "\u0130",
    "526": "\u0120ag",
    "1340": "\u0120ear",
    "1712": "\u0120chang",
    "1221": "ht",
    "748": "\u0120before",
    "617": "\u0120over",
    "1228": "\u0120smo",
    "932": "\u0120saying",
    "1784": "\u0120entire",
    "1463": "\u0120vib",
    "1568": "ode",
    "755": "red",
    "1499": "\u0120hugs",
    "488": "our",
    "1255": "\u0120sy",
    "1623": "\u0120dead",
    "738": "\u0120elodie",
    "1448": "\u0120dj",
    "1900": "\u0120gone",
    "1994": "\u0120direct",
    "1029": "iffe",
    "27": "<",
    "1411": "ates",
    "1608": "\u0120geepy",
    "1081": "\u0120mum",
    "1354": "10",
    "329": "\u0120we",
    "445": "\u0120god",
    "290": "ed",
    "1094": "erest",
    "784": "\u0120med",
    "414": "th",
    "381": "ate",
    "237": "\u0131",
    "779": "ise",
    "1033": "\u0120gen",
    "38": "G",
    "1202": "sed",
    "265": "\u0120b",
    "1225": "\u0120cur",
    "845": "\u0120pr",
    "1815": "ding",
    "1005": "\u0120plan",
    "1385": "\u0120sick",
    "947": "sh",
    "177": "\u00f5",
    "1869": "\u0120realised",
    "944": "\u0120best",
    "1478": "\u0120seen",
    "830": "ens",
    "881": "ach",
    "246": "\u013a",
    "625": "if",
    "686": "int",
    "1987": "\u0120genuine",
    "1260": "\u0120wife",
    "1010": "\u0120thr",
    "1013": "\u0120wont",
    "605": "\u0120el",
    "586": "\u0120ill",
    "1566": "\u0120ten",
    "667": "\u0120said",
    "1421": "ute",
    "1067": "\u0120dr",
    "336": "\u0120not",
    "1938": "\u0120?",
    "1133": "rible",
    "859": "\u0120wee",
    "578": "ort",
    "36": "E",
    "933": "\u0120ser",
    "1431": "\u0120worse",
    "254": "\u0142",
    "107": "\u00af",
    "115": "\u00b7",
    "1682": "be",
    "1177": "\u00f3\u00be",
    "1984": "\u0120card",
    "1442": "\u0120enjo",
    "1426": "\u0120using",
    "871": "\u0120tw",
    "1861": "\u0120bag",
    "1655": "jk",
    "93": "~",
    "930": "\u0120conf",
    "1737": "gy",
    "1118": "\u0120gr",
    "505": "\u0120fa",
    "168": "\u00ec",
    "1999": "<UNK>",
    "887": "ason",
    "11": ",",
    "1759": "\u0120pass",
    "556": "\u0120time",
    "1681": "ilar",
    "219": "\u011f",
    "1589": "\u0120buy",
    "1420": "iety",
    "1366": "\u0120ver",
    "397": "\u0120al",
    "366": "\u0120what",
    "1865": "000",
    "1231": "ered",
    "1968": "\u0120sexual",
    "24": "9",
    "1475": "\u0120ed",
    "1068": "ible",
    "908": "\u0120little",
    "314": "\u0120im",
    "1785": "\u0120mat",
    "567": "ig",
    "360": "ma",
    "684": "ich",
    "1908": "\u0120worth",
    "65": "b",
    "116": "\u00b8",
    "710": "\u0120very",
    "1296": "\u0120perfect",
    "10": "+",
    "1477": "\u0120gra",
    "820": "\u0120literally",
    "518": "\u0120r",
    "1300": "\u0120past",
    "1775": "\u0120attack",
    "1881": "js",
    "1392": "du",
    "1272": "ked",
    "1755": "sy",
    "867": "ating",
    "1382": "uss",
    "1427": "yes",
    "988": "\u0120hor",
    "1395": "\u0120appre",
    "364": "ght",
    "563": "\u0120prob",
    "476": "\u0120feel",
    "136": "\u00cc",
    "1214": "\u0120suck",
    "226": "\u0126",
    "1567": "\u0120tea",
    "1108": "lain",
    "952": "ready",
    "1414": "ations",
    "1249": "\u0120comput",
    "1952": "\u0120black",
    "1893": "fair",
    "1030": "\u0120tomor",
    "594": "\u0120sc",
    "483": "\u0120when",
    "1195": "\u0120france",
    "251": "\u013f",
    "940": "\u0120feeling",
    "1940": "com",
    "1971": "\u0120hit",
    "735": "\u0120into",
    "1150": "eep",
    "1066": "\u0120around",
    "1643": "\u0120between",
    "469": "ha",
    "1603": "\u0120amazing",
    "1162": "de",
    "826": "\u01204",
    "720": "ays",
    "1888": "pl",
    "974": "ts",
    "327": "et",
    "1268": "\u012020",
    "1830": "pped",
    "692": "\u0120comp",
    "1217": "ted",
    "232": "\u012c",
    "1684": "\u0120flat",
    "1251": "\u0120together",
    "827": "\u0120play",
    "846": "!?",
    "691": "iss",
    "458": "\u0120de",
    "161": "\u00e5",
    "524": "\u0120haha",
    "1432": "lete",
    "937": "\u0120anno",
    "931": "ol",
    "935": "\u0120done",
    "401": "..",
    "333": "ust",
    "1270": "\u0120bus",
    "1274": "\u0120post",
    "143": "\u00d3",
    "1114": "\u0120scared",
    "100": "\u00a7",
    "1348": "\u0120until",
    "202": "\u010e",
    "125": "\u00c1",
    "1746": "\u0120froggy",
    "1069": "cept",
    "1818": "ng",
    "70": "g",
    "1716": "\u0120die",
    "167": "\u00eb",
    "558": "ation",
    "295": "\u0120e",
    "761": "\u0120supp",
    "1666": "rr",
    "653": "\u0120jo",
    "419": "\u0120ab",
    "966": "\u0120food",
    "1491": "ject",
    "597": "um",
    "447": "im",
    "181": "\u00f9",
    "1319": "\u0120wom",
    "1705": "gra",
    "1201": "\u0120sk",
    "1443": "\u0120obv",
    "395": "se",
    "1356": "\u0120commun",
    "1495": "\u0120whilst",
    "1040": "\u0120diffe",
    "203": "\u010f",
    "1279": "\u01209",
    "1047": "ign",
    "346": "\u0120was",
    "1652": "\u0120follow",
    "657": "mm",
    "1800": "ately",
    "1506": "\u0120tired",
    "1852": "\u0120throw",
    "89": "z",
    "587": "\u0120been",
    "380": "ion",
    "750": "\u0120fucking",
    "1982": "\u0120shout",
    "1525": "ica",
    "1070": "\u0120umm",
    "1935": "fer",
    "78": "o",
    "197": "\u0109",
    "1131": "\u0120times",
    "213": "\u0119",
    "1683": "\u0120outside",
    "1693": "\u0120creep",
    "1107": "\u0120picture",
    "542": "\u0120wa",
    "1669": "\u0120sexy",
    "1704": "app",
    "689": "ass",
    "1388": "uring",
    "1078": "urn",
    "1604": "\u0120funny",
    "875": "\u0120house",
    "1576": "\u0120hurt",
    "726": "\u0120hes",
    "1462": "\u0120yesterday",
    "855": "atch",
    "146": "\u00d6",
    "847": "ning",
    "1849": "\u0120ev",
    "275": "\u0120f",
    "572": "ain",
    "1969": "\u0120korea",
    "1676": "\u0120z",
    "1901": "mme",
    "753": "\u0120sleep",
    "1003": "\u0120super",
    "291": "\u0120and",
    "666": "ty",
    "513": "\u0120more",
    "854": "\u0120made",
    "1915": "\u0120piss",
    "1509": "ship",
    "228": "\u0128",
    "305": "ut",
    "1955": "\u0120ef",
    "1958": "ied",
    "1922": "min",
    "16": "1",
    "985": "ared",
    "130": "\u00c6",
    "656": "\u0120fri",
    "1833": "\u0120soo",
    "186": "\u00fe",
    "517": "\u0120though",
    "747": "\u0120stuff",
    "1724": "\u0120tou",
    "1846": "\u0120win",
    "1757": "\u0120ba",
    "2": "#",
    "1976": "\u0120key",
    "1267": "\u0120discord",
    "376": "\u0120lma",
    "1127": "\u0120remember",
    "768": "ss",
    "1394": "\u0120health",
    "1910": "arch",
    "1417": "\u0120btw",
    "672": "\u0120pre",
    "415": "\u0120know",
    "134": "\u00ca",
    "609": "\u0120lit",
    "1192": "\u0120proper",
    "983": "ary",
    "1223": "\u0120cre",
    "1914": "pecially",
    "1450": "\u0120felt",
    "449": "fe",
    "1259": "\u0120mins",
    "546": "\u0120were",
    "367": "ct",
    "571": "\u0120char",
    "1100": "\u0120cra",
    "1490": "\u0120import",
    "150": "\u00da",
    "457": "\u0120any",
    "725": "\u0120ro",
    "484": "\u0120sor",
    "1996": "\u0120ret",
    "902": "\u0120nah",
    "1453": "ude",
    "655": "and",
    "1313": "led",
    "1480": "eal",
    "1633": "\u00e2\u0122",
    "48": "Q",
    "1141": "iously",
    "781": "aa",
    "622": "ably",
    "1482": "\u0120asking",
    "1995": "\u0120properly",
    "261": "\u0120w",
    "451": "\u0120want",
    "1634": "\u0120morning",
    "850": "\u0120pret",
    "243": "\u0137",
    "1707": "ising",
    "404": "ore",
    "1896": "vour",
    "869": "\u0120cute",
    "1591": "\u0120diffic",
    "15": "0",
    "1488": "\u0120later",
    "1230": "\u0120once",
    "1196": "\u0120proble",
    "1959": "\u0120psy",
    "610": "\u0120ta",
    "1455": "\u0120anxiety",
    "44": "M",
    "475": "ie",
    "508": "\u0120xd",
    "1583": "\u0120,",
    "848": "ile",
    "1157": "\u0120without",
    "515": "\u0120then",
    "645": "\u0120same",
    "687": "ought",
    "927": "mor",
    "157": "\u00e1",
    "266": "re",
    "1360": "\u0120car",
    "773": "\u0120weird",
    "1964": "\u0120ready",
    "0": "!",
    "1232": "\u0120break",
    "1841": "\u0120rem",
    "917": "irl",
    "1920": "\u0120chill",
    "1242": "\u0120etc",
    "1770": "\u0120scream",
    "223": "\u0123",
    "408": "\u0120get",
    "853": "co",
    "891": "orm",
    "1844": "\u0120cho",
    "553": "\u0120dunno",
    "1039": "ater",
    "148": "\u00d8",
    "1155": "med",
    "1176": "\u0120set",
    "1714": "\u0120autistic",
    "1213": "cy",
    "1527": "\u0120ban",
    "1798": "\u0120scre",
    "66": "c",
    "355": "out",
    "876": "\u0120today",
    "1098": "\u0120worry",
    "500": "ine",
    "1159": "\u0120found",
    "444": "\u0120did",
    "1616": "cing",
    "174": "\u00f2",
    "321": "\u0120is",
    "929": "ft",
    "247": "\u013b",
    "1051": "\u012010",
    "407": "\u0120thing",
    "701": "\u0120call",
    "1586": "\u0120while",
    "583": "ther",
    "22": "7",
    "1642": "\u0120except",
    "1741": "\u0120crying",
    "1619": "\u0120deal",
    "698": "leep",
    "1794": "\u0120xxx",
    "1899": "lier",
    "754": "\u0120wr",
    "1562": "\u0120communic",
    "446": "\u0120think",
    "128": "\u00c4",
    "42": "K",
    "1183": "\u0120wal",
    "1383": "lic",
    "1960": "\u0120defo",
    "1617": "\u0120load",
    "618": "\u0120who",
    "596": "\u0120stu",
    "1776": "\u0120da",
    "744": "ird",
    "1281": "ract",
    "239": "\u0133",
    "1547": "\u0120dist",
    "1266": "\u0120sim",
    "989": "\u0120used",
    "1739": "\u0120boring",
    "1787": "\u0120xox",
    "1152": "lt",
    "108": "\u00b0",
    "633": "\u0120will",
    "498": "ter",
    "512": "\u0120mo",
    "1931": "\u0120cuddles",
    "198": "\u010a",
    "1252": "\u0120explain",
    "103": "\u00aa",
    "1403": "\u0120meh",
    "1465": "\u0120nd",
    "1035": "\u0120month",
    "1685": "\u0120smoke",
    "812": "ically",
    "1872": "\u0120shut",
    "435": "ough",
    "7": "(",
    "997": "\u0120rep",
    "88": "y",
    "1520": "bb",
    "745": "\u0120might",
    "1381": "\u0120.",
    "1580": "\u0120accident",
    "278": "\u0120you",
    "91": "|",
    "1548": "\u0120luck",
    "787": "\u0120sigh",
    "1738": "\u0120small",
    "1116": "\u0120comm",
    "679": "\u0120tal",
    "1927": "\u0120embar",
    "270": "\u0120d",
    "1218": "\u0120such",
    "722": "00",
    "579": "\u0120every",
    "1": "\"",
    "1588": "\u0120change",
    "1032": "\u0120support",
    "455": "no",
    "1598": "ped",
    "1689": "\u0120america",
    "566": "\u0120id",
    "387": "op",
    "1391": "\u0120moment",
    "1845": "\u0120age",
    "284": "\u0120p",
    "962": "\u0120point",
    "986": "\u0120send",
    "1521": "\u0120ve",
    "1511": "\u0120tri",
    "289": "on",
    "1187": "\u0120whole",
    "668": "nder",
    "326": "\u0120li",
    "1534": "\u0120happened",
    "3": "$",
    "472": "one",
    "1543": "\u0120geep",
    "614": "??",
    "1811": "\u0120online",
    "259": "\u0120s",
    "1826": "\u0120scary",
    "1721": "\u0120stupid",
    "1557": "most",
    "1627": "side",
    "1310": "\u0120tech",
    "1790": "\u0120track",
    "43": "L",
    "1556": "\u0120important",
    "1097": "\u0120ins",
    "436": "\u0120pro",
    "216": "\u011c",
    "1827": "\u0120chr",
    "1301": "\u0120awkward",
    "268": "\u0120o",
    "1590": "\u0120sign",
    "173": "\u00f1",
    "1189": "\u0120rest",
    "487": "\u0120need",
    "809": "\u0120sounds",
    "1544": "\u0120mid",
    "683": "ble",
    "403": "\u0120su",
    "1582": "\u0120train",
    "815": "imes",
    "920": "\u0120disc",
    "650": "\u0120back",
    "602": "\u0120gu",
    "320": "\u0120but",
    "1439": "\u0120mor",
    "221": "\u0121",
    "1558": "\u0120current",
    "1718": "\u0120forgot",
    "431": "ess",
    "1174": "\u0120pet",
    "1715": "\u0120sing",
    "1282": "\u0120awk",
    "1671": "ings",
    "312": "le",
    "342": "ver",
    "800": "\u0120theyre",
    "58": "[",
    "1457": "ments",
    "33": "B",
    "841": "\u0120son",
    "1128": "\u0120left",
    "1353": "ness",
    "1441": "\u0120late",
    "1593": "\u0120walk",
    "1493": "\u0120jokes",
    "1786": "itch",
    "338": "\u0120he",
    "1494": "\u0120situ",
    "207": "\u0113",
    "1797": "\u0120definitely",
    "1595": "ween",
    "1342": "100",
    "172": "\u00f0",
    "1985": "\u0120couple",
    "1219": "\u0120es",
    "528": "\u0120gon",
    "548": "ere",
    "926": "\u0120phone",
    "996": "mber",
    "814": "\u0120better",
    "1628": "\u0120usually",
    "1546": "\u0120drink",
    "611": "ting",
    "1667": "ption",
    "94": "\u00a1",
    "1487": "\u0120nobody",
    "1813": "\u0120cheese",
    "114": "\u00b6",
    "349": "ally",
    "1022": "\u0120inc",
    "359": "ri",
    "87": "x",
    "1729": "\u0120goog",
    "1138": "body",
    "547": "\u0120she",
    "29": ">",
    "184": "\u00fc",
    "1380": "\u0120alone",
    "1061": "\u0120ho",
    "573": "\u0120peop",
    "936": "\u0120mus",
    "1723": "\u0120pick",
    "241": "\u0135",
    "491": "\u0120honest",
    "1498": "\u0120says",
    "1280": "io",
    "49": "R",
    "719": "\u0120which",
    "1943": "\u0120mic",
    "794": "\u0120kinda",
    "1209": "rect",
    "335": "al",
    "165": "\u00e9",
    "1621": "\u0120works",
    "1406": "iting",
    "282": "\u0120n",
    "1668": "\u0120telling",
    "1472": "ited",
    "351": "\u0120its",
    "915": "\u0120show",
    "1670": "mail",
    "1967": "\u0120valid",
    "1897": "\u0120spend",
    "833": "li",
    "153": "\u00dd",
    "1077": "\u0120seems",
    "118": "\u00ba",
    "1332": "tw",
    "1071": "\u0120else",
    "56": "Y",
    "1934": "\u0120phys",
    "292": "us",
    "1847": "\u0120flo",
    "1205": "cent",
    "1344": "\u0120half",
    "696": "ci",
    "1948": "\u0120ner",
    "361": "hh",
    "1720": "\u0120poop",
    "1470": "ggest",
    "506": "\u0120good",
    "1080": "\u0120job",
    "862": "\u0120acc",
    "1452": "\u0120ref",
    "1587": "cri",
    "1248": "\u0120ty",
    "319": "ly",
    "711": "\u0120where",
    "1306": "\u0120computer",
    "603": "\u0120does",
    "959": "fect",
    "206": "\u0112",
    "825": "\u0120going",
    "1169": "\u0120gotta",
    "949": "\u0120happy",
    "1903": "\u0120quick",
    "1140": "\u0120somet",
    "297": "\u0120wh",
    "1730": "\u0120world",
    "715": "\u0120things",
    "1710": "\u0120took",
    "1351": "\u0120each",
    "1147": "\u0120et",
    "1609": "\u0120egg",
    "57": "Z",
    "662": "ear",
    "878": "\u0120bre",
    "1809": "\u0120moving",
    "1702": "\u0120playing",
    "1854": "gan",
    "863": "ix",
    "592": "ot",
    "212": "\u0118",
    "1246": "\u0120pain",
    "1921": "\u0120accept",
    "1599": "ges",
    "678": "\u0120pers",
    "759": "\u0120har",
    "549": "\u0120youre",
    "421": "\u0120can",
    "1686": "\u0120eff",
    "1946": "ertain",
    "83": "t",
    "1752": "\u0120joke",
    "1238": "ues",
    "1626": "\u0120reply",
    "309": "\u0120my",
    "973": "\u0120these",
    "1369": "\u0120glad",
    "1765": "\u0120sha",
    "928": "\u0120cat",
    "575": "\u0120:)",
    "879": "\u0120ga",
    "255": "\u0143",
    "796": "\u0120school",
    "299": "\u0120no",
    "1020": "\u0120wrong",
    "525": "ive",
    "1134": "\u0120those",
    "1569": "\u0120sec",
    "199": "\u010b",
    "1396": "\u0120quest",
    "306": "om",
    "1917": "thers",
    "1048": "\u0120clo",
    "502": "\u0120mean",
    "934": "\u0120ru",
    "885": "rent",
    "829": "\u0120trying",
    "1207": "\u0120ooh",
    "582": "\u0120people",
    "337": "\u0120sh",
    "797": "\u0120always",
    "1571": "\u0120rec",
    "86": "w",
    "1018": "\u0120making",
    "182": "\u00fa",
    "354": "ld",
    "1501": "\u0120problem",
    "1124": "\u0120eat",
    "1592": "iew",
    "1102": "ised",
    "1859": "\u0120asleep",
    "1151": "\u0120either",
    "1444": "\u0120pete",
    "1734": "ial",
    "1596": "\u0120confused",
    "1265": "\u0120eas",
    "1120": "\u0120ob",
    "1363": "ush",
    "1079": "ple",
    "1646": "\u0120low",
    "1909": "\u0120shouldnt",
    "1096": "\u0120two",
    "777": "\u0120true",
    "707": "act",
    "151": "\u00db",
    "1093": "\u0120hmm",
    "1898": "mb",
    "1662": "\u0120arent",
    "1743": "fort",
    "1321": "jo",
    "627": "\u0120help",
    "724": "ks",
    "30": "?",
    "994": "less",
    "774": "ult",
    "616": "per",
    "1049": "\u0120ment",
    "716": "\u0120tru",
    "249": "\u013d",
    "639": "ite",
    "590": "lf",
    "1269": "\u0120bel",
    "509": "\u0120also",
    "795": "\u0120down",
    "1165": "\u0120hur",
    "1754": "\u0120wonder",
    "746": "ent",
    "1146": "\u0120wish",
    "1675": "\u0120often",
    "728": "\u0120ra",
    "204": "\u0110",
    "1387": "outh",
    "218": "\u011e",
    "805": "\u0120sw",
    "406": "pp",
    "1328": "\u0120hear",
    "868": "stand",
    "545": "\u0120co",
    "4": "%",
    "166": "\u00ea",
    "1418": "\u0120sur",
    "638": "\u0120un",
    "1690": "utes",
    "443": "\u0120one",
    "1579": "unk",
    "1781": "\u0120book",
    "530": "\u0120well",
    "310": "ar",
    "137": "\u00cd",
    "285": "ll",
    "674": "\u0120friend",
    "1311": "\u0120sense",
    "1113": "omet",
    "958": "\u0120aut",
    "619": "\u0120could",
    "640": "\u0120probably",
    "1640": "\u0120count",
    "1316": "\u0120cudd",
    "1658": "\u0120cou",
    "1561": "\u0120believe",
    "303": "as",
    "1975": "ade",
    "1656": "\u0120till",
    "577": "ick",
    "1445": "ew",
    "1239": "\u0120ones",
    "1199": "\u0120wouldnt",
    "131": "\u00c7",
    "1928": "\u0120toilet",
    "1247": "ism",
    "1700": "\u0120obviously",
    "1117": "bo",
    "1398": "\u0120since",
    "1087": "\u0120answ",
    "1516": "\u0120order",
    "1789": "he",
    "1091": "\u0120legit",
    "1263": "log",
    "189": "\u0101",
    "1339": "vel",
    "540": "\u0120pe",
    "1517": "\u0120mainly",
    "253": "\u0141",
    "1446": "zing",
    "791": "\u0120em",
    "877": "ody",
    "450": "\u0120am",
    "400": "\u0120if",
    "1512": "\u0120tried",
    "480": "\u0120com",
    "405": "\u0120kn",
    "1291": "\u0120unt",
    "569": "\u01202",
    "557": "ff",
    "159": "\u00e3",
    "1722": "zy",
    "1736": "\u0120pu",
    "1468": "\u0120art",
    "6": "'",
    "1793": "\u0120slight",
    "164": "\u00e8",
    "1774": "\u0120tot",
    "1835": "\u0120pres",
    "910": "\u0120sad",
    "564": "\u0120us",
    "816": "\u0120per",
    "1449": "\u0120mental",
    "1085": "\u0120great",
    "1497": "\u0120fucks",
    "113": "\u00b5",
    "1137": "\u0120pay",
    "507": "\u0120aw",
    "1762": "mpt",
    "23": "8",
    "839": "\u0120cont",
    "238": "\u0132",
    "20": "5",
    "240": "\u0134",
    "562": "ook",
    "1645": "\u0120fre",
    "494": "ound",
    "1560": "\u0120smink",
    "1182": "\u0120talking",
    "76": "m",
    "1773": "\u0120kiss",
    "1783": "\u0120normal",
    "1991": "\u0120white",
    "1237": "\u0120boy",
    "1923": "\u0120er",
    "941": "ps",
    "1194": "\u0120high",
    "749": "\u0120under",
    "192": "\u0104",
    "780": "\u0120ever",
    "1610": "\u0120brain",
    "1235": "\u0120move",
    "210": "\u0116",
    "234": "\u012e",
    "1902": "\u0120forever",
    "904": "ual",
    "399": "ra",
    "1008": "\u0120theres",
    "50": "S",
    "1819": "\u0120fault",
    "652": "\u0120wait",
    "1233": "vent",
    "1012": "el",
    "1290": "ect",
    "647": "\u0120actually",
    "1565": "\u0120defin",
    "1052": "\u0120anx",
    "220": "\u0120",
    "1072": "\u0120cry",
    "40": "I",
    "1701": "\u0120uwu",
    "831": "te",
    "713": "fore",
    "789": "\u0120min",
    "344": "ad",
    "5": "&",
    "276": "nd",
    "144": "\u00d4",
    "1963": "\u0120earlier",
    "533": "ool",
    "1989": "ices",
    "964": "\u0120isnt",
    "280": "\u0120to",
    "1359": "\u0120must",
    "1312": "cond",
    "1660": "cess",
    "1857": "ksks",
    "1361": "ross",
    "1519": "\u0120upset",
    "521": "ice",
    "385": "\u0120fu",
    "75": "l",
    "1031": "\u0120through",
    "1814": "\u0120finally",
    "1461": "\u0120started",
    "1978": "\u0120recent",
    "1731": "itely",
    "1631": "\u0120emb",
    "999": "\u0120exact",
    "339": "ck",
    "332": "\u0120st",
    "324": "en",
    "905": "ak",
    "894": "\u0120understand",
    "824": "\u0120aww",
    "1424": "\u0120safe",
    "433": "eah",
    "554": "end",
    "995": "arly",
    "1970": "\u0120apo",
    "1295": "\u0120looking",
    "1953": "\u0120fix",
    "1661": "\u0120text",
    "1745": "\u0120tv",
    "822": "\u0120find",
    "925": "\u0120least",
    "1545": "\u0120relation",
    "1808": "\u0120suppose",
    "1000": "\u0120nothing",
    "601": "\u0120there",
    "1892": "\u0120stuck",
    "456": "king",
    "208": "\u0114",
    "1541": "\u0120yours",
    "1612": "\u0120fore",
    "1524": "df",
    "35": "D",
    "273": "ing",
    "463": "\u0120hate",
    "1104": "\u0120ass",
    "1584": "ian",
    "1086": "mo",
    "242": "\u0136",
    "368": "\u0120:",
    "420": "am",
    "630": "\u0120bad",
    "1726": "\u0120effort",
    "1904": "\u0120prom",
    "1407": "\u0120hair",
    "274": "\u0120l",
    "1404": "\u0120worried",
    "74": "k",
    "46": "O",
    "984": "ves",
    "1756": "\u0120hang",
    "700": "\u0120has",
    "906": "\u0120miss",
    "898": "\u0120pict",
    "939": "ta",
    "555": "\u0120would"
}