{
  "version": "1.0",
  "truncation": null,
  "padding": null,
  "added_tokens": [
    {
      "id": 0,
      "content": "<UNK>",
      "single_word": false,
      "lstrip": false,
      "rstrip": false,
      "normalized": false,
      "special": true
    }
  ],
  "normalizer": null,
  "pre_tokenizer": {
    "type": "ByteLevel",
    "add_prefix_space": true,
    "trim_offsets": true,
    "use_regex": true
  },
  "post_processor": null,
  "decoder": null,
  "model": {
    "type": "BPE",
    "dropout": null,
    "unk_token": "<UNK>",
    "continuing_subword_prefix": null,
    "end_of_word_suffix": null,
    "fuse_unk": false,
    "byte_fallback": false,
    "ignore_merges": false,
    "vocab": {
      "<UNK>": 0,
      "!": 1,
      "\"": 2,
      "%": 3,
      "&": 4,
      "'": 5,
      "(": 6,
      ")": 7,
      "*": 8,
      "+": 9,
      ",": 10,
      "-": 11,
      ".": 12,
      "/": 13,
      "0": 14,
      "1": 15,
      "2": 16,
      "3": 17,
      "4": 18,
      "5": 19,
      "6": 20,
      "7": 21,
      "8": 22,
      "9": 23,
      ":": 24,
      ";": 25,
      "<": 26,
      "=": 27,
      ">": 28,
      "?": 29,
      "@": 30,
      "^": 31,
      "_": 32,
      "a": 33,
      "b": 34,
      "c": 35,
      "d": 36,
      "e": 37,
      "f": 38,
      "g": 39,
      "h": 40,
      "i": 41,
      "j": 42,
      "k": 43,
      "l": 44,
      "m": 45,
      "n": 46,
      "o": 47,
      "p": 48,
      "q": 49,
      "r": 50,
      "s": 51,
      "t": 52,
      "u": 53,
      "v": 54,
      "w": 55,
      "x": 56,
      "y": 57,
      "z": 58,
      "|": 59,
      "~": 60,
      "£": 61,
      "¦": 62,
      "Â": 63,
      "â": 64,
      "ð": 65,
      "Ġ": 66,
      "Ģ": 67,
      "į": 68,
      "ĺ": 69,
      "ľ": 70,
      "Ŀ": 71,
      "Ł": 72,
      "Ġi": 73,
      "Ġt": 74,
      "Ġa": 75,
      "Ġw": 76,
      "Ġs": 77,
      "Ġth": 78,
      "in": 79,
      "Ġm": 80,
      "ou": 81,
      "Ġb": 82,
      "re": 83,
      "Ġh": 84,
      "Ġo": 85,
      "Ġd": 86,
      "ing": 87,
      "at": 88,
      "Ġl": 89,
      "Ġc": 90,
      "Ġf": 91,
      "er": 92,
      "Ġy": 93,
      "Ġthe": 94,
      "nd": 95,
      "Ġto": 96,
      "Ġn": 97,
      "Ġp": 98,
      "an": 99,
      "on": 100,
      "ll": 101,
      "en": 102,
      "or": 103,
      "Ġyou": 104,
      "es": 105,
      "Ġg": 106,
      "Ġit": 107,
      "ed": 108,
      "Ġwh": 109,
      "us": 110,
      "Ġand": 111,
      "it": 112,
      "is": 113,
      "Ġno": 114,
      "as": 115,
      "Ġu": 116,
      "ke": 117,
      "Ġme": 118,
      "Ġe": 119,
      "Ġbe": 120,
      "ve": 121,
      "ay": 122,
      "ic": 123,
      "ut": 124,
      "Ġha": 125,
      "om": 126,
      "Ġthat": 127,
      "Ġdo": 128,
      "le": 129,
      "ar": 130,
      "Ġin": 131,
      "Ġis": 132,
      "et": 133,
      "ly": 134,
      "ow": 135,
      "Ġwe": 136,
      "oo": 137,
      "Ġon": 138,
      "Ġmy": 139,
      "Ġj": 140,
      "Ġre": 141,
      "Ġli": 142,
      "Ġbut": 143,
      "Ġof": 144,
      "id": 145,
      "al": 146,
      "gh": 147,
      "Ġst": 148,
      "Ġfor": 149,
      "all": 150,
      "Ġhe": 151,
      "Ġsh": 152,
      "Ġwas": 153,
      "Ġim": 154,
      "Ġnot": 155,
      "ust": 156,
      "Ġwhat": 157,
      "ro": 158,
      "ad": 159,
      "ck": 160,
      "Ġk": 161,
      "Ġan": 162,
      "ver": 163,
      "Ġjust": 164,
      "Ġlike": 165,
      "Ġso": 166,
      "ld": 167,
      "out": 168,
      "am": 169,
      "ally": 170,
      "ant": 171,
      "ee": 172,
      "ch": 173,
      "ot": 174,
      "ct": 175,
      "ent": 176,
      "ma": 177,
      "ri": 178,
      "ith": 179,
      "se": 180,
      "Ġ:": 181,
      "use": 182,
      "Ġwhy": 183,
      "ir": 184,
      "ght": 185,
      "Ġhave": 186,
      "Ġdon": 187,
      "ea": 188,
      "st": 189,
      "im": 190,
      "Ġne": 191,
      "Ġat": 192,
      "Ġwith": 193,
      "Ġthis": 194,
      "mao": 195,
      "Ġch": 196,
      "ry": 197,
      "ce": 198,
      "Ġlmao": 199,
      "ill": 200,
      "nt": 201,
      "ion": 202,
      "op": 203,
      "Ġas": 204,
      "ate": 205,
      "ome": 206,
      "Ġits": 207,
      "ould": 208,
      "Ġke": 209,
      "Ġal": 210,
      "th": 211,
      "Ġare": 212,
      "ause": 213,
      "un": 214,
      "Ġor": 215,
      "Ġwor": 216,
      "'s": 217,
      "king": 218,
      "Ġif": 219,
      "..": 220,
      "'t": 221,
      "ra": 222,
      "pp": 223,
      "Ġthey": 224,
      "Ġsu": 225,
      "Ġab": 226,
      "Ġcan": 227,
      "ore": 228,
      "ist": 229,
      "Ġlo": 230,
      "Ġget": 231,
      "Ġgo": 232,
      "vin": 233,
      "Ġkevin": 234,
      "ab": 235,
      "Ġkn": 236,
      "Ġfu": 237,
      "Ġma": 238,
      "ink": 239,
      "hh": 240,
      "ge": 241,
      "Ġwant": 242,
      "Ġup": 243,
      "Ġknow": 244,
      "Ġdid": 245,
      "ood": 246,
      "ess": 247,
      "Ġdont": 248,
      "Ġabout": 249,
      "Ġall": 250,
      "Ġohh": 251,
      "'m": 252,
      "eah": 253,
      "Ġpl": 254,
      "Ġnow": 255,
      "Ġyeah": 256,
      "Ġpro": 257,
      "Ġr": 258,
      "Ġfuck": 259,
      "Ġhow": 260,
      "Ġex": 261,
      "ter": 262,
      "Ġam": 263,
      "ven": 264,
      "Ġx": 265,
      "Ġthink": 266,
      "ep": 267,
      "na": 268,
      "ind": 269,
      "Ġok": 270,
      "Ġse": 271,
      "um": 272,
      "Ġany": 273,
      "ur": 274,
      "Ġyour": 275,
      "Ġlove": 276,
      "Ġout": 277,
      "Ġtoo": 278,
      "fe": 279,
      "Ġv": 280,
      "Ġone": 281,
      "Ġhate": 282,
      "no": 283,
      "Ġshe": 284,
      "very": 285,
      "Ġbec": 286,
      "Ġwhen": 287,
      "Ġ'": 288,
      "est": 289,
      "our": 290,
      "'re": 291,
      "ha": 292,
      "ight": 293,
      "Ġlist": 294,
      "eel": 295,
      "Ġreally": 296,
      "Ġsp": 297,
      "Ġneed": 298,
      "Ġom": 299,
      "il": 300,
      "ame": 301,
      "Ġfeel": 302,
      "Ġfr": 303,
      "Ġde": 304,
      "Ġeven": 305,
      "one": 306,
      "od": 307,
      "Ġfa": 308,
      "res": 309,
      "Ġwill": 310,
      "Ġloo": 311,
      "Ġsome": 312,
      "Ġ-": 313,
      "Ġsor": 314,
      "so": 315,
      "Ġsa": 316,
      "Ġmus": 317,
      "Ġthats": 318,
      "Ġlisten": 319,
      "Ġbecause": 320,
      "ul": 321,
      "Ġyes": 322,
      "Ġmean": 323,
      "Ġle": 324,
      "ound": 325,
      "Ġcom": 326,
      "ks": 327,
      "ite": 328,
      "ie": 329,
      "Ġthan": 330,
      "Ġmusic": 331,
      "Ġcon": 332,
      "ine": 333,
      "Ġwere": 334,
      "Ġsay": 335,
      "ice": 336,
      "Ġ1": 337,
      "gg": 338,
      "Ġtim": 339,
      "Ġcause": 340,
      "Ġgood": 341,
      "Ġxd": 342,
      "Ġaw": 343,
      "Ġsee": 344,
      "Ġalso": 345,
      "ers": 346,
      "Ġur": 347,
      "Ġomg": 348,
      "are": 349,
      "Ġmore": 350,
      "Ġsorry": 351,
      "ain": 352,
      "Ġthen": 353,
      "ast": 354,
      "Ġte": 355,
      "ive": 356,
      "Ġpe": 357,
      "lf": 358,
      "Ġthing": 359,
      "qu": 360,
      "art": 361,
      "Ġbeen": 362,
      "Ġhaha": 363,
      "Ġher": 364,
      "if": 365,
      "end": 366,
      "ack": 367,
      "ere": 368,
      "ong": 369,
      "Ġgot": 370,
      "Ġthem": 371,
      "Ġchar": 372,
      "Ġdoes": 373,
      "Ġtho": 374,
      "Ġwho": 375,
      "Ġag": 376,
      "Ġtb": 377,
      "Ġwell": 378,
      "Ġdun": 379,
      "Ġwa": 380,
      "ough": 381,
      "Ġwould": 382,
      "Ġen": 383,
      "hing": 384,
      "Ġfrom": 385,
      "Ġtime": 386,
      "Ġpeop": 387,
      "Ġ(": 388,
      "Ġhad": 389,
      "Ġdunno": 390,
      "Ġpo": 391,
      "!!": 392,
      "Ġact": 393,
      "ation": 394,
      "Ġprob": 395,
      "Ġpeople": 396,
      "Ġus": 397,
      "Ġthere": 398,
      "Ġlistening": 399,
      "ud": 400,
      "Ġtr": 401,
      "Ġun": 402,
      "Ġtal": 403,
      "Ġ2": 404,
      "Ġwan": 405,
      "ick": 406,
      "Ġmu": 407,
      "ting": 408,
      "ually": 409,
      "Ġ:)": 410,
      "Ġonly": 411,
      "Ġevery": 412,
      "Ġcharis": 413,
      "Ġmake": 414,
      "ous": 415,
      "Ġmuch": 416,
      "Ġint": 417,
      "Ġsc": 418,
      "ig": 419,
      "ase": 420,
      "Ġbeing": 421,
      "pe": 422,
      "...": 423,
      "Ġplay": 424,
      "Ġhim": 425,
      "Ġwork": 426,
      "Ġ:(": 427,
      "ff": 428,
      "Ġcould": 429,
      "ue": 430,
      "ving": 431,
      "and": 432,
      "Ġwanna": 433,
      "Ġshould": 434,
      "Ġmo": 435,
      "right": 436,
      "ort": 437,
      "ool": 438,
      "omet": 439,
      "pt": 440,
      "Ġbo": 441,
      "Ġgu": 442,
      "per": 443,
      "bs": 444,
      "lo": 445,
      "Ġsomet": 446,
      "lp": 447,
      "??": 448,
      "way": 449,
      "ably": 450,
      "Ġar": 451,
      "me": 452,
      "be": 453,
      "ag": 454,
      "Ġday": 455,
      "Ġmay": 456,
      "ard": 457,
      "Ġel": 458,
      "Ġover": 459,
      "Ġco": 460,
      "Ġby": 461,
      "Ġhelp": 462,
      "Ġtbh": 463,
      "Ġ<": 464,
      "Ġcant": 465,
      "ress": 466,
      "ure": 467,
      "Ġshit": 468,
      "Ġta": 469,
      "Ġlit": 470,
      "Ġbad": 471,
      "Ġprobably": 472,
      "Ġad": 473,
      "Ġtry": 474,
      "'ve": 475,
      "Ġstill": 476,
      "wn": 477,
      "ish": 478,
      "Ġbit": 479,
      "Ġkind": 480,
      "iss": 481,
      "'d": 482,
      "leep": 483,
      "ide": 484,
      "Ġhapp": 485,
      "Ġgoing": 486,
      "riend": 487,
      "ream": 488,
      "cc": 489,
      "Ġsame": 490,
      "ty": 491,
      "thing": 492,
      "Ġactually": 493,
      "day": 494,
      "'ll": 495,
      "Ġoff": 496,
      "Ġstu": 497,
      "Ġman": 498,
      "Ġwait": 499,
      "nder": 500,
      "Ġapp": 501,
      "Ġdis": 502,
      "self": 503,
      "Ġback": 504,
      "Ġhas": 505,
      "ear": 506,
      "ther": 507,
      "Ġqu": 508,
      "Ġple": 509,
      "igh": 510,
      "Ġcome": 511,
      "Ġsaid": 512,
      "Ġjo": 513,
      "ich": 514,
      "Ġid": 515,
      "her": 516,
      "ment": 517,
      "Ġsound": 518,
      "Ġway": 519,
      "Ġsleep": 520,
      "Ġplease": 521,
      "ass": 522,
      "Ġpre": 523,
      "ber": 524,
      "kes": 525,
      "ought": 526,
      "Ġgon": 527,
      "Ġ*": 528,
      "Ġhere": 529,
      "mm": 530,
      "Ġdoing": 531,
      "Ġsomething": 532,
      "Ġright": 533,
      "Ġtalk": 534,
      "int": 535,
      "ci": 536,
      "Ġcool": 537,
      "Ġnever": 538,
      "Ġbet": 539,
      "ble": 540,
      "ire": 541,
      "Ġge": 542,
      "Ġlife": 543,
      "Ġlook": 544,
      "Ġ3": 545,
      "Ġgonna": 546,
      "Ġcall": 547,
      "pl": 548,
      "Ġsm": 549,
      "ys": 550,
      "Ġnice": 551,
      "Ġwhich": 552,
      "Ġother": 553,
      "act": 554,
      "Ġhop": 555,
      "age": 556,
      "Ġgeor": 557,
      "Ġfriend": 558,
      "ang": 559,
      "Ġmad": 560,
      "Ġlooking": 561,
      "Ġvery": 562,
      "Ġra": 563,
      "Ġagain": 564,
      "fore": 565,
      "00": 566,
      "Ġthings": 567,
      "bsite": 568,
      "row": 569,
      "Ġmight": 570,
      "Ġtw": 571,
      "Ġaf": 572,
      "os": 573,
      "Ġlet": 574,
      "Ġwebsite": 575,
      "ance": 576,
      "Ġlot": 577,
      "able": 578,
      "ies": 579,
      "Ġro": 580,
      "Ġfair": 581,
      "Ġthought": 582,
      "Ġtell": 583,
      "Ġph": 584,
      "Ġmaybe": 585,
      "Ġcut": 586,
      "Ġunder": 587,
      "Ġinto": 588,
      "ree": 589,
      "ip": 590,
      "Ġdidnt": 591,
      "ird": 592,
      "Ġhar": 593,
      "Ġelod": 594,
      "Ġfe": 595,
      "Ġstream": 596,
      "Ġbl": 597,
      "Ġword": 598,
      "Ġstuff": 599,
      "Ġbab": 600,
      "Ġbefore": 601,
      "Ġwr": 602,
      "Ġgeorge": 603,
      "Ġfucking": 604,
      "ug": 605,
      "ms": 606,
      "Ġwhere": 607,
      "Ġsure": 608,
      "reat": 609,
      "ity": 610,
      "Ġhope": 611,
      "Ġcl": 612,
      "te": 613,
      "Ġsupp": 614,
      "Ġna": 615,
      "Ġafter": 616,
      "ise": 617,
      "ious": 618,
      "Ġill": 619,
      "Ġpers": 620,
      "aa": 621,
      "ss": 622,
      "Ġbot": 623,
      "Ġweird": 624,
      "Ġreal": 625,
      "ult": 626,
      "ater": 627,
      "Ġyear": 628,
      "ying": 629,
      "ont": 630,
      "Ġpart": 631,
      "Ġbro": 632,
      "ways": 633,
      "get": 634,
      "Ġmin": 635,
      "Ġhis": 636,
      "Ġcomp": 637,
      "read": 638,
      "Ġmum": 639,
      "Ġmed": 640,
      "ol": 641,
      "Ġperson": 642,
      "Ġever": 643,
      "Ġelodie": 644,
      "ouse": 645,
      "Ġem": 646,
      "Ġalways": 647,
      "Ġliter": 648,
      "Ġdown": 649,
      "Ġkinda": 650,
      "Ġdr": 651,
      "Ġsigh": 652,
      "Ġcat": 653,
      "Ġanything": 654,
      "Ġhour": 655,
      "Ġboo": 656,
      "Ġlong": 657,
      "Ġstart": 658,
      "Ġask": 659,
      "Ġfun": 660,
      "Ġtrue": 661,
      "Ġbetter": 662,
      "Ġsounds": 663,
      "ically": 664,
      "Ġpet": 665,
      "Ġtra": 666,
      "Ġmyself": 667,
      "Ġhouse": 668,
      "ace": 669,
      "ens": 670,
      "ord": 671,
      "Ġper": 672,
      "Ġfind": 673,
      "Ġtake": 674,
      "Ġ4": 675,
      "Ġfro": 676,
      "Ġche": 677,
      "Ġtheir": 678,
      "Ġliterally": 679,
      "Ġsex": 680,
      "Ġtrying": 681,
      "Ġaww": 682,
      "mber": 683,
      "xt": 684,
      "Ġthanks": 685,
      "ions": 686,
      "Ġlea": 687,
      "!?": 688,
      "Ġfl": 689,
      "ning": 690,
      "Ġtoday": 691,
      "sh": 692,
      "Ġdif": 693,
      "Ġson": 694,
      "Ġuse": 695,
      "we": 696,
      "Ġpret": 697,
      "Ġgetting": 698,
      "atch": 699,
      "Ġacc": 700,
      "Ġmade": 701,
      "Ġhard": 702,
      "Ġpr": 703,
      "Ġyay": 704,
      "Ġwee": 705,
      "eep": 706,
      "ated": 707,
      "irst": 708,
      "Ġstop": 709,
      "ile": 710,
      "Ġbu": 711,
      "stand": 712,
      "Ġcute": 713,
      "ody": 714,
      "Ġreme": 715,
      "Ġfrogg": 716,
      "Ġmon": 717,
      "Ġ5": 718,
      "ict": 719,
      "Ġfirst": 720,
      "Ġnew": 721,
      "ating": 722,
      "Ġmess": 723,
      "Â£": 724,
      "Ġnight": 725,
      "les": 726,
      "co": 727,
      "Ġread": 728,
      "ach": 729,
      "rent": 730,
      "vent": 731,
      "Ġcont": 732,
      "ft": 733,
      "ried": 734,
      "Ġthough": 735,
      "Ġgod": 736,
      "ason": 737,
      "ak": 738,
      "Ġdad": 739,
      "Ġhaving": 740,
      "Ġput": 741,
      "ans": 742,
      "Ġunderstand": 743,
      "Ġremember": 744,
      "Ġlater": 745,
      "orm": 746,
      "ĠÂ£": 747,
      "Ġplaying": 748,
      "Ġend": 749,
      "ful": 750,
      "Ġmakes": 751,
      "ual": 752,
      "Ġsad": 753,
      "tle": 754,
      "ange": 755,
      "Ġoo": 756,
      "Ġmiss": 757,
      "Ġboth": 758,
      "Ġbr": 759,
      "Ġfine": 760,
      "Ġla": 761,
      "Ġdidn": 762,
      "Ġfood": 763,
      "Ġguess": 764,
      "Ġthank": 765,
      "Ġnah": 766,
      "Ġang": 767,
      "Ġleg": 768,
      "Ġpretty": 769,
      "Ġreason": 770,
      "Ġshow": 771,
      "Ġhappen": 772,
      "Ġfeeling": 773,
      "Ġdisc": 774,
      "Ġhome": 775,
      "Ġwont": 776,
      "Ġenough": 777,
      "Ġser": 778,
      "Ġspea": 779,
      "Ġgir": 780,
      "mor": 781,
      "Ġkeep": 782,
      "li": 783,
      "Ġleast": 784,
      "Ġbaby": 785,
      "Ġsaying": 786,
      "Ġpete": 787,
      "Ġanno": 788,
      "Ġconf": 789,
      "Ġphone": 790,
      "Ġanyway": 791,
      "Ġtalking": 792,
      "Ġca": 793,
      "Ġour": 794,
      "Ġhappy": 795,
      "ude": 796,
      "Ġbest": 797,
      "Ġdone": 798,
      "Ġgive": 799,
      "Ġhor": 800,
      "ence": 801,
      "ta": 802,
      "Ġfroggy": 803,
      "Ġimp": 804,
      "Ġdec": 805,
      "Ġbed": 806,
      "anc": 807,
      "Ġive": 808,
      "Ġsl": 809,
      "Ġmeans": 810,
      "Ġshop": 811,
      "Ġaut": 812,
      "Ġlast": 813,
      "Ġinst": 814,
      "ward": 815,
      "inking": 816,
      "Ġtold": 817,
      "ready": 818,
      "fect": 819,
      "ved": 820,
      "Ġcare": 821,
      "Ġeng": 822,
      "ix": 823,
      "dd": 824,
      "unch": 825,
      "Ġalready": 826,
      "Ġwatch": 827,
      "Ġet": 828,
      "Ġold": 829,
      "Ġace": 830,
      "Ġpoint": 831,
      "Ġwanted": 832,
      "Ġgen": 833,
      "ne": 834,
      "Ġbas": 835,
      "Ġass": 836,
      "Ġmine": 837,
      "iz": 838,
      "Ġhes": 839,
      "Ġcr": 840,
      "!!!": 841,
      "ves": 842,
      "Ġthese": 843,
      "Ġadd": 844,
      "Ġhours": 845,
      "Ġdoesnt": 846,
      "wh": 847,
      "Ġfin": 848,
      "Ġmost": 849,
      "ither": 850,
      "arent": 851,
      "ary": 852,
      "Ġkevins": 853,
      "Ġplan": 854,
      "Ġcle": 855,
      "Ġhon": 856,
      "ps": 857,
      "Ġbre": 858,
      "bo": 859,
      "arly": 860,
      "ared": 861,
      "Ġthr": 862,
      "po": 863,
      "Ġused": 864,
      "ib": 865,
      "Ġsit": 866,
      "Ġsend": 867,
      "???": 868,
      "Ġeverything": 869,
      "Ġje": 870,
      "Ġnothing": 871,
      "ount": 872,
      "Ġop": 873,
      "ild": 874,
      "Ġexact": 875,
      "less": 876,
      "Ġfre": 877,
      "Ġeat": 878,
      "red": 879,
      "oney": 880,
      "Ġsuper": 881,
      "Ġlittle": 882,
      "Ġatt": 883,
      "Ġmaking": 884,
      "ts": 885,
      "Ġaaa": 886,
      "Ġeveryone": 887,
      "Ġinc": 888,
      "Ġface": 889,
      "Ġboi": 890,
      "Ġres": 891,
      "ple": 892,
      "Ġwrong": 893,
      "Ġdes": 894,
      "pect": 895,
      "Ġhonest": 896,
      "Ġthrough": 897,
      "Ġtomor": 898,
      "Ġdick": 899,
      "Ġgeep": 900,
      "Ġhu": 901,
      "ead": 902,
      "Ġmonth": 903,
      "Ġfriends": 904,
      "Ġdiffe": 905,
      "ath": 906,
      "Ġidea": 907,
      "Ġleave": 908,
      "Ġgl": 909,
      "Ġspe": 910,
      "Ġless": 911,
      "Ġtomorrow": 912,
      "Ġthinking": 913,
      "Ġcry": 914,
      "Ġstr": 915,
      "ored": 916,
      "Ġdef": 917,
      "Ġgeepy": 918,
      "Ġdam": 919,
      "Ġhey": 920,
      "ign": 921,
      "Ġanx": 922,
      "Ġown": 923,
      "Ġment": 924,
      "Ġgr": 925,
      "Ġhead": 926,
      "Ġsch": 927,
      "Ġ10": 928,
      "Ġmeant": 929,
      "Ġname": 930,
      "ense": 931,
      "Ġaround": 932,
      "Ġgreat": 933,
      "sw": 934,
      "Ġelse": 935,
      "ible": 936,
      "Ġlunch": 937,
      "Ġkid": 938,
      "Ġshes": 939,
      "Ġokay": 940,
      "urn": 941,
      "Ġexpl": 942,
      "ook": 943,
      "Ġseems": 944,
      "Ġgirl": 945,
      "body": 946,
      "Ġsupport": 947,
      "Ġtbf": 948,
      "Ġfo": 949,
      "Ġansw": 950,
      "Ġaway": 951,
      "Ġbig": 952,
      "Ġtwo": 953,
      "mo": 954,
      "cept": 955,
      "Ġexactly": 956,
      "Ġumm": 957,
      "Ġcons": 958,
      "erest": 959,
      "Ġhi": 960,
      "ctor": 961,
      "lly": 962,
      "Ġrel": 963,
      "Ġins": 964,
      "Ġinter": 965,
      "Ġlegit": 966,
      "Ġworry": 967,
      "gn": 968,
      "Ġinterest": 969,
      "Ġmoney": 970,
      "ised": 971,
      "Ġty": 972,
      "uck": 973,
      "Ġhmm": 974,
      "Ġjob": 975,
      "Ġroom": 976,
      "Ġcra": 977,
      "Ġ6": 978,
      "ired": 979,
      "Ġengl": 980,
      "el": 981,
      "Ġawes": 982,
      "Ġnext": 983,
      "iet": 984,
      "Ġscared": 985,
      "Ġho": 986,
      "umb": 987,
      "oke": 988,
      "Ġind": 989,
      "Ġac": 990,
      "Ġlive": 991,
      "Ġcomm": 992,
      "ner": 993,
      "Ġsent": 994,
      "Ġdep": 995,
      "lt": 996,
      "Ġkiss": 997,
      "air": 998,
      "Ġspeak": 999,
      "Ġob": 1000,
      "Ġpict": 1001,
      "Ġleft": 1002,
      "Ġsong": 1003,
      "Ġdoesn": 1004,
      "rible": 1005,
      "Ġpay": 1006,
      "iously": 1007,
      "Ġhug": 1008,
      "Ġdays": 1009,
      "Ġtimes": 1010,
      "Ġwent": 1011,
      "Ġthose": 1012,
      "Ġawesome": 1013,
      "Ġsw": 1014,
      "Ġplace": 1015,
      "Ġgi": 1016,
      "ph": 1017,
      "ily": 1018,
      "Ġwow": 1019,
      "ny": 1020,
      "Ġeither": 1021,
      "Ġlooks": 1022,
      "Ġwithout": 1023,
      "Ġsometim": 1024,
      "Ġfound": 1025,
      "Ġstress": 1026,
      "Ġuni": 1027,
      "Ġannoying": 1028,
      "Ġwish": 1029,
      "cks": 1030,
      "Ġable": 1031,
      "Ġrec": 1032,
      "Ġhur": 1033,
      "ical": 1034,
      "Ġfree": 1035,
      "Ġdifferent": 1036,
      "Ġbored": 1037,
      "Ġyears": 1038,
      "med": 1039,
      "Ġwal": 1040,
      "Ġgotta": 1041,
      "fg": 1042,
      "used": 1043,
      "ten": 1044,
      "other": 1045,
      "Ġweek": 1046,
      "ndom": 1047,
      "Ġset": 1048,
      "Ġmany": 1049,
      "Ġproble": 1050,
      "Ġexc": 1051,
      "Ġwhole": 1052,
      "Ġbra": 1053,
      "kr": 1054,
      "Ġmood": 1055,
      "Ġforget": 1056,
      "Ġdoctor": 1057,
      "Ġsk": 1058,
      "Ġhigh": 1059,
      "Ġproper": 1060,
      "sed": 1061,
      "Ġdj": 1062,
      "Ġworking": 1063,
      "Ġsim": 1064,
      "Ġcoming": 1065,
      "gr": 1066,
      "Ġangle": 1067,
      "Ġvide": 1068,
      "Ġhell": 1069,
      "Ġ:/": 1070,
      "Ġhot": 1071,
      "Ġmain": 1072,
      "ash": 1073,
      "Ġstay": 1074,
      "Ġsometimes": 1075,
      "Ġrep": 1076,
      "Ġsuch": 1077,
      "Ġanswer": 1078,
      "ted": 1079,
      "Ġsy": 1080,
      "ked": 1081,
      "Ġcre": 1082,
      "oud": 1083,
      "Ġcur": 1084,
      "ism": 1085,
      "ac": 1086,
      "ub": 1087,
      "ese": 1088,
      "Ġkill": 1089,
      "Ġiss": 1090,
      "Ġikr": 1091,
      "Ġooh": 1092,
      "Ġbel": 1093,
      "Ġschool": 1094,
      "Ġtech": 1095,
      "Ġmove": 1096,
      "Ġhorrible": 1097,
      "ues": 1098,
      "Ġonce": 1099,
      "Ġetc": 1100,
      "gether": 1101,
      "ered": 1102,
      "Ġbreak": 1103,
      "ht": 1104,
      "Ġyet": 1105,
      "udd": 1106,
      "Ġweed": 1107,
      "line": 1108,
      "Ġpain": 1109,
      "ident": 1110,
      "Ġhavent": 1111,
      "Ġclo": 1112,
      "Ġtogether": 1113,
      "Ġhonestly": 1114,
      "Ġgay": 1115,
      "ics": 1116,
      "Ġent": 1117,
      "Ġ9": 1118,
      "Ġmind": 1119,
      "Ġinstead": 1120,
      "Ġposs": 1121,
      "ping": 1122,
      "Ġboy": 1123,
      "Ġguy": 1124,
      "Ġmins": 1125,
      "Ġexplain": 1126,
      "itch": 1127,
      "Ġwhats": 1128,
      "mit": 1129,
      "Ġ8": 1130,
      "Ġguys": 1131,
      "ction": 1132,
      "der": 1133,
      "Ġeas": 1134,
      "als": 1135,
      "Ġbus": 1136,
      "Ġmar": 1137,
      "Ġpast": 1138,
      "Ġunt": 1139,
      "Ġdiscord": 1140,
      "Ġpar": 1141,
      "iv": 1142,
      "Ġrandom": 1143,
      "Ġcalled": 1144,
      "Ġnon": 1145,
      "Ġ20": 1146,
      "Ġmeet": 1147,
      "Ġgame": 1148,
      "Ġbring": 1149,
      "Ġisnt": 1150,
      "uu": 1151,
      "Ġawk": 1152,
      "log": 1153,
      "cial": 1154,
      "Ġtwice": 1155,
      "Ġperfect": 1156,
      "Ġcheck": 1157,
      "Ġmeds": 1158,
      "yy": 1159,
      "Ġew": 1160,
      "Ġbasically": 1161,
      "fu": 1162,
      "Ġ7": 1163,
      "wa": 1164,
      "Ġstud": 1165,
      "Ġrly": 1166,
      "Ġinf": 1167,
      "bi": 1168,
      "Ġtheres": 1169,
      "Ġneeds": 1170,
      "Ġopen": 1171,
      "Ġrude": 1172,
      "ames": 1173,
      "Ġawkward": 1174,
      "Ġwants": 1175,
      "Ġear": 1176,
      "Ġhear": 1177,
      "Ġpost": 1178,
      "Ġchat": 1179,
      "Ġself": 1180,
      "ling": 1181,
      "Ġsense": 1182,
      "set": 1183,
      "Ġhand": 1184,
      "cond": 1185,
      "Ġsaw": 1186,
      "Ġcame": 1187,
      "Ġasked": 1188,
      "jo": 1189,
      "ory": 1190,
      "alth": 1191,
      "Ġwom": 1192,
      "vers": 1193,
      "Ġbi": 1194,
      "Ġmom": 1195,
      "led": 1196,
      "ken": 1197,
      "Ġima": 1198,
      "Ġcol": 1199,
      "ract": 1200,
      "Ġexp": 1201,
      "ied": 1202,
      "tw": 1203,
      "Ġanother": 1204,
      "vel": 1205,
      "10": 1206,
      "night": 1207,
      "Ġvideo": 1208,
      "Ġ;": 1209,
      "Ġuntil": 1210,
      "Ġes": 1211,
      "Ġsin": 1212,
      "Ġhalf": 1213,
      "Ġemot": 1214,
      "ox": 1215,
      "Ġhum": 1216,
      "Ġquest": 1217,
      "Ġbor": 1218,
      "Ġsecond": 1219,
      "Ġeach": 1220,
      "ect": 1221,
      "ific": 1222,
      "ons": 1223,
      "yes": 1224,
      "llow": 1225,
      "ness": 1226,
      "Ġmust": 1227,
      "Ġcar": 1228,
      "100": 1229,
      "Ġcour": 1230,
      "Ġago": 1231,
      "Ġallow": 1232,
      "Ġrn": 1233,
      "Ġwaht": 1234,
      "ggest": 1235,
      "ush": 1236,
      "ross": 1237,
      "Ġwasnt": 1238,
      "ap": 1239,
      "Ġcommun": 1240,
      "Ġseem": 1241,
      "Ġdumb": 1242,
      "Ġenglish": 1243,
      "Ġmoment": 1244,
      "Ġalone": 1245,
      "Ġexper": 1246,
      "lete": 1247,
      "Ġglad": 1248,
      "Ġpan": 1249,
      "Ġbelie": 1250,
      "Ġsick": 1251,
      "Ġ\"": 1252,
      "Ġdance": 1253,
      "uring": 1254,
      "Ġquite": 1255,
      "not": 1256,
      "uss": 1257,
      "Ġreg": 1258,
      "Ġcomput": 1259,
      "Ġcudd": 1260,
      "du": 1261,
      "iting": 1262,
      "Ġhealth": 1263,
      "Ġsince": 1264,
      "Ġpicture": 1265,
      "Ġtired": 1266,
      "Ġnorm": 1267,
      "Ġalright": 1268,
      "Ġmessage": 1269,
      "Ġpur": 1270,
      "Ġappre": 1271,
      "em": 1272,
      "Ġworried": 1273,
      "Ġusing": 1274,
      "Ġhair": 1275,
      "iety": 1276,
      "ute": 1277,
      "Ġext": 1278,
      "Ġmonths": 1279,
      "Ġmor": 1280,
      "Ġlets": 1281,
      "Ġwar": 1282,
      "ates": 1283,
      "Ġtrain": 1284,
      "Ġ;)": 1285,
      "Ġapparent": 1286,
      "Ġsur": 1287,
      "Ġwasn": 1288,
      "Ġenjo": 1289,
      "ations": 1290,
      "Ġinv": 1291,
      "Ġworse": 1292,
      "Ġones": 1293,
      "ier": 1294,
      "ape": 1295,
      "ia": 1296,
      "Ġrest": 1297,
      "zing": 1298,
      "Ġfig": 1299,
      "istic": 1300,
      "Ġbtw": 1301,
      "Ġturn": 1302,
      "Ġmeh": 1303,
      "Ġpoo": 1304,
      "Ġnobody": 1305,
      "Ġobv": 1306,
      "Ġapparently": 1307,
      "Ġappreci": 1308,
      "Ġlate": 1309,
      "Ġdanc": 1310,
      "ather": 1311,
      "Ġfelt": 1312,
      "Ġhappened": 1313,
      "Ġcolour": 1314,
      "Ġwo": 1315,
      "Ġmental": 1316,
      "terday": 1317,
      "Ġbrain": 1318,
      "Ġisn": 1319,
      "Ġyesterday": 1320,
      "Ġtri": 1321,
      "ited": 1322,
      "Ġanxiety": 1323,
      "ering": 1324,
      "enc": 1325,
      "Ġomfg": 1326,
      "Ġstarted": 1327,
      "Ġanyone": 1328,
      "Ġ,": 1329,
      "Ġswe": 1330,
      "Ġcor": 1331,
      "Ġsays": 1332,
      "rate": 1333,
      "Ġ>": 1334,
      "Ġasking": 1335,
      "Ġart": 1336,
      "Ġfew": 1337,
      "ugs": 1338,
      "Ġcoll": 1339,
      "Ġtop": 1340,
      "Ġxx": 1341,
      "ake": 1342,
      "ugg": 1343,
      "rop": 1344,
      "Ġseen": 1345,
      "fic": 1346,
      "Ġfren": 1347,
      "Ġdamn": 1348,
      "side": 1349,
      "Ġnd": 1350,
      "Ġdoor": 1351,
      "Ġyourself": 1352,
      "ilst": 1353,
      "Ġproblem": 1354,
      "Ġgoo": 1355,
      "using": 1356,
      "Ġsuggest": 1357,
      "Ġfucks": 1358,
      "Ġfeels": 1359,
      "Ġsake": 1360,
      "ew": 1361,
      "Ġcourse": 1362,
      "Ġimport": 1363,
      "Ġdancing": 1364,
      "oon": 1365,
      "vour": 1366,
      "Ġed": 1367,
      "ave": 1368,
      "Ġinteresting": 1369,
      "oice": 1370,
      "lling": 1371,
      "Ġwhilst": 1372,
      "Ġlight": 1373,
      "eee": 1374,
      "Ġupset": 1375,
      "ship": 1376,
      "Ġclean": 1377,
      "Ġconsid": 1378,
      "Ġcomputer": 1379,
      "Ġstra": 1380,
      "Ġjokes": 1381,
      "ung": 1382,
      "Ġclass": 1383,
      "ren": 1384,
      "Ġsitu": 1385,
      "Ġten": 1386,
      "Ġtried": 1387,
      "Ġama": 1388,
      "Ġplayed": 1389,
      "Ġorder": 1390,
      "Ġter": 1391,
      "Ġdog": 1392,
      "Ġmainly": 1393,
      "Ġexpect": 1394,
      "he": 1395,
      "Ġfar": 1396,
      "Ġban": 1397,
      "Ġfam": 1398,
      "Ġspam": 1399,
      "ert": 1400,
      "ject": 1401,
      "Ġyoure": 1402,
      "Ġlear": 1403,
      "up": 1404,
      "Ġdefin": 1405,
      "Ġbelieve": 1406,
      "Ġgames": 1407,
      "Ġcheese": 1408,
      "Ġ:'": 1409,
      "oc": 1410,
      "Ġhurt": 1411,
      "Ġpres": 1412,
      "Ġplz": 1413,
      "most": 1414,
      "Ġfigure": 1415,
      "Ġmid": 1416,
      "Ġgener": 1417,
      "its": 1418,
      "ional": 1419,
      "ose": 1420,
      "wu": 1421,
      "Ġpa": 1422,
      "cri": 1423,
      "Ġluck": 1424,
      "Ġcurrent": 1425,
      "pm": 1426,
      "Ġri": 1427,
      "Ġimportant": 1428,
      "Ġdist": 1429,
      "Ġve": 1430,
      "Ġbutt": 1431,
      "Ġrun": 1432,
      "?!": 1433,
      "osed": 1434,
      "ii": 1435,
      "ming": 1436,
      "Ġspace": 1437,
      "Ġspec": 1438,
      "ret": 1439,
      "ures": 1440,
      "ode": 1441,
      "Ġparent": 1442,
      "lect": 1443,
      "Ġ12": 1444,
      "Ġmessag": 1445,
      "Ġ:'(": 1446,
      "Ġfull": 1447,
      "Ġvis": 1448,
      "Ġagree": 1449,
      "Ġfrench": 1450,
      "Ġwhile": 1451,
      "unk": 1452,
      "Ġcommunic": 1453,
      "ugh": 1454,
      "Ġmeow": 1455,
      "Ġsec": 1456,
      "app": 1457,
      "Ġsafe": 1458,
      "ween": 1459,
      "Ġgra": 1460,
      "Ġdra": 1461,
      "ian": 1462,
      "Ġaccident": 1463,
      "Ġdiffic": 1464,
      "Ġamazing": 1465,
      "Ġwalk": 1466,
      "Ġchange": 1467,
      "Ġoof": 1468,
      "Ġworks": 1469,
      "Ġconfused": 1470,
      "Ġfore": 1471,
      "Ġbuy": 1472,
      "ever": 1473,
      "Ġfunny": 1474,
      "Ġbabe": 1475,
      "Ġfail": 1476,
      "Ġfavour": 1477,
      "ently": 1478,
      "Ġsign": 1479,
      "iew": 1480,
      "Ġmorning": 1481,
      "ifu": 1482,
      "Ġalmost": 1483,
      "Ġegg": 1484,
      "Ġwatching": 1485,
      "Ġallowed": 1486,
      "Ġign": 1487,
      "Ġcount": 1488,
      "fully": 1489,
      "Ġforg": 1490,
      "Ġref": 1491,
      "Ġtrans": 1492,
      "hd": 1493,
      "Ġbir": 1494,
      "Ġdeal": 1495,
      "Ġtaking": 1496,
      "ility": 1497,
      "Ġboof": 1498,
      "Ġreply": 1499,
      "Ġpossible": 1500,
      "Ġsweet": 1501,
      "Ġissues": 1502,
      "Ġ.": 1503,
      "Ġsmink": 1504,
      "Ġval": 1505,
      "izz": 1506,
      "Ġusually": 1507,
      "Ġmix": 1508,
      "Ġwind": 1509,
      "Ġbetween": 1510,
      "Ġexcept": 1511,
      "ng": 1512,
      "outh": 1513,
      "Ġtext": 1514,
      "Ġbye": 1515,
      "ents": 1516,
      "rr": 1517,
      "cially": 1518,
      "Ġpop": 1519,
      "Ġautism": 1520,
      "Ġcal": 1521,
      "Ġtonight": 1522,
      "Ġhaven": 1523,
      "ones": 1524,
      "ron": 1525,
      "Ġpri": 1526,
      "Ġeff": 1527,
      "waifu": 1528,
      "oint": 1529,
      "rect": 1530,
      "ratewaifu": 1531,
      "Ġparents": 1532,
      "ience": 1533,
      "Ġcou": 1534,
      "Ġtv": 1535,
      "Ġtill": 1536,
      "cess": 1537,
      "Ġoutside": 1538,
      "Ġtelling": 1539,
      "Ġemb": 1540,
      "Ġarsed": 1541,
      "ges": 1542,
      "io": 1543,
      "Ġworld": 1544,
      "Ġsupposed": 1545,
      "Ġcomplete": 1546,
      "Ġdifficult": 1547,
      "ins": 1548,
      "Ġages": 1549,
      "vo": 1550,
      "Ġadv": 1551,
      "ative": 1552,
      "bb": 1553,
      "yed": 1554,
      "pid": 1555,
      "Ġoften": 1556,
      "Ġbirth": 1557,
      "to": 1558,
      "Ġfollow": 1559,
      "mail": 1560,
      "Ġpee": 1561,
      "Ġtheyre": 1562,
      "Ġneeded": 1563,
      "ilar": 1564,
      "jk": 1565,
      "aring": 1566,
      "Ġsexy": 1567,
      "lic": 1568,
      "Ġsing": 1569,
      "Ġlow": 1570,
      "Ġchild": 1571,
      "ial": 1572,
      "Ġautistic": 1573,
      "ition": 1574,
      "Ġdepress": 1575,
      "Ġsmoke": 1576,
      "âĢ": 1577,
      "utes": 1578,
      "ption": 1579,
      "Ġevent": 1580,
      "Ġincl": 1581,
      "itely": 1582,
      "Ġobviously": 1583,
      "ccoon": 1584,
      "Ġduring": 1585,
      "Ġfavourite": 1586,
      "Ġpoop": 1587,
      "Ġz": 1588,
      "Ġpanic": 1589,
      "Ġcomment": 1590,
      "Ġcrying": 1591,
      "my": 1592,
      "Ġsat": 1593,
      "Ġcreep": 1594,
      "icul": 1595,
      "df": 1596,
      "Ġappreciate": 1597,
      "Ġtook": 1598,
      "atter": 1599,
      "iday": 1600,
      "Ġsmall": 1601,
      "Ġbody": 1602,
      "Ġaddress": 1603,
      "esus": 1604,
      "Ġuwu": 1605,
      "Ġtype": 1606,
      "Ġforgot": 1607,
      "Ġsonic": 1608,
      "Ġchang": 1609,
      "friend": 1610,
      "sy": 1611,
      "ail": 1612,
      "Ġhung": 1613,
      "Ġdie": 1614,
      "Ġgre": 1615,
      "Ġeffort": 1616,
      "ings": 1617,
      "Ġlots": 1618,
      "ising": 1619,
      "Ġweeks": 1620,
      "Ġrequ": 1621,
      "Ġboring": 1622,
      "Ġemail": 1623,
      "ped": 1624,
      "Ġboom": 1625,
      "Ġfact": 1626,
      "ided": 1627,
      "Ġsort": 1628,
      "angle": 1629,
      "Ġanxious": 1630,
      "Ġtou": 1631,
      "cked": 1632,
      "Ġgoog": 1633,
      "Ġrather": 1634,
      "Ġstupid": 1635,
      "Ġknew": 1636,
      "Ġwouldnt": 1637,
      "Ġrem": 1638,
      "Ġwonder": 1639,
      "Ġwi": 1640,
      "erg": 1641,
      "Ġjesus": 1642,
      "Ġwords": 1643,
      "mon": 1644,
      "Ġrelation": 1645,
      "Ġunless": 1646,
      "20": 1647,
      "Ġvi": 1648,
      "Ġintern": 1649,
      "Ġhang": 1650,
      "ned": 1651,
      "Ġpic": 1652,
      "Ġmet": 1653,
      "Ġkit": 1654,
      "Ġdead": 1655,
      "Ġdefinitely": 1656,
      "Ġpick": 1657,
      "nday": 1658,
      "Ġentire": 1659,
      "Ġminutes": 1660,
      "Ġmeme": 1661,
      "Ġflat": 1662,
      "Ġattack": 1663,
      "Ġload": 1664,
      "Ġwindow": 1665,
      "Ġscream": 1666,
      "Ġcop": 1667,
      "Ġpass": 1668,
      "Ġrelationship": 1669,
      "Ġtot": 1670,
      "Ġsub": 1671,
      "fort": 1672,
      "yle": 1673,
      "Ġxox": 1674,
      "Ġwater": 1675,
      "Ġ11": 1676,
      "Ġslight": 1677,
      "Ġtu": 1678,
      "Ġhows": 1679,
      "Ġlovely": 1680,
      "eric": 1681,
      "Ġlie": 1682,
      "Ġimag": 1683,
      "Ġexist": 1684,
      "Ġhuman": 1685,
      "Ġsituation": 1686,
      "Ġrant": 1687,
      "Ġthree": 1688,
      "Ġchr": 1689,
      "Ġhy": 1690,
      "Ġmoving": 1691,
      "Ġtru": 1692,
      "ensive": 1693,
      "Ġclose": 1694,
      "Ġsuck": 1695,
      "ced": 1696,
      "gin": 1697,
      "Ġtrust": 1698,
      "Ġseriously": 1699,
      "oth": 1700,
      "Ġfinally": 1701,
      "Ġonline": 1702,
      "Ġsuppose": 1703,
      "Ġnormal": 1704,
      "Ġwed": 1705,
      "ately": 1706,
      "Ġgets": 1707,
      "Ġcontro": 1708,
      "Ġuk": 1709,
      "000": 1710,
      "Ġscre": 1711,
      "Ġbitch": 1712,
      "oup": 1713,
      "book": 1714,
      "Ġelect": 1715,
      "Ġfault": 1716,
      "Ġwouldn": 1717,
      "ibly": 1718,
      "Ġdrink": 1719,
      "Ġwrite": 1720,
      "zy": 1721,
      "Ġscary": 1722,
      "lier": 1723,
      "Ġameric": 1724,
      "Ġspeaking": 1725,
      "Ġcompl": 1726,
      "Ġcold": 1727,
      "Ġfur": 1728,
      "Ġpu": 1729,
      "Ġstand": 1730,
      "Ġasleep": 1731,
      "Ġseeing": 1732,
      "ding": 1733,
      "ye": 1734,
      "ointment": 1735,
      "Ġwoman": 1736,
      "Ġcase": 1737,
      "Ġtechn": 1738,
      "Ġflo": 1739,
      "Ġsucks": 1740,
      "Ġhappening": 1741,
      "Ġenjoy": 1742,
      "Ġboyfriend": 1743,
      "Ġkids": 1744,
      "Ġblack": 1745,
      "Ġye": 1746,
      "Ġvape": 1747,
      "ns": 1748,
      "Ġsoo": 1749,
      "ark": 1750,
      "Ġdrunk": 1751,
      "pr": 1752,
      "haha": 1753,
      "Ġheard": 1754,
      "Ġgave": 1755,
      "Ġsocial": 1756,
      "Ġev": 1757,
      "gan": 1758,
      "Ġwin": 1759,
      "ats": 1760,
      "iny": 1761,
      "Ġfinish": 1762,
      "Ġworst": 1763,
      "Ġhopefully": 1764,
      "Ġrealised": 1765,
      "com": 1766,
      "Ġlistened": 1767,
      "pped": 1768,
      "Ġmass": 1769,
      "Ġearlier": 1770,
      "Ġchrist": 1771,
      "Ġreading": 1772,
      "js": 1773,
      "ksks": 1774,
      "mpt": 1775,
      "Ġdi": 1776,
      "Ġyo": 1777,
      "Ġinside": 1778,
      "Ġdet": 1779,
      "Ġequ": 1780,
      "Ġ30": 1781,
      "Ġforever": 1782,
      "Ġbag": 1783,
      "Ġslightly": 1784,
      "Ġtoile": 1785,
      "ket": 1786,
      "Ġver": 1787,
      "gging": 1788,
      "where": 1789,
      "Ġconc": 1790,
      "Ġdire": 1791,
      "Ġstuck": 1792,
      "nds": 1793,
      "Ġspend": 1794,
      "Ġappointment": 1795,
      "hs": 1796,
      "Ġmod": 1797,
      "Ġgone": 1798,
      "umber": 1799,
      "Ġhold": 1800,
      "Ġlaugh": 1801,
      "Ġcam": 1802,
      "Ġvib": 1803,
      "ene": 1804,
      "fair": 1805,
      "Ġsol": 1806,
      "Ġcolle": 1807,
      "arch": 1808,
      "Ġliving": 1809,
      "Ġste": 1810,
      "Ġcoo": 1811,
      "Ġworth": 1812,
      "fer": 1813,
      "mme": 1814,
      "pecially": 1815,
      "Ġswear": 1816,
      "Ġer": 1817,
      "Ġ15": 1818,
      "Ġyours": 1819,
      "Ġscr": 1820,
      "Ġcurrently": 1821,
      "Ġtoilet": 1822,
      "ices": 1823,
      "Ġprom": 1824,
      "Ġquick": 1825,
      "Ġmen": 1826,
      "roid": 1827,
      "Ġactual": 1828,
      "Ġtea": 1829,
      "Ġplus": 1830,
      "Ġinternet": 1831,
      "ror": 1832,
      "Ġcu": 1833,
      "Ġcreat": 1834,
      "Ġfall": 1835,
      "room": 1836,
      "Ġmanag": 1837,
      "Ġfix": 1838,
      "Ġphys": 1839,
      "Ġchill": 1840,
      "Ġcontin": 1841,
      "Ġleaving": 1842,
      "Ġadhd": 1843,
      "boom": 1844,
      "Ġwhite": 1845,
      "Ġembar": 1846,
      "ertain": 1847,
      "airs": 1848,
      "gram": 1849,
      "Ġpizz": 1850,
      "Ġstrugg": 1851,
      "Ġarg": 1852,
      "Ġstraight": 1853,
      "eed": 1854,
      "Ġmic": 1855,
      "Ġvalid": 1856,
      "uine": 1857,
      "Ġrap": 1858,
      "Ġtouch": 1859,
      "Ġhit": 1860,
      "ade": 1861,
      "Ġready": 1862,
      "ces": 1863,
      "mas": 1864,
      "Ġdefo": 1865,
      "Ġespecially": 1866,
      "Ġcouple": 1867,
      "att": 1868,
      "Ġner": 1869,
      "Ġloud": 1870,
      "ower": 1871,
      "Ġtast": 1872,
      "Ġgenuine": 1873,
      "own": 1874,
      "Ġprocess": 1875,
      "Ġblue": 1876,
      "Ġ?": 1877,
      "lym": 1878,
      "ah": 1879,
      "Ġpress": 1880,
      "Ġtrack": 1881,
      "ffect": 1882,
      "aut": 1883,
      "Ġhello": 1884,
      "Ġquestion": 1885,
      "Ġbought": 1886,
      "Ġproperly": 1887,
      "Ġthrow": 1888,
      "boomra": 1889,
      "Ġpot": 1890,
      "Ġfrance": 1891,
      "Ġcorrect": 1892,
      "Ġdri": 1893,
      "Ġpsy": 1894,
      "Ġkey": 1895,
      "Ġcannot": 1896,
      "thers": 1897,
      "Ġsexual": 1898,
      "Ġles": 1899,
      "Ġboomboomra": 1900,
      "Ġwon": 1901,
      "Ġsimilar": 1902,
      "Ġapo": 1903,
      "Ġfoc": 1904,
      "Ġshout": 1905,
      "Ġsudd": 1906,
      "ities": 1907,
      "Ġbar": 1908,
      "Ġboomboomraccoon": 1909,
      "Ġcouldnt": 1910,
      "Ġpiss": 1911,
      "Ġcard": 1912,
      "Ġsudden": 1913,
      "aking": 1914,
      "Ġarent": 1915,
      "sol": 1916,
      "Ġexcited": 1917,
      "Ġeating": 1918,
      "Ġeffect": 1919,
      "Ġstep": 1920,
      "antly": 1921,
      "Ġpizza": 1922,
      "ger": 1923,
      "Ġsmo": 1924,
      "Ġcuddles": 1925,
      "Ġxxx": 1926,
      "ho": 1927,
      "Ġplym": 1928,
      "Ġdu": 1929,
      "Ġnope": 1930,
      "Ġexam": 1931,
      "Ġside": 1932,
      "inner": 1933,
      "Ġbread": 1934,
      "Ġred": 1935,
      "Ġmult": 1936,
      "Ġdecided": 1937,
      "ooo": 1938,
      "Ġshut": 1939,
      "Ġgiving": 1940,
      "Ġret": 1941,
      "Ġbecome": 1942,
      "Ġsn": 1943,
      "Ġpack": 1944,
      "ml": 1945,
      "Ġcompletely": 1946,
      "Ġprogram": 1947,
      "illy": 1948,
      "lled": 1949,
      "Ġrepl": 1950,
      "tu": 1951,
      "Ġboobs": 1952,
      "Ġproud": 1953,
      "angel": 1954,
      "Ġmention": 1955,
      "Ġextra": 1956,
      "Ġmessages": 1957,
      "iding": 1958,
      "Ġslow": 1959,
      "Ġindeed": 1960,
      "Ġawake": 1961,
      "inge": 1962,
      "Ġwaiting": 1963,
      "Ġcook": 1964,
      "Ġdiscuss": 1965,
      "av": 1966,
      "ru": 1967,
      "ptop": 1968,
      "Ġdream": 1969,
      "Ġgross": 1970,
      "Ġhuh": 1971,
      "Ġpsych": 1972,
      "iced": 1973,
      "Ġaccept": 1974,
      "Ġkept": 1975,
      "Ġcontact": 1976,
      "wise": 1977,
      "Ġ18": 1978,
      "Ġserver": 1979,
      "aly": 1980,
      "Ġprof": 1981,
      "Ġamount": 1982,
      "Ġide": 1983,
      "Ġhuge": 1984,
      "Ġform": 1985,
      "Ġlaptop": 1986,
      "ux": 1987,
      "Ġearly": 1988,
      "Ġtotally": 1989,
      "Ġcollege": 1990,
      "Ġstar": 1991,
      "Ġwriting": 1992,
      "Ġtest": 1993,
      "Ġfit": 1994,
      "Ġrecord": 1995,
      "Ġaccidentally": 1996,
      "Ġba": 1997,
      "Ġnotice": 1998
    },
    "merges": [
      [
        "Ġ",
        "i"
      ],
      [
        "Ġ",
        "t"
      ],
      [
        "Ġ",
        "a"
      ],
      [
        "Ġ",
        "w"
      ],
      [
        "Ġ",
        "s"
      ],
      [
        "Ġt",
        "h"
      ],
      [
        "i",
        "n"
      ],
      [
        "Ġ",
        "m"
      ],
      [
        "o",
        "u"
      ],
      [
        "Ġ",
        "b"
      ],
      [
        "r",
        "e"
      ],
      [
        "Ġ",
        "h"
      ],
      [
        "Ġ",
        "o"
      ],
      [
        "Ġ",
        "d"
      ],
      [
        "in",
        "g"
      ],
      [
        "a",
        "t"
      ],
      [
        "Ġ",
        "l"
      ],
      [
        "Ġ",
        "c"
      ],
      [
        "Ġ",
        "f"
      ],
      [
        "e",
        "r"
      ],
      [
        "Ġ",
        "y"
      ],
      [
        "Ġth",
        "e"
      ],
      [
        "n",
        "d"
      ],
      [
        "Ġt",
        "o"
      ],
      [
        "Ġ",
        "n"
      ],
      [
        "Ġ",
        "p"
      ],
      [
        "a",
        "n"
      ],
      [
        "o",
        "n"
      ],
      [
        "l",
        "l"
      ],
      [
        "e",
        "n"
      ],
      [
        "o",
        "r"
      ],
      [
        "Ġy",
        "ou"
      ],
      [
        "e",
        "s"
      ],
      [
        "Ġ",
        "g"
      ],
      [
        "Ġi",
        "t"
      ],
      [
        "e",
        "d"
      ],
      [
        "Ġw",
        "h"
      ],
      [
        "u",
        "s"
      ],
      [
        "Ġa",
        "nd"
      ],
      [
        "i",
        "t"
      ],
      [
        "i",
        "s"
      ],
      [
        "Ġn",
        "o"
      ],
      [
        "a",
        "s"
      ],
      [
        "Ġ",
        "u"
      ],
      [
        "k",
        "e"
      ],
      [
        "Ġm",
        "e"
      ],
      [
        "Ġ",
        "e"
      ],
      [
        "Ġb",
        "e"
      ],
      [
        "v",
        "e"
      ],
      [
        "a",
        "y"
      ],
      [
        "i",
        "c"
      ],
      [
        "u",
        "t"
      ],
      [
        "Ġh",
        "a"
      ],
      [
        "o",
        "m"
      ],
      [
        "Ġth",
        "at"
      ],
      [
        "Ġd",
        "o"
      ],
      [
        "l",
        "e"
      ],
      [
        "a",
        "r"
      ],
      [
        "Ġi",
        "n"
      ],
      [
        "Ġi",
        "s"
      ],
      [
        "e",
        "t"
      ],
      [
        "l",
        "y"
      ],
      [
        "o",
        "w"
      ],
      [
        "Ġw",
        "e"
      ],
      [
        "o",
        "o"
      ],
      [
        "Ġo",
        "n"
      ],
      [
        "Ġm",
        "y"
      ],
      [
        "Ġ",
        "j"
      ],
      [
        "Ġ",
        "re"
      ],
      [
        "Ġl",
        "i"
      ],
      [
        "Ġb",
        "ut"
      ],
      [
        "Ġo",
        "f"
      ],
      [
        "i",
        "d"
      ],
      [
        "a",
        "l"
      ],
      [
        "g",
        "h"
      ],
      [
        "Ġs",
        "t"
      ],
      [
        "Ġf",
        "or"
      ],
      [
        "a",
        "ll"
      ],
      [
        "Ġh",
        "e"
      ],
      [
        "Ġs",
        "h"
      ],
      [
        "Ġw",
        "as"
      ],
      [
        "Ġi",
        "m"
      ],
      [
        "Ġno",
        "t"
      ],
      [
        "us",
        "t"
      ],
      [
        "Ġwh",
        "at"
      ],
      [
        "r",
        "o"
      ],
      [
        "a",
        "d"
      ],
      [
        "c",
        "k"
      ],
      [
        "Ġ",
        "k"
      ],
      [
        "Ġa",
        "n"
      ],
      [
        "v",
        "er"
      ],
      [
        "Ġj",
        "ust"
      ],
      [
        "Ġli",
        "ke"
      ],
      [
        "Ġs",
        "o"
      ],
      [
        "l",
        "d"
      ],
      [
        "ou",
        "t"
      ],
      [
        "a",
        "m"
      ],
      [
        "all",
        "y"
      ],
      [
        "an",
        "t"
      ],
      [
        "e",
        "e"
      ],
      [
        "c",
        "h"
      ],
      [
        "o",
        "t"
      ],
      [
        "c",
        "t"
      ],
      [
        "en",
        "t"
      ],
      [
        "m",
        "a"
      ],
      [
        "r",
        "i"
      ],
      [
        "it",
        "h"
      ],
      [
        "s",
        "e"
      ],
      [
        "Ġ",
        ":"
      ],
      [
        "us",
        "e"
      ],
      [
        "Ġwh",
        "y"
      ],
      [
        "i",
        "r"
      ],
      [
        "gh",
        "t"
      ],
      [
        "Ġha",
        "ve"
      ],
      [
        "Ġd",
        "on"
      ],
      [
        "e",
        "a"
      ],
      [
        "s",
        "t"
      ],
      [
        "i",
        "m"
      ],
      [
        "Ġn",
        "e"
      ],
      [
        "Ġa",
        "t"
      ],
      [
        "Ġw",
        "ith"
      ],
      [
        "Ġth",
        "is"
      ],
      [
        "ma",
        "o"
      ],
      [
        "Ġc",
        "h"
      ],
      [
        "r",
        "y"
      ],
      [
        "c",
        "e"
      ],
      [
        "Ġl",
        "mao"
      ],
      [
        "i",
        "ll"
      ],
      [
        "n",
        "t"
      ],
      [
        "i",
        "on"
      ],
      [
        "o",
        "p"
      ],
      [
        "Ġa",
        "s"
      ],
      [
        "at",
        "e"
      ],
      [
        "om",
        "e"
      ],
      [
        "Ġit",
        "s"
      ],
      [
        "ou",
        "ld"
      ],
      [
        "Ġ",
        "ke"
      ],
      [
        "Ġa",
        "l"
      ],
      [
        "t",
        "h"
      ],
      [
        "Ġa",
        "re"
      ],
      [
        "a",
        "use"
      ],
      [
        "u",
        "n"
      ],
      [
        "Ġo",
        "r"
      ],
      [
        "Ġw",
        "or"
      ],
      [
        "'",
        "s"
      ],
      [
        "k",
        "ing"
      ],
      [
        "Ġi",
        "f"
      ],
      [
        ".",
        "."
      ],
      [
        "'",
        "t"
      ],
      [
        "r",
        "a"
      ],
      [
        "p",
        "p"
      ],
      [
        "Ġthe",
        "y"
      ],
      [
        "Ġs",
        "u"
      ],
      [
        "Ġa",
        "b"
      ],
      [
        "Ġc",
        "an"
      ],
      [
        "o",
        "re"
      ],
      [
        "is",
        "t"
      ],
      [
        "Ġl",
        "o"
      ],
      [
        "Ġg",
        "et"
      ],
      [
        "Ġg",
        "o"
      ],
      [
        "v",
        "in"
      ],
      [
        "Ġke",
        "vin"
      ],
      [
        "a",
        "b"
      ],
      [
        "Ġk",
        "n"
      ],
      [
        "Ġf",
        "u"
      ],
      [
        "Ġm",
        "a"
      ],
      [
        "in",
        "k"
      ],
      [
        "h",
        "h"
      ],
      [
        "g",
        "e"
      ],
      [
        "Ġw",
        "ant"
      ],
      [
        "Ġu",
        "p"
      ],
      [
        "Ġkn",
        "ow"
      ],
      [
        "Ġd",
        "id"
      ],
      [
        "oo",
        "d"
      ],
      [
        "es",
        "s"
      ],
      [
        "Ġdon",
        "t"
      ],
      [
        "Ġab",
        "out"
      ],
      [
        "Ġa",
        "ll"
      ],
      [
        "Ġo",
        "hh"
      ],
      [
        "'",
        "m"
      ],
      [
        "ea",
        "h"
      ],
      [
        "Ġp",
        "l"
      ],
      [
        "Ġno",
        "w"
      ],
      [
        "Ġy",
        "eah"
      ],
      [
        "Ġp",
        "ro"
      ],
      [
        "Ġ",
        "r"
      ],
      [
        "Ġfu",
        "ck"
      ],
      [
        "Ġh",
        "ow"
      ],
      [
        "Ġe",
        "x"
      ],
      [
        "t",
        "er"
      ],
      [
        "Ġa",
        "m"
      ],
      [
        "v",
        "en"
      ],
      [
        "Ġ",
        "x"
      ],
      [
        "Ġth",
        "ink"
      ],
      [
        "e",
        "p"
      ],
      [
        "n",
        "a"
      ],
      [
        "in",
        "d"
      ],
      [
        "Ġo",
        "k"
      ],
      [
        "Ġs",
        "e"
      ],
      [
        "u",
        "m"
      ],
      [
        "Ġan",
        "y"
      ],
      [
        "u",
        "r"
      ],
      [
        "Ġyou",
        "r"
      ],
      [
        "Ġlo",
        "ve"
      ],
      [
        "Ġ",
        "out"
      ],
      [
        "Ġto",
        "o"
      ],
      [
        "f",
        "e"
      ],
      [
        "Ġ",
        "v"
      ],
      [
        "Ġon",
        "e"
      ],
      [
        "Ġh",
        "ate"
      ],
      [
        "n",
        "o"
      ],
      [
        "Ġsh",
        "e"
      ],
      [
        "ver",
        "y"
      ],
      [
        "Ġbe",
        "c"
      ],
      [
        "Ġwh",
        "en"
      ],
      [
        "Ġ",
        "'"
      ],
      [
        "es",
        "t"
      ],
      [
        "ou",
        "r"
      ],
      [
        "'",
        "re"
      ],
      [
        "h",
        "a"
      ],
      [
        "i",
        "ght"
      ],
      [
        "Ġl",
        "ist"
      ],
      [
        "ee",
        "l"
      ],
      [
        "Ġre",
        "ally"
      ],
      [
        "Ġs",
        "p"
      ],
      [
        "Ġne",
        "ed"
      ],
      [
        "Ġo",
        "m"
      ],
      [
        "i",
        "l"
      ],
      [
        "am",
        "e"
      ],
      [
        "Ġf",
        "eel"
      ],
      [
        "Ġf",
        "r"
      ],
      [
        "Ġd",
        "e"
      ],
      [
        "Ġe",
        "ven"
      ],
      [
        "on",
        "e"
      ],
      [
        "o",
        "d"
      ],
      [
        "Ġf",
        "a"
      ],
      [
        "re",
        "s"
      ],
      [
        "Ġw",
        "ill"
      ],
      [
        "Ġl",
        "oo"
      ],
      [
        "Ġs",
        "ome"
      ],
      [
        "Ġ",
        "-"
      ],
      [
        "Ġs",
        "or"
      ],
      [
        "s",
        "o"
      ],
      [
        "Ġs",
        "a"
      ],
      [
        "Ġm",
        "us"
      ],
      [
        "Ġthat",
        "s"
      ],
      [
        "Ġlist",
        "en"
      ],
      [
        "Ġbec",
        "ause"
      ],
      [
        "u",
        "l"
      ],
      [
        "Ġy",
        "es"
      ],
      [
        "Ġme",
        "an"
      ],
      [
        "Ġl",
        "e"
      ],
      [
        "ou",
        "nd"
      ],
      [
        "Ġc",
        "om"
      ],
      [
        "k",
        "s"
      ],
      [
        "it",
        "e"
      ],
      [
        "i",
        "e"
      ],
      [
        "Ġth",
        "an"
      ],
      [
        "Ġmus",
        "ic"
      ],
      [
        "Ġc",
        "on"
      ],
      [
        "in",
        "e"
      ],
      [
        "Ġwe",
        "re"
      ],
      [
        "Ġs",
        "ay"
      ],
      [
        "ic",
        "e"
      ],
      [
        "Ġ",
        "1"
      ],
      [
        "g",
        "g"
      ],
      [
        "Ġt",
        "im"
      ],
      [
        "Ġc",
        "ause"
      ],
      [
        "Ġg",
        "ood"
      ],
      [
        "Ġx",
        "d"
      ],
      [
        "Ġa",
        "w"
      ],
      [
        "Ġs",
        "ee"
      ],
      [
        "Ġal",
        "so"
      ],
      [
        "er",
        "s"
      ],
      [
        "Ġu",
        "r"
      ],
      [
        "Ġom",
        "g"
      ],
      [
        "a",
        "re"
      ],
      [
        "Ġm",
        "ore"
      ],
      [
        "Ġsor",
        "ry"
      ],
      [
        "a",
        "in"
      ],
      [
        "Ġthe",
        "n"
      ],
      [
        "as",
        "t"
      ],
      [
        "Ġt",
        "e"
      ],
      [
        "i",
        "ve"
      ],
      [
        "Ġp",
        "e"
      ],
      [
        "l",
        "f"
      ],
      [
        "Ġth",
        "ing"
      ],
      [
        "q",
        "u"
      ],
      [
        "ar",
        "t"
      ],
      [
        "Ġbe",
        "en"
      ],
      [
        "Ġha",
        "ha"
      ],
      [
        "Ġh",
        "er"
      ],
      [
        "i",
        "f"
      ],
      [
        "e",
        "nd"
      ],
      [
        "a",
        "ck"
      ],
      [
        "e",
        "re"
      ],
      [
        "on",
        "g"
      ],
      [
        "Ġg",
        "ot"
      ],
      [
        "Ġthe",
        "m"
      ],
      [
        "Ġch",
        "ar"
      ],
      [
        "Ġdo",
        "es"
      ],
      [
        "Ġth",
        "o"
      ],
      [
        "Ġwh",
        "o"
      ],
      [
        "Ġa",
        "g"
      ],
      [
        "Ġt",
        "b"
      ],
      [
        "Ġwe",
        "ll"
      ],
      [
        "Ġd",
        "un"
      ],
      [
        "Ġw",
        "a"
      ],
      [
        "ou",
        "gh"
      ],
      [
        "Ġw",
        "ould"
      ],
      [
        "Ġ",
        "en"
      ],
      [
        "h",
        "ing"
      ],
      [
        "Ġfr",
        "om"
      ],
      [
        "Ġtim",
        "e"
      ],
      [
        "Ġpe",
        "op"
      ],
      [
        "Ġ",
        "("
      ],
      [
        "Ġha",
        "d"
      ],
      [
        "Ġdun",
        "no"
      ],
      [
        "Ġp",
        "o"
      ],
      [
        "!",
        "!"
      ],
      [
        "Ġa",
        "ct"
      ],
      [
        "at",
        "ion"
      ],
      [
        "Ġpro",
        "b"
      ],
      [
        "Ġpeop",
        "le"
      ],
      [
        "Ġ",
        "us"
      ],
      [
        "Ġthe",
        "re"
      ],
      [
        "Ġlisten",
        "ing"
      ],
      [
        "u",
        "d"
      ],
      [
        "Ġt",
        "r"
      ],
      [
        "Ġu",
        "n"
      ],
      [
        "Ġt",
        "al"
      ],
      [
        "Ġ",
        "2"
      ],
      [
        "Ġw",
        "an"
      ],
      [
        "ic",
        "k"
      ],
      [
        "Ġm",
        "u"
      ],
      [
        "t",
        "ing"
      ],
      [
        "u",
        "ally"
      ],
      [
        "Ġ:",
        ")"
      ],
      [
        "Ġon",
        "ly"
      ],
      [
        "Ġe",
        "very"
      ],
      [
        "Ġchar",
        "is"
      ],
      [
        "Ġma",
        "ke"
      ],
      [
        "ou",
        "s"
      ],
      [
        "Ġmu",
        "ch"
      ],
      [
        "Ġin",
        "t"
      ],
      [
        "Ġs",
        "c"
      ],
      [
        "i",
        "g"
      ],
      [
        "as",
        "e"
      ],
      [
        "Ġbe",
        "ing"
      ],
      [
        "p",
        "e"
      ],
      [
        "..",
        "."
      ],
      [
        "Ġpl",
        "ay"
      ],
      [
        "Ġh",
        "im"
      ],
      [
        "Ġwor",
        "k"
      ],
      [
        "Ġ:",
        "("
      ],
      [
        "f",
        "f"
      ],
      [
        "Ġc",
        "ould"
      ],
      [
        "u",
        "e"
      ],
      [
        "v",
        "ing"
      ],
      [
        "a",
        "nd"
      ],
      [
        "Ġwan",
        "na"
      ],
      [
        "Ġsh",
        "ould"
      ],
      [
        "Ġm",
        "o"
      ],
      [
        "ri",
        "ght"
      ],
      [
        "or",
        "t"
      ],
      [
        "oo",
        "l"
      ],
      [
        "om",
        "et"
      ],
      [
        "p",
        "t"
      ],
      [
        "Ġb",
        "o"
      ],
      [
        "Ġg",
        "u"
      ],
      [
        "p",
        "er"
      ],
      [
        "b",
        "s"
      ],
      [
        "l",
        "o"
      ],
      [
        "Ġs",
        "omet"
      ],
      [
        "l",
        "p"
      ],
      [
        "?",
        "?"
      ],
      [
        "w",
        "ay"
      ],
      [
        "ab",
        "ly"
      ],
      [
        "Ġa",
        "r"
      ],
      [
        "m",
        "e"
      ],
      [
        "b",
        "e"
      ],
      [
        "a",
        "g"
      ],
      [
        "Ġd",
        "ay"
      ],
      [
        "Ġm",
        "ay"
      ],
      [
        "ar",
        "d"
      ],
      [
        "Ġe",
        "l"
      ],
      [
        "Ġo",
        "ver"
      ],
      [
        "Ġc",
        "o"
      ],
      [
        "Ġb",
        "y"
      ],
      [
        "Ġhe",
        "lp"
      ],
      [
        "Ġtb",
        "h"
      ],
      [
        "Ġ",
        "<"
      ],
      [
        "Ġc",
        "ant"
      ],
      [
        "res",
        "s"
      ],
      [
        "u",
        "re"
      ],
      [
        "Ġsh",
        "it"
      ],
      [
        "Ġt",
        "a"
      ],
      [
        "Ġl",
        "it"
      ],
      [
        "Ġb",
        "ad"
      ],
      [
        "Ġprob",
        "ably"
      ],
      [
        "Ġa",
        "d"
      ],
      [
        "Ġt",
        "ry"
      ],
      [
        "'",
        "ve"
      ],
      [
        "Ġst",
        "ill"
      ],
      [
        "w",
        "n"
      ],
      [
        "is",
        "h"
      ],
      [
        "Ġb",
        "it"
      ],
      [
        "Ġk",
        "ind"
      ],
      [
        "is",
        "s"
      ],
      [
        "'",
        "d"
      ],
      [
        "le",
        "ep"
      ],
      [
        "id",
        "e"
      ],
      [
        "Ġha",
        "pp"
      ],
      [
        "Ġgo",
        "ing"
      ],
      [
        "ri",
        "end"
      ],
      [
        "re",
        "am"
      ],
      [
        "c",
        "c"
      ],
      [
        "Ġs",
        "ame"
      ],
      [
        "t",
        "y"
      ],
      [
        "th",
        "ing"
      ],
      [
        "Ġact",
        "ually"
      ],
      [
        "d",
        "ay"
      ],
      [
        "'",
        "ll"
      ],
      [
        "Ġof",
        "f"
      ],
      [
        "Ġst",
        "u"
      ],
      [
        "Ġm",
        "an"
      ],
      [
        "Ġwa",
        "it"
      ],
      [
        "nd",
        "er"
      ],
      [
        "Ġa",
        "pp"
      ],
      [
        "Ġd",
        "is"
      ],
      [
        "se",
        "lf"
      ],
      [
        "Ġb",
        "ack"
      ],
      [
        "Ġh",
        "as"
      ],
      [
        "e",
        "ar"
      ],
      [
        "th",
        "er"
      ],
      [
        "Ġ",
        "qu"
      ],
      [
        "Ġp",
        "le"
      ],
      [
        "i",
        "gh"
      ],
      [
        "Ġc",
        "ome"
      ],
      [
        "Ġsa",
        "id"
      ],
      [
        "Ġj",
        "o"
      ],
      [
        "ic",
        "h"
      ],
      [
        "Ġi",
        "d"
      ],
      [
        "h",
        "er"
      ],
      [
        "m",
        "ent"
      ],
      [
        "Ġs",
        "ound"
      ],
      [
        "Ġw",
        "ay"
      ],
      [
        "Ġs",
        "leep"
      ],
      [
        "Ġple",
        "ase"
      ],
      [
        "as",
        "s"
      ],
      [
        "Ġp",
        "re"
      ],
      [
        "b",
        "er"
      ],
      [
        "k",
        "es"
      ],
      [
        "ou",
        "ght"
      ],
      [
        "Ġg",
        "on"
      ],
      [
        "Ġ",
        "*"
      ],
      [
        "Ġhe",
        "re"
      ],
      [
        "m",
        "m"
      ],
      [
        "Ġdo",
        "ing"
      ],
      [
        "Ġsomet",
        "hing"
      ],
      [
        "Ġ",
        "right"
      ],
      [
        "Ġtal",
        "k"
      ],
      [
        "in",
        "t"
      ],
      [
        "c",
        "i"
      ],
      [
        "Ġc",
        "ool"
      ],
      [
        "Ġne",
        "ver"
      ],
      [
        "Ġbe",
        "t"
      ],
      [
        "b",
        "le"
      ],
      [
        "i",
        "re"
      ],
      [
        "Ġg",
        "e"
      ],
      [
        "Ġli",
        "fe"
      ],
      [
        "Ġloo",
        "k"
      ],
      [
        "Ġ",
        "3"
      ],
      [
        "Ġgon",
        "na"
      ],
      [
        "Ġc",
        "all"
      ],
      [
        "p",
        "l"
      ],
      [
        "Ġs",
        "m"
      ],
      [
        "y",
        "s"
      ],
      [
        "Ġn",
        "ice"
      ],
      [
        "Ġwh",
        "ich"
      ],
      [
        "Ġo",
        "ther"
      ],
      [
        "a",
        "ct"
      ],
      [
        "Ġh",
        "op"
      ],
      [
        "a",
        "ge"
      ],
      [
        "Ġge",
        "or"
      ],
      [
        "Ġf",
        "riend"
      ],
      [
        "an",
        "g"
      ],
      [
        "Ġm",
        "ad"
      ],
      [
        "Ġloo",
        "king"
      ],
      [
        "Ġ",
        "very"
      ],
      [
        "Ġ",
        "ra"
      ],
      [
        "Ġag",
        "ain"
      ],
      [
        "f",
        "ore"
      ],
      [
        "0",
        "0"
      ],
      [
        "Ġthing",
        "s"
      ],
      [
        "bs",
        "ite"
      ],
      [
        "r",
        "ow"
      ],
      [
        "Ġm",
        "ight"
      ],
      [
        "Ġt",
        "w"
      ],
      [
        "Ġa",
        "f"
      ],
      [
        "o",
        "s"
      ],
      [
        "Ġl",
        "et"
      ],
      [
        "Ġwe",
        "bsite"
      ],
      [
        "an",
        "ce"
      ],
      [
        "Ġl",
        "ot"
      ],
      [
        "ab",
        "le"
      ],
      [
        "i",
        "es"
      ],
      [
        "Ġ",
        "ro"
      ],
      [
        "Ġfa",
        "ir"
      ],
      [
        "Ġth",
        "ought"
      ],
      [
        "Ġte",
        "ll"
      ],
      [
        "Ġp",
        "h"
      ],
      [
        "Ġmay",
        "be"
      ],
      [
        "Ġc",
        "ut"
      ],
      [
        "Ġu",
        "nder"
      ],
      [
        "Ġint",
        "o"
      ],
      [
        "re",
        "e"
      ],
      [
        "i",
        "p"
      ],
      [
        "Ġdid",
        "nt"
      ],
      [
        "ir",
        "d"
      ],
      [
        "Ġha",
        "r"
      ],
      [
        "Ġel",
        "od"
      ],
      [
        "Ġf",
        "e"
      ],
      [
        "Ġst",
        "ream"
      ],
      [
        "Ġb",
        "l"
      ],
      [
        "Ġwor",
        "d"
      ],
      [
        "Ġstu",
        "ff"
      ],
      [
        "Ġb",
        "ab"
      ],
      [
        "Ġbe",
        "fore"
      ],
      [
        "Ġw",
        "r"
      ],
      [
        "Ġgeor",
        "ge"
      ],
      [
        "Ġfuck",
        "ing"
      ],
      [
        "u",
        "g"
      ],
      [
        "m",
        "s"
      ],
      [
        "Ġwh",
        "ere"
      ],
      [
        "Ġsu",
        "re"
      ],
      [
        "re",
        "at"
      ],
      [
        "it",
        "y"
      ],
      [
        "Ġhop",
        "e"
      ],
      [
        "Ġc",
        "l"
      ],
      [
        "t",
        "e"
      ],
      [
        "Ġsu",
        "pp"
      ],
      [
        "Ġn",
        "a"
      ],
      [
        "Ġaf",
        "ter"
      ],
      [
        "is",
        "e"
      ],
      [
        "i",
        "ous"
      ],
      [
        "Ġi",
        "ll"
      ],
      [
        "Ġp",
        "ers"
      ],
      [
        "a",
        "a"
      ],
      [
        "s",
        "s"
      ],
      [
        "Ġb",
        "ot"
      ],
      [
        "Ġwe",
        "ird"
      ],
      [
        "Ġre",
        "al"
      ],
      [
        "ul",
        "t"
      ],
      [
        "at",
        "er"
      ],
      [
        "Ġy",
        "ear"
      ],
      [
        "y",
        "ing"
      ],
      [
        "on",
        "t"
      ],
      [
        "Ġp",
        "art"
      ],
      [
        "Ġb",
        "ro"
      ],
      [
        "way",
        "s"
      ],
      [
        "g",
        "et"
      ],
      [
        "Ġm",
        "in"
      ],
      [
        "Ġh",
        "is"
      ],
      [
        "Ġcom",
        "p"
      ],
      [
        "re",
        "ad"
      ],
      [
        "Ġm",
        "um"
      ],
      [
        "Ġm",
        "ed"
      ],
      [
        "o",
        "l"
      ],
      [
        "Ġpers",
        "on"
      ],
      [
        "Ġe",
        "ver"
      ],
      [
        "Ġelod",
        "ie"
      ],
      [
        "ou",
        "se"
      ],
      [
        "Ġe",
        "m"
      ],
      [
        "Ġal",
        "ways"
      ],
      [
        "Ġlit",
        "er"
      ],
      [
        "Ġdo",
        "wn"
      ],
      [
        "Ġkind",
        "a"
      ],
      [
        "Ġd",
        "r"
      ],
      [
        "Ġs",
        "igh"
      ],
      [
        "Ġc",
        "at"
      ],
      [
        "Ġany",
        "thing"
      ],
      [
        "Ġh",
        "our"
      ],
      [
        "Ġb",
        "oo"
      ],
      [
        "Ġl",
        "ong"
      ],
      [
        "Ġst",
        "art"
      ],
      [
        "Ġas",
        "k"
      ],
      [
        "Ġf",
        "un"
      ],
      [
        "Ġtr",
        "ue"
      ],
      [
        "Ġbet",
        "ter"
      ],
      [
        "Ġsound",
        "s"
      ],
      [
        "ic",
        "ally"
      ],
      [
        "Ġp",
        "et"
      ],
      [
        "Ġt",
        "ra"
      ],
      [
        "Ġmy",
        "self"
      ],
      [
        "Ġh",
        "ouse"
      ],
      [
        "a",
        "ce"
      ],
      [
        "en",
        "s"
      ],
      [
        "or",
        "d"
      ],
      [
        "Ġp",
        "er"
      ],
      [
        "Ġf",
        "ind"
      ],
      [
        "Ġta",
        "ke"
      ],
      [
        "Ġ",
        "4"
      ],
      [
        "Ġf",
        "ro"
      ],
      [
        "Ġch",
        "e"
      ],
      [
        "Ġthe",
        "ir"
      ],
      [
        "Ġliter",
        "ally"
      ],
      [
        "Ġse",
        "x"
      ],
      [
        "Ġtry",
        "ing"
      ],
      [
        "Ġaw",
        "w"
      ],
      [
        "m",
        "ber"
      ],
      [
        "x",
        "t"
      ],
      [
        "Ġthan",
        "ks"
      ],
      [
        "ion",
        "s"
      ],
      [
        "Ġl",
        "ea"
      ],
      [
        "!",
        "?"
      ],
      [
        "Ġf",
        "l"
      ],
      [
        "n",
        "ing"
      ],
      [
        "Ġto",
        "day"
      ],
      [
        "s",
        "h"
      ],
      [
        "Ġd",
        "if"
      ],
      [
        "Ġs",
        "on"
      ],
      [
        "Ġ",
        "use"
      ],
      [
        "w",
        "e"
      ],
      [
        "Ġpre",
        "t"
      ],
      [
        "Ġget",
        "ting"
      ],
      [
        "at",
        "ch"
      ],
      [
        "Ġa",
        "cc"
      ],
      [
        "Ġmad",
        "e"
      ],
      [
        "Ġhar",
        "d"
      ],
      [
        "Ġp",
        "r"
      ],
      [
        "Ġy",
        "ay"
      ],
      [
        "Ġwe",
        "e"
      ],
      [
        "ee",
        "p"
      ],
      [
        "at",
        "ed"
      ],
      [
        "ir",
        "st"
      ],
      [
        "Ġst",
        "op"
      ],
      [
        "i",
        "le"
      ],
      [
        "Ġb",
        "u"
      ],
      [
        "st",
        "and"
      ],
      [
        "Ġcut",
        "e"
      ],
      [
        "od",
        "y"
      ],
      [
        "Ġre",
        "me"
      ],
      [
        "Ġfro",
        "gg"
      ],
      [
        "Ġm",
        "on"
      ],
      [
        "Ġ",
        "5"
      ],
      [
        "ic",
        "t"
      ],
      [
        "Ġf",
        "irst"
      ],
      [
        "Ġne",
        "w"
      ],
      [
        "at",
        "ing"
      ],
      [
        "Ġm",
        "ess"
      ],
      [
        "Â",
        "£"
      ],
      [
        "Ġn",
        "ight"
      ],
      [
        "l",
        "es"
      ],
      [
        "c",
        "o"
      ],
      [
        "Ġre",
        "ad"
      ],
      [
        "a",
        "ch"
      ],
      [
        "re",
        "nt"
      ],
      [
        "v",
        "ent"
      ],
      [
        "Ġcon",
        "t"
      ],
      [
        "f",
        "t"
      ],
      [
        "ri",
        "ed"
      ],
      [
        "Ġth",
        "ough"
      ],
      [
        "Ġgo",
        "d"
      ],
      [
        "as",
        "on"
      ],
      [
        "a",
        "k"
      ],
      [
        "Ġd",
        "ad"
      ],
      [
        "Ġha",
        "ving"
      ],
      [
        "Ġp",
        "ut"
      ],
      [
        "an",
        "s"
      ],
      [
        "Ġunder",
        "stand"
      ],
      [
        "Ġreme",
        "mber"
      ],
      [
        "Ġl",
        "ater"
      ],
      [
        "or",
        "m"
      ],
      [
        "Ġ",
        "Â£"
      ],
      [
        "Ġplay",
        "ing"
      ],
      [
        "Ġe",
        "nd"
      ],
      [
        "f",
        "ul"
      ],
      [
        "Ġma",
        "kes"
      ],
      [
        "u",
        "al"
      ],
      [
        "Ġs",
        "ad"
      ],
      [
        "t",
        "le"
      ],
      [
        "an",
        "ge"
      ],
      [
        "Ġo",
        "o"
      ],
      [
        "Ġm",
        "iss"
      ],
      [
        "Ġbot",
        "h"
      ],
      [
        "Ġb",
        "r"
      ],
      [
        "Ġf",
        "ine"
      ],
      [
        "Ġl",
        "a"
      ],
      [
        "Ġdid",
        "n"
      ],
      [
        "Ġf",
        "ood"
      ],
      [
        "Ġgu",
        "ess"
      ],
      [
        "Ġthan",
        "k"
      ],
      [
        "Ġna",
        "h"
      ],
      [
        "Ġan",
        "g"
      ],
      [
        "Ġle",
        "g"
      ],
      [
        "Ġpret",
        "ty"
      ],
      [
        "Ġre",
        "ason"
      ],
      [
        "Ġsh",
        "ow"
      ],
      [
        "Ġhapp",
        "en"
      ],
      [
        "Ġfeel",
        "ing"
      ],
      [
        "Ġdis",
        "c"
      ],
      [
        "Ġh",
        "ome"
      ],
      [
        "Ġw",
        "ont"
      ],
      [
        "Ġen",
        "ough"
      ],
      [
        "Ġs",
        "er"
      ],
      [
        "Ġsp",
        "ea"
      ],
      [
        "Ġg",
        "ir"
      ],
      [
        "m",
        "or"
      ],
      [
        "Ġke",
        "ep"
      ],
      [
        "l",
        "i"
      ],
      [
        "Ġle",
        "ast"
      ],
      [
        "Ġbab",
        "y"
      ],
      [
        "Ġsay",
        "ing"
      ],
      [
        "Ġpet",
        "e"
      ],
      [
        "Ġan",
        "no"
      ],
      [
        "Ġcon",
        "f"
      ],
      [
        "Ġph",
        "one"
      ],
      [
        "Ġany",
        "way"
      ],
      [
        "Ġtal",
        "king"
      ],
      [
        "Ġc",
        "a"
      ],
      [
        "Ġ",
        "our"
      ],
      [
        "Ġhapp",
        "y"
      ],
      [
        "ud",
        "e"
      ],
      [
        "Ġb",
        "est"
      ],
      [
        "Ġdon",
        "e"
      ],
      [
        "Ġg",
        "ive"
      ],
      [
        "Ġh",
        "or"
      ],
      [
        "en",
        "ce"
      ],
      [
        "t",
        "a"
      ],
      [
        "Ġfrogg",
        "y"
      ],
      [
        "Ġim",
        "p"
      ],
      [
        "Ġde",
        "c"
      ],
      [
        "Ġb",
        "ed"
      ],
      [
        "an",
        "c"
      ],
      [
        "Ġi",
        "ve"
      ],
      [
        "Ġs",
        "l"
      ],
      [
        "Ġmean",
        "s"
      ],
      [
        "Ġsh",
        "op"
      ],
      [
        "Ġa",
        "ut"
      ],
      [
        "Ġl",
        "ast"
      ],
      [
        "Ġin",
        "st"
      ],
      [
        "w",
        "ard"
      ],
      [
        "in",
        "king"
      ],
      [
        "Ġto",
        "ld"
      ],
      [
        "read",
        "y"
      ],
      [
        "fe",
        "ct"
      ],
      [
        "v",
        "ed"
      ],
      [
        "Ġc",
        "are"
      ],
      [
        "Ġen",
        "g"
      ],
      [
        "i",
        "x"
      ],
      [
        "d",
        "d"
      ],
      [
        "un",
        "ch"
      ],
      [
        "Ġal",
        "ready"
      ],
      [
        "Ġw",
        "atch"
      ],
      [
        "Ġe",
        "t"
      ],
      [
        "Ġo",
        "ld"
      ],
      [
        "Ġa",
        "ce"
      ],
      [
        "Ġpo",
        "int"
      ],
      [
        "Ġwant",
        "ed"
      ],
      [
        "Ġg",
        "en"
      ],
      [
        "n",
        "e"
      ],
      [
        "Ġb",
        "as"
      ],
      [
        "Ġas",
        "s"
      ],
      [
        "Ġm",
        "ine"
      ],
      [
        "i",
        "z"
      ],
      [
        "Ġh",
        "es"
      ],
      [
        "Ġc",
        "r"
      ],
      [
        "!!",
        "!"
      ],
      [
        "v",
        "es"
      ],
      [
        "Ġthe",
        "se"
      ],
      [
        "Ġad",
        "d"
      ],
      [
        "Ġhour",
        "s"
      ],
      [
        "Ġdoes",
        "nt"
      ],
      [
        "w",
        "h"
      ],
      [
        "Ġf",
        "in"
      ],
      [
        "Ġmo",
        "st"
      ],
      [
        "ith",
        "er"
      ],
      [
        "are",
        "nt"
      ],
      [
        "ar",
        "y"
      ],
      [
        "Ġkevin",
        "s"
      ],
      [
        "Ġpl",
        "an"
      ],
      [
        "Ġc",
        "le"
      ],
      [
        "Ġh",
        "on"
      ],
      [
        "p",
        "s"
      ],
      [
        "Ġb",
        "re"
      ],
      [
        "b",
        "o"
      ],
      [
        "ar",
        "ly"
      ],
      [
        "are",
        "d"
      ],
      [
        "Ġth",
        "r"
      ],
      [
        "p",
        "o"
      ],
      [
        "Ġus",
        "ed"
      ],
      [
        "i",
        "b"
      ],
      [
        "Ġs",
        "it"
      ],
      [
        "Ġse",
        "nd"
      ],
      [
        "??",
        "?"
      ],
      [
        "Ġevery",
        "thing"
      ],
      [
        "Ġj",
        "e"
      ],
      [
        "Ġnot",
        "hing"
      ],
      [
        "ou",
        "nt"
      ],
      [
        "Ġo",
        "p"
      ],
      [
        "i",
        "ld"
      ],
      [
        "Ġex",
        "act"
      ],
      [
        "l",
        "ess"
      ],
      [
        "Ġf",
        "re"
      ],
      [
        "Ġe",
        "at"
      ],
      [
        "re",
        "d"
      ],
      [
        "one",
        "y"
      ],
      [
        "Ġsu",
        "per"
      ],
      [
        "Ġlit",
        "tle"
      ],
      [
        "Ġat",
        "t"
      ],
      [
        "Ġma",
        "king"
      ],
      [
        "t",
        "s"
      ],
      [
        "Ġa",
        "aa"
      ],
      [
        "Ġevery",
        "one"
      ],
      [
        "Ġin",
        "c"
      ],
      [
        "Ġfa",
        "ce"
      ],
      [
        "Ġbo",
        "i"
      ],
      [
        "Ġre",
        "s"
      ],
      [
        "p",
        "le"
      ],
      [
        "Ġwr",
        "ong"
      ],
      [
        "Ġd",
        "es"
      ],
      [
        "pe",
        "ct"
      ],
      [
        "Ġhon",
        "est"
      ],
      [
        "Ġthr",
        "ough"
      ],
      [
        "Ġto",
        "mor"
      ],
      [
        "Ġd",
        "ick"
      ],
      [
        "Ġg",
        "eep"
      ],
      [
        "Ġh",
        "u"
      ],
      [
        "e",
        "ad"
      ],
      [
        "Ġmon",
        "th"
      ],
      [
        "Ġfriend",
        "s"
      ],
      [
        "Ġdif",
        "fe"
      ],
      [
        "at",
        "h"
      ],
      [
        "Ġid",
        "ea"
      ],
      [
        "Ġlea",
        "ve"
      ],
      [
        "Ġg",
        "l"
      ],
      [
        "Ġsp",
        "e"
      ],
      [
        "Ġl",
        "ess"
      ],
      [
        "Ġtomor",
        "row"
      ],
      [
        "Ġth",
        "inking"
      ],
      [
        "Ġc",
        "ry"
      ],
      [
        "Ġst",
        "r"
      ],
      [
        "ore",
        "d"
      ],
      [
        "Ġde",
        "f"
      ],
      [
        "Ġgeep",
        "y"
      ],
      [
        "Ġd",
        "am"
      ],
      [
        "Ġhe",
        "y"
      ],
      [
        "ig",
        "n"
      ],
      [
        "Ġan",
        "x"
      ],
      [
        "Ġo",
        "wn"
      ],
      [
        "Ġm",
        "ent"
      ],
      [
        "Ġg",
        "r"
      ],
      [
        "Ġhe",
        "ad"
      ],
      [
        "Ġs",
        "ch"
      ],
      [
        "Ġ1",
        "0"
      ],
      [
        "Ġme",
        "ant"
      ],
      [
        "Ġn",
        "ame"
      ],
      [
        "en",
        "se"
      ],
      [
        "Ġar",
        "ound"
      ],
      [
        "Ġg",
        "reat"
      ],
      [
        "s",
        "w"
      ],
      [
        "Ġel",
        "se"
      ],
      [
        "i",
        "ble"
      ],
      [
        "Ġl",
        "unch"
      ],
      [
        "Ġk",
        "id"
      ],
      [
        "Ġsh",
        "es"
      ],
      [
        "Ġok",
        "ay"
      ],
      [
        "ur",
        "n"
      ],
      [
        "Ġex",
        "pl"
      ],
      [
        "oo",
        "k"
      ],
      [
        "Ġsee",
        "ms"
      ],
      [
        "Ġgir",
        "l"
      ],
      [
        "b",
        "ody"
      ],
      [
        "Ġsupp",
        "ort"
      ],
      [
        "Ġtb",
        "f"
      ],
      [
        "Ġf",
        "o"
      ],
      [
        "Ġan",
        "sw"
      ],
      [
        "Ġaw",
        "ay"
      ],
      [
        "Ġb",
        "ig"
      ],
      [
        "Ġtw",
        "o"
      ],
      [
        "m",
        "o"
      ],
      [
        "ce",
        "pt"
      ],
      [
        "Ġexact",
        "ly"
      ],
      [
        "Ġu",
        "mm"
      ],
      [
        "Ġcon",
        "s"
      ],
      [
        "ere",
        "st"
      ],
      [
        "Ġh",
        "i"
      ],
      [
        "ct",
        "or"
      ],
      [
        "ll",
        "y"
      ],
      [
        "Ġre",
        "l"
      ],
      [
        "Ġin",
        "s"
      ],
      [
        "Ġin",
        "ter"
      ],
      [
        "Ġleg",
        "it"
      ],
      [
        "Ġwor",
        "ry"
      ],
      [
        "g",
        "n"
      ],
      [
        "Ġint",
        "erest"
      ],
      [
        "Ġm",
        "oney"
      ],
      [
        "is",
        "ed"
      ],
      [
        "Ġt",
        "y"
      ],
      [
        "u",
        "ck"
      ],
      [
        "Ġh",
        "mm"
      ],
      [
        "Ġjo",
        "b"
      ],
      [
        "Ġro",
        "om"
      ],
      [
        "Ġc",
        "ra"
      ],
      [
        "Ġ",
        "6"
      ],
      [
        "ire",
        "d"
      ],
      [
        "Ġeng",
        "l"
      ],
      [
        "e",
        "l"
      ],
      [
        "Ġaw",
        "es"
      ],
      [
        "Ġne",
        "xt"
      ],
      [
        "i",
        "et"
      ],
      [
        "Ġsc",
        "ared"
      ],
      [
        "Ġh",
        "o"
      ],
      [
        "um",
        "b"
      ],
      [
        "o",
        "ke"
      ],
      [
        "Ġi",
        "nd"
      ],
      [
        "Ġa",
        "c"
      ],
      [
        "Ġli",
        "ve"
      ],
      [
        "Ġcom",
        "m"
      ],
      [
        "n",
        "er"
      ],
      [
        "Ġs",
        "ent"
      ],
      [
        "Ġd",
        "ep"
      ],
      [
        "l",
        "t"
      ],
      [
        "Ġk",
        "iss"
      ],
      [
        "a",
        "ir"
      ],
      [
        "Ġspea",
        "k"
      ],
      [
        "Ġo",
        "b"
      ],
      [
        "Ġp",
        "ict"
      ],
      [
        "Ġle",
        "ft"
      ],
      [
        "Ġs",
        "ong"
      ],
      [
        "Ġdoes",
        "n"
      ],
      [
        "ri",
        "ble"
      ],
      [
        "Ġp",
        "ay"
      ],
      [
        "ious",
        "ly"
      ],
      [
        "Ġh",
        "ug"
      ],
      [
        "Ġday",
        "s"
      ],
      [
        "Ġtim",
        "es"
      ],
      [
        "Ġw",
        "ent"
      ],
      [
        "Ġtho",
        "se"
      ],
      [
        "Ġawes",
        "ome"
      ],
      [
        "Ġs",
        "w"
      ],
      [
        "Ġpl",
        "ace"
      ],
      [
        "Ġg",
        "i"
      ],
      [
        "p",
        "h"
      ],
      [
        "i",
        "ly"
      ],
      [
        "Ġw",
        "ow"
      ],
      [
        "n",
        "y"
      ],
      [
        "Ġe",
        "ither"
      ],
      [
        "Ġloo",
        "ks"
      ],
      [
        "Ġwith",
        "out"
      ],
      [
        "Ġsomet",
        "im"
      ],
      [
        "Ġf",
        "ound"
      ],
      [
        "Ġst",
        "ress"
      ],
      [
        "Ġun",
        "i"
      ],
      [
        "Ġanno",
        "ying"
      ],
      [
        "Ġw",
        "ish"
      ],
      [
        "ck",
        "s"
      ],
      [
        "Ġab",
        "le"
      ],
      [
        "Ġre",
        "c"
      ],
      [
        "Ġh",
        "ur"
      ],
      [
        "ic",
        "al"
      ],
      [
        "Ġf",
        "ree"
      ],
      [
        "Ġdiffe",
        "rent"
      ],
      [
        "Ġb",
        "ored"
      ],
      [
        "Ġyear",
        "s"
      ],
      [
        "m",
        "ed"
      ],
      [
        "Ġw",
        "al"
      ],
      [
        "Ġgot",
        "ta"
      ],
      [
        "f",
        "g"
      ],
      [
        "us",
        "ed"
      ],
      [
        "t",
        "en"
      ],
      [
        "ot",
        "her"
      ],
      [
        "Ġwee",
        "k"
      ],
      [
        "nd",
        "om"
      ],
      [
        "Ġs",
        "et"
      ],
      [
        "Ġman",
        "y"
      ],
      [
        "Ġprob",
        "le"
      ],
      [
        "Ġex",
        "c"
      ],
      [
        "Ġwho",
        "le"
      ],
      [
        "Ġb",
        "ra"
      ],
      [
        "k",
        "r"
      ],
      [
        "Ġm",
        "ood"
      ],
      [
        "Ġfor",
        "get"
      ],
      [
        "Ġdo",
        "ctor"
      ],
      [
        "Ġs",
        "k"
      ],
      [
        "Ġh",
        "igh"
      ],
      [
        "Ġpro",
        "per"
      ],
      [
        "s",
        "ed"
      ],
      [
        "Ġd",
        "j"
      ],
      [
        "Ġwor",
        "king"
      ],
      [
        "Ġs",
        "im"
      ],
      [
        "Ġcom",
        "ing"
      ],
      [
        "g",
        "r"
      ],
      [
        "Ġang",
        "le"
      ],
      [
        "Ġv",
        "ide"
      ],
      [
        "Ġhe",
        "ll"
      ],
      [
        "Ġ:",
        "/"
      ],
      [
        "Ġh",
        "ot"
      ],
      [
        "Ġma",
        "in"
      ],
      [
        "as",
        "h"
      ],
      [
        "Ġst",
        "ay"
      ],
      [
        "Ġsometim",
        "es"
      ],
      [
        "Ġre",
        "p"
      ],
      [
        "Ġsu",
        "ch"
      ],
      [
        "Ġansw",
        "er"
      ],
      [
        "t",
        "ed"
      ],
      [
        "Ġs",
        "y"
      ],
      [
        "k",
        "ed"
      ],
      [
        "Ġc",
        "re"
      ],
      [
        "ou",
        "d"
      ],
      [
        "Ġc",
        "ur"
      ],
      [
        "is",
        "m"
      ],
      [
        "a",
        "c"
      ],
      [
        "u",
        "b"
      ],
      [
        "es",
        "e"
      ],
      [
        "Ġk",
        "ill"
      ],
      [
        "Ġis",
        "s"
      ],
      [
        "Ġi",
        "kr"
      ],
      [
        "Ġoo",
        "h"
      ],
      [
        "Ġbe",
        "l"
      ],
      [
        "Ġsch",
        "ool"
      ],
      [
        "Ġte",
        "ch"
      ],
      [
        "Ġmo",
        "ve"
      ],
      [
        "Ġhor",
        "rible"
      ],
      [
        "u",
        "es"
      ],
      [
        "Ġon",
        "ce"
      ],
      [
        "Ġet",
        "c"
      ],
      [
        "get",
        "her"
      ],
      [
        "ere",
        "d"
      ],
      [
        "Ġbre",
        "ak"
      ],
      [
        "h",
        "t"
      ],
      [
        "Ġy",
        "et"
      ],
      [
        "ud",
        "d"
      ],
      [
        "Ġwe",
        "ed"
      ],
      [
        "l",
        "ine"
      ],
      [
        "Ġp",
        "ain"
      ],
      [
        "id",
        "ent"
      ],
      [
        "Ġha",
        "vent"
      ],
      [
        "Ġc",
        "lo"
      ],
      [
        "Ġto",
        "gether"
      ],
      [
        "Ġhonest",
        "ly"
      ],
      [
        "Ġg",
        "ay"
      ],
      [
        "ic",
        "s"
      ],
      [
        "Ġ",
        "ent"
      ],
      [
        "Ġ",
        "9"
      ],
      [
        "Ġm",
        "ind"
      ],
      [
        "Ġinst",
        "ead"
      ],
      [
        "Ġpo",
        "ss"
      ],
      [
        "p",
        "ing"
      ],
      [
        "Ġbo",
        "y"
      ],
      [
        "Ġgu",
        "y"
      ],
      [
        "Ġmin",
        "s"
      ],
      [
        "Ġexpl",
        "ain"
      ],
      [
        "it",
        "ch"
      ],
      [
        "Ġwhat",
        "s"
      ],
      [
        "m",
        "it"
      ],
      [
        "Ġ",
        "8"
      ],
      [
        "Ġgu",
        "ys"
      ],
      [
        "ct",
        "ion"
      ],
      [
        "d",
        "er"
      ],
      [
        "Ġe",
        "as"
      ],
      [
        "al",
        "s"
      ],
      [
        "Ġb",
        "us"
      ],
      [
        "Ġm",
        "ar"
      ],
      [
        "Ġp",
        "ast"
      ],
      [
        "Ġu",
        "nt"
      ],
      [
        "Ġdisc",
        "ord"
      ],
      [
        "Ġp",
        "ar"
      ],
      [
        "i",
        "v"
      ],
      [
        "Ġra",
        "ndom"
      ],
      [
        "Ġcall",
        "ed"
      ],
      [
        "Ġn",
        "on"
      ],
      [
        "Ġ2",
        "0"
      ],
      [
        "Ġme",
        "et"
      ],
      [
        "Ġg",
        "ame"
      ],
      [
        "Ġbr",
        "ing"
      ],
      [
        "Ġis",
        "nt"
      ],
      [
        "u",
        "u"
      ],
      [
        "Ġaw",
        "k"
      ],
      [
        "lo",
        "g"
      ],
      [
        "ci",
        "al"
      ],
      [
        "Ġtw",
        "ice"
      ],
      [
        "Ġper",
        "fect"
      ],
      [
        "Ġche",
        "ck"
      ],
      [
        "Ġmed",
        "s"
      ],
      [
        "y",
        "y"
      ],
      [
        "Ġe",
        "w"
      ],
      [
        "Ġbas",
        "ically"
      ],
      [
        "f",
        "u"
      ],
      [
        "Ġ",
        "7"
      ],
      [
        "w",
        "a"
      ],
      [
        "Ġst",
        "ud"
      ],
      [
        "Ġr",
        "ly"
      ],
      [
        "Ġin",
        "f"
      ],
      [
        "b",
        "i"
      ],
      [
        "Ġthe",
        "res"
      ],
      [
        "Ġneed",
        "s"
      ],
      [
        "Ġop",
        "en"
      ],
      [
        "Ġr",
        "ude"
      ],
      [
        "am",
        "es"
      ],
      [
        "Ġawk",
        "ward"
      ],
      [
        "Ġwant",
        "s"
      ],
      [
        "Ġe",
        "ar"
      ],
      [
        "Ġhe",
        "ar"
      ],
      [
        "Ġpo",
        "st"
      ],
      [
        "Ġch",
        "at"
      ],
      [
        "Ġse",
        "lf"
      ],
      [
        "l",
        "ing"
      ],
      [
        "Ġs",
        "ense"
      ],
      [
        "s",
        "et"
      ],
      [
        "Ġha",
        "nd"
      ],
      [
        "co",
        "nd"
      ],
      [
        "Ġsa",
        "w"
      ],
      [
        "Ġc",
        "ame"
      ],
      [
        "Ġask",
        "ed"
      ],
      [
        "j",
        "o"
      ],
      [
        "or",
        "y"
      ],
      [
        "al",
        "th"
      ],
      [
        "Ġw",
        "om"
      ],
      [
        "ver",
        "s"
      ],
      [
        "Ġb",
        "i"
      ],
      [
        "Ġm",
        "om"
      ],
      [
        "l",
        "ed"
      ],
      [
        "k",
        "en"
      ],
      [
        "Ġim",
        "a"
      ],
      [
        "Ġco",
        "l"
      ],
      [
        "ra",
        "ct"
      ],
      [
        "Ġex",
        "p"
      ],
      [
        "i",
        "ed"
      ],
      [
        "t",
        "w"
      ],
      [
        "Ġan",
        "other"
      ],
      [
        "ve",
        "l"
      ],
      [
        "1",
        "0"
      ],
      [
        "n",
        "ight"
      ],
      [
        "Ġvide",
        "o"
      ],
      [
        "Ġ",
        ";"
      ],
      [
        "Ġunt",
        "il"
      ],
      [
        "Ġ",
        "es"
      ],
      [
        "Ġs",
        "in"
      ],
      [
        "Ġha",
        "lf"
      ],
      [
        "Ġem",
        "ot"
      ],
      [
        "o",
        "x"
      ],
      [
        "Ġh",
        "um"
      ],
      [
        "Ġqu",
        "est"
      ],
      [
        "Ġb",
        "or"
      ],
      [
        "Ġse",
        "cond"
      ],
      [
        "Ġe",
        "ach"
      ],
      [
        "e",
        "ct"
      ],
      [
        "if",
        "ic"
      ],
      [
        "on",
        "s"
      ],
      [
        "y",
        "es"
      ],
      [
        "ll",
        "ow"
      ],
      [
        "n",
        "ess"
      ],
      [
        "Ġm",
        "ust"
      ],
      [
        "Ġc",
        "ar"
      ],
      [
        "1",
        "00"
      ],
      [
        "Ġc",
        "our"
      ],
      [
        "Ġag",
        "o"
      ],
      [
        "Ġall",
        "ow"
      ],
      [
        "Ġr",
        "n"
      ],
      [
        "Ġwa",
        "ht"
      ],
      [
        "gg",
        "est"
      ],
      [
        "us",
        "h"
      ],
      [
        "ro",
        "ss"
      ],
      [
        "Ġwas",
        "nt"
      ],
      [
        "a",
        "p"
      ],
      [
        "Ġcomm",
        "un"
      ],
      [
        "Ġsee",
        "m"
      ],
      [
        "Ġd",
        "umb"
      ],
      [
        "Ġengl",
        "ish"
      ],
      [
        "Ġmom",
        "ent"
      ],
      [
        "Ġal",
        "one"
      ],
      [
        "Ġex",
        "per"
      ],
      [
        "le",
        "te"
      ],
      [
        "Ġgl",
        "ad"
      ],
      [
        "Ġp",
        "an"
      ],
      [
        "Ġbel",
        "ie"
      ],
      [
        "Ġs",
        "ick"
      ],
      [
        "Ġ",
        "\""
      ],
      [
        "Ġd",
        "ance"
      ],
      [
        "ur",
        "ing"
      ],
      [
        "Ġqu",
        "ite"
      ],
      [
        "n",
        "ot"
      ],
      [
        "us",
        "s"
      ],
      [
        "Ġre",
        "g"
      ],
      [
        "Ġcomp",
        "ut"
      ],
      [
        "Ġc",
        "udd"
      ],
      [
        "d",
        "u"
      ],
      [
        "it",
        "ing"
      ],
      [
        "Ġhe",
        "alth"
      ],
      [
        "Ġsin",
        "ce"
      ],
      [
        "Ġpict",
        "ure"
      ],
      [
        "Ġt",
        "ired"
      ],
      [
        "Ġn",
        "orm"
      ],
      [
        "Ġal",
        "right"
      ],
      [
        "Ġmess",
        "age"
      ],
      [
        "Ġp",
        "ur"
      ],
      [
        "Ġapp",
        "re"
      ],
      [
        "e",
        "m"
      ],
      [
        "Ġwor",
        "ried"
      ],
      [
        "Ġus",
        "ing"
      ],
      [
        "Ġha",
        "ir"
      ],
      [
        "iet",
        "y"
      ],
      [
        "ut",
        "e"
      ],
      [
        "Ġex",
        "t"
      ],
      [
        "Ġmonth",
        "s"
      ],
      [
        "Ġm",
        "or"
      ],
      [
        "Ġlet",
        "s"
      ],
      [
        "Ġw",
        "ar"
      ],
      [
        "at",
        "es"
      ],
      [
        "Ġtra",
        "in"
      ],
      [
        "Ġ;",
        ")"
      ],
      [
        "Ġapp",
        "arent"
      ],
      [
        "Ġsu",
        "r"
      ],
      [
        "Ġwas",
        "n"
      ],
      [
        "Ġen",
        "jo"
      ],
      [
        "ation",
        "s"
      ],
      [
        "Ġin",
        "v"
      ],
      [
        "Ġwor",
        "se"
      ],
      [
        "Ġon",
        "es"
      ],
      [
        "i",
        "er"
      ],
      [
        "a",
        "pe"
      ],
      [
        "i",
        "a"
      ],
      [
        "Ġre",
        "st"
      ],
      [
        "z",
        "ing"
      ],
      [
        "Ġf",
        "ig"
      ],
      [
        "ist",
        "ic"
      ],
      [
        "Ġb",
        "tw"
      ],
      [
        "Ġt",
        "urn"
      ],
      [
        "Ġme",
        "h"
      ],
      [
        "Ġp",
        "oo"
      ],
      [
        "Ġno",
        "body"
      ],
      [
        "Ġob",
        "v"
      ],
      [
        "Ġapparent",
        "ly"
      ],
      [
        "Ġappre",
        "ci"
      ],
      [
        "Ġl",
        "ate"
      ],
      [
        "Ġd",
        "anc"
      ],
      [
        "at",
        "her"
      ],
      [
        "Ġfe",
        "lt"
      ],
      [
        "Ġhappen",
        "ed"
      ],
      [
        "Ġcol",
        "our"
      ],
      [
        "Ġw",
        "o"
      ],
      [
        "Ġment",
        "al"
      ],
      [
        "ter",
        "day"
      ],
      [
        "Ġbra",
        "in"
      ],
      [
        "Ġis",
        "n"
      ],
      [
        "Ġyes",
        "terday"
      ],
      [
        "Ġt",
        "ri"
      ],
      [
        "it",
        "ed"
      ],
      [
        "Ġanx",
        "iety"
      ],
      [
        "er",
        "ing"
      ],
      [
        "en",
        "c"
      ],
      [
        "Ġom",
        "fg"
      ],
      [
        "Ġstart",
        "ed"
      ],
      [
        "Ġany",
        "one"
      ],
      [
        "Ġ",
        ","
      ],
      [
        "Ġs",
        "we"
      ],
      [
        "Ġc",
        "or"
      ],
      [
        "Ġsay",
        "s"
      ],
      [
        "r",
        "ate"
      ],
      [
        "Ġ",
        ">"
      ],
      [
        "Ġas",
        "king"
      ],
      [
        "Ġar",
        "t"
      ],
      [
        "Ġfe",
        "w"
      ],
      [
        "ug",
        "s"
      ],
      [
        "Ġco",
        "ll"
      ],
      [
        "Ġto",
        "p"
      ],
      [
        "Ġx",
        "x"
      ],
      [
        "a",
        "ke"
      ],
      [
        "u",
        "gg"
      ],
      [
        "ro",
        "p"
      ],
      [
        "Ġse",
        "en"
      ],
      [
        "f",
        "ic"
      ],
      [
        "Ġfre",
        "n"
      ],
      [
        "Ġdam",
        "n"
      ],
      [
        "s",
        "ide"
      ],
      [
        "Ġ",
        "nd"
      ],
      [
        "Ġdo",
        "or"
      ],
      [
        "Ġyour",
        "self"
      ],
      [
        "il",
        "st"
      ],
      [
        "Ġproble",
        "m"
      ],
      [
        "Ġg",
        "oo"
      ],
      [
        "us",
        "ing"
      ],
      [
        "Ġsu",
        "ggest"
      ],
      [
        "Ġfuck",
        "s"
      ],
      [
        "Ġfeel",
        "s"
      ],
      [
        "Ġsa",
        "ke"
      ],
      [
        "e",
        "w"
      ],
      [
        "Ġcour",
        "se"
      ],
      [
        "Ġimp",
        "ort"
      ],
      [
        "Ġdanc",
        "ing"
      ],
      [
        "o",
        "on"
      ],
      [
        "v",
        "our"
      ],
      [
        "Ġ",
        "ed"
      ],
      [
        "a",
        "ve"
      ],
      [
        "Ġinterest",
        "ing"
      ],
      [
        "o",
        "ice"
      ],
      [
        "ll",
        "ing"
      ],
      [
        "Ġwh",
        "ilst"
      ],
      [
        "Ġli",
        "ght"
      ],
      [
        "ee",
        "e"
      ],
      [
        "Ġup",
        "set"
      ],
      [
        "sh",
        "ip"
      ],
      [
        "Ġcle",
        "an"
      ],
      [
        "Ġcons",
        "id"
      ],
      [
        "Ġcomput",
        "er"
      ],
      [
        "Ġst",
        "ra"
      ],
      [
        "Ġjo",
        "kes"
      ],
      [
        "un",
        "g"
      ],
      [
        "Ġcl",
        "ass"
      ],
      [
        "re",
        "n"
      ],
      [
        "Ġsit",
        "u"
      ],
      [
        "Ġt",
        "en"
      ],
      [
        "Ġt",
        "ried"
      ],
      [
        "Ġa",
        "ma"
      ],
      [
        "Ġplay",
        "ed"
      ],
      [
        "Ġor",
        "der"
      ],
      [
        "Ġt",
        "er"
      ],
      [
        "Ġdo",
        "g"
      ],
      [
        "Ġmain",
        "ly"
      ],
      [
        "Ġex",
        "pect"
      ],
      [
        "h",
        "e"
      ],
      [
        "Ġf",
        "ar"
      ],
      [
        "Ġb",
        "an"
      ],
      [
        "Ġf",
        "am"
      ],
      [
        "Ġsp",
        "am"
      ],
      [
        "er",
        "t"
      ],
      [
        "j",
        "ect"
      ],
      [
        "Ġyou",
        "re"
      ],
      [
        "Ġle",
        "ar"
      ],
      [
        "u",
        "p"
      ],
      [
        "Ġdef",
        "in"
      ],
      [
        "Ġbelie",
        "ve"
      ],
      [
        "Ġg",
        "ames"
      ],
      [
        "Ġche",
        "ese"
      ],
      [
        "Ġ:",
        "'"
      ],
      [
        "o",
        "c"
      ],
      [
        "Ġhur",
        "t"
      ],
      [
        "Ġp",
        "res"
      ],
      [
        "Ġpl",
        "z"
      ],
      [
        "mo",
        "st"
      ],
      [
        "Ġfig",
        "ure"
      ],
      [
        "Ġm",
        "id"
      ],
      [
        "Ġgen",
        "er"
      ],
      [
        "it",
        "s"
      ],
      [
        "ion",
        "al"
      ],
      [
        "o",
        "se"
      ],
      [
        "w",
        "u"
      ],
      [
        "Ġp",
        "a"
      ],
      [
        "c",
        "ri"
      ],
      [
        "Ġl",
        "uck"
      ],
      [
        "Ġcur",
        "rent"
      ],
      [
        "p",
        "m"
      ],
      [
        "Ġ",
        "ri"
      ],
      [
        "Ġimport",
        "ant"
      ],
      [
        "Ġd",
        "ist"
      ],
      [
        "Ġ",
        "ve"
      ],
      [
        "Ġbut",
        "t"
      ],
      [
        "Ġr",
        "un"
      ],
      [
        "?",
        "!"
      ],
      [
        "os",
        "ed"
      ],
      [
        "i",
        "i"
      ],
      [
        "m",
        "ing"
      ],
      [
        "Ġsp",
        "ace"
      ],
      [
        "Ġspe",
        "c"
      ],
      [
        "re",
        "t"
      ],
      [
        "u",
        "res"
      ],
      [
        "od",
        "e"
      ],
      [
        "Ġp",
        "arent"
      ],
      [
        "le",
        "ct"
      ],
      [
        "Ġ1",
        "2"
      ],
      [
        "Ġmess",
        "ag"
      ],
      [
        "Ġ:'",
        "("
      ],
      [
        "Ġfu",
        "ll"
      ],
      [
        "Ġv",
        "is"
      ],
      [
        "Ġag",
        "ree"
      ],
      [
        "Ġfren",
        "ch"
      ],
      [
        "Ġwh",
        "ile"
      ],
      [
        "un",
        "k"
      ],
      [
        "Ġcommun",
        "ic"
      ],
      [
        "u",
        "gh"
      ],
      [
        "Ġme",
        "ow"
      ],
      [
        "Ġse",
        "c"
      ],
      [
        "a",
        "pp"
      ],
      [
        "Ġsa",
        "fe"
      ],
      [
        "we",
        "en"
      ],
      [
        "Ġg",
        "ra"
      ],
      [
        "Ġd",
        "ra"
      ],
      [
        "i",
        "an"
      ],
      [
        "Ġacc",
        "ident"
      ],
      [
        "Ġdif",
        "fic"
      ],
      [
        "Ġama",
        "zing"
      ],
      [
        "Ġwal",
        "k"
      ],
      [
        "Ġch",
        "ange"
      ],
      [
        "Ġoo",
        "f"
      ],
      [
        "Ġwor",
        "ks"
      ],
      [
        "Ġconf",
        "used"
      ],
      [
        "Ġf",
        "ore"
      ],
      [
        "Ġbu",
        "y"
      ],
      [
        "e",
        "ver"
      ],
      [
        "Ġfun",
        "ny"
      ],
      [
        "Ġbab",
        "e"
      ],
      [
        "Ġfa",
        "il"
      ],
      [
        "Ġfa",
        "vour"
      ],
      [
        "ent",
        "ly"
      ],
      [
        "Ġs",
        "ign"
      ],
      [
        "ie",
        "w"
      ],
      [
        "Ġmor",
        "ning"
      ],
      [
        "if",
        "u"
      ],
      [
        "Ġal",
        "most"
      ],
      [
        "Ġe",
        "gg"
      ],
      [
        "Ġwatch",
        "ing"
      ],
      [
        "Ġallow",
        "ed"
      ],
      [
        "Ġi",
        "gn"
      ],
      [
        "Ġc",
        "ount"
      ],
      [
        "fu",
        "lly"
      ],
      [
        "Ġfor",
        "g"
      ],
      [
        "Ġre",
        "f"
      ],
      [
        "Ġtr",
        "ans"
      ],
      [
        "h",
        "d"
      ],
      [
        "Ġb",
        "ir"
      ],
      [
        "Ġde",
        "al"
      ],
      [
        "Ġta",
        "king"
      ],
      [
        "il",
        "ity"
      ],
      [
        "Ġboo",
        "f"
      ],
      [
        "Ġrep",
        "ly"
      ],
      [
        "Ġposs",
        "ible"
      ],
      [
        "Ġswe",
        "et"
      ],
      [
        "Ġiss",
        "ues"
      ],
      [
        "Ġ",
        "."
      ],
      [
        "Ġsm",
        "ink"
      ],
      [
        "Ġv",
        "al"
      ],
      [
        "iz",
        "z"
      ],
      [
        "Ġus",
        "ually"
      ],
      [
        "Ġm",
        "ix"
      ],
      [
        "Ġw",
        "ind"
      ],
      [
        "Ġbet",
        "ween"
      ],
      [
        "Ġex",
        "cept"
      ],
      [
        "n",
        "g"
      ],
      [
        "out",
        "h"
      ],
      [
        "Ġte",
        "xt"
      ],
      [
        "Ġby",
        "e"
      ],
      [
        "ent",
        "s"
      ],
      [
        "r",
        "r"
      ],
      [
        "ci",
        "ally"
      ],
      [
        "Ġp",
        "op"
      ],
      [
        "Ġaut",
        "ism"
      ],
      [
        "Ġc",
        "al"
      ],
      [
        "Ġto",
        "night"
      ],
      [
        "Ġha",
        "ven"
      ],
      [
        "on",
        "es"
      ],
      [
        "r",
        "on"
      ],
      [
        "Ġp",
        "ri"
      ],
      [
        "Ġe",
        "ff"
      ],
      [
        "wa",
        "ifu"
      ],
      [
        "o",
        "int"
      ],
      [
        "re",
        "ct"
      ],
      [
        "rate",
        "waifu"
      ],
      [
        "Ġparent",
        "s"
      ],
      [
        "i",
        "ence"
      ],
      [
        "Ġc",
        "ou"
      ],
      [
        "Ġt",
        "v"
      ],
      [
        "Ġt",
        "ill"
      ],
      [
        "c",
        "ess"
      ],
      [
        "Ġout",
        "side"
      ],
      [
        "Ġtell",
        "ing"
      ],
      [
        "Ġem",
        "b"
      ],
      [
        "Ġar",
        "sed"
      ],
      [
        "g",
        "es"
      ],
      [
        "i",
        "o"
      ],
      [
        "Ġwor",
        "ld"
      ],
      [
        "Ġsupp",
        "osed"
      ],
      [
        "Ġcomp",
        "lete"
      ],
      [
        "Ġdiffic",
        "ult"
      ],
      [
        "in",
        "s"
      ],
      [
        "Ġag",
        "es"
      ],
      [
        "v",
        "o"
      ],
      [
        "Ġad",
        "v"
      ],
      [
        "at",
        "ive"
      ],
      [
        "b",
        "b"
      ],
      [
        "y",
        "ed"
      ],
      [
        "p",
        "id"
      ],
      [
        "Ġof",
        "ten"
      ],
      [
        "Ġbir",
        "th"
      ],
      [
        "t",
        "o"
      ],
      [
        "Ġfo",
        "llow"
      ],
      [
        "ma",
        "il"
      ],
      [
        "Ġp",
        "ee"
      ],
      [
        "Ġthey",
        "re"
      ],
      [
        "Ġneed",
        "ed"
      ],
      [
        "il",
        "ar"
      ],
      [
        "j",
        "k"
      ],
      [
        "ar",
        "ing"
      ],
      [
        "Ġsex",
        "y"
      ],
      [
        "l",
        "ic"
      ],
      [
        "Ġs",
        "ing"
      ],
      [
        "Ġl",
        "ow"
      ],
      [
        "Ġch",
        "ild"
      ],
      [
        "i",
        "al"
      ],
      [
        "Ġaut",
        "istic"
      ],
      [
        "it",
        "ion"
      ],
      [
        "Ġdep",
        "ress"
      ],
      [
        "Ġsm",
        "oke"
      ],
      [
        "â",
        "Ģ"
      ],
      [
        "ut",
        "es"
      ],
      [
        "pt",
        "ion"
      ],
      [
        "Ġe",
        "vent"
      ],
      [
        "Ġinc",
        "l"
      ],
      [
        "ite",
        "ly"
      ],
      [
        "Ġobv",
        "iously"
      ],
      [
        "cc",
        "oon"
      ],
      [
        "Ġd",
        "uring"
      ],
      [
        "Ġfavour",
        "ite"
      ],
      [
        "Ġpoo",
        "p"
      ],
      [
        "Ġ",
        "z"
      ],
      [
        "Ġpan",
        "ic"
      ],
      [
        "Ġcom",
        "ment"
      ],
      [
        "Ġcry",
        "ing"
      ],
      [
        "m",
        "y"
      ],
      [
        "Ġs",
        "at"
      ],
      [
        "Ġcre",
        "ep"
      ],
      [
        "ic",
        "ul"
      ],
      [
        "d",
        "f"
      ],
      [
        "Ġappreci",
        "ate"
      ],
      [
        "Ġtoo",
        "k"
      ],
      [
        "at",
        "ter"
      ],
      [
        "id",
        "ay"
      ],
      [
        "Ġsm",
        "all"
      ],
      [
        "Ġb",
        "ody"
      ],
      [
        "Ġadd",
        "ress"
      ],
      [
        "es",
        "us"
      ],
      [
        "Ġu",
        "wu"
      ],
      [
        "Ġty",
        "pe"
      ],
      [
        "Ġforg",
        "ot"
      ],
      [
        "Ġson",
        "ic"
      ],
      [
        "Ġch",
        "ang"
      ],
      [
        "f",
        "riend"
      ],
      [
        "s",
        "y"
      ],
      [
        "a",
        "il"
      ],
      [
        "Ġh",
        "ung"
      ],
      [
        "Ġd",
        "ie"
      ],
      [
        "Ġg",
        "re"
      ],
      [
        "Ġeff",
        "ort"
      ],
      [
        "ing",
        "s"
      ],
      [
        "Ġlot",
        "s"
      ],
      [
        "is",
        "ing"
      ],
      [
        "Ġwee",
        "ks"
      ],
      [
        "Ġre",
        "qu"
      ],
      [
        "Ġbor",
        "ing"
      ],
      [
        "Ġe",
        "mail"
      ],
      [
        "p",
        "ed"
      ],
      [
        "Ġbo",
        "om"
      ],
      [
        "Ġfa",
        "ct"
      ],
      [
        "id",
        "ed"
      ],
      [
        "Ġsor",
        "t"
      ],
      [
        "ang",
        "le"
      ],
      [
        "Ġanx",
        "ious"
      ],
      [
        "Ġt",
        "ou"
      ],
      [
        "ck",
        "ed"
      ],
      [
        "Ġgoo",
        "g"
      ],
      [
        "Ġr",
        "ather"
      ],
      [
        "Ġstu",
        "pid"
      ],
      [
        "Ġkn",
        "ew"
      ],
      [
        "Ġwould",
        "nt"
      ],
      [
        "Ġre",
        "m"
      ],
      [
        "Ġwo",
        "nder"
      ],
      [
        "Ġw",
        "i"
      ],
      [
        "er",
        "g"
      ],
      [
        "Ġj",
        "esus"
      ],
      [
        "Ġword",
        "s"
      ],
      [
        "m",
        "on"
      ],
      [
        "Ġrel",
        "ation"
      ],
      [
        "Ġun",
        "less"
      ],
      [
        "2",
        "0"
      ],
      [
        "Ġv",
        "i"
      ],
      [
        "Ġinter",
        "n"
      ],
      [
        "Ġh",
        "ang"
      ],
      [
        "n",
        "ed"
      ],
      [
        "Ġp",
        "ic"
      ],
      [
        "Ġme",
        "t"
      ],
      [
        "Ġk",
        "it"
      ],
      [
        "Ġde",
        "ad"
      ],
      [
        "Ġdefin",
        "itely"
      ],
      [
        "Ġp",
        "ick"
      ],
      [
        "nd",
        "ay"
      ],
      [
        "Ġent",
        "ire"
      ],
      [
        "Ġmin",
        "utes"
      ],
      [
        "Ġme",
        "me"
      ],
      [
        "Ġfl",
        "at"
      ],
      [
        "Ġatt",
        "ack"
      ],
      [
        "Ġlo",
        "ad"
      ],
      [
        "Ġwind",
        "ow"
      ],
      [
        "Ġsc",
        "ream"
      ],
      [
        "Ġc",
        "op"
      ],
      [
        "Ġp",
        "ass"
      ],
      [
        "Ġrelation",
        "ship"
      ],
      [
        "Ġto",
        "t"
      ],
      [
        "Ġsu",
        "b"
      ],
      [
        "f",
        "ort"
      ],
      [
        "y",
        "le"
      ],
      [
        "Ġx",
        "ox"
      ],
      [
        "Ġw",
        "ater"
      ],
      [
        "Ġ1",
        "1"
      ],
      [
        "Ġsl",
        "ight"
      ],
      [
        "Ġt",
        "u"
      ],
      [
        "Ġhow",
        "s"
      ],
      [
        "Ġlove",
        "ly"
      ],
      [
        "er",
        "ic"
      ],
      [
        "Ġli",
        "e"
      ],
      [
        "Ġim",
        "ag"
      ],
      [
        "Ġex",
        "ist"
      ],
      [
        "Ġhum",
        "an"
      ],
      [
        "Ġsitu",
        "ation"
      ],
      [
        "Ġr",
        "ant"
      ],
      [
        "Ġth",
        "ree"
      ],
      [
        "Ġch",
        "r"
      ],
      [
        "Ġh",
        "y"
      ],
      [
        "Ġmo",
        "ving"
      ],
      [
        "Ġtr",
        "u"
      ],
      [
        "ens",
        "ive"
      ],
      [
        "Ġclo",
        "se"
      ],
      [
        "Ġsu",
        "ck"
      ],
      [
        "c",
        "ed"
      ],
      [
        "g",
        "in"
      ],
      [
        "Ġtr",
        "ust"
      ],
      [
        "Ġser",
        "iously"
      ],
      [
        "ot",
        "h"
      ],
      [
        "Ġfin",
        "ally"
      ],
      [
        "Ġon",
        "line"
      ],
      [
        "Ġsupp",
        "ose"
      ],
      [
        "Ġnorm",
        "al"
      ],
      [
        "Ġw",
        "ed"
      ],
      [
        "ate",
        "ly"
      ],
      [
        "Ġget",
        "s"
      ],
      [
        "Ġcont",
        "ro"
      ],
      [
        "Ġu",
        "k"
      ],
      [
        "00",
        "0"
      ],
      [
        "Ġsc",
        "re"
      ],
      [
        "Ġbit",
        "ch"
      ],
      [
        "ou",
        "p"
      ],
      [
        "b",
        "ook"
      ],
      [
        "Ġe",
        "lect"
      ],
      [
        "Ġfa",
        "ult"
      ],
      [
        "Ġwould",
        "n"
      ],
      [
        "ib",
        "ly"
      ],
      [
        "Ġdr",
        "ink"
      ],
      [
        "Ġwr",
        "ite"
      ],
      [
        "z",
        "y"
      ],
      [
        "Ġsc",
        "ary"
      ],
      [
        "li",
        "er"
      ],
      [
        "Ġam",
        "eric"
      ],
      [
        "Ġspea",
        "king"
      ],
      [
        "Ġcom",
        "pl"
      ],
      [
        "Ġco",
        "ld"
      ],
      [
        "Ġfu",
        "r"
      ],
      [
        "Ġp",
        "u"
      ],
      [
        "Ġst",
        "and"
      ],
      [
        "Ġas",
        "leep"
      ],
      [
        "Ġsee",
        "ing"
      ],
      [
        "d",
        "ing"
      ],
      [
        "y",
        "e"
      ],
      [
        "oint",
        "ment"
      ],
      [
        "Ġwom",
        "an"
      ],
      [
        "Ġc",
        "ase"
      ],
      [
        "Ġtech",
        "n"
      ],
      [
        "Ġf",
        "lo"
      ],
      [
        "Ġsu",
        "cks"
      ],
      [
        "Ġhappen",
        "ing"
      ],
      [
        "Ġenjo",
        "y"
      ],
      [
        "Ġboy",
        "friend"
      ],
      [
        "Ġkid",
        "s"
      ],
      [
        "Ġbl",
        "ack"
      ],
      [
        "Ġy",
        "e"
      ],
      [
        "Ġv",
        "ape"
      ],
      [
        "n",
        "s"
      ],
      [
        "Ġs",
        "oo"
      ],
      [
        "ar",
        "k"
      ],
      [
        "Ġdr",
        "unk"
      ],
      [
        "p",
        "r"
      ],
      [
        "ha",
        "ha"
      ],
      [
        "Ġhe",
        "ard"
      ],
      [
        "Ġg",
        "ave"
      ],
      [
        "Ġso",
        "cial"
      ],
      [
        "Ġe",
        "v"
      ],
      [
        "g",
        "an"
      ],
      [
        "Ġw",
        "in"
      ],
      [
        "at",
        "s"
      ],
      [
        "in",
        "y"
      ],
      [
        "Ġfin",
        "ish"
      ],
      [
        "Ġwor",
        "st"
      ],
      [
        "Ġhope",
        "fully"
      ],
      [
        "Ġreal",
        "ised"
      ],
      [
        "c",
        "om"
      ],
      [
        "Ġlisten",
        "ed"
      ],
      [
        "pp",
        "ed"
      ],
      [
        "Ġm",
        "ass"
      ],
      [
        "Ġear",
        "lier"
      ],
      [
        "Ġchr",
        "ist"
      ],
      [
        "Ġread",
        "ing"
      ],
      [
        "j",
        "s"
      ],
      [
        "ks",
        "ks"
      ],
      [
        "m",
        "pt"
      ],
      [
        "Ġd",
        "i"
      ],
      [
        "Ġy",
        "o"
      ],
      [
        "Ġins",
        "ide"
      ],
      [
        "Ġd",
        "et"
      ],
      [
        "Ġe",
        "qu"
      ],
      [
        "Ġ3",
        "0"
      ],
      [
        "Ġfore",
        "ver"
      ],
      [
        "Ġb",
        "ag"
      ],
      [
        "Ġslight",
        "ly"
      ],
      [
        "Ġto",
        "ile"
      ],
      [
        "ke",
        "t"
      ],
      [
        "Ġ",
        "ver"
      ],
      [
        "gg",
        "ing"
      ],
      [
        "wh",
        "ere"
      ],
      [
        "Ġcon",
        "c"
      ],
      [
        "Ġd",
        "ire"
      ],
      [
        "Ġstu",
        "ck"
      ],
      [
        "nd",
        "s"
      ],
      [
        "Ġsp",
        "end"
      ],
      [
        "Ġapp",
        "ointment"
      ],
      [
        "h",
        "s"
      ],
      [
        "Ġm",
        "od"
      ],
      [
        "Ġg",
        "one"
      ],
      [
        "um",
        "ber"
      ],
      [
        "Ġho",
        "ld"
      ],
      [
        "Ġla",
        "ugh"
      ],
      [
        "Ġc",
        "am"
      ],
      [
        "Ġv",
        "ib"
      ],
      [
        "en",
        "e"
      ],
      [
        "f",
        "air"
      ],
      [
        "Ġso",
        "l"
      ],
      [
        "Ġcoll",
        "e"
      ],
      [
        "ar",
        "ch"
      ],
      [
        "Ġli",
        "ving"
      ],
      [
        "Ġst",
        "e"
      ],
      [
        "Ġc",
        "oo"
      ],
      [
        "Ġwor",
        "th"
      ],
      [
        "f",
        "er"
      ],
      [
        "m",
        "me"
      ],
      [
        "pe",
        "cially"
      ],
      [
        "Ġsw",
        "ear"
      ],
      [
        "Ġ",
        "er"
      ],
      [
        "Ġ1",
        "5"
      ],
      [
        "Ġyour",
        "s"
      ],
      [
        "Ġsc",
        "r"
      ],
      [
        "Ġcurrent",
        "ly"
      ],
      [
        "Ġtoile",
        "t"
      ],
      [
        "ic",
        "es"
      ],
      [
        "Ġpr",
        "om"
      ],
      [
        "Ġqu",
        "ick"
      ],
      [
        "Ġm",
        "en"
      ],
      [
        "ro",
        "id"
      ],
      [
        "Ġact",
        "ual"
      ],
      [
        "Ġt",
        "ea"
      ],
      [
        "Ġpl",
        "us"
      ],
      [
        "Ġintern",
        "et"
      ],
      [
        "r",
        "or"
      ],
      [
        "Ġc",
        "u"
      ],
      [
        "Ġc",
        "reat"
      ],
      [
        "Ġf",
        "all"
      ],
      [
        "ro",
        "om"
      ],
      [
        "Ġman",
        "ag"
      ],
      [
        "Ġf",
        "ix"
      ],
      [
        "Ġph",
        "ys"
      ],
      [
        "Ġch",
        "ill"
      ],
      [
        "Ġcont",
        "in"
      ],
      [
        "Ġlea",
        "ving"
      ],
      [
        "Ġad",
        "hd"
      ],
      [
        "bo",
        "om"
      ],
      [
        "Ġwh",
        "ite"
      ],
      [
        "Ġemb",
        "ar"
      ],
      [
        "ert",
        "ain"
      ],
      [
        "air",
        "s"
      ],
      [
        "gr",
        "am"
      ],
      [
        "Ġp",
        "izz"
      ],
      [
        "Ġstr",
        "ugg"
      ],
      [
        "Ġar",
        "g"
      ],
      [
        "Ġstra",
        "ight"
      ],
      [
        "e",
        "ed"
      ],
      [
        "Ġm",
        "ic"
      ],
      [
        "Ġval",
        "id"
      ],
      [
        "u",
        "ine"
      ],
      [
        "Ġra",
        "p"
      ],
      [
        "Ġtou",
        "ch"
      ],
      [
        "Ġh",
        "it"
      ],
      [
        "ad",
        "e"
      ],
      [
        "Ġread",
        "y"
      ],
      [
        "c",
        "es"
      ],
      [
        "m",
        "as"
      ],
      [
        "Ġdef",
        "o"
      ],
      [
        "Ġes",
        "pecially"
      ],
      [
        "Ġcou",
        "ple"
      ],
      [
        "at",
        "t"
      ],
      [
        "Ġn",
        "er"
      ],
      [
        "Ġl",
        "oud"
      ],
      [
        "ow",
        "er"
      ],
      [
        "Ġt",
        "ast"
      ],
      [
        "Ġgen",
        "uine"
      ],
      [
        "ow",
        "n"
      ],
      [
        "Ġpro",
        "cess"
      ],
      [
        "Ġbl",
        "ue"
      ],
      [
        "Ġ",
        "?"
      ],
      [
        "ly",
        "m"
      ],
      [
        "a",
        "h"
      ],
      [
        "Ġp",
        "ress"
      ],
      [
        "Ġtra",
        "ck"
      ],
      [
        "f",
        "fect"
      ],
      [
        "a",
        "ut"
      ],
      [
        "Ġhell",
        "o"
      ],
      [
        "Ġquest",
        "ion"
      ],
      [
        "Ġb",
        "ought"
      ],
      [
        "Ġproper",
        "ly"
      ],
      [
        "Ġth",
        "row"
      ],
      [
        "boom",
        "ra"
      ],
      [
        "Ġp",
        "ot"
      ],
      [
        "Ġfr",
        "ance"
      ],
      [
        "Ġcor",
        "rect"
      ],
      [
        "Ġd",
        "ri"
      ],
      [
        "Ġp",
        "sy"
      ],
      [
        "Ġke",
        "y"
      ],
      [
        "Ġcan",
        "not"
      ],
      [
        "th",
        "ers"
      ],
      [
        "Ġsex",
        "ual"
      ],
      [
        "Ġl",
        "es"
      ],
      [
        "Ġboom",
        "boomra"
      ],
      [
        "Ġw",
        "on"
      ],
      [
        "Ġsim",
        "ilar"
      ],
      [
        "Ġa",
        "po"
      ],
      [
        "Ġfo",
        "c"
      ],
      [
        "Ġsh",
        "out"
      ],
      [
        "Ġsu",
        "dd"
      ],
      [
        "it",
        "ies"
      ],
      [
        "Ġb",
        "ar"
      ],
      [
        "Ġboomboomra",
        "ccoon"
      ],
      [
        "Ġcould",
        "nt"
      ],
      [
        "Ġp",
        "iss"
      ],
      [
        "Ġc",
        "ard"
      ],
      [
        "Ġsudd",
        "en"
      ],
      [
        "a",
        "king"
      ],
      [
        "Ġare",
        "nt"
      ],
      [
        "so",
        "l"
      ],
      [
        "Ġexc",
        "ited"
      ],
      [
        "Ġe",
        "ating"
      ],
      [
        "Ġe",
        "ffect"
      ],
      [
        "Ġst",
        "ep"
      ],
      [
        "ant",
        "ly"
      ],
      [
        "Ġpizz",
        "a"
      ],
      [
        "g",
        "er"
      ],
      [
        "Ġsm",
        "o"
      ],
      [
        "Ġcudd",
        "les"
      ],
      [
        "Ġxx",
        "x"
      ],
      [
        "h",
        "o"
      ],
      [
        "Ġp",
        "lym"
      ],
      [
        "Ġd",
        "u"
      ],
      [
        "Ġno",
        "pe"
      ],
      [
        "Ġex",
        "am"
      ],
      [
        "Ġs",
        "ide"
      ],
      [
        "in",
        "ner"
      ],
      [
        "Ġb",
        "read"
      ],
      [
        "Ġre",
        "d"
      ],
      [
        "Ġm",
        "ult"
      ],
      [
        "Ġdec",
        "ided"
      ],
      [
        "oo",
        "o"
      ],
      [
        "Ġsh",
        "ut"
      ],
      [
        "Ġgi",
        "ving"
      ],
      [
        "Ġre",
        "t"
      ],
      [
        "Ġbec",
        "ome"
      ],
      [
        "Ġs",
        "n"
      ],
      [
        "Ġp",
        "ack"
      ],
      [
        "m",
        "l"
      ],
      [
        "Ġcomplete",
        "ly"
      ],
      [
        "Ġpro",
        "gram"
      ],
      [
        "ill",
        "y"
      ],
      [
        "ll",
        "ed"
      ],
      [
        "Ġre",
        "pl"
      ],
      [
        "t",
        "u"
      ],
      [
        "Ġboo",
        "bs"
      ],
      [
        "Ġpr",
        "oud"
      ],
      [
        "ange",
        "l"
      ],
      [
        "Ġment",
        "ion"
      ],
      [
        "Ġext",
        "ra"
      ],
      [
        "Ġmessag",
        "es"
      ],
      [
        "id",
        "ing"
      ],
      [
        "Ġsl",
        "ow"
      ],
      [
        "Ġind",
        "eed"
      ],
      [
        "Ġaw",
        "ake"
      ],
      [
        "ing",
        "e"
      ],
      [
        "Ġwait",
        "ing"
      ],
      [
        "Ġc",
        "ook"
      ],
      [
        "Ġdisc",
        "uss"
      ],
      [
        "a",
        "v"
      ],
      [
        "r",
        "u"
      ],
      [
        "pt",
        "op"
      ],
      [
        "Ġd",
        "ream"
      ],
      [
        "Ġg",
        "ross"
      ],
      [
        "Ġhu",
        "h"
      ],
      [
        "Ġpsy",
        "ch"
      ],
      [
        "ic",
        "ed"
      ],
      [
        "Ġac",
        "cept"
      ],
      [
        "Ġke",
        "pt"
      ],
      [
        "Ġcont",
        "act"
      ],
      [
        "w",
        "ise"
      ],
      [
        "Ġ1",
        "8"
      ],
      [
        "Ġser",
        "ver"
      ],
      [
        "a",
        "ly"
      ],
      [
        "Ġpro",
        "f"
      ],
      [
        "Ġam",
        "ount"
      ],
      [
        "Ġid",
        "e"
      ],
      [
        "Ġhu",
        "ge"
      ],
      [
        "Ġfor",
        "m"
      ],
      [
        "Ġla",
        "ptop"
      ],
      [
        "u",
        "x"
      ],
      [
        "Ġe",
        "arly"
      ],
      [
        "Ġtot",
        "ally"
      ],
      [
        "Ġcolle",
        "ge"
      ],
      [
        "Ġst",
        "ar"
      ],
      [
        "Ġwr",
        "iting"
      ],
      [
        "Ġt",
        "est"
      ],
      [
        "Ġf",
        "it"
      ],
      [
        "Ġrec",
        "ord"
      ],
      [
        "Ġaccident",
        "ally"
      ],
      [
        "Ġb",
        "a"
      ],
      [
        "Ġnot",
        "ice"
      ]
    ]
  }
}