{
    "<UNK>": 0,
    "!": 1,
    "\"": 2,
    "#": 3,
    "$": 4,
    "%": 5,
    "&": 6,
    "'": 7,
    "(": 8,
    ")": 9,
    "*": 10,
    "+": 11,
    ",": 12,
    "-": 13,
    ".": 14,
    "/": 15,
    "0": 16,
    "1": 17,
    "2": 18,
    "3": 19,
    "4": 20,
    "5": 21,
    "6": 22,
    "7": 23,
    "8": 24,
    "9": 25,
    ":": 26,
    ";": 27,
    "<": 28,
    "=": 29,
    ">": 30,
    "?": 31,
    "@": 32,
    "[": 33,
    "\\": 34,
    "]": 35,
    "^": 36,
    "_": 37,
    "`": 38,
    "a": 39,
    "b": 40,
    "c": 41,
    "d": 42,
    "e": 43,
    "f": 44,
    "g": 45,
    "h": 46,
    "i": 47,
    "j": 48,
    "k": 49,
    "l": 50,
    "m": 51,
    "n": 52,
    "o": 53,
    "p": 54,
    "q": 55,
    "r": 56,
    "s": 57,
    "t": 58,
    "u": 59,
    "v": 60,
    "w": 61,
    "x": 62,
    "y": 63,
    "z": 64,
    "{": 65,
    "|": 66,
    "}": 67,
    "~": 68,
    "\u00a1": 69,
    "\u00a2": 70,
    "\u00a3": 71,
    "\u00a4": 72,
    "\u00a5": 73,
    "\u00a6": 74,
    "\u00a7": 75,
    "\u00a8": 76,
    "\u00a9": 77,
    "\u00aa": 78,
    "\u00ab": 79,
    "\u00ac": 80,
    "\u00ae": 81,
    "\u00af": 82,
    "\u00b0": 83,
    "\u00b1": 84,
    "\u00b2": 85,
    "\u00b3": 86,
    "\u00b4": 87,
    "\u00b5": 88,
    "\u00b6": 89,
    "\u00b7": 90,
    "\u00b8": 91,
    "\u00b9": 92,
    "\u00ba": 93,
    "\u00bb": 94,
    "\u00bc": 95,
    "\u00bd": 96,
    "\u00be": 97,
    "\u00bf": 98,
    "\u00c2": 99,
    "\u00c3": 100,
    "\u00c4": 101,
    "\u00c5": 102,
    "\u00c6": 103,
    "\u00c7": 104,
    "\u00c9": 105,
    "\u00ca": 106,
    "\u00cb": 107,
    "\u00cc": 108,
    "\u00ce": 109,
    "\u00cf": 110,
    "\u00d0": 111,
    "\u00d1": 112,
    "\u00d4": 113,
    "\u00d7": 114,
    "\u00d8": 115,
    "\u00d9": 116,
    "\u00e0": 117,
    "\u00e1": 118,
    "\u00e2": 119,
    "\u00e3": 120,
    "\u00e5": 121,
    "\u00e6": 122,
    "\u00e8": 123,
    "\u00e9": 124,
    "\u00ea": 125,
    "\u00eb": 126,
    "\u00ec": 127,
    "\u00ed": 128,
    "\u00ef": 129,
    "\u00f0": 130,
    "\u00f3": 131,
    "\u010a": 132,
    "\u0120": 133,
    "\u0122": 134,
    "\u0123": 135,
    "\u0124": 136,
    "\u0125": 137,
    "\u0126": 138,
    "\u0127": 139,
    "\u0128": 140,
    "\u0129": 141,
    "\u012a": 142,
    "\u012b": 143,
    "\u012c": 144,
    "\u012d": 145,
    "\u012e": 146,
    "\u012f": 147,
    "\u0130": 148,
    "\u0131": 149,
    "\u0132": 150,
    "\u0133": 151,
    "\u0134": 152,
    "\u0135": 153,
    "\u0136": 154,
    "\u0137": 155,
    "\u0138": 156,
    "\u0139": 157,
    "\u013a": 158,
    "\u013b": 159,
    "\u013c": 160,
    "\u013d": 161,
    "\u013e": 162,
    "\u013f": 163,
    "\u0140": 164,
    "\u0141": 165,
    "\u0142": 166,
    "\u0143": 167,
    "\u0120t": 168,
    "\u0120i": 169,
    "\u0120a": 170,
    "\u0120w": 171,
    "in": 172,
    "he": 173,
    "\u0120s": 174,
    "ou": 175,
    "ha": 176,
    "\u0120m": 177,
    "\u0120b": 178,
    "ing": 179,
    "re": 180,
    "\u0120c": 181,
    "\u0120l": 182,
    "\u0120the": 183,
    "\u0120d": 184,
    "\u0120o": 185,
    "\u0120y": 186,
    "\u0120f": 187,
    "nd": 188,
    "ve": 189,
    "\u0120to": 190,
    "ll": 191,
    "is": 192,
    "\u0120you": 193,
    "\u0120n": 194,
    "ee": 195,
    "\u0120p": 196,
    "on": 197,
    "te": 198,
    "an": 199,
    "\u0120e": 200,
    "\u0120ha": 201,
    "or": 202,
    "\u0120g": 203,
    "\u0120it": 204,
    "\u0120and": 205,
    "ke": 206,
    "us": 207,
    "hat": 208,
    "es": 209,
    "\u0120u": 210,
    "as": 211,
    "it": 212,
    "\u0120he": 213,
    "\u0120h": 214,
    "\u0120me": 215,
    "\u0120no": 216,
    "ic": 217,
    "om": 218,
    "\u0120th": 219,
    "\u0120be": 220,
    "ut": 221,
    "ay": 222,
    "oo": 223,
    "ar": 224,
    "\u0120in": 225,
    "er": 226,
    "\u0120that": 227,
    "\u0120is": 228,
    "ld": 229,
    "\u0120but": 230,
    "\u0120do": 231,
    "le": 232,
    "\u0120we": 233,
    "ie": 234,
    "nt": 235,
    "\u0120my": 236,
    "\u0120li": 237,
    "ow": 238,
    "at": 239,
    "\u0120j": 240,
    "ly": 241,
    "\u0120of": 242,
    "ould": 243,
    "ill": 244,
    "\u0120re": 245,
    "ust": 246,
    "\u0120cha": 247,
    "\u0120on": 248,
    "id": 249,
    "gh": 250,
    "od": 251,
    "ed": 252,
    "et": 253,
    "\u0120was": 254,
    "\u0120have": 255,
    "ris": 256,
    "\u0120lo": 257,
    "al": 258,
    "\u0120st": 259,
    "ra": 260,
    "\u0120wh": 261,
    "\u0120charis": 262,
    "\u0120for": 263,
    "\u0120k": 264,
    "\u0120like": 265,
    "\u0120im": 266,
    "king": 267,
    "\u0120not": 268,
    "een": 269,
    "out": 270,
    "\u0120so": 271,
    "me": 272,
    "all": 273,
    "ro": 274,
    "eed": 275,
    "\u0120will": 276,
    "\u0120el": 277,
    "ry": 278,
    "ant": 279,
    "\u0120an": 280,
    "ir": 281,
    "\u0120just": 282,
    "ch": 283,
    "ad": 284,
    "\u0120been": 285,
    "\u0120elod": 286,
    "\u0120they": 287,
    "\u0120elodie": 288,
    "\u0120what": 289,
    "se": 290,
    "'s": 291,
    "\u0120sh": 292,
    "ea": 293,
    "\u0120she": 294,
    "ght": 295,
    "\u0120at": 296,
    "ally": 297,
    "ck": 298,
    "ce": 299,
    "\u0120can": 300,
    "\u0120this": 301,
    "\u0120fr": 302,
    "ion": 303,
    "ome": 304,
    "ct": 305,
    "\u0120are": 306,
    "ter": 307,
    "ith": 308,
    "ot": 309,
    "\u0120with": 310,
    "\u0120ke": 311,
    "\u0120why": 312,
    "\u0120:": 313,
    "vin": 314,
    "\u0120don": 315,
    "use": 316,
    "\u0120ab": 317,
    "st": 318,
    "\u0120mo": 319,
    "\u0120kevin": 320,
    "\u0120as": 321,
    "\u0120eve": 322,
    "op": 323,
    "ake": 324,
    "\u0120its": 325,
    "\u0120al": 326,
    "\u0120r": 327,
    "\u0120want": 328,
    "\u0120up": 329,
    "\u0120v": 330,
    "\u0120su": 331,
    "ink": 332,
    "..": 333,
    "\u0120your": 334,
    "\u0120ca": 335,
    "ten": 336,
    "\u0120wor": 337,
    "ight": 338,
    "pp": 339,
    "ver": 340,
    "im": 341,
    "\u0120if": 342,
    "\u0120kn": 343,
    "\u0120about": 344,
    "'t": 345,
    "en": 346,
    "\u0120love": 347,
    "ice": 348,
    "\u0120need": 349,
    "\u0120get": 350,
    "ood": 351,
    "ge": 352,
    "\u0120from": 353,
    "\u0120her": 354,
    "our": 355,
    "\u0120whe": 356,
    "\u0120would": 357,
    "\u0120had": 358,
    "\u0120know": 359,
    "am": 360,
    "\u0120or": 361,
    "ab": 362,
    "\u0120lis": 363,
    "ted": 364,
    "\u0120loo": 365,
    "\u0120fee": 366,
    "\u0120listen": 367,
    "ess": 368,
    "\u0120fu": 369,
    "\u0120sa": 370,
    "\u0120le": 371,
    "\u0120could": 372,
    "\u0120go": 373,
    "\u0120weed": 374,
    "\u0120feel": 375,
    "ks": 376,
    "\u0120should": 377,
    "\u0120am": 378,
    "\u0120did": 379,
    "one": 380,
    "\u0120all": 381,
    "ur": 382,
    "\u0120pl": 383,
    "\u0120id": 384,
    "ind": 385,
    "her": 386,
    "\u0120ex": 387,
    "th": 388,
    "\u0120de": 389,
    "\u0120now": 390,
    "na": 391,
    "\u0120see": 392,
    "'m": 393,
    "ca": 394,
    "ive": 395,
    "ving": 396,
    "\u0120se": 397,
    "\u0120were": 398,
    "\u0120pro": 399,
    "\u0120think": 400,
    "\u0120x": 401,
    "ff": 402,
    "\u0120butt": 403,
    "\u0120dont": 404,
    "\u0120how": 405,
    "\u0120hate": 406,
    "\u0120when": 407,
    "\u0120ne": 408,
    "red": 409,
    "\u0120ok": 410,
    "\u0120some": 411,
    "\u0120out": 412,
    "\u0120lol": 413,
    "\u0120oh": 414,
    "um": 415,
    "\u0120any": 416,
    "eah": 417,
    "\u0120too": 418,
    "\u0120com": 419,
    "\u0120yeah": 420,
    "ound": 421,
    "\u0120sm": 422,
    "\u0120mus": 423,
    "ss": 424,
    "il": 425,
    "\u0120sp": 426,
    "ul": 427,
    "ain": 428,
    "\u0120'": 429,
    "\u0120really": 430,
    "\u0120even": 431,
    "\u0120music": 432,
    "'re": 433,
    "un": 434,
    "\u0120con": 435,
    "\u01201": 436,
    "\u0120pe": 437,
    "\u0120om": 438,
    "\u0120thing": 439,
    "eep": 440,
    "so": 441,
    "\u0120-": 442,
    "\u0120mean": 443,
    "ime": 444,
    "\u0120fa": 445,
    "\u0120q": 446,
    "\u0120his": 447,
    "ine": 448,
    "han": 449,
    "\u0120their": 450,
    "\u0120them": 451,
    "ma": 452,
    "\u0120thats": 453,
    "\u0120sor": 454,
    "\u0120aw": 455,
    "ting": 456,
    "ays": 457,
    "gg": 458,
    "\u0120one": 459,
    "\u0120must": 460,
    "\u0120yes": 461,
    "ate": 462,
    "est": 463,
    "\u0120make": 464,
    "ong": 465,
    "\u0120vo": 466,
    "\u0120than": 467,
    "\u0120has": 468,
    "\u0120tr": 469,
    "\u0120cause": 470,
    "\u0120listening": 471,
    "\u0120wan": 472,
    "\u0120good": 473,
    "\u0120xd": 474,
    "\u0120also": 475,
    "lf": 476,
    "\u0120then": 477,
    "ation": 478,
    "\u0120ur": 479,
    "\u0120omg": 480,
    "ol": 481,
    "\u0120beca": 482,
    "\u0120time": 483,
    "\u0120there": 484,
    "\u0120because": 485,
    "\u0120sorry": 486,
    "ast": 487,
    "\u0120say": 488,
    "rain": 489,
    "\u0120us": 490,
    "\u0120him": 491,
    "ore": 492,
    "\u0120thou": 493,
    "\u0120ba": 494,
    "fe": 495,
    "\u0120wa": 496,
    "\u0120stu": 497,
    "hing": 498,
    "\u0120te": 499,
    "pe": 500,
    "\u01202": 501,
    "\u0120hear": 502,
    "\u0120take": 503,
    "\u0120does": 504,
    "ty": 505,
    "\u0120got": 506,
    "\u0120ag": 507,
    "\u0120more": 508,
    "\u0120tb": 509,
    "\u0120well": 510,
    "\u0120who": 511,
    "\u0120un": 512,
    "ite": 513,
    "ue": 514,
    "ig": 515,
    "\u0120peop": 516,
    "\u0120(": 517,
    "\u0120voice": 518,
    "ide": 519,
    "\u0120en": 520,
    "\u0120tho": 521,
    "ick": 522,
    "\u0120prob": 523,
    "\u0120lea": 524,
    "be": 525,
    "\u0120sl": 526,
    "!!": 527,
    "\u0120act": 528,
    "\u0120mu": 529,
    "aking": 530,
    "\u0120people": 531,
    "\u0120lma": 532,
    "\u0120gu": 533,
    "...": 534,
    "\u0120ar": 535,
    "\u0120po": 536,
    "ually": 537,
    "per": 538,
    "\u0120being": 539,
    "\u0120fe": 540,
    "\u0120play": 541,
    "\u0120only": 542,
    "\u0120cu": 543,
    "\u0120every": 544,
    "\u0120our": 545,
    "\u0120:)": 546,
    "omet": 547,
    "ers": 548,
    "ds": 549,
    "\u0120eat": 550,
    "\u0120dis": 551,
    "\u0120much": 552,
    "\u0120haha": 553,
    "\u0120somet": 554,
    "ked": 555,
    "\u0120dr": 556,
    "\u0120pre": 557,
    "ps": 558,
    "if": 559,
    "ous": 560,
    "ort": 561,
    "dd": 562,
    "\u0120tal": 563,
    "\u0120look": 564,
    "\u0120wanna": 565,
    "ther": 566,
    "pt": 567,
    "arn": 568,
    "ag": 569,
    "\u0120things": 570,
    "and": 571,
    "\u0120ch": 572,
    "wn": 573,
    "ool": 574,
    "\u0120wr": 575,
    "\u0120:(": 576,
    "\u0120by": 577,
    "\u0120sound": 578,
    "\u0120tou": 579,
    "\u0120over": 580,
    "??": 581,
    "day": 582,
    "os": 583,
    "\u0120may": 584,
    "oy": 585,
    "\u0120happ": 586,
    "\u0120hel": 587,
    "\u0120tbh": 588,
    "ib": 589,
    "iss": 590,
    "\u0120<": 591,
    "\u0120bit": 592,
    "ww": 593,
    "\u0120lmao": 594,
    "art": 595,
    "nder": 596,
    "\u0120bad": 597,
    "\u0120work": 598,
    "\u0120stuff": 599,
    "\u0120na": 600,
    "\u0120thought": 601,
    "\u0120try": 602,
    "\u0120ph": 603,
    "\u0120brain": 604,
    "\u0120la": 605,
    "\u0120still": 606,
    "\u0120kind": 607,
    "\u0120care": 608,
    "\u0120af": 609,
    "\u0120going": 610,
    "\u0120smo": 611,
    "self": 612,
    "\u0120fuck": 613,
    "\u0120learn": 614,
    "\u0120comp": 615,
    "'ve": 616,
    "\u0120shit": 617,
    "'ll": 618,
    "\u0120give": 619,
    "\u0120off": 620,
    "\u0120move": 621,
    "\u0120ve": 622,
    "ment": 623,
    "ure": 624,
    "\u0120bl": 625,
    "ass": 626,
    "thing": 627,
    "\u0120ye": 628,
    "\u0120help": 629,
    "'d": 630,
    "ress": 631,
    "\u0120wait": 632,
    "able": 633,
    "\u0120cat": 634,
    "ase": 635,
    "\u0120idk": 636,
    "\u0120actually": 637,
    "cc": 638,
    "\u0120co": 639,
    "lly": 640,
    "\u0120man": 641,
    "iend": 642,
    "ies": 643,
    "ough": 644,
    "\u0120cl": 645,
    "\u0120said": 646,
    "\u0120same": 647,
    "\u0120back": 648,
    "\u0120looking": 649,
    "ts": 650,
    "\u0120cant": 651,
    "age": 652,
    "\u0120touch": 653,
    "ich": 654,
    "\u0120something": 655,
    "ouse": 656,
    "ree": 657,
    "\u0120day": 658,
    "\u0120way": 659,
    "to": 660,
    "\u0120dra": 661,
    "\u0120come": 662,
    "ish": 663,
    "ream": 664,
    "rent": 665,
    "ci": 666,
    "\u0120jo": 667,
    "hh": 668,
    "\u0120other": 669,
    "\u0120app": 670,
    "\u0120ra": 671,
    "\u0120sleep": 672,
    "00": 673,
    "\u0120di": 674,
    "\u0120qu": 675,
    "\u0120taking": 676,
    "\u0120tw": 677,
    "\u0120right": 678,
    "\u0120doing": 679,
    "mb": 680,
    "\u0120after": 681,
    "\u0120bet": 682,
    "\u0120sc": 683,
    "ys": 684,
    "inking": 685,
    "\u01203": 686,
    "\u0120here": 687,
    "\u0120call": 688,
    "lt": 689,
    "ard": 690,
    "\u0120*": 691,
    "\u0120moving": 692,
    "ud": 693,
    "tt": 694,
    "\u0120which": 695,
    "ile": 696,
    "pl": 697,
    "\u0120never": 698,
    "\u0120pic": 699,
    "\u0120food": 700,
    "\u0120days": 701,
    "\u0120nice": 702,
    "\u0120wanting": 703,
    "\u0120into": 704,
    "\u0120feeling": 705,
    "\u0120friend": 706,
    "\u0120house": 707,
    "ably": 708,
    "\u0120let": 709,
    "\u0120mad": 710,
    "\u0120leave": 711,
    "\u0120ro": 712,
    "\u0120very": 713,
    "\u0120pr": 714,
    "\u0120again": 715,
    "\u0120br": 716,
    "\u0120cool": 717,
    "\u0120wee": 718,
    "\u0120dan": 719,
    "ms": 720,
    "mm": 721,
    "\u0120hop": 722,
    "\u0120draw": 723,
    "ip": 724,
    "fore": 725,
    "cks": 726,
    "\u0120bo": 727,
    "\u0120under": 728,
    "\u0120might": 729,
    "\u00e2\u0122": 730,
    "\u0120life": 731,
    "ied": 732,
    "row": 733,
    "ist": 734,
    "ug": 735,
    "\u0120har": 736,
    "ity": 737,
    "\u0120ple": 738,
    "ix": 739,
    "cking": 740,
    "\u0120ad": 741,
    "\u0120tell": 742,
    "\u0120probably": 743,
    "\u0120fair": 744,
    "\u0120che": 745,
    "\u0120felt": 746,
    "com": 747,
    "ta": 748,
    "\u0120maybe": 749,
    "//": 750,
    "\u0120gon": 751,
    "\u0120ge": 752,
    "\u0120didnt": 753,
    "ird": 754,
    "\u0120before": 755,
    "\u0120hour": 756,
    "gle": 757,
    "aa": 758,
    "\u0120talk": 759,
    "reat": 760,
    "ious": 761,
    "\u0120fl": 762,
    "\u0120smoking": 763,
    "\u0120sca": 764,
    "igh": 765,
    "\u0120sure": 766,
    "\u0120please": 767,
    "\u0120bab": 768,
    "\u0120bot": 769,
    "\u0120hope": 770,
    "ksks": 771,
    "ord": 772,
    "\u0120down": 773,
    "ise": 774,
    "ace": 775,
    "\u0120supp": 776,
    "\u0120gonna": 777,
    "\u0120weird": 778,
    "get": 779,
    "\u0120ill": 780,
    "ways": 781,
    "ooo": 782,
    "\u0120year": 783,
    "\u0120min": 784,
    "\u0120real": 785,
    "://": 786,
    "ont": 787,
    "\u0120per": 788,
    "\u0120kinda": 789,
    "atch": 790,
    "che": 791,
    "imes": 792,
    "co": 793,
    "\u0120scared": 794,
    "\u0120htt": 795,
    "\u0120always": 796,
    "\u0120boo": 797,
    "ady": 798,
    "qu": 799,
    "\u0120phone": 800,
    "\u0120needing": 801,
    "\u0120long": 802,
    "int": 803,
    "tera": 804,
    "\u0120anything": 805,
    "\u0120find": 806,
    "ult": 807,
    "sh": 808,
    "\u0120myself": 809,
    "\u0120fun": 810,
    "\u0120lot": 811,
    "\u0120mum": 812,
    "\u0120sounds": 813,
    "fa": 814,
    "\u01204": 815,
    "orge": 816,
    "ically": 817,
    "\u0120ins": 818,
    "\u0120idea": 819,
    "\u0120where": 820,
    "\u0120better": 821,
    "\u0120true": 822,
    "\u0120ide": 823,
    "\u0120bed": 824,
    "\u0120stream": 825,
    "ions": 826,
    "ark": 827,
    "\u0120sex": 828,
    "ne": 829,
    "\u0120bu": 830,
    "\u0120today": 831,
    "\u0120pers": 832,
    "\u0120fro": 833,
    "\u0120use": 834,
    "\u0120litera": 835,
    "\u0120george": 836,
    "\u0120made": 837,
    "\u0120literally": 838,
    "ffe": 839,
    "act": 840,
    "\u0120word": 841,
    "\u0120trying": 842,
    "mber": 843,
    "\u0120thanks": 844,
    "iting": 845,
    "!?": 846,
    "\u0120happen": 847,
    "\u0120leaving": 848,
    "\u0120hard": 849,
    "xt": 850,
    "\u0120spe": 851,
    "\u0120bre": 852,
    "\u0120pa": 853,
    "\u0120bro": 854,
    "\u01205": 855,
    "\u0120new": 856,
    "\u0120cute": 857,
    "\u0120person": 858,
    "\u0120res": 859,
    "haha": 860,
    "\u0120eating": 861,
    "\u0120getting": 862,
    "\u0120stop": 863,
    "\u0120ma": 864,
    "\u0120\u00c2": 865,
    "ance": 866,
    "bs": 867,
    "\u0120reme": 868,
    "\u0120tur": 869,
    "ft": 870,
    "\u0120part": 871,
    "irst": 872,
    "\u0120fucking": 873,
    "tf": 874,
    "ible": 875,
    "\u0120later": 876,
    "\u0120underst": 877,
    "\u0120hearing": 878,
    "ans": 879,
    "\u0120saying": 880,
    "way": 881,
    "\u00e2\u0122\u013b": 882,
    "ating": 883,
    "les": 884,
    "\u0120acc": 885,
    "\u0120mon": 886,
    "orm": 887,
    "\u0120first": 888,
    "\u0120learning": 889,
    "\u0120song": 890,
    "\u0120night": 891,
    "ng": 892,
    "\u0120sha": 893,
    "\u0120mess": 894,
    "ple": 895,
    "\u0120star": 896,
    "tle": 897,
    "ody": 898,
    "\u0120gr": 899,
    "\u0120happy": 900,
    "\u0120end": 901,
    "\u0120means": 902,
    "\u0120put": 903,
    "\u0120https": 904,
    "\u0120home": 905,
    "\u0120soon": 906,
    "\u0120pick": 907,
    "tty": 908,
    "\u0120ever": 909,
    "\u0120mind": 910,
    "\u0120having": 911,
    "mor": 912,
    "\u0120playing": 913,
    "ason": 914,
    "\u0120though": 915,
    "\u0120wtf": 916,
    "\u0120thr": 917,
    "\u0120away": 918,
    "ual": 919,
    "\u0120makes": 920,
    "\u0120pretty": 921,
    "\u0120lit": 922,
    "umb": 923,
    "og": 924,
    "\u0120done": 925,
    "\u0120remember": 926,
    "\u0120understand": 927,
    "ful": 928,
    "\u0120touching": 929,
    "\u0120ann": 930,
    "\u0120frogg": 931,
    "\u0120cou": 932,
    "\u0120someone": 933,
    "nce": 934,
    "\u0120leg": 935,
    "\u0120miss": 936,
    "\u0120em": 937,
    "\u0120show": 938,
    "\u0120cats": 939,
    "\u0120drink": 940,
    "\u0120\u00c2\u00a3": 941,
    "\u0120disc": 942,
    "\u0120dad": 943,
    "ire": 944,
    "ning": 945,
    "\u0120didn": 946,
    "\u0120op": 947,
    "\u0120fine": 948,
    "\u0120seeing": 949,
    "uter": 950,
    "unch": 951,
    "\u0120through": 952,
    "\u0120keep": 953,
    "\u0120ga": 954,
    "\u0120reason": 955,
    "\u0120sw": 956,
    "\u0120both": 957,
    "\u0120two": 958,
    "\u0120computer": 959,
    "\u0120sad": 960,
    "\u0120fin": 961,
    "ak": 962,
    "\u0120tra": 963,
    "\u0120told": 964,
    "\u0120god": 965,
    "\u0120smink": 966,
    "\u0120conf": 967,
    "\u0120name": 968,
    "\u0120talking": 969,
    "iz": 970,
    "\u0120least": 971,
    "ild": 972,
    "ach": 973,
    "\u0120writing": 974,
    "\u0120anyway": 975,
    "\u0120annoy": 976,
    "\u0120wont": 977,
    "\u0120hours": 978,
    "ated": 979,
    "no": 980,
    "\u0120imp": 981,
    "\u0120picking": 982,
    "\u0120fre": 983,
    "\u0120wanted": 984,
    "\u0120add": 985,
    "\u0120enough": 986,
    "\u0120spea": 987,
    "ude": 988,
    "\u0120inte": 989,
    "\u0120ser": 990,
    "\u0120best": 991,
    "\u0120bas": 992,
    "\u0120pete": 993,
    "\u0120ive": 994,
    "\u0120read": 995,
    "ready": 996,
    "\u0120sy": 997,
    "\u0120these": 998,
    "\u0120et": 999,
    "\u0120gen": 1000,
    "ose": 1001,
    "\u0120already": 1002,
    "\u0120old": 1003,
    "\u0120gir": 1004,
    "\u0120str": 1005,
    "\u0120guess": 1006,
    "ary": 1007,
    "\u0120ho": 1008,
    "\u0120je": 1009,
    "\u0120froggy": 1010,
    "\u0120tomor": 1011,
    "\u0120ace": 1012,
    "\u0120mine": 1013,
    "\u0120aut": 1014,
    "\u0120baby": 1015,
    "\u0120most": 1016,
    "\u0120used": 1017,
    "www": 1018,
    "ness": 1019,
    "\u0120cle": 1020,
    "ven": 1021,
    "\u0120ass": 1022,
    "ither": 1023,
    "\u0120tomorrow": 1024,
    "\u0120wal": 1025,
    "\u0120angle": 1026,
    "\u0120hes": 1027,
    "!!!": 1028,
    "\u0120doesnt": 1029,
    "\u0120everything": 1030,
    "arly": 1031,
    "\u0120plan": 1032,
    "\u0120ty": 1033,
    "\u0120lunch": 1034,
    "\u0120sen": 1035,
    "\u0120drawing": 1036,
    "\u0120nah": 1037,
    "\u0120nothing": 1038,
    "\u0120making": 1039,
    "\u0120des": 1040,
    "\u0120face": 1041,
    "\u0120little": 1042,
    "less": 1043,
    "\u0120last": 1044,
    "\u0120live": 1045,
    "\u0120hon": 1046,
    "ign": 1047,
    "\u0120gl": 1048,
    "\u0120exact": 1049,
    "\u0120send": 1050,
    "\u0120own": 1051,
    "\u0120expl": 1052,
    "\u0120sit": 1053,
    "\u0120super": 1054,
    "oney": 1055,
    "???": 1056,
    "ner": 1057,
    "\u0120cr": 1058,
    "ath": 1059,
    "\u0120cont": 1060,
    "mo": 1061,
    "\u0120dec": 1062,
    "yy": 1063,
    "\u0120mix": 1064,
    "\u0120head": 1065,
    "\u0120hu": 1066,
    "vers": 1067,
    "\u0120inc": 1068,
    "\u0120friends": 1069,
    "\u0120everyone": 1070,
    "\u0120room": 1071,
    "\u0120wrong": 1072,
    "\u0120once": 1073,
    "\u0120def": 1074,
    "\u0120point": 1075,
    "\u0120diffe": 1076,
    "\u0120week": 1077,
    "eet": 1078,
    "\u0120watch": 1079,
    "ri": 1080,
    "\u0120month": 1081,
    "\u0120honest": 1082,
    "\u0120ask": 1083,
    "eee": 1084,
    "\u0120thank": 1085,
    "\u0120sk": 1086,
    "ute": 1087,
    "\u0120thoughts": 1088,
    "\u0120fo": 1089,
    "ook": 1090,
    "\u0120cry": 1091,
    "\u0120thinking": 1092,
    "\u0120fan": 1093,
    "\u0120around": 1094,
    "\u0120hahaha": 1095,
    "\u0120ment": 1096,
    "\u0120wo": 1097,
    "\u0120art": 1098,
    "li": 1099,
    "\u0120less": 1100,
    "\u0120meant": 1101,
    "\u0120ac": 1102,
    "\u0120start": 1103,
    "rently": 1104,
    "med": 1105,
    "\u0120cra": 1106,
    "\u0120meds": 1107,
    "\u0120anx": 1108,
    "\u01206": 1109,
    "\u0120hi": 1110,
    "\u012010": 1111,
    "\u0120words": 1112,
    "\u0120next": 1113,
    "10": 1114,
    "rate": 1115,
    "\u0120else": 1116,
    "\u0120exactly": 1117,
    "\u0120cuz": 1118,
    "\u0120okay": 1119,
    "\u0120eng": 1120,
    "\u0120seems": 1121,
    "\u0120girl": 1122,
    "ph": 1123,
    "\u0120ugh": 1124,
    "\u0120shes": 1125,
    "\u0120hey": 1126,
    "\u0120times": 1127,
    "cing": 1128,
    "\u0120rel": 1129,
    "cked": 1130,
    "\u0120big": 1131,
    "whe": 1132,
    "\u0120tbf": 1133,
    "\u0120found": 1134,
    "\u0120sim": 1135,
    "\u0120intere": 1136,
    "de": 1137,
    "\u0120left": 1138,
    "ired": 1139,
    "wa": 1140,
    "body": 1141,
    "\u0120ind": 1142,
    "esome": 1143,
    "\u0120rep": 1144,
    "\u0120great": 1145,
    "\u0120lm": 1146,
    "\u0120hug": 1147,
    "\u0120looks": 1148,
    "iv": 1149,
    "\u0120legit": 1150,
    "ange": 1151,
    "\u0120needs": 1152,
    "lo": 1153,
    "ny": 1154,
    "\u0120weeks": 1155,
    "\u00f0\u0141": 1156,
    "\u0120place": 1157,
    "cy": 1158,
    "\u0120wants": 1159,
    "\u0120par": 1160,
    "\u0120money": 1161,
    "\u0120ob": 1162,
    "ical": 1163,
    "\u0120doesn": 1164,
    "cept": 1165,
    "\u0120main": 1166,
    "\u0120aaa": 1167,
    "bo": 1168,
    "ction": 1169,
    "io": 1170,
    "az": 1171,
    "ns": 1172,
    "\u0120dam": 1173,
    "ily": 1174,
    "\u0120comm": 1175,
    "\u0120went": 1176,
    "ia": 1177,
    "\u0120cur": 1178,
    "\u0120job": 1179,
    "\u0120lmfa": 1180,
    "nth": 1181,
    "roid": 1182,
    "\u0120set": 1183,
    "ket": 1184,
    "other": 1185,
    "\u0120support": 1186,
    "uck": 1187,
    "ward": 1188,
    "\u0120those": 1189,
    "\u0120proble": 1190,
    "\u0120kiss": 1191,
    "ons": 1192,
    "ces": 1193,
    "\u0120chat": 1194,
    "\u0120joke": 1195,
    "\u0120uni": 1196,
    "\u0120hur": 1197,
    "\u0120hor": 1198,
    "\u0120chan": 1199,
    "\u01209": 1200,
    "ices": 1201,
    "\u0120without": 1202,
    "\u0120awesome": 1203,
    "\u0120break": 1204,
    "\u0120able": 1205,
    "\u0120yay": 1206,
    "nds": 1207,
    "\u0120inter": 1208,
    "\u0120either": 1209,
    "\u0120many": 1210,
    "\u012020": 1211,
    "\u0120pass": 1212,
    "\u0120bored": 1213,
    "\u0120pay": 1214,
    "\u0120cons": 1215,
    "\u0120stress": 1216,
    "ards": 1217,
    "\u0120years": 1218,
    "\u0120free": 1219,
    "\u0120tech": 1220,
    "\u0120ste": 1221,
    "\u0120ideas": 1222,
    "\u0120annoying": 1223,
    "\u0120shop": 1224,
    "\u0120pain": 1225,
    "\u0120explain": 1226,
    "used": 1227,
    "\u0120gotta": 1228,
    "\u0120kid": 1229,
    "\u01208": 1230,
    "ndom": 1231,
    "\u0120sing": 1232,
    "\u0120coming": 1233,
    "fg": 1234,
    "\u0120sch": 1235,
    "\u0120boy": 1236,
    "\u0120whole": 1237,
    "ang": 1238,
    "hed": 1239,
    "\u0120oo": 1240,
    "gether": 1241,
    "\u0120wish": 1242,
    "\u0120write": 1243,
    "kr": 1244,
    "\u0120mar": 1245,
    "\u0120sna": 1246,
    "cent": 1247,
    "\u0120working": 1248,
    "\u0120gay": 1249,
    "tw": 1250,
    "itar": 1251,
    "ker": 1252,
    "ew": 1253,
    "\u0120different": 1254,
    "\u0120etc": 1255,
    "\u0120proper": 1256,
    "\u0120game": 1257,
    "der": 1258,
    "\u0120together": 1259,
    "ub": 1260,
    "\u0120synth": 1261,
    "press": 1262,
    "\u00f3\u00be": 1263,
    "\u0120dj": 1264,
    "ese": 1265,
    "\u0120such": 1266,
    "cted": 1267,
    "pect": 1268,
    "\u0120guitar": 1269,
    "fu": 1270,
    "ling": 1271,
    "\u0120forget": 1272,
    "als": 1273,
    "ised": 1274,
    "itch": 1275,
    "\u0120whats": 1276,
    "\u0120sometimes": 1277,
    "tra": 1278,
    "uu": 1279,
    "\u0120stay": 1280,
    "\u0120es": 1281,
    "uss": 1282,
    "\u0120past": 1283,
    "\u0120hell": 1284,
    "iew": 1285,
    "\u0120da": 1286,
    "\u0120bel": 1287,
    "\u0120mood": 1288,
    "\u0120allow": 1289,
    "\u0120ta": 1290,
    "\u0120ring": 1291,
    "\u0120iss": 1292,
    "\u0120honestly": 1293,
    "ory": 1294,
    "iously": 1295,
    "\u0120lmfao": 1296,
    "\u0120school": 1297,
    "ping": 1298,
    "\u0120eas": 1299,
    "\u0120dick": 1300,
    "ues": 1301,
    "\u0120called": 1302,
    "oud": 1303,
    "mit": 1304,
    "\u01207": 1305,
    "\u0120yet": 1306,
    "\u0120worr": 1307,
    "20": 1308,
    "\u0120ikr": 1309,
    "ken": 1310,
    "olog": 1311,
    "ident": 1312,
    "tent": 1313,
    "tead": 1314,
    "\u0120discord": 1315,
    "\u0120vide": 1316,
    "night": 1317,
    "\u0120kit": 1318,
    "\u0120rain": 1319,
    "ying": 1320,
    "\u0120havent": 1321,
    "\u0120smoke": 1322,
    "\u0120chair": 1323,
    "ism": 1324,
    "\u0120ear": 1325,
    "el": 1326,
    "\u0120sent": 1327,
    "\u0120instead": 1328,
    "ii": 1329,
    "\u0120high": 1330,
    "\u0120each": 1331,
    "\u0120blan": 1332,
    "\u0120cre": 1333,
    "\u0120wow": 1334,
    "\u0120resp": 1335,
    "\u0120tea": 1336,
    "\u0120sun": 1337,
    "sting": 1338,
    "\u0120drinking": 1339,
    "\u0120decks": 1340,
    "\u0120guy": 1341,
    "eepy": 1342,
    "\u0120mins": 1343,
    "ned": 1344,
    "\u0120open": 1345,
    "\u0120sminking": 1346,
    "\u0120guys": 1347,
    "\u0120bring": 1348,
    "je": 1349,
    "ack": 1350,
    "\u0120unt": 1351,
    "ication": 1352,
    "\u0120gra": 1353,
    "cial": 1354,
    "\u0120random": 1355,
    "rr": 1356,
    "\u0120feels": 1357,
    "\u0120poss": 1358,
    "ames": 1359,
    "\u0120isnt": 1360,
    "\u0120lmaooo": 1361,
    "\u0120sigh": 1362,
    "\u0120knew": 1363,
    "\u0120basically": 1364,
    "more": 1365,
    "\u0120bus": 1366,
    "\u0120ima": 1367,
    "gn": 1368,
    "\u0120ten": 1369,
    "ube": 1370,
    "sw": 1371,
    "right": 1372,
    "rect": 1373,
    "\u0120:/": 1374,
    "hhh": 1375,
    "\u0120dark": 1376,
    "\u0120theres": 1377,
    "\u0120speak": 1378,
    "\u0120hmm": 1379,
    "\u0120inf": 1380,
    "iety": 1381,
    "\u0120med": 1382,
    "\u0120rly": 1383,
    "by": 1384,
    "nts": 1385,
    "ian": 1386,
    "\u0120geepy": 1387,
    "vel": 1388,
    "\u0120pur": 1389,
    "\u0120rude": 1390,
    "ash": 1391,
    "\u0120engl": 1392,
    "ox": 1393,
    "\u0120toile": 1394,
    "\u0120asked": 1395,
    "where": 1396,
    "lle": 1397,
    "\u0120saw": 1398,
    "alth": 1399,
    "\u0120sense": 1400,
    "\u0120mod": 1401,
    "\u0120mark": 1402,
    "\u0120nooo": 1403,
    "\u0120oven": 1404,
    "\u0120came": 1405,
    "ics": 1406,
    "\u0120door": 1407,
    "\u0120using": 1408,
    "100": 1409,
    "\u0120non": 1410,
    "osed": 1411,
    "\u0120pan": 1412,
    "ross": 1413,
    "\u0120seco": 1414,
    "\u0120arg": 1415,
    "\u0120toilet": 1416,
    "set": 1417,
    "\u0120wasnt": 1418,
    "\u0120another": 1419,
    "\u0120exper": 1420,
    "\u0120anymore": 1421,
    "lling": 1422,
    "llow": 1423,
    "py": 1424,
    "\u0120kill": 1425,
    "\u0120until": 1426,
    "\u0120half": 1427,
    "\u0120bor": 1428,
    "ider": 1429,
    "ments": 1430,
    "ap": 1431,
    "joy": 1432,
    "\u0120hum": 1433,
    "led": 1434,
    "\u0120alone": 1435,
    "\u0120sin": 1436,
    "\u0120xx": 1437,
    "30": 1438,
    "gry": 1439,
    "\u0120quest": 1440,
    "\u0120change": 1441,
    "are": 1442,
    "ather": 1443,
    "line": 1444,
    "\u0120ago": 1445,
    "\u0120turnt": 1446,
    "\u0120car": 1447,
    "\u0120message": 1448,
    "\u0120wasn": 1449,
    "\u0120self": 1450,
    "\u0120\u00e2\u0122": 1451,
    "fr": 1452,
    "\u0120started": 1453,
    "ens": 1454,
    "\u0120hot": 1455,
    "its": 1456,
    "\u0120enjoy": 1457,
    "\u0120[": 1458,
    "\u0120played": 1459,
    "\u0120hair": 1460,
    "lete": 1461,
    "\u0120col": 1462,
    "vo": 1463,
    "uring": 1464,
    "ves": 1465,
    "\u0120turntable": 1466,
    "\u0120seem": 1467,
    "\u0120cudd": 1468,
    "come": 1469,
    "\u0120answ": 1470,
    "\u0120rn": 1471,
    "\u0120commun": 1472,
    "\u0120dumb": 1473,
    "\u0120couple": 1474,
    "\u0120tired": 1475,
    "not": 1476,
    "wards": 1477,
    "\u0120;": 1478,
    "ced": 1479,
    "\u0120late": 1480,
    "\u0120known": 1481,
    "\u0120glad": 1482,
    "\u0120belie": 1483,
    "\u00c3\u00a9": 1484,
    "\u0120awww": 1485,
    "\u0120video": 1486,
    "ah": 1487,
    "\u0120reg": 1488,
    "\u0120dance": 1489,
    "\u0120mixer": 1490,
    "ier": 1491,
    "\u0120alright": 1492,
    "\u0120cal": 1493,
    "\u0120since": 1494,
    "\u0120awk": 1495,
    "\u0120ele": 1496,
    "\u0120worse": 1497,
    "\u0120snacks": 1498,
    "\u0120sick": 1499,
    "\u0120sec": 1500,
    "oup": 1501,
    "\u0120health": 1502,
    "fs": 1503,
    "\u0120train": 1504,
    "rop": 1505,
    "\u0120appre": 1506,
    "\u0120norm": 1507,
    "ones": 1508,
    "ations": 1509,
    "\u0120child": 1510,
    "\u0120worried": 1511,
    "\u0120three": 1512,
    "\u0120seen": 1513,
    "\u0120creat": 1514,
    "gan": 1515,
    "\u0120mor": 1516,
    "\u0120space": 1517,
    "ched": 1518,
    "\u0120months": 1519,
    "light": 1520,
    "ffic": 1521,
    "\u0120lets": 1522,
    "\u0120appa": 1523,
    "reen": 1524,
    "\u0120fig": 1525,
    "\u0120amaz": 1526,
    "\u0120minute": 1527,
    "\u0120jon": 1528,
    "\u0120quite": 1529,
    "\u0120safe": 1530,
    "\u0120ent": 1531,
    "\u0120;)": 1532,
    "\u0120cor": 1533,
    "\u0120obv": 1534,
    "app": 1535,
    "\u0120says": 1536,
    "\u0120mid": 1537,
    "ages": 1538,
    "ger": 1539,
    "\u0120awkward": 1540,
    "istic": 1541,
    "ugg": 1542,
    "\u0120nobody": 1543,
    "\u0120order": 1544,
    "\u0120wind": 1545,
    "\u0120exc": 1546,
    "ron": 1547,
    "\u0120hand": 1548,
    "\u0120isn": 1549,
    "\u0120few": 1550,
    "up": 1551,
    "\u0120apparently": 1552,
    "\u0120btw": 1553,
    "\u0120appreci": 1554,
    "\u0120happened": 1555,
    "\u0120forg": 1556,
    "\u0120meh": 1557,
    "\u0120import": 1558,
    "\u0120defin": 1559,
    "\u0120horr": 1560,
    "\u0120piss": 1561,
    "\u0120ooo": 1562,
    "side": 1563,
    "\u0120va": 1564,
    "terday": 1565,
    "ject": 1566,
    "ilst": 1567,
    "\u0120mental": 1568,
    "nch": 1569,
    "\u0120dun": 1570,
    "\u0120cheese": 1571,
    "\u0120ew": 1572,
    "\u0120ter": 1573,
    "\u0120pi": 1574,
    "ba": 1575,
    "\u0120jokes": 1576,
    "\u0120yesterday": 1577,
    "\u0120interesting": 1578,
    "\u0120anyone": 1579,
    "\u0120mic": 1580,
    "ors": 1581,
    "\u0120whilst": 1582,
    "\u0120far": 1583,
    "\u0120top": 1584,
    "\u0120believe": 1585,
    "\u0120pol": 1586,
    "ped": 1587,
    "\u0120run": 1588,
    "\u0120emot": 1589,
    "\u0120anxiety": 1590,
    "igg": 1591,
    "\u0120ey": 1592,
    "\u0120asking": 1593,
    "ugs": 1594,
    "\u0120omfg": 1595,
    "most": 1596,
    "\u0120ed": 1597,
    "\u0120tonight": 1598,
    "using": 1599,
    "\\\"": 1600,
    "\u0120yourself": 1601,
    "\u0120water": 1602,
    "\u0120dancing": 1603,
    "\u0120problem": 1604,
    "view": 1605,
    "\u0120clean": 1606,
    "ional": 1607,
    "\u0120sur": 1608,
    "fect": 1609,
    "\u0120light": 1610,
    "\u012012": 1611,
    "how": 1612,
    "\u0120poo": 1613,
    "\u0120nd": 1614,
    "ear": 1615,
    "\u0120ap": 1616,
    "\u0120>": 1617,
    "\u0120cut": 1618,
    "\u0120dw": 1619,
    "\u0120boof": 1620,
    "\u0120tried": 1621,
    "pm": 1622,
    "\u0120ah": 1623,
    "\u0120fore": 1624,
    "\u0120situ": 1625,
    "?!": 1626,
    "\u0120upset": 1627,
    "\u0120blanket": 1628,
    "\u0120important": 1629,
    "the": 1630,
    "\u0120trans": 1631,
    "fort": 1632,
    "\u0120chris": 1633,
    "\u0120mainly": 1634,
    "\u0120walk": 1635,
    "res": 1636,
    "ret": 1637,
    "\u0120gener": 1638,
    "ween": 1639,
    "\u0120=": 1640,
    "\u0120second": 1641,
    "\u0120ban": 1642,
    "\u0120while": 1643,
    "\u0120phot": 1644,
    "\u0120fam": 1645,
    "\u0120techn": 1646,
    "\u0120ones": 1647,
    "\u0120inv": 1648,
    "\u0120spam": 1649,
    "\u0120vis": 1650,
    "ches": 1651,
    "ert": 1652,
    "\u0120songs": 1653,
    "\u0120forgot": 1654,
    "\u0120watching": 1655,
    "\u0120spec": 1656,
    "\u0120rest": 1657,
    "\u0120amazing": 1658,
    "hes": 1659,
    "\u0120loving": 1660,
    "ugh": 1661,
    "\u0120atta": 1662,
    "ount": 1663,
    "\u0120youre": 1664,
    "\u0120war": 1665,
    "\u0120sugg": 1666,
    "\u0120bir": 1667,
    "\u0120:'": 1668,
    "\u0120plz": 1669,
    "\u0120\u00f0\u0141": 1670,
    "ved": 1671,
    "\u0120sksks": 1672,
    "\u0120class": 1673,
    "\u0120hurt": 1674,
    "\u0120goo": 1675,
    "\u0120create": 1676,
    "\u0120full": 1677,
    "my": 1678,
    "ush": 1679,
    "unk": 1680,
    "ific": 1681,
    "\u0120luck": 1682,
    "ative": 1683,
    "\u0120needed": 1684,
    "\u0120perfect": 1685,
    "\u0120sign": 1686,
    "\u0120check": 1687,
    "\u0120parent": 1688,
    "\u0120diffic": 1689,
    "\u0120opin": 1690,
    "\u0120colour": 1691,
    "sy": 1692,
    "\u0120bur": 1693,
    "\u0120window": 1694,
    "izz": 1695,
    "\u0120wha": 1696,
    "inner": 1697,
    "tem": 1698,
    "\u0120french": 1699,
    "\u0120jed": 1700,
    "fully": 1701,
    "\u0120\u00e2\u0122\u013a": 1702,
    "\u0120meet": 1703,
    "illy": 1704,
    "ins": 1705,
    "\u0120almost": 1706,
    "\u0120toy": 1707,
    "\u0120agree": 1708,
    "\u0120:'(": 1709,
    "\u0120between": 1710,
    "ble": 1711,
    "tes": 1712,
    "ever": 1713,
    "ips": 1714,
    "\u0120egg": 1715,
    "\u0120scream": 1716,
    "\u0120accident": 1717,
    "\u0120dog": 1718,
    "itely": 1719,
    "\u0120cho": 1720,
    "\u0120cour": 1721,
    "outh": 1722,
    "\u0120confused": 1723,
    "\u0120funny": 1724,
    "\u0120tas": 1725,
    "\u012011": 1726,
    "\u0120buy": 1727,
    "\u0120coo": 1728,
    "mail": 1729,
    "\u0120usually": 1730,
    "\u0120dunno": 1731,
    "ial": 1732,
    "\u0120listened": 1733,
    "\u0120babe": 1734,
    "ent": 1735,
    "lic": 1736,
    "ience": 1737,
    "\u0120inst": 1738,
    "ifu": 1739,
    "ility": 1740,
    "\u0120stra": 1741,
    "\u0120hun": 1742,
    "\u0120yep": 1743,
    "\u0120morning": 1744,
    "iving": 1745,
    "\u0120ref": 1746,
    "\u0120val": 1747,
    "\u0120darkness": 1748,
    "cess": 1749,
    "\u0120rem": 1750,
    "room": 1751,
    "ipp": 1752,
    "\u0120voices": 1753,
    "\u0120rec": 1754,
    "odu": 1755,
    "\u0120deal": 1756,
    "\u0120issues": 1757,
    "ition": 1758,
    "\u0120sub": 1759,
    "\u0120gun": 1760,
    "ture": 1761,
    "!'": 1762,
    "\u0120likes": 1763,
    "\u0120world": 1764,
    "\u0120reply": 1765,
    "\u0120fact": 1766,
    "ming": 1767,
    "\u0120panic": 1768,
    "\u0120emb": 1769,
    "\u0120answer": 1770,
    "\u0120pop": 1771,
    "\u0120works": 1772,
    "\u0120except": 1773,
    "\u0120small": 1774,
    "net": 1775,
    "\u0120somehow": 1776,
    "\u0120difficult": 1777,
    "\u0120idek": 1778,
    "pid": 1779,
    "\u0120outside": 1780,
    "\u0120definitely": 1781,
    "ower": 1782,
    "\u0120took": 1783,
    "ilar": 1784,
    "\u0120complete": 1785,
    "\u0120bye": 1786,
    "\u0120supposed": 1787,
    "\u0120often": 1788,
    "\u0120mat": 1789,
    "hd": 1790,
    "\u0120parents": 1791,
    "\u0120post": 1792,
    "ption": 1793,
    "\u0120haven": 1794,
    "\u0120takes": 1795,
    "\u0120till": 1796,
    "\u0120telling": 1797,
    "waifu": 1798,
    "\u0120daylight": 1799,
    "\u0120die": 1800,
    "\u0120birth": 1801,
    "ratewaifu": 1802,
    "own": 1803,
    "\u0120allowed": 1804,
    "ads": 1805,
    "\u0120z": 1806,
    "icul": 1807,
    "\u0120appreciate": 1808,
    "\u0120cop": 1809,
    "vice": 1810,
    "\u0120games": 1811,
    "\u0120follow": 1812,
    "\u0120ages": 1813,
    "\u0120depress": 1814,
    "book": 1815,
    "\u0120theyre": 1816,
    "\u0120eff": 1817,
    "\u0120autistic": 1818,
    "\u0120during": 1819,
    "ided": 1820,
    "sent": 1821,
    "\u0120worry": 1822,
    "\u0120towards": 1823,
    "ters": 1824,
    "ru": 1825,
    "zy": 1826,
    "\u0120sexy": 1827,
    "\u0120sat": 1828,
    "\u0120crying": 1829,
    "\u0120wonder": 1830,
    "\u0120possible": 1831,
    "we": 1832,
    "\u0120wood": 1833,
    "uk": 1834,
    "\u0120loves": 1835,
    "12": 1836,
    "\u0120lost": 1837,
    "\u0120chang": 1838,
    "ship": 1839,
    "\u0120contro": 1840,
    "tm": 1841,
    "\u0120char": 1842,
    "\u0120cree": 1843,
    "\u0120rather": 1844,
    "\u0120colle": 1845,
    "\u0120email": 1846,
    "ob": 1847,
    "\u0120effort": 1848,
    "\u0120requ": 1849,
    "ode": 1850,
    "\u0120elect": 1851,
    "yout": 1852,
    "\u0120address": 1853,
    "\u0120type": 1854,
    "\u0120incl": 1855,
    "\u0120exp": 1856,
    "ats": 1857,
    "nded": 1858,
    "gy": 1859,
    "iny": 1860,
    "\u0120minutes": 1861,
    "\u0120entire": 1862,
    "\u0120boring": 1863,
    "\u0120equ": 1864,
    "\u0120numb": 1865,
    "\u0120hating": 1866,
    "\u0120opinion": 1867,
    "oon": 1868,
    "\u0120lots": 1869,
    "\u0120evening": 1870,
    "oman": 1871,
    "\u0120dinner": 1872,
    "\u0120anxious": 1873,
    "\u0120sort": 1874,
    "cited": 1875,
    "\u0120body": 1876,
    "\u0120stupid": 1877,
    "000": 1878,
    "ibly": 1879,
    "\u0120wouldnt": 1880,
    "\u0120dead": 1881,
    "\u0120reading": 1882,
    "yle": 1883,
    "\u0120hang": 1884,
    "gr": 1885,
    "watch": 1886,
    "\u0120unless": 1887,
    "\u0120relation": 1888,
    "\u0120fav": 1889,
    "\u0120wear": 1890,
    "\u0120picture": 1891,
    "arch": 1892,
    "\u0120hid": 1893,
    "\u0120met": 1894,
    "\u0120droid": 1895,
    "\u0120bou": 1896,
    "leep": 1897,
    "\u0120damn": 1898,
    "\u0120hehe": 1899,
    "aged": 1900,
    "\u0120fuckin": 1901,
    "\u0120heating": 1902,
    "\u0120oooh": 1903,
    "\u0120tu": 1904,
    "\u0120heard": 1905,
    "\u0120looked": 1906,
    "\u0120meme": 1907,
    "ict": 1908,
    "\u0120lovely": 1909,
    "\u0120course": 1910,
    "mp": 1911,
    "\u0120stand": 1912,
    "\u0120convers": 1913,
    "cu": 1914,
    "\u0120imag": 1915,
    "cially": 1916,
    "\u0120human": 1917,
    "\u0120du": 1918,
    "\u0120close": 1919,
    "mon": 1920,
    "\u0120hows": 1921,
    "\u0120comes": 1922,
    "\u0120pizz": 1923,
    "air": 1924,
    "\u0120xox": 1925,
    "\u0120tru": 1926,
    "\u0120realised": 1927,
    "\u0120hold": 1928,
    "man": 1929,
    "\u0120slight": 1930,
    "\u0120figure": 1931,
    "\u0120consider": 1932,
    "\u0120pos": 1933,
    "\u0120discuss": 1934,
    "\u0120finally": 1935,
    "\u0120online": 1936,
    "\u0120excited": 1937,
    "eric": 1938,
    "\u0120tot": 1939,
    "\u0120suppose": 1940,
    "\u0120autism": 1941,
    "\u0120oof": 1942,
    "\u0120situation": 1943,
    "\u0120book": 1944,
    "cr": 1945,
    "\u0120mome": 1946,
    "\u0120fix": 1947,
    "\u0120gets": 1948,
    "\u0120wat": 1949,
    "ffect": 1950,
    "ract": 1951,
    "\u0120passage": 1952,
    "\u0120gunna": 1953,
    "\u0120inside": 1954,
    "\u0120count": 1955,
    "wor": 1956,
    "\u0120doct": 1957,
    "\u0120flo": 1958,
    "kk": 1959,
    "\u0120pu": 1960,
    "\u0120pen": 1961,
    "lier": 1962,
    "mer": 1963,
    "\u0120normal": 1964,
    "\u0120loool": 1965,
    "\u0120sweet": 1966,
    "iday": 1967,
    "aut": 1968,
    "\u0120flat": 1969,
    "\u0120hy": 1970,
    "\u0120scary": 1971,
    "\u0120hahahaha": 1972,
    "\u0120asleep": 1973,
    "\u0120english": 1974,
    "ring": 1975,
    "\u0120del": 1976,
    "\u0120xxx": 1977,
    "\u0120creating": 1978,
    "hy": 1979,
    "angle": 1980,
    "\u0120text": 1981,
    "\u0120pizza": 1982,
    "\u0120wouldn": 1983,
    "\u0120americ": 1984,
    "cer": 1985,
    "\u0120case": 1986,
    "nday": 1987,
    "\u0120uk": 1988,
    "\u0120fail": 1989,
    "ga": 1990,
    "\u0120happening": 1991,
    "\u0120speaking": 1992,
    "\u0120meow": 1993,
    "\u0120ign": 1994,
    "dy": 1995,
    "gging": 1996,
    "tever": 1997,
    "mme": 1998,
    "\u0120twitch": 1999,
    "\u0120plus": 2000,
    "\u0120fault": 2001,
    "\u0120pasta": 2002,
    "\u0120event": 2003,
    "\u0120rant": 2004,
    "\u0120black": 2005,
    "ately": 2006,
    "\u0120turn": 2007,
    "\u0120dat": 2008,
    "\u0120cold": 2009,
    ").": 2010,
    "\u0120woman": 2011,
    "\u0120http": 2012,
    "\u0120sucks": 2013,
    "ates": 2014,
    "\u0120sn": 2015,
    "\u0120pc": 2016,
    "\u0120ev": 2017,
    "\u0120horrible": 2018,
    "ail": 2019,
    "\u0120earlier": 2020,
    "\u0120google": 2021,
    "ren": 2022,
    "irt": 2023,
    "youtube": 2024,
    "\u0120sooo": 2025,
    "\u0120mil": 2026,
    "\u012015": 2027,
    "\u012030": 2028,
    "iced": 2029,
    "\u0120gave": 2030,
    "\u0120forever": 2031,
    "15": 2032,
    "\u0120hopefully": 2033,
    "\u0120fall": 2034,
    "\u0120social": 2035,
    "ien": 2036,
    "\u0120birthday": 2037,
    "ock": 2038,
    "fl": 2039,
    "\u0120cba": 2040,
    "\u0120drunk": 2041,
    "dden": 2042,
    "13": 2043,
    "\u0120aww": 2044,
    "\u0120slightly": 2045,
    "\u0120bag": 2046,
    "ensive": 2047,
    "cl": 2048,
    "\u0120vib": 2049,
    "\u0120fur": 2050,
    "angel": 2051,
    "\u0120low": 2052,
    "\u0120worst": 2053,
    "\u0120mass": 2054,
    "\u0120suck": 2055,
    "nding": 2056,
    "\u0120mouse": 2057,
    "\u0120gone": 2058,
    "\u0120won": 2059,
    "\u0120four": 2060,
    "\u0120broke": 2061,
    "\u0120loved": 2062,
    "\u0120age": 2063,
    "\u0120pat": 2064,
    "ence": 2065,
    "\u0120obviously": 2066,
    "\u0120tiny": 2067,
    "\u0120sudden": 2068,
    "\u0120giving": 2069,
    "ising": 2070,
    "fer": 2071,
    "\u0120sol": 2072,
    "\u0120webs": 2073,
    "\u0120cock": 2074,
    "ology": 2075,
    "wu": 2076,
    "\u0120pas": 2077,
    "\u0120stuck": 2078,
    "\u0120umm": 2079,
    "ife": 2080,
    "\u0120ffs": 2081,
    "\u0120ess": 2082,
    "sol": 2083,
    "\u0120vape": 2084,
    "\u0120bath": 2085,
    "\u0120actual": 2086,
    "\u0120expect": 2087,
    "\u0120living": 2088,
    "\u0120website": 2089,
    "\u0120hmmm": 2090,
    "\u0120whatever": 2091,
    "lled": 2092,
    "\u0120ooh": 2093,
    "lym": 2094,
    "\u0120worth": 2095,
    "fair": 2096,
    "ings": 2097,
    "\u0120favour": 2098,
    "sel": 2099,
    "\u0120angry": 2100,
    "con": 2101,
    "\u0120psy": 2102,
    "nn": 2103,
    "\u0120prom": 2104,
    "\u0120perf": 2105,
    "\u0120currently": 2106,
    "\u0120fell": 2107,
    "\u0120lie": 2108,
    "ision": 2109,
    "\u0120calm": 2110,
    "\u0120laugh": 2111,
    "\u0120win": 2112,
    "\u0120process": 2113,
    "\u012018": 2114,
    "\u0120android": 2115,
    "cha": 2116,
    "\u0120phys": 2117,
    "\u0120foc": 2118,
    "\u0120mee": 2119,
    "\u0120yours": 2120,
    "\u0120trust": 2121,
    "\u0120bitch": 2122,
    "\u0120internet": 2123,
    "\u0120\"": 2124,
    "\u0120white": 2125,
    "ht": 2126,
    "\u0120ready": 2127,
    "\u0120key": 2128,
    "pa": 2129,
    "\u0120red": 2130,
    "fk": 2131,
    "friend": 2132,
    "ured": 2133,
    "gra": 2134,
    "vent": 2135,
    "\u0120mult": 2136,
    "\u0120blue": 2137,
    "\u0120contin": 2138,
    "\u0120hit": 2139,
    "\u0120recent": 2140,
    "\u0120press": 2141,
    "\u0120arent": 2142,
    "uine": 2143,
    "\u0120woo": 2144,
    "ities": 2145,
    "\u0120strugg": 2146,
    "\u0120extra": 2147,
    "\u0120rap": 2148,
    "\u0120similar": 2149,
    "\u0120eyes": 2150,
    "\u0120loveangel": 2151,
    "\u0120straight": 2152,
    "\u0120moment": 2153,
    "\u0120fil": 2154,
    "ber": 2155,
    "\u0120question": 2156,
    "\u0120embar": 2157,
    "antly": 2158,
    "\u0120ner": 2159,
    "\u0120valid": 2160,
    "\u0120ya": 2161,
    "\u0120genuine": 2162,
    "ule": 2163,
    "\u0120awake": 2164,
    "av": 2165,
    "ux": 2166,
    "\u0120defo": 2167,
    "\u0120easy": 2168,
    "\u0120mis": 2169,
    "\u0120effect": 2170,
    "\u0120france": 2171,
    "\u0120knows": 2172,
    "\u0120chill": 2173,
    "onse": 2174,
    "\u0120brains": 2175,
    "\u0120finis": 2176,
    "\u0120conversation": 2177,
    "ptop": 2178,
    "board": 2179,
    "\u0120properly": 2180,
    "\u0120side": 2181,
    "),": 2182,
    "\u0120become": 2183,
    "\u0120mention": 2184,
    "\u0120eh": 2185,
    "17": 2186,
    "\u0120throw": 2187,
    "\u0120quick": 2188,
    "\u0120cook": 2189,
    "bb": 2190,
    "po": 2191,
    "\u0120adhd": 2192,
    "ient": 2193,
    "\u0120bought": 2194,
    "ls": 2195,
    "\u0120decided": 2196,
    "ho": 2197,
    "\u0120dist": 2198,
    "\u0120favourite": 2199,
    "\u0120men": 2200,
    "\u0120sexual": 2201,
    "\u0120seriously": 2202,
    "gif": 2203,
    "\u0120couldnt": 2204,
    "\u0120slow": 2205,
    "\u0120cares": 2206,
    "selves": 2207,
    "\u0120response": 2208,
    "24": 2209,
    "\u0120shut": 2210,
    "\u0120exam": 2211,
    "\u0120pres": 2212,
    "\u0120huge": 2213,
    "\u0120problems": 2214,
    "\u0120dream": 2215,
    "\u0120...": 2216,
    "ml": 2217,
    "\u0120level": 2218,
    "\u0120proud": 2219,
    "\u0120completely": 2220,
    "cri": 2221,
    "jk": 2222,
    "\u0120record": 2223,
    "\u0120ver": 2224,
    "\u0120nope": 2225,
    "\u0120laptop": 2226,
    "\u0120cuddles": 2227,
    "\u0120det": 2228,
    "\u0120plym": 2229,
    "\u012014": 2230,
    "iness": 2231,
    "\u0120atm": 2232,
    "\u0120cannot": 2233,
    "\u0120kept": 2234,
    "\u0120hates": 2235,
    "\u0120twice": 2236,
    "\u0120correct": 2237,
    "lu": 2238,
    "\u0120five": 2239,
    "\u0120form": 2240,
    "\u0120lemme": 2241,
    "\u0120hello": 2242,
    "key": 2243,
    "\u0120track": 2244,
    "\u0120huh": 2245,
    "aly": 2246,
    "\u0120short": 2247,
    "\u0120psych": 2248,
    "\u0120cust": 2249,
    "\u0120loud": 2250,
    "\u0120beaut": 2251,
    "\u0120noticed": 2252,
    "\u0120waiting": 2253,
    "\u0120missed": 2254,
    "uin": 2255,
    "\u0120repl": 2256,
    "\u0120messages": 2257,
    "\u0120bru": 2258,
    "\u0120essay": 2259,
    "\u0120relationship": 2260,
    "ines": 2261,
    "\u0120based": 2262,
    "\u0120indeed": 2263,
    "\u0120produ": 2264,
    "rew": 2265,
    "\u0120gives": 2266,
    "iple": 2267,
    "wise": 2268,
    "ify": 2269,
    "\u0120walked": 2270,
    "\u0120somewhere": 2271,
    "\u0120conta": 2272,
    "16": 2273,
    "\u0120gross": 2274,
    "rence": 2275,
    "\u0120near": 2276,
    "\u0120ohhh": 2277,
    "inge": 2278,
    "\u0120number": 2279,
    "\u0120fit": 2280,
    "\u0120const": 2281,
    "\u0120server": 2282,
    "hs": 2283,
    "\u0120deep": 2284,
    "orn": 2285,
    "\u0120ret": 2286,
    "\u0120notice": 2287,
    "une": 2288,
    "ksksksks": 2289,
    "25": 2290,
    "tmas": 2291,
    "\u0120totally": 2292,
    "\u0120suddenly": 2293,
    "\u0120sys": 2294,
    "\u0120family": 2295,
    "airs": 2296,
    "\u0120early": 2297,
    "\u0120incred": 2298,
    "\u0120front": 2299,
    "ively": 2300,
    "\u0120starting": 2301,
    "\u0120accidentally": 2302,
    "go": 2303,
    "\u0120party": 2304,
    "eer": 2305,
    "\u0120clos": 2306,
    "\u0120college": 2307,
    "\u01200": 2308,
    "ital": 2309,
    "\u0120goes": 2310,
    "\u0120hugs": 2311,
    "ik": 2312,
    "\u0120christmas": 2313,
    "ited": 2314,
    "\u0120hungry": 2315,
    "\u0120creepy": 2316,
    "\u0120int": 2317,
    "\u0120girls": 2318,
    "\u0120story": 2319,
    "\u0120ran": 2320,
    "\u0120heart": 2321,
    "\u0120floor": 2322,
    "\u0120join": 2323,
    "\u0120busy": 2324,
    "\u0120squ": 2325,
    "aked": 2326,
    "olol": 2327,
    "\u0120england": 2328,
    "\u0120technically": 2329,
    "fast": 2330,
    "\u0120silly": 2331,
    "esss": 2332,
    "iful": 2333,
    "\u0120partner": 2334,
    "fortable": 2335,
    "\u0120general": 2336,
    "oot": 2337,
    "\u0120round": 2338,
    "\u0120screen": 2339,
    "\u0120air": 2340,
    "urs": 2341,
    "\u0120compl": 2342,
    "\u0120happens": 2343,
    "\u0120inform": 2344,
    "\u0120suggest": 2345,
    "do": 2346,
    "iot": 2347,
    "pecially": 2348,
    "\u0120step": 2349,
    "\u0120experience": 2350,
    "\u0120xoxo": 2351,
    "\u0120bra": 2352,
    "\u0120decide": 2353,
    "\u0120questions": 2354,
    "\u0120bi": 2355,
    "\u0120longer": 2356,
    "\u0120brother": 2357,
    "ronic": 2358,
    "\u0120woke": 2359,
    "\u0120includ": 2360,
    "kets": 2361,
    "\u0120style": 2362,
    "\u0120imagine": 2363,
    "head": 2364,
    "\u0120wel": 2365,
    "ertain": 2366,
    "\u0120sme": 2367,
    "\u0120bass": 2368,
    "\u0120neither": 2369,
    "lex": 2370,
    "\u0120grow": 2371,
    "\u0120build": 2372,
    "\u0120singing": 2373,
    "\u0120issue": 2374,
    "chen": 2375,
    "\u0120lar": 2376,
    "\u0120yh": 2377,
    "ndon": 2378,
    "dle": 2379,
    "em": 2380,
    "\u0120wife": 2381,
    "\u0120nic": 2382,
    "ax": 2383,
    "pr": 2384,
    "\u0120?": 2385,
    "\u0120yout": 2386,
    "\u0120likely": 2387,
    "\u0120vi": 2388,
    "\u0120spo": 2389,
    "\u0120mums": 2390,
    "\u0120facebook": 2391,
    "\u0120sleeping": 2392,
    "\u0120genuinely": 2393,
    "\u0120contact": 2394,
    "ists": 2395,
    "\u0120nearly": 2396,
    "\u0120particul": 2397,
    "tention": 2398,
    "ding": 2399,
    "\u0120specific": 2400,
    "\u0120fucked": 2401,
    "\u0120prof": 2402,
    "\u0120sens": 2403,
    "\u0120meeting": 2404,
    "\u0120wake": 2405,
    "\u0120soup": 2406,
    "\u0120ju": 2407,
    "\u0120list": 2408,
    "\u0120calling": 2409,
    "ccoon": 2410,
    "load": 2411,
    "\u0120milk": 2412,
    "\u0120ily": 2413,
    "\u0120annoyed": 2414,
    "\u0120boyfriend": 2415,
    "you": 2416,
    "\u0120odd": 2417,
    "\u0120prov": 2418,
    "\u0120kitchen": 2419,
    "\u0120couldn": 2420,
    "\u0120argo": 2421,
    "\u0120bread": 2422,
    "\u0120screaming": 2423,
    "\u0120multiple": 2424,
    "pris": 2425,
    "\u0120clot": 2426,
    "\u0120turned": 2427,
    "ex": 2428,
    "\u0120bright": 2429,
    "\u0120spent": 2430,
    "\u0120dammit": 2431,
    "\u0120especially": 2432,
    "\u0120warm": 2433,
    "\u0120massive": 2434,
    "14": 2435,
    "\u0120\\\"": 2436,
    "\u0120sile": 2437,
    "\u0120bar": 2438,
    "ills": 2439,
    "\u0120disapp": 2440,
    "\u0120strong": 2441,
    "tern": 2442,
    "\u0120whether": 2443,
    "\u0120group": 2444,
    "\u0120comment": 2445,
    "js": 2446,
    "\u0120communic": 2447,
    "urate": 2448,
    "\u0120tv": 2449,
    "iet": 2450,
    "\u0120stude": 2451,
    "\u0120shower": 2452,
    "\u0120opp": 2453,
    "iled": 2454,
    "\u0120otherwise": 2455,
    "\u0120traum": 2456,
    "\u0120breakfast": 2457,
    "\u0120plymouth": 2458,
    "\u0120pissed": 2459,
    "\u0120poop": 2460,
    "\u0120others": 2461,
    "que": 2462,
    "\u0120easier": 2463,
    "tend": 2464,
    "\u0120line": 2465,
    "\u0120london": 2466,
    "19": 2467,
    "\u0120paid": 2468,
    "\u0120apolog": 2469,
    "\u0120vers": 2470,
    "\u0120fire": 2471,
    "\u0120uwu": 2472,
    "kers": 2473,
    "\u0120six": 2474,
    "\u0120hm": 2475,
    "\u0120ended": 2476,
    "\u0120police": 2477,
    "\u0120due": 2478,
    "\u0120dans": 2479,
    "\u0120share": 2480,
    "\u0120>:": 2481,
    "\u0120young": 2482,
    "\u0120remo": 2483,
    "\u0120ant": 2484,
    "aw": 2485,
    "zz": 2486,
    "\u0120camer": 2487,
    "\u0120deser": 2488,
    "\u0120recently": 2489,
    "\u0120kissing": 2490,
    "\u0120control": 2491,
    "18": 2492,
    "sted": 2493,
    "\u0120green": 2494,
    "\u0120direct": 2495,
    "esus": 2496,
    "\u012019": 2497,
    "\u0120leaves": 2498,
    "\u0120spend": 2499,
    "\u0120beautiful": 2500,
    "33": 2501,
    "het": 2502,
    "\u0120los": 2503,
    "love": 2504,
    "\u0120purple": 2505,
    "read": 2506,
    "\u0120pour": 2507,
    "\u0120uh": 2508,
    ".'": 2509,
    "\u0120fml": 2510,
    "\u0120liked": 2511,
    "\u0120loveangle": 2512,
    "\u0120surpris": 2513,
    "\u0120ig": 2514,
    "\u0120personal": 2515,
    "ize": 2516,
    "eg": 2517,
    "\u0120however": 2518,
    "\u0120moves": 2519,
    "\u0120clearly": 2520,
    "\u0120stressed": 2521,
    "\u0120emotional": 2522,
    "df": 2523,
    "hugs": 2524,
    "\u0120aa": 2525,
    "\u0120accurate": 2526,
    "\u0120helping": 2527,
    "medi": 2528,
    "omen": 2529,
    "\u0120against": 2530,
    "\u0120crap": 2531,
    "\u0120fight": 2532,
    "ets": 2533,
    "pected": 2534,
    "\u0120death": 2535,
    "\u0120argu": 2536,
    "50": 2537,
    "\u0120taken": 2538,
    "gs": 2539,
    "\u0120sofa": 2540,
    "\u0120shout": 2541,
    "\u0120amount": 2542,
    "\u0120interested": 2543,
    "\u0120yo": 2544,
    "\u0120ben": 2545,
    "rac": 2546,
    "\u0120sitting": 2547,
    "\u0120dou": 2548,
    "\u0120project": 2549,
    "\u0120100": 2550,
    "mat": 2551,
    "\u0120hugging": 2552,
    "\u0120pee": 2553,
    "\u0120attack": 2554,
    "\u0120cooking": 2555,
    "ric": 2556,
    "\u0120ce": 2557,
    "\u0120obs": 2558,
    "\u0120sending": 2559,
    "\u0120youtube": 2560,
    "\u0120certain": 2561,
    "\u0120fake": 2562,
    "\u0120friday": 2563,
    "pop": 2564,
    "\u0120yesss": 2565,
    "\u0120broken": 2566,
    "\u0120middle": 2567,
    "tenor": 2568,
    "\u0120prefer": 2569,
    "\u0120organ": 2570,
    "ilt": 2571,
    "\u0120single": 2572,
    "\u0120dude": 2573,
    "ants": 2574,
    "ka": 2575,
    "lls": 2576,
    "\u0120jesus": 2577,
    "\u0120themselves": 2578,
    "ond": 2579,
    "\u0120avo": 2580,
    "\u0120ow": 2581,
    "min": 2582,
    "\u0120smoked": 2583,
    "\u0120idiot": 2584,
    "\u012013": 2585,
    "\u0120state": 2586,
    "eng": 2587,
    "\u0120bare": 2588,
    "\u0120considering": 2589,
    "\u0120lil": 2590,
    "\u0120ai": 2591,
    "\u0120que": 2592,
    "br": 2593,
    "\u0120asher": 2594,
    "\u0120expensive": 2595,
    "\u0120attention": 2596,
    "\u0120loads": 2597,
    "ular": 2598,
    "vi": 2599,
    "\u0120meaning": 2600,
    "pped": 2601,
    "\u0120appro": 2602,
    "\u0120crazy": 2603,
    "'.": 2604,
    "\u0120mag": 2605,
    "\u0120card": 2606,
    "\u0120date": 2607,
    "\u0120rent": 2608,
    "\u0120conne": 2609,
    "hol": 2610,
    "\u0120ont": 2611,
    "dn": 2612,
    "ai": 2613,
    "\u0120choice": 2614,
    "23": 2615,
    "bot": 2616,
    "\u0120accept": 2617,
    "\u0120focus": 2618,
    "\u0120amb": 2619,
    "any": 2620,
    "ered": 2621,
    "fy": 2622,
    "\u0120depe": 2623,
    "\u0120>:(": 2624,
    "ises": 2625,
    "\u0120uns": 2626,
    "\u0120advice": 2627,
    "\u0120finished": 2628,
    "ergy": 2629,
    "igger": 2630,
    "\u0120swear": 2631,
    "ove": 2632,
    "\u0120tic": 2633,
    "\u0120wall": 2634,
    "\u0120mas": 2635,
    "\u0120dress": 2636,
    "itive": 2637,
    "\u0120boobs": 2638,
    "\u0120typing": 2639,
    "\u0120react": 2640,
    "mi": 2641,
    "\u0120:((": 2642,
    "\u0120kids": 2643,
    "ina": 2644,
    "\u0120drugs": 2645,
    "tel": 2646,
    "cle": 2647,
    "\u0120camera": 2648,
    "40": 2649,
    "\u0120pot": 2650,
    "\u0120express": 2651,
    "\u0120access": 2652,
    "like": 2653,
    "\u0120satur": 2654,
    "**": 2655,
    "\u0120women": 2656,
    "\u0120realise": 2657,
    "\u0120coun": 2658,
    "ump": 2659,
    "ager": 2660,
    "\u0120manage": 2661,
    "\u0120emp": 2662,
    "\u0120system": 2663,
    "\u0120sees": 2664,
    "iment": 2665,
    "\u0120boi": 2666,
    "ropri": 2667,
    "\u0120repe": 2668,
    "ules": 2669,
    "\u0120emo": 2670,
    "1000": 2671,
    "\u012016": 2672,
    "\u0120blood": 2673,
    "\u0120smile": 2674,
    "\u0120communication": 2675,
    "\u0120secret": 2676,
    "\u0120dest": 2677,
    "\u0120offe": 2678,
    "\u0120kitty": 2679,
    "\u0120onto": 2680,
    "port": 2681,
    "\u0120ly": 2682,
    "\u0120view": 2683,
    "\u0120test": 2684,
    "cal": 2685,
    "\u0120teen": 2686,
    "\u0120oop": 2687,
    "search": 2688,
    "stairs": 2689,
    "\u0120prote": 2690,
    "\u0120pie": 2691,
    "\u0120rid": 2692,
    "\u0120walking": 2693,
    "cel": 2694,
    "ially": 2695,
    "\u0120offer": 2696,
    "\u0120quiet": 2697,
    "\u0120letter": 2698,
    "\u0120code": 2699,
    "\u0120himself": 2700,
    "oof": 2701,
    "\u0120vibes": 2702,
    "\u0120custom": 2703,
    "gu": 2704,
    "\u0120absol": 2705,
    "imin": 2706,
    "\u0120sugges": 2707,
    "\u0120hol": 2708,
    "\u0120beg": 2709,
    "\u0120charac": 2710,
    "\u0120respons": 2711,
    "\u0120pub": 2712,
    "whel": 2713,
    "\u0120bin": 2714,
    "cture": 2715,
    "aten": 2716,
    "iod": 2717,
    "\u0120box": 2718,
    "\u0120clothes": 2719,
    "ane": 2720,
    "\u0120energy": 2721,
    "\u0120given": 2722,
    "\u0120rip": 2723,
    "21": 2724,
    "\u0120mot": 2725,
    "uth": 2726,
    "\u0120brit": 2727,
    "fairfair": 2728,
    "rs": 2729,
    "\u0120yeahhh": 2730,
    "\u0120overwhel": 2731,
    "\u0120fairly": 2732,
    "\u0120remind": 2733,
    "\u0120absolute": 2734,
    "\u0120respect": 2735,
    "\u0120clear": 2736,
    "down": 2737,
    "\u0120waht": 2738,
    "\u0120les": 2739,
    "bu": 2740,
    "\u0120hands": 2741,
    "\u0120soft": 2742,
    "ability": 2743,
    "\u0120awh": 2744,
    "\u0120whos": 2745,
    "\u0120feelings": 2746,
    "\u0120reco": 2747,
    "\u0120welcome": 2748,
    "\u0120worked": 2749,
    "\u0120finish": 2750,
    "\u0120poke": 2751,
    "\u0120putting": 2752,
    "\u0120photo": 2753,
    "ours": 2754,
    "\u0120bts": 2755,
    "\u0120opt": 2756,
    "\u0120est": 2757,
    "\u0120gre": 2758,
    "irty": 2759,
    "\u0120pla": 2760,
    "\u0120shouldnt": 2761,
    "\u0120admit": 2762,
    "\u0120truly": 2763,
    "26": 2764,
    "\u0120beh": 2765,
    "\u0120fully": 2766,
    "but": 2767,
    "oint": 2768,
    "\u0120rele": 2769,
    "yyy": 2770,
    "astic": 2771,
    "ift": 2772,
    "ok": 2773,
    "\u0120rock": 2774,
    "\u0120planning": 2775,
    "\u0120changed": 2776,
    "\u0120complain": 2777,
    "hehe": 2778,
    "\u0120arr": 2779,
    "\u0120period": 2780,
    "\u0120forgetting": 2781,
    "\u0120+": 2782,
    "\u0120terr": 2783,
    "\u0120information": 2784,
    "\u0120large": 2785,
    "\u0120cover": 2786,
    "\u0120vibe": 2787,
    "ac": 2788,
    "miss": 2789,
    "\u0120tre": 2790,
    "\u0120drop": 2791,
    "\u0120priv": 2792,
    "hahaha": 2793,
    "\u0120saturday": 2794,
    "ws": 2795,
    "\u0120elodies": 2796,
    "ropriate": 2797,
    "ame": 2798,
    "\u0120petes": 2799,
    "\u0120pipe": 2800,
    "\u0120particularly": 2801,
    "\u0120aud": 2802,
    "\u0120monday": 2803,
    "\u0120ignore": 2804,
    "\u0120beha": 2805,
    "inger": 2806,
    "\u0120port": 2807,
    "\u0120thinks": 2808,
    "45": 2809,
    "\u0120doctors": 2810,
    "ole": 2811,
    "\u0120awful": 2812,
    "put": 2813,
    "\u0120sam": 2814,
    "\u0120detail": 2815,
    "\u0120treat": 2816,
    "\u0120bat": 2817,
    "\u0120immedi": 2818,
    "ctive": 2819,
    "\u0120unf": 2820,
    "igin": 2821,
    "\u0120helps": 2822,
    "\u0120finding": 2823,
    "\u0120continue": 2824,
    "?'": 2825,
    "dow": 2826,
    "dam": 2827,
    "\u0120option": 2828,
    "par": 2829,
    "uit": 2830,
    "ature": 2831,
    "\u0120remembering": 2832,
    "\u0120ir": 2833,
    "\u0120uncom": 2834,
    "\u0120confir": 2835,
    "\u0120lady": 2836,
    "\u0120power": 2837,
    "\u0120memor": 2838,
    "\u0120kidding": 2839,
    "\u0120/": 2840,
    "\u0120pract": 2841,
    "url": 2842,
    "nel": 2843,
    "\u0120bby": 2844,
    "\u0120moved": 2845,
    "\u0120stre": 2846,
    "\u0120vag": 2847,
    "\u0120strange": 2848,
    "\u0120invol": 2849,
    "ground": 2850,
    "ky": 2851,
    "\u0120noise": 2852,
    "\u0120somebody": 2853,
    "\u0120sal": 2854,
    "\u0120um": 2855,
    "\u0120pack": 2856,
    "\u0120orange": 2857,
    "!?!?": 2858,
    "\u0120understanding": 2859,
    "\u0120closer": 2860,
    "\u0120communicate": 2861,
    "\u0120tim": 2862,
    "\u0120kpop": 2863,
    "\u0120aint": 2864,
    "\u012024": 2865,
    "\u0120assa": 2866,
    "\u0120juice": 2867,
    "\u0120sho": 2868,
    "\u0120temp": 2869,
    "\u012050": 2870,
    "\u0120design": 2871,
    "ze": 2872,
    "\u0120property": 2873,
    "land": 2874,
    "\u0120warn": 2875,
    "\u0120sle": 2876,
    "\u0120mice": 2877,
    "oring": 2878,
    "ator": 2879,
    "\u0120chaos": 2880,
    "sex": 2881,
    "work": 2882,
    "\u0120avoid": 2883,
    "\u0120behind": 2884,
    "\u0120wooo": 2885,
    "\u0120alive": 2886,
    "\u0120drug": 2887,
    "cra": 2888,
    "\u0120waking": 2889,
    "\u0120sky": 2890,
    "bal": 2891,
    "\u0120tit": 2892,
    "fd": 2893,
    "\u0120link": 2894,
    "ade": 2895,
    "\u0120truth": 2896,
    "\u0120incredibly": 2897,
    "pro": 2898,
    "uc": 2899,
    "\u0120megan": 2900,
    "icken": 2901,
    "\u0120normally": 2902,
    "\u0120keeps": 2903,
    "arc": 2904,
    "\u0120eventually": 2905,
    "rd": 2906,
    "\u0120stopped": 2907,
    "\u0120america": 2908,
    "\u0120fast": 2909,
    "\u0120fear": 2910,
    "\u0120occ": 2911,
    "lfr": 2912,
    "\u0120band": 2913,
    "\u0120cringe": 2914,
    "22": 2915,
    "\u0120herself": 2916,
    "\u0120exist": 2917,
    "\u0120boom": 2918,
    "\u0120pressure": 2919,
    "mg": 2920,
    "pose": 2921,
    "\u0120fat": 2922,
    "itter": 2923,
    "\u0120specif": 2924,
    "\u0120electronic": 2925,
    "bl": 2926,
    "\u0120av": 2927,
    "\u0120thurs": 2928,
    "ggg": 2929,
    "aging": 2930,
    "\u0120fucks": 2931,
    "\u0120\u00e2": 2932,
    "\u0120ball": 2933,
    "\u0120confusing": 2934,
    "dio": 2935,
    "mes": 2936,
    "what": 2937,
    "\u0120lang": 2938,
    "\u0120force": 2939,
    "\u0120bott": 2940,
    "\u0120computers": 2941,
    "for": 2942,
    "\u0120beds": 2943,
    "\u0120alco": 2944,
    "\u0120hotel": 2945,
    "oh": 2946,
    "\u0120origin": 2947,
    "\u0120mach": 2948,
    "ipped": 2949,
    "verse": 2950,
    "lfriend": 2951,
    "cat": 2952,
    "\u0120wot": 2953,
    "\u0120log": 2954,
    "\u0120kore": 2955,
    "aaay": 2956,
    "ney": 2957,
    "\u0120relax": 2958,
    "usive": 2959,
    "\u0120cost": 2960,
    "\u0120distra": 2961,
    "\u0120stars": 2962,
    "\u0120term": 2963,
    "\u0120version": 2964,
    "\u0120cir": 2965,
    "\u0120mac": 2966,
    "face": 2967,
    "\u0120weeke": 2968,
    "\u0120ador": 2969,
    "lr": 2970,
    "\u0120nor": 2971,
    "leted": 2972,
    "\u0120matter": 2973,
    "\u0120rev": 2974,
    "raph": 2975,
    "\u0120seemed": 2976,
    "\u0120bene": 2977,
    "\u0120decent": 2978,
    "\u0120missing": 2979,
    "\u0120desk": 2980,
    "\u0120piper": 2981,
    "\u0120progra": 2982,
    "\u0120price": 2983,
    "\u0120deserve": 2984,
    "\u0120porn": 2985,
    "icked": 2986,
    "\u0120frust": 2987,
    "\u0120raccoon": 2988,
    "37": 2989,
    "ior": 2990,
    "\u0120hide": 2991,
    "\u0120urself": 2992,
    "\u0120eye": 2993,
    "\u0120&": 2994,
    "\u0120cy": 2995,
    "\u0120listens": 2996,
    "\u0120ident": 2997,
    "\u0120student": 2998,
    "\u0120fut": 2999,
    "\u0120fill": 3000,
    "ksk": 3001,
    "\u0120touches": 3002,
    "\u0120sleepy": 3003,
    "\u0120special": 3004,
    "usted": 3005,
    "\u0120harsh": 3006,
    "\u0120adv": 3007,
    "\u0120boys": 3008,
    "\u0120male": 3009,
    "\u0120langu": 3010,
    "\u0120alcohol": 3011,
    "\u0120mate": 3012,
    "\u0120stan": 3013,
    "rap": 3014,
    "\u0120expected": 3015,
    "ived": 3016,
    "\u0120werent": 3017,
    "\u0120ou": 3018,
    "\u0120cup": 3019,
    "\u0120badly": 3020,
    "\u0120decision": 3021,
    "\u0120including": 3022,
    "vous": 3023,
    "men": 3024,
    "\u0120across": 3025,
    "\u0120depressed": 3026,
    "gen": 3027,
    "\u0120town": 3028,
    "\u0120whenever": 3029,
    "\u0120streaming": 3030,
    "pital": 3031,
    "\u0120sake": 3032,
    "\u0120ep": 3033,
    "\u0120kevins": 3034,
    "\u0120steal": 3035,
    "\u0120cuddle": 3036,
    "ler": 3037,
    "\u0120ris": 3038,
    "col": 3039,
    "\u0120forward": 3040,
    "\u0120burn": 3041,
    "iant": 3042,
    "\u0120company": 3043,
    "\u0120shitty": 3044,
    "\u0120appoint": 3045,
    "\u0120girlfriend": 3046,
    "\u0120taste": 3047,
    "\u0120eight": 3048,
    "\u0120managed": 3049,
    "\u0120tes": 3050,
    "\u012023": 3051,
    "\u0120doctor": 3052,
    "\u0120#": 3053,
    "\u0120ave": 3054,
    "\u0120bb": 3055,
    "\u0120note": 3056,
    "\u0120analy": 3057,
    "\u0120enc": 3058,
    "\u0120reasons": 3059,
    "\u0120brighton": 3060,
    "dj": 3061,
    "oss": 3062,
    "tr": 3063,
    "\u0120drum": 3064,
    "la": 3065,
    "tre": 3066,
    "\u0120within": 3067,
    "\u0120request": 3068,
    "cription": 3069,
    "\u0120ways": 3070,
    "\u0120jud": 3071,
    "\u0120skills": 3072,
    "\u0120further": 3073,
    "28": 3074,
    "\u0120ahhh": 3075,
    "\u012017": 3076,
    "\u0120rules": 3077,
    "tence": 3078,
    "fc": 3079,
    "\u0120bill": 3080,
    "ars": 3081,
    "\u0120redd": 3082,
    "\u0120diag": 3083,
    "\u0120watched": 3084,
    "\u0120repeat": 3085,
    "\u0120son": 3086,
    "\u0120along": 3087,
    "\u0120bull": 3088,
    "\u0120grind": 3089,
    "\u0120photos": 3090,
    "\u0120oops": 3091,
    "\u0120behavi": 3092,
    "hael": 3093,
    "\u0120den": 3094,
    "\u0120therefore": 3095,
    "\u0120retur": 3096,
    "\u0120.": 3097,
    "\u0120cris": 3098,
    "\u0120roll": 3099,
    "\u0120park": 3100,
    "amp": 3101,
    "\u0120helpful": 3102,
    "\u0120dro": 3103,
    "\u0120medication": 3104,
    "\u0120british": 3105,
    "ume": 3106,
    "\u0120tty": 3107,
    "\u0120drag": 3108,
    "\u0120genre": 3109,
    "aths": 3110,
    "',": 3111,
    "\u0120jk": 3112,
    "\u0120ofc": 3113,
    "ality": 3114,
    "\u0120plans": 3115,
    "\u0120froggys": 3116,
    "\u0120difference": 3117,
    "11": 3118,
    "\u0120urs": 3119,
    "\u0120experien": 3120,
    "\u0120exciting": 3121,
    "\u0120mur": 3122,
    "\u0120poor": 3123,
    "\u0120illeg": 3124,
    "\u0120metal": 3125,
    "\u0120embarr": 3126,
    "\u0120absolutely": 3127,
    "lord": 3128,
    "sp": 3129,
    "ses": 3130,
    "\u0120youuu": 3131,
    "\u0120ohh": 3132,
    "\u0120michael": 3133,
    "\u0120specifically": 3134,
    "uce": 3135,
    "\u0120mild": 3136,
    "\u0120nood": 3137,
    "\u0120dep": 3138,
    "\u0120switch": 3139,
    "\u0120current": 3140,
    "ster": 3141,
    "itten": 3142,
    "\u0120hears": 3143,
    "\u0120lack": 3144,
    "\u0120learns": 3145,
    "\u0120\u00f0\u0141\u013a": 3146,
    "tain": 3147,
    "ye": 3148,
    "\u00c2\u00ac": 3149,
    "\u0120impress": 3150,
    "\u0120purpose": 3151,
    "\u0120hyper": 3152,
    "\u0120options": 3153,
    "\u0120places": 3154,
    "99": 3155,
    "\u0120appl": 3156,
    "\u0120future": 3157,
    "\u0120foot": 3158,
    "idence": 3159,
    "\u0120attem": 3160,
    "tedly": 3161,
    "\u0120tryna": 3162,
    "\u0120channel": 3163,
    "\u0120running": 3164,
    "\u0120lovelove": 3165,
    "\u0120exis": 3166,
    "\u0120info": 3167,
    "\u0120delive": 3168,
    "den": 3169,
    "ught": 3170,
    "wh": 3171,
    "\u0120billy": 3172,
    "\u0120save": 3173,
    "\u0120regard": 3174,
    "\u0120wro": 3175,
    "har": 3176,
    "pping": 3177,
    "\u0120equals": 3178,
    "\u0120died": 3179,
    "\u0120dirty": 3180,
    "\u0120rece": 3181,
    "\u0120knowing": 3182,
    "\u0120unable": 3183,
    "\u0120nervous": 3184,
    "\u0120barely": 3185,
    "\u0120hurts": 3186,
    "\u0120shops": 3187,
    "\u0120weekend": 3188,
    "aks": 3189,
    "\u0120ble": 3190,
    "\u0120sunday": 3191,
    "\u0120skin": 3192,
    "ton": 3193,
    "ppy": 3194,
    "\u0120aware": 3195,
    "\u0120gender": 3196,
    "\u00f3\u00be\u0128": 3197,
    "\u0120adorable": 3198,
    "\u0120tro": 3199,
    "\u0120tune": 3200,
    "idge": 3201,
    "\u0120ruin": 3202,
    "\u0120reddit": 3203,
    "\u0120\u00c3": 3204,
    "\u0120mc": 3205,
    "\u0120bum": 3206,
    "\u0120sorted": 3207,
    "\u0120mentioned": 3208,
    "\u0120surprised": 3209,
    "\u0120ttyl": 3210,
    "\u0120bang": 3211,
    "\u0120pet": 3212,
    "\u0120beat": 3213,
    "lp": 3214,
    "under": 3215,
    "\u0120constantly": 3216,
    "bing": 3217,
    "sed": 3218,
    "\u0120disg": 3219,
    "\u0120bedroom": 3220,
    "velop": 3221,
    "\u0120machine": 3222,
    "oned": 3223,
    "\u0120jess": 3224,
    "\u0120mov": 3225,
    "\u0120upd": 3226,
    "\u0120sched": 3227,
    "\u0120possibly": 3228,
    "\u0120refe": 3229,
    "ionally": 3230,
    "nate": 3231,
    "\u0120eats": 3232,
    "\u0120dads": 3233,
    "\u0120bottom": 3234,
    "\u0120mother": 3235,
    "\u0120lying": 3236,
    "\u0120load": 3237,
    "\u0120stat": 3238,
    "\u0120kk": 3239,
    "\u0120above": 3240,
    "\u0120moon": 3241,
    "crib": 3242,
    "\u0120wrote": 3243,
    "\u0120washing": 3244,
    "\u0120picks": 3245,
    "\u0120account": 3246,
    "\u0120assum": 3247,
    "\u0120land": 3248,
    "text": 3249,
    "\u0120chicken": 3250,
    "\u0120tax": 3251,
    "\u0120struggling": 3252,
    "\u0120tend": 3253,
    "\u0120penis": 3254,
    "\u0120jobs": 3255,
    "\u0120maths": 3256,
    "\u0120cross": 3257,
    "\u0120lay": 3258,
    "ulation": 3259,
    "gged": 3260,
    "\u0120bruh": 3261,
    "sha": 3262,
    "att": 3263,
    "vert": 3264,
    "\u0120delete": 3265,
    "list": 3266,
    "\u0120bow": 3267,
    "\u0120cake": 3268,
    "ution": 3269,
    "\u0120concer": 3270,
    "play": 3271,
    "\u0120directly": 3272,
    "27": 3273,
    "\u0120table": 3274,
    "\u0120quit": 3275,
    "\u0120\u00c2\u00ac": 3276,
    "umblr": 3277,
    "box": 3278,
    "\u0120obsess": 3279,
    "ao": 3280,
    "\u0120tues": 3281,
    "\u0120paying": 3282,
    "\u0120worries": 3283,
    "\u0120profess": 3284,
    "sor": 3285,
    "\u0120lu": 3286,
    "\u0120cond": 3287,
    "\u0120sadly": 3288,
    "\u0120double": 3289,
    "\u0120language": 3290,
    "\u0120\u00c2\u00ac\u00c2\u00ac": 3291,
    "pg": 3292,
    "\u0120dying": 3293,
    "\u0120hom": 3294,
    "\u0120honey": 3295,
    "alous": 3296,
    "\u0120banned": 3297,
    "bt": 3298,
    "\u0120mist": 3299,
    "ancy": 3300,
    "\u0120uuu": 3301,
    "\u0120heav": 3302,
    "\u0120stick": 3303,
    "\u0120sell": 3304,
    "\u0120everywhere": 3305,
    "\u0120drive": 3306,
    "\u0120holy": 3307,
    "\u0120interview": 3308,
    "\u0120copy": 3309,
    "\u0120apologise": 3310,
    "\u0120pokemon": 3311,
    "\u0120slept": 3312,
    "ndent": 3313,
    "\u0120sand": 3314,
    "\u012025": 3315,
    "\u0120serious": 3316,
    "\u0120yee": 3317,
    "\u0120spot": 3318,
    "\u0120fixed": 3319,
    "\u0120film": 3320,
    "ides": 3321,
    "\u0120cent": 3322,
    "\u0120pun": 3323,
    "\u0120gurl": 3324,
    "\u0120written": 3325,
    "\u0120embarass": 3326,
    "\u0120breat": 3327,
    "uses": 3328,
    "\u0120lose": 3329,
    "rage": 3330,
    "\u0120seven": 3331,
    "\u0120phones": 3332,
    "\u0120illegal": 3333,
    "chan": 3334,
    "lent": 3335,
    "\u0120chall": 3336,
    "\u0120rom": 3337,
    "\u0120neg": 3338,
    "dit": 3339,
    "\u0120trip": 3340,
    "ledge": 3341,
    "\u0120irl": 3342,
    "bi": 3343,
    "\u0120joy": 3344,
    "\u0120anim": 3345,
    "\u0120randomly": 3346,
    "\u0120emotions": 3347,
    "\u0120none": 3348,
    "\u0120letting": 3349,
    "ave": 3350,
    "aime": 3351,
    "ried": 3352,
    "\u0120jum": 3353,
    "\u0120summ": 3354,
    "\u0120jealous": 3355,
    "\u0120entirely": 3356,
    "\u0120trauma": 3357,
    "\u0120immediately": 3358,
    "\u0120uncomfortable": 3359,
    "mpt": 3360,
    "\u0120ate": 3361,
    "\u012040": 3362,
    "\u0120useful": 3363,
    "\u0120imposs": 3364,
    "\u0120benef": 3365,
    "\u0120sarc": 3366,
    "\u0120becom": 3367,
    "\u0120pics": 3368,
    "\u0120american": 3369,
    "nit": 3370,
    "rant": 3371,
    "\u0120wearing": 3372,
    "\u0120loser": 3373,
    "\u0120sce": 3374,
    "amine": 3375,
    "\u0120anywhere": 3376,
    "\u0120fish": 3377,
    "\u0120shame": 3378,
    "\u0120remix": 3379,
    "\u0120lowkey": 3380,
    "\u0120begin": 3381,
    "\u0120whyyy": 3382,
    "\u0120bae": 3383,
    "\u0120blo": 3384,
    "\u0120impro": 3385,
    "\u0120glass": 3386,
    "\u0120depression": 3387,
    "\u0120private": 3388,
    "\u0120impossible": 3389,
    "gpt": 3390,
    "\u0120stal": 3391,
    "\u0120aren": 3392,
    "ifying": 3393,
    "\u0120helped": 3394,
    "\u0120apply": 3395,
    "\u0120babies": 3396,
    "ograph": 3397,
    "ware": 3398,
    "\u0120excuse": 3399,
    "\u0120physical": 3400,
    "\u0120led": 3401,
    "\u0120jour": 3402,
    "usting": 3403,
    "\u0120univers": 3404,
    "\u0120:(((": 3405,
    "craft": 3406,
    "oun": 3407,
    "\u0120noice": 3408,
    "\u0120cutie": 3409,
    "gf": 3410,
    "\u0120scr": 3411,
    "\u0120final": 3412,
    "\u0120inde": 3413,
    "\u0120cope": 3414,
    "bin": 3415,
    "ya": 3416,
    "\u0120beep": 3417,
    "\u0120object": 3418,
    "\u0120eggs": 3419,
    "\u0120size": 3420,
    "\u0120succ": 3421,
    "male": 3422,
    "\u0120built": 3423,
    "\u0120jelly": 3424,
    "fo": 3425,
    "\u0120irr": 3426,
    "\u0120yeee": 3427,
    "\u0120nine": 3428,
    "\u0120ut": 3429,
    "\u0120image": 3430,
    "\u0120convo": 3431,
    "\u012022": 3432,
    "ures": 3433,
    "\u0120signific": 3434,
    "\u0120thursday": 3435,
    "nb": 3436,
    "time": 3437,
    "\u0120bound": 3438,
    "\u0120hadn": 3439,
    "\u0120appear": 3440,
    "\u0120tf": 3441,
    "\u0120anime": 3442,
    "\u0120shadow": 3443,
    "phone": 3444,
    "uff": 3445,
    "haps": 3446,
    "tems": 3447,
    "orted": 3448,
    "\u0120reach": 3449,
    "\u0120chips": 3450,
    "\u0120tracks": 3451,
    "\u0120aces": 3452,
    "\u0120humans": 3453,
    "\u0120gran": 3454,
    "iculous": 3455,
    "ram": 3456,
    "\u0120assist": 3457,
    "\u0120stressful": 3458,
    "\u0120figured": 3459,
    "\u0120visit": 3460,
    "fw": 3461,
    "oin": 3462,
    "\u0120search": 3463,
    "ults": 3464,
    "\u0120cleaning": 3465,
    "\u0120quickly": 3466,
    "cher": 3467,
    "\u0120bon": 3468,
    "ref": 3469,
    "tered": 3470,
    "\u0120gar": 3471,
    "\u0120children": 3472,
    "\u0120pill": 3473,
    "\u0120liter": 3474,
    "ctions": 3475,
    "..?": 3476,
    "\u0120ends": 3477,
    "\u0120perform": 3478,
    "\u0120depends": 3479,
    "\u0120sou": 3480,
    "usion": 3481,
    "\u0120rice": 3482,
    "\u0120deleted": 3483,
    "ulance": 3484,
    "\u0120team": 3485,
    "\u0120keyboard": 3486,
    "\u0120embarrass": 3487,
    "ration": 3488,
    "\u0120ded": 3489,
    "\u0120stab": 3490,
    "ification": 3491,
    "\u0120kay": 3492,
    "\u0120shouting": 3493,
    "vices": 3494,
    "\u0120ahh": 3495,
    "\u0120yeh": 3496,
    "\u0120drama": 3497,
    "\u0120rac": 3498,
    "\u0120danger": 3499,
    "\u0120hiding": 3500,
    "\u0120laughing": 3501,
    "pre": 3502,
    "\u0120\u00f3\u00be": 3503,
    "\u0120thre": 3504,
    "\u0120voc": 3505,
    "vant": 3506,
    "\u0120page": 3507,
    "\u0120push": 3508,
    "ased": 3509,
    "\u0120abuse": 3510,
    "\u0120abusive": 3511,
    "urt": 3512,
    "\u0120fancy": 3513,
    "\u0120suis": 3514,
    "\u0120exha": 3515,
    "\u0120comfortable": 3516,
    "\u0120tex": 3517,
    "\u0120ens": 3518,
    "\u0120chin": 3519,
    "\u0120horny": 3520,
    "\u0120mode": 3521,
    "idered": 3522,
    "dding": 3523,
    "\u0120joking": 3524,
    "\u0120twitter": 3525,
    "shit": 3526,
    "\u0120staying": 3527,
    "\u0120instru": 3528,
    "\u0120bee": 3529,
    "\u0120hos": 3530,
    "\u0120init": 3531,
    "\u0120chance": 3532,
    "iding": 3533,
    "\u0120usual": 3534,
    "\u0120waaa": 3535,
    "\u0120allows": 3536,
    "mission": 3537,
    "60": 3538,
    "ral": 3539,
    "\u0120pus": 3540,
    "\u0120cheap": 3541,
    "\u0120woods": 3542,
    "\u0120country": 3543,
    "\u0120smell": 3544,
    "\u0120ridiculous": 3545,
    "\u0120recogn": 3546,
    "aff": 3547,
    "ged": 3548,
    "\u0120agre": 3549,
    "\u0120seconds": 3550,
    "ipping": 3551,
    "\u0120owo": 3552,
    "\u0120icon": 3553,
    "\u0120mom": 3554,
    "\u0120bigg": 3555,
    "\u0120toi": 3556,
    "\u0120imo": 3557,
    "\u0120fuc": 3558,
    "\u0120bother": 3559,
    "\u0120perhaps": 3560,
    "\u0120lives": 3561,
    "\u0120mistake": 3562,
    "\u0120mer": 3563,
    "\u0120wedn": 3564,
    "\u0120rhy": 3565,
    "\u0120breaks": 3566,
    "\u0120>.": 3567,
    "\u0120bathroom": 3568,
    "\u0120appointment": 3569,
    "\u0120wednes": 3570,
    "du": 3571,
    "unate": 3572,
    "\u0120mut": 3573,
    "\u0120fra": 3574,
    "bered": 3575,
    "\u0120flight": 3576,
    "\u0120apart": 3577,
    "berry": 3578,
    "\u0120silent": 3579,
    "\u0120character": 3580,
    "\u0120irrit": 3581,
    "\u0120feed": 3582,
    "\u0120lead": 3583,
    "\u0120artic": 3584,
    "\u0120videos": 3585,
    "!',": 3586,
    "\u0120oppos": 3587,
    "now": 3588,
    "here": 3589,
    "\u0120meee": 3590,
    "\u0120naked": 3591,
    "ato": 3592,
    "\u0120wank": 3593,
    "\u0120brb": 3594,
    "\u0120suggesting": 3595,
    "dis": 3596,
    "ource": 3597,
    "\u0120poin": 3598,
    "dered": 3599,
    "\u0120interest": 3600,
    "\u0120obvious": 3601,
    "\u0120wondering": 3602,
    "48": 3603,
    "fet": 3604,
    "just": 3605,
    "\u0120yaaay": 3606,
    "\u0120itself": 3607,
    "\u0120context": 3608,
    "\u0120enter": 3609,
    "\u0120tough": 3610,
    "\u0120appropriate": 3611,
    "\u0120chatgpt": 3612,
    "\u0120experiment": 3613,
    "\u0120silence": 3614,
    "\u0120vagina": 3615,
    "38": 3616,
    "hha": 3617,
    "\u0120stic": 3618,
    "\u0120choo": 3619,
    "\u0120max": 3620,
    "29": 3621,
    "\u0120peen": 3622,
    "\u0120cance": 3623,
    "\u0120pretend": 3624,
    "\u0120bethan": 3625,
    "ighten": 3626,
    "quen": 3627,
    "\u0120mixed": 3628,
    "\u0120ears": 3629,
    "fortunate": 3630,
    "\u0120bank": 3631,
    "yes": 3632,
    "\u0120butts": 3633,
    "\u0120spook": 3634,
    "\u0120paper": 3635,
    "\u0120showing": 3636,
    "\u0120simple": 3637,
    "\u0120marry": 3638,
    "\u0120grand": 3639,
    "\u0120verbal": 3640,
    "\u0120public": 3641,
    "pes": 3642,
    "\u0120ange": 3643,
    "\u0120shouldn": 3644,
    "\u0120deg": 3645,
    "\u0120grim": 3646,
    "kj": 3647,
    "\u0120sus": 3648,
    "\u0120names": 3649,
    "\u0120shy": 3650,
    "\u0120shirt": 3651,
    "\u0120lege": 3652,
    "iling": 3653,
    "\u0120offended": 3654,
    "\u0120spooky": 3655,
    "vid": 3656,
    "||": 3657,
    "ister": 3658,
    "\u0120comfy": 3659,
    "\u0120adam": 3660,
    "\u0120function": 3661,
    "\u0120teach": 3662,
    "gl": 3663,
    "ging": 3664,
    "rics": 3665,
    "\u0120trigger": 3666,
    "\u0120travel": 3667,
    "\u0120minecraft": 3668,
    "\u0120essent": 3669,
    "\u0120schedule": 3670,
    "ified": 3671,
    "\u0120calls": 3672,
    "ires": 3673,
    "ivity": 3674,
    "\u0120considered": 3675,
    "\u0120tickets": 3676,
    "\u0120holiday": 3677,
    "47": 3678,
    "form": 3679,
    "\u0120agg": 3680,
    "icky": 3681,
    "\u0120remem": 3682,
    "\u0120added": 3683,
    "\u0120situations": 3684,
    "\u0120original": 3685,
    "\u0120inten": 3686,
    "\u0120unfortunate": 3687,
    "\u0120coll": 3688,
    "\u0120draws": 3689,
    "\u0120breaking": 3690,
    "35": 3691,
    "46": 3692,
    "\u0120regret": 3693,
    "\u0120tasks": 3694,
    "\u0120indepe": 3695,
    "\u0120pure": 3696,
    "cting": 3697,
    "\u0120vio": 3698,
    "\u0120trash": 3699,
    "\u0120joh": 3700,
    "\u0120**": 3701,
    "\u0120insane": 3702,
    "\u0120assume": 3703,
    "\u0120edit": 3704,
    "uino": 3705,
    "\u0120literal": 3706,
    "va": 3707,
    "\u0120au": 3708,
    "\u0120dry": 3709,
    "\u0120exa": 3710,
    "\u0120>.<": 3711,
    "vere": 3712,
    "\u0120pin": 3713,
    "ery": 3714,
    "\u0120omggg": 3715,
    "\u0120talked": 3716,
    "ploy": 3717,
    "\u0120older": 3718,
    "\u0120epis": 3719,
    "\u0120opposite": 3720,
    "\u0120jimin": 3721,
    "aaa": 3722,
    "\u0120harder": 3723,
    "\u0120christ": 3724,
    "\u0120technology": 3725,
    "well": 3726,
    "\u0120assault": 3727,
    "\u0120diagn": 3728,
    "ges": 3729,
    "iest": 3730,
    "that": 3731,
    "\u0120tatt": 3732,
    "\u0120veux": 3733,
    "\u0120cla": 3734,
    "\u0120explained": 3735,
    "\u0120overwhelmed": 3736,
    "ium": 3737,
    "\u0120lock": 3738,
    "\u0120prog": 3739,
    "\u0120advent": 3740,
    "\u0120data": 3741,
    "\u0120remembered": 3742,
    "tery": 3743,
    "ley": 3744,
    "\u0120suit": 3745,
    "\u0120caused": 3746,
    "\u0120frog": 3747,
    "\u0120freaking": 3748,
    "\u0120promise": 3749,
    "\u0120mew": 3750,
    "\u0120storm": 3751,
    "\u0120convin": 3752,
    "\u0120hist": 3753,
    "\u0120shall": 3754,
    "\u0120setting": 3755,
    "\u0120negative": 3756,
    "\u0120chinese": 3757,
    "aries": 3758,
    "\u0120jam": 3759,
    "\u0120offic": 3760,
    "\u0120solid": 3761,
    "\u0120movie": 3762,
    "\u0120alex": 3763,
    "utm": 3764,
    "atic": 3765,
    "\u0120stor": 3766,
    "\u0120manip": 3767,
    "\u0120sharing": 3768,
    "\u0120counse": 3769,
    "ull": 3770,
    "\u0120cum": 3771,
    "ona": 3772,
    "ances": 3773,
    "\u0120meat": 3774,
    "\u0120ability": 3775,
    "cious": 3776,
    "\u0120ground": 3777,
    "\u012090": 3778,
    "\u012080": 3779,
    "\u0120include": 3780,
    "\u0120slowly": 3781,
    "\u0120unfortunately": 3782,
    "\u0120net": 3783,
    "\u0120hous": 3784,
    "let": 3785,
    "though": 3786,
    "\u0120ranting": 3787,
    "bby": 3788,
    "\u0120tha": 3789,
    "\u0120dare": 3790,
    "\u0120charge": 3791,
    "\u0120provide": 3792,
    "\u0120delivery": 3793,
    "mptom": 3794,
    "\u0120tattoo": 3795,
    "\u0120dom": 3796,
    "ows": 3797,
    "\u0120jfc": 3798,
    "\u0120sauce": 3799,
    "\u0120idfk": 3800,
    "\u0120develop": 3801,
    "\u0120ignoring": 3802,
    "aming": 3803,
    "\u0120showed": 3804,
    "phones": 3805,
    "\u0120progress": 3806,
    "bed": 3807,
    "\u0120cunt": 3808,
    "\u0120common": 3809,
    "\u0120physically": 3810,
    "\u0120hospital": 3811,
    "\u0120tid": 3812,
    "\u0120catch": 3813,
    "\u0120lights": 3814,
    "\u0120prescription": 3815,
    "\u0120building": 3816,
    "of": 3817,
    "\u00c3\u00a8": 3818,
    "ingly": 3819,
    "asm": 3820,
    "\u0120shou": 3821,
    "\u0120blame": 3822,
    "\u0120click": 3823,
    "\u0120mais": 3824,
    "\u0120topic": 3825,
    "\u0120replying": 3826,
    "\u0120following": 3827,
    "\u0120replied": 3828,
    "\u0120ambulance": 3829,
    "\u0120judge": 3830,
    "fety": 3831,
    "\u0120uhhh": 3832,
    "ural": 3833,
    "\u0120sounded": 3834,
    "\u0120boat": 3835,
    "\u0120adult": 3836,
    "\u0120news": 3837,
    "\u0120changing": 3838,
    "57": 3839,
    "\u0120melt": 3840,
    "aling": 3841,
    "ables": 3842,
    "\u0120hoping": 3843,
    "\u0120downstairs": 3844,
    "\u0120understood": 3845,
    "\u0120enjoying": 3846,
    "iction": 3847,
    "\u0120lyrics": 3848,
    "\u0120attempt": 3849,
    "\u0120tuesday": 3850,
    "\u0120aggress": 3851,
    "\u0120nhs": 3852,
    "\u0120research": 3853,
    "\u0120var": 3854,
    "\u0120extre": 3855,
    "\u0120aaagh": 3856,
    "\u0120university": 3857,
    "cil": 3858,
    "kes": 3859,
    "\u0120meth": 3860,
    "sss": 3861,
    "\u0120env": 3862,
    "\u0120medical": 3863,
    "\u0120sandw": 3864,
    "\u0120wednesday": 3865,
    "\u0120cult": 3866,
    "\u0120bear": 3867,
    "\u0120dose": 3868,
    "\u0120void": 3869,
    "\u0120prior": 3870,
    "\u0120audio": 3871,
    "underst": 3872,
    "sc": 3873,
    "\u0120san": 3874,
    "\u0120mr": 3875,
    "ano": 3876,
    "\u0120kicked": 3877,
    "\u0120acting": 3878,
    "\u0120symptom": 3879,
    "\u0120vocals": 3880,
    "36": 3881,
    "gb": 3882,
    "agrant": 3883,
    "\u0120boob": 3884,
    "\u0120service": 3885,
    "\u0120married": 3886,
    "\u0120challeng": 3887,
    "uro": 3888,
    "\u0120wet": 3889,
    "rated": 3890,
    "\u0120club": 3891,
    "\u0120reasonable": 3892,
    "\u0120ice": 3893,
    "\u0120nat": 3894,
    "\u0120punch": 3895,
    "icy": 3896,
    "gent": 3897,
    "\u0120lmaoo": 3898,
    "\u0120clar": 3899,
    "\u0120services": 3900,
    "\u0120posted": 3901,
    "\u0120effects": 3902,
    "39": 3903,
    "\u0120toys": 3904,
    "\u0120js": 3905,
    "\u0120king": 3906,
    "\u0120knowledge": 3907,
    "\u0120sorta": 3908,
    "ational": 3909,
    "\u0120prin": 3910,
    "\u0120refer": 3911,
    "\u0120evil": 3912,
    "ette": 3913,
    "\u0120female": 3914,
    "\u0120present": 3915,
    "osis": 3916,
    "ibility": 3917,
    "ships": 3918,
    "\u0120visual": 3919,
    "\u0120hanging": 3920,
    "\u0120argument": 3921,
    "di": 3922,
    "\u0120attra": 3923,
    "\u0120rout": 3924,
    "\u0120safety": 3925,
    "\u0120permission": 3926,
    "\u0120related": 3927,
    "\u0120simp": 3928,
    "ahaha": 3929,
    "ians": 3930,
    "jpg": 3931,
    "\u0120mouth": 3932,
    "\u0120uhh": 3933,
    "icks": 3934,
    "ield": 3935,
    "\u0120idc": 3936,
    "\u0120veget": 3937,
    "\u0120shows": 3938,
    "\u0120born": 3939,
    "\u0120training": 3940,
    "\u0120chocol": 3941,
    "\u0120mildly": 3942,
    "llo": 3943,
    "\u0120hilar": 3944,
    "\u0120causing": 3945,
    "\u0120trou": 3946,
    "\u0120unfair": 3947,
    "\u0120easily": 3948,
    "\u0120tenant": 3949,
    "\u0120module": 3950,
    "iry": 3951,
    "isting": 3952,
    "\u0120wedding": 3953,
    "\u0120ang": 3954,
    "\u0120business": 3955,
    "\u0120pink": 3956,
    "raid": 3957,
    "\u0120neigh": 3958,
    "\u0120unlike": 3959,
    "\u0120prev": 3960,
    "\u0120legs": 3961,
    "\u0120customer": 3962,
    "\u0120revision": 3963,
    "\u0120tor": 3964,
    "ony": 3965,
    "\u0120intera": 3966,
    "name": 3967,
    "\u0120playlist": 3968,
    "\u0120goddam": 3969,
    "\u0120explaining": 3970,
    "\u0120shouted": 3971,
    "ots": 3972,
    "\u0120volu": 3973,
    "\u0120terms": 3974,
    "\u0120cookies": 3975,
    "\u0120example": 3976,
    "\u0120details": 3977,
    "\u0120murder": 3978,
    "\u0120si": 3979,
    "\u0120lecture": 3980,
    "ggy": 3981,
    "\u0120:))": 3982,
    "\u0120boss": 3983,
    "els": 3984,
    "\u0120respond": 3985,
    "\u0120holding": 3986,
    "\u0120disgusting": 3987,
    "08": 3988,
    "oom": 3989,
    "\u0120il": 3990,
    "\u0120ginger": 3991,
    "\u0120notes": 3992,
    "\u0120station": 3993,
    "\u0120feet": 3994,
    "\u0120reality": 3995,
    "\u0120parts": 3996,
    "\u0120reaction": 3997,
    "\u0120hat": 3998,
    "\u0120meal": 3999,
    "\u0120jus": 4000,
    "ima": 4001,
    "\u0120marks": 4002,
    "\u0120windows": 4003,
    "hetic": 4004,
    "\u0120terrible": 4005,
    "\u0120behaviour": 4006,
    "\u0120neighb": 4007,
    "isions": 4008,
    "ayay": 4009,
    "\u0120ordered": 4010,
    "fff": 4011,
    "estyle": 4012,
    "49": 4013,
    "hop": 4014,
    "ank": 4015,
    "\u0120potent": 4016,
    "\u0120role": 4017,
    "\u0120harrow": 4018,
    "\u0120bethany": 4019,
    "\u0120independent": 4020,
    "cket": 4021,
    "vered": 4022,
    "\u0120nick": 4023,
    "omg": 4024,
    "\u0120moi": 4025,
    "this": 4026,
    "\u0120oml": 4027,
    "iber": 4028,
    "\u0120phr": 4029,
    "\u0120chairs": 4030,
    "\u0120misunderst": 4031,
    "\u0120recording": 4032,
    "\u0120unsure": 4033,
    "\u0120empty": 4034,
    "\u0120base": 4035,
    "\u0120cod": 4036,
    "\u0120whis": 4037,
    "\u0120rush": 4038,
    "ives": 4039,
    "\u0120buying": 4040,
    "igned": 4041,
    "\u0120starts": 4042,
    "\u0120repea": 4043,
    "\u0120imagin": 4044,
    "\u0120application": 4045,
    "cs": 4046,
    "\u0120dating": 4047,
    "ids": 4048,
    "\u0120separ": 4049,
    "\u0120study": 4050,
    "\u0120blind": 4051,
    "\u0120adding": 4052,
    "!'!": 4053,
    "\u0120magic": 4054,
    "sorry": 4055,
    "\u0120sea": 4056,
    "\u0120hoo": 4057,
    "\u0120hig": 4058,
    "\u0120kno": 4059,
    "ummy": 4060,
    "bebe": 4061,
    "\u0120everyones": 4062,
    "lock": 4063,
    "\u0120history": 4064,
    "\u0120chocolate": 4065,
    "\u0120dig": 4066,
    "illed": 4067,
    "\u0120anger": 4068,
    "\u0120ru": 4069,
    "\u0120bahaha": 4070,
    "\u0120nap": 4071,
    "cco": 4072,
    "\u0120shopping": 4073,
    "\u0120sksksksksksks": 4074,
    "fairfairfairfair": 4075,
    "\u0120involved": 4076,
    "\u0120degree": 4077,
    "58": 4078,
    "67": 4079,
    "su": 4080,
    "sing": 4081,
    "\u0120wut": 4082,
    "\u0120bes": 4083,
    "\u0120tooo": 4084,
    "onon": 4085,
    "test": 4086,
    "\u0120itll": 4087,
    "\u0120area": 4088,
    "ilities": 4089,
    "\u012021": 4090,
    "ussy": 4091,
    ".]": 4092,
    "^^": 4093,
    "can": 4094,
    "gir": 4095,
    "rating": 4096,
    "\u0120cas": 4097,
    "\u0120cream": 4098,
    "\u0120store": 4099,
    "\u0120forced": 4100,
    "\u0120scam": 4101,
    "\u0120advert": 4102,
    "\u0120skull": 4103,
    "\u0120hehehe": 4104,
    "\u0120certainly": 4105,
    "\u0120potato": 4106,
    "\u0120memory": 4107,
    "\u0120scene": 4108,
    "\u0120hilarious": 4109,
    "\u0120reee": 4110,
    "\u0120kink": 4111,
    "iron": 4112,
    "\u0120pregn": 4113,
    "\u0120nahhh": 4114,
    "\u0120afraid": 4115,
    "\u0120hole": 4116,
    "\u0120sentence": 4117,
    "\u0120midnight": 4118,
    "\u0120distracted": 4119,
    "bum": 4120,
    "\u0120@": 4121,
    "\u0120er": 4122,
    "\u0120ug": 4123,
    "\u0120jul": 4124,
    "\u0120homeless": 4125,
    "\u0120swee": 4126,
    "\u0120dragon": 4127,
    "\u0120status": 4128,
    "cord": 4129,
    "cape": 4130,
    "\u0120radio": 4131,
    "\u0120positive": 4132,
    "\u0120occas": 4133,
    "\u0120return": 4134,
    "\u0120article": 4135,
    "\u0120legend": 4136,
    "\u0120extreme": 4137,
    "dk": 4138,
    "\u0120ks": 4139,
    "antic": 4140,
    "ils": 4141,
    "\u0120proof": 4142,
    "boom": 4143,
    "\u0120bringing": 4144,
    "\u0120spamming": 4145,
    "\u0120acceptable": 4146,
    "back": 4147,
    "\u0120ns": 4148,
    "\u0120heat": 4149,
    "\u0120mega": 4150,
    "\u0120keys": 4151,
    "\u012028": 4152,
    "\u0120basic": 4153,
    "\u0120pointless": 4154,
    "\u0120colours": 4155,
    "\u0120struggle": 4156,
    "\u0120street": 4157,
    "\u0120bullshit": 4158,
    "very": 4159,
    "ana": 4160,
    "rose": 4161,
    "\u0120prop": 4162,
    "\u0120failed": 4163,
    "\u0120complic": 4164,
    "\u0120background": 4165,
    "\u0120personally": 4166,
    "dr": 4167,
    "hm": 4168,
    "sr": 4169,
    "\u0120mal": 4170,
    "rest": 4171,
    "\u0120dy": 4172,
    "\u0120eaten": 4173,
    "\u0120staff": 4174,
    "\u0120upstairs": 4175,
    "\u0120sav": 4176,
    "\u0120happiness": 4177,
    "\u0120coff": 4178,
    "\u0120dire": 4179,
    "\u0120checking": 4180,
    "\u0120decisions": 4181,
    "\u0120levels": 4182,
    "68": 4183,
    "\u0120ton": 4184,
    "\u0120consent": 4185,
    "ized": 4186,
    "\u0120auto": 4187,
    "\u0120photograph": 4188,
    "orrect": 4189,
    "cts": 4190,
    "\u0120coca": 4191,
    "\u0120flow": 4192,
    "59": 4193,
    "\u0120ee": 4194,
    "\u0120speed": 4195,
    "nored": 4196,
    "charis": 4197,
    "fun": 4198,
    "lit": 4199
}