{
    "0": "<UNK>",
    "1": "!",
    "2": "\"",
    "3": "#",
    "4": "$",
    "5": "%",
    "6": "&",
    "7": "'",
    "8": "(",
    "9": ")",
    "10": "*",
    "11": "+",
    "12": ",",
    "13": "-",
    "14": ".",
    "15": "/",
    "16": "0",
    "17": "1",
    "18": "2",
    "19": "3",
    "20": "4",
    "21": "5",
    "22": "6",
    "23": "7",
    "24": "8",
    "25": "9",
    "26": ":",
    "27": ";",
    "28": "<",
    "29": "=",
    "30": ">",
    "31": "?",
    "32": "@",
    "33": "[",
    "34": "\\",
    "35": "]",
    "36": "^",
    "37": "_",
    "38": "`",
    "39": "a",
    "40": "b",
    "41": "c",
    "42": "d",
    "43": "e",
    "44": "f",
    "45": "g",
    "46": "h",
    "47": "i",
    "48": "j",
    "49": "k",
    "50": "l",
    "51": "m",
    "52": "n",
    "53": "o",
    "54": "p",
    "55": "q",
    "56": "r",
    "57": "s",
    "58": "t",
    "59": "u",
    "60": "v",
    "61": "w",
    "62": "x",
    "63": "y",
    "64": "z",
    "65": "{",
    "66": "|",
    "67": "}",
    "68": "~",
    "69": "\u00a1",
    "70": "\u00a2",
    "71": "\u00a3",
    "72": "\u00a4",
    "73": "\u00a5",
    "74": "\u00a6",
    "75": "\u00a7",
    "76": "\u00a8",
    "77": "\u00a9",
    "78": "\u00aa",
    "79": "\u00ab",
    "80": "\u00ac",
    "81": "\u00ae",
    "82": "\u00af",
    "83": "\u00b0",
    "84": "\u00b1",
    "85": "\u00b2",
    "86": "\u00b3",
    "87": "\u00b4",
    "88": "\u00b5",
    "89": "\u00b6",
    "90": "\u00b7",
    "91": "\u00b8",
    "92": "\u00b9",
    "93": "\u00ba",
    "94": "\u00bb",
    "95": "\u00bc",
    "96": "\u00bd",
    "97": "\u00be",
    "98": "\u00bf",
    "99": "\u00c2",
    "100": "\u00c3",
    "101": "\u00c4",
    "102": "\u00c5",
    "103": "\u00c6",
    "104": "\u00c7",
    "105": "\u00c9",
    "106": "\u00ca",
    "107": "\u00cb",
    "108": "\u00cc",
    "109": "\u00ce",
    "110": "\u00cf",
    "111": "\u00d0",
    "112": "\u00d1",
    "113": "\u00d4",
    "114": "\u00d7",
    "115": "\u00d8",
    "116": "\u00d9",
    "117": "\u00e0",
    "118": "\u00e1",
    "119": "\u00e2",
    "120": "\u00e3",
    "121": "\u00e5",
    "122": "\u00e6",
    "123": "\u00e8",
    "124": "\u00e9",
    "125": "\u00ea",
    "126": "\u00eb",
    "127": "\u00ec",
    "128": "\u00ed",
    "129": "\u00ef",
    "130": "\u00f0",
    "131": "\u00f3",
    "132": "\u010a",
    "133": "\u0120",
    "134": "\u0122",
    "135": "\u0123",
    "136": "\u0124",
    "137": "\u0125",
    "138": "\u0126",
    "139": "\u0127",
    "140": "\u0128",
    "141": "\u0129",
    "142": "\u012a",
    "143": "\u012b",
    "144": "\u012c",
    "145": "\u012d",
    "146": "\u012e",
    "147": "\u012f",
    "148": "\u0130",
    "149": "\u0131",
    "150": "\u0132",
    "151": "\u0133",
    "152": "\u0134",
    "153": "\u0135",
    "154": "\u0136",
    "155": "\u0137",
    "156": "\u0138",
    "157": "\u0139",
    "158": "\u013a",
    "159": "\u013b",
    "160": "\u013c",
    "161": "\u013d",
    "162": "\u013e",
    "163": "\u013f",
    "164": "\u0140",
    "165": "\u0141",
    "166": "\u0142",
    "167": "\u0143",
    "168": "\u0120t",
    "169": "\u0120i",
    "170": "\u0120a",
    "171": "\u0120w",
    "172": "in",
    "173": "he",
    "174": "\u0120s",
    "175": "ou",
    "176": "ha",
    "177": "\u0120m",
    "178": "\u0120b",
    "179": "ing",
    "180": "re",
    "181": "\u0120c",
    "182": "\u0120l",
    "183": "\u0120the",
    "184": "\u0120d",
    "185": "\u0120o",
    "186": "\u0120y",
    "187": "\u0120f",
    "188": "nd",
    "189": "ve",
    "190": "\u0120to",
    "191": "ll",
    "192": "is",
    "193": "\u0120you",
    "194": "\u0120n",
    "195": "ee",
    "196": "\u0120p",
    "197": "on",
    "198": "te",
    "199": "an",
    "200": "\u0120e",
    "201": "\u0120ha",
    "202": "or",
    "203": "\u0120g",
    "204": "\u0120it",
    "205": "\u0120and",
    "206": "ke",
    "207": "us",
    "208": "hat",
    "209": "es",
    "210": "\u0120u",
    "211": "as",
    "212": "it",
    "213": "\u0120he",
    "214": "\u0120h",
    "215": "\u0120me",
    "216": "\u0120no",
    "217": "ic",
    "218": "om",
    "219": "\u0120th",
    "220": "\u0120be",
    "221": "ut",
    "222": "ay",
    "223": "oo",
    "224": "ar",
    "225": "\u0120in",
    "226": "er",
    "227": "\u0120that",
    "228": "\u0120is",
    "229": "ld",
    "230": "\u0120but",
    "231": "\u0120do",
    "232": "le",
    "233": "\u0120we",
    "234": "ie",
    "235": "nt",
    "236": "\u0120my",
    "237": "\u0120li",
    "238": "ow",
    "239": "at",
    "240": "\u0120j",
    "241": "ly",
    "242": "\u0120of",
    "243": "ould",
    "244": "ill",
    "245": "\u0120re",
    "246": "ust",
    "247": "\u0120cha",
    "248": "\u0120on",
    "249": "id",
    "250": "gh",
    "251": "od",
    "252": "ed",
    "253": "et",
    "254": "\u0120was",
    "255": "\u0120have",
    "256": "ris",
    "257": "\u0120lo",
    "258": "al",
    "259": "\u0120st",
    "260": "ra",
    "261": "\u0120wh",
    "262": "\u0120charis",
    "263": "\u0120for",
    "264": "\u0120k",
    "265": "\u0120like",
    "266": "\u0120im",
    "267": "king",
    "268": "\u0120not",
    "269": "een",
    "270": "out",
    "271": "\u0120so",
    "272": "me",
    "273": "all",
    "274": "ro",
    "275": "eed",
    "276": "\u0120will",
    "277": "\u0120el",
    "278": "ry",
    "279": "ant",
    "280": "\u0120an",
    "281": "ir",
    "282": "\u0120just",
    "283": "ch",
    "284": "ad",
    "285": "\u0120been",
    "286": "\u0120elod",
    "287": "\u0120they",
    "288": "\u0120elodie",
    "289": "\u0120what",
    "290": "se",
    "291": "'s",
    "292": "\u0120sh",
    "293": "ea",
    "294": "\u0120she",
    "295": "ght",
    "296": "\u0120at",
    "297": "ally",
    "298": "ck",
    "299": "ce",
    "300": "\u0120can",
    "301": "\u0120this",
    "302": "\u0120fr",
    "303": "ion",
    "304": "ome",
    "305": "ct",
    "306": "\u0120are",
    "307": "ter",
    "308": "ith",
    "309": "ot",
    "310": "\u0120with",
    "311": "\u0120ke",
    "312": "\u0120why",
    "313": "\u0120:",
    "314": "vin",
    "315": "\u0120don",
    "316": "use",
    "317": "\u0120ab",
    "318": "st",
    "319": "\u0120mo",
    "320": "\u0120kevin",
    "321": "\u0120as",
    "322": "\u0120eve",
    "323": "op",
    "324": "ake",
    "325": "\u0120its",
    "326": "\u0120al",
    "327": "\u0120r",
    "328": "\u0120want",
    "329": "\u0120up",
    "330": "\u0120v",
    "331": "\u0120su",
    "332": "ink",
    "333": "..",
    "334": "\u0120your",
    "335": "\u0120ca",
    "336": "ten",
    "337": "\u0120wor",
    "338": "ight",
    "339": "pp",
    "340": "ver",
    "341": "im",
    "342": "\u0120if",
    "343": "\u0120kn",
    "344": "\u0120about",
    "345": "'t",
    "346": "en",
    "347": "\u0120love",
    "348": "ice",
    "349": "\u0120need",
    "350": "\u0120get",
    "351": "ood",
    "352": "ge",
    "353": "\u0120from",
    "354": "\u0120her",
    "355": "our",
    "356": "\u0120whe",
    "357": "\u0120would",
    "358": "\u0120had",
    "359": "\u0120know",
    "360": "am",
    "361": "\u0120or",
    "362": "ab",
    "363": "\u0120lis",
    "364": "ted",
    "365": "\u0120loo",
    "366": "\u0120fee",
    "367": "\u0120listen",
    "368": "ess",
    "369": "\u0120fu",
    "370": "\u0120sa",
    "371": "\u0120le",
    "372": "\u0120could",
    "373": "\u0120go",
    "374": "\u0120weed",
    "375": "\u0120feel",
    "376": "ks",
    "377": "\u0120should",
    "378": "\u0120am",
    "379": "\u0120did",
    "380": "one",
    "381": "\u0120all",
    "382": "ur",
    "383": "\u0120pl",
    "384": "\u0120id",
    "385": "ind",
    "386": "her",
    "387": "\u0120ex",
    "388": "th",
    "389": "\u0120de",
    "390": "\u0120now",
    "391": "na",
    "392": "\u0120see",
    "393": "'m",
    "394": "ca",
    "395": "ive",
    "396": "ving",
    "397": "\u0120se",
    "398": "\u0120were",
    "399": "\u0120pro",
    "400": "\u0120think",
    "401": "\u0120x",
    "402": "ff",
    "403": "\u0120butt",
    "404": "\u0120dont",
    "405": "\u0120how",
    "406": "\u0120hate",
    "407": "\u0120when",
    "408": "\u0120ne",
    "409": "red",
    "410": "\u0120ok",
    "411": "\u0120some",
    "412": "\u0120out",
    "413": "\u0120lol",
    "414": "\u0120oh",
    "415": "um",
    "416": "\u0120any",
    "417": "eah",
    "418": "\u0120too",
    "419": "\u0120com",
    "420": "\u0120yeah",
    "421": "ound",
    "422": "\u0120sm",
    "423": "\u0120mus",
    "424": "ss",
    "425": "il",
    "426": "\u0120sp",
    "427": "ul",
    "428": "ain",
    "429": "\u0120'",
    "430": "\u0120really",
    "431": "\u0120even",
    "432": "\u0120music",
    "433": "'re",
    "434": "un",
    "435": "\u0120con",
    "436": "\u01201",
    "437": "\u0120pe",
    "438": "\u0120om",
    "439": "\u0120thing",
    "440": "eep",
    "441": "so",
    "442": "\u0120-",
    "443": "\u0120mean",
    "444": "ime",
    "445": "\u0120fa",
    "446": "\u0120q",
    "447": "\u0120his",
    "448": "ine",
    "449": "han",
    "450": "\u0120their",
    "451": "\u0120them",
    "452": "ma",
    "453": "\u0120thats",
    "454": "\u0120sor",
    "455": "\u0120aw",
    "456": "ting",
    "457": "ays",
    "458": "gg",
    "459": "\u0120one",
    "460": "\u0120must",
    "461": "\u0120yes",
    "462": "ate",
    "463": "est",
    "464": "\u0120make",
    "465": "ong",
    "466": "\u0120vo",
    "467": "\u0120than",
    "468": "\u0120has",
    "469": "\u0120tr",
    "470": "\u0120cause",
    "471": "\u0120listening",
    "472": "\u0120wan",
    "473": "\u0120good",
    "474": "\u0120xd",
    "475": "\u0120also",
    "476": "lf",
    "477": "\u0120then",
    "478": "ation",
    "479": "\u0120ur",
    "480": "\u0120omg",
    "481": "ol",
    "482": "\u0120beca",
    "483": "\u0120time",
    "484": "\u0120there",
    "485": "\u0120because",
    "486": "\u0120sorry",
    "487": "ast",
    "488": "\u0120say",
    "489": "rain",
    "490": "\u0120us",
    "491": "\u0120him",
    "492": "ore",
    "493": "\u0120thou",
    "494": "\u0120ba",
    "495": "fe",
    "496": "\u0120wa",
    "497": "\u0120stu",
    "498": "hing",
    "499": "\u0120te",
    "500": "pe",
    "501": "\u01202",
    "502": "\u0120hear",
    "503": "\u0120take",
    "504": "\u0120does",
    "505": "ty",
    "506": "\u0120got",
    "507": "\u0120ag",
    "508": "\u0120more",
    "509": "\u0120tb",
    "510": "\u0120well",
    "511": "\u0120who",
    "512": "\u0120un",
    "513": "ite",
    "514": "ue",
    "515": "ig",
    "516": "\u0120peop",
    "517": "\u0120(",
    "518": "\u0120voice",
    "519": "ide",
    "520": "\u0120en",
    "521": "\u0120tho",
    "522": "ick",
    "523": "\u0120prob",
    "524": "\u0120lea",
    "525": "be",
    "526": "\u0120sl",
    "527": "!!",
    "528": "\u0120act",
    "529": "\u0120mu",
    "530": "aking",
    "531": "\u0120people",
    "532": "\u0120lma",
    "533": "\u0120gu",
    "534": "...",
    "535": "\u0120ar",
    "536": "\u0120po",
    "537": "ually",
    "538": "per",
    "539": "\u0120being",
    "540": "\u0120fe",
    "541": "\u0120play",
    "542": "\u0120only",
    "543": "\u0120cu",
    "544": "\u0120every",
    "545": "\u0120our",
    "546": "\u0120:)",
    "547": "omet",
    "548": "ers",
    "549": "ds",
    "550": "\u0120eat",
    "551": "\u0120dis",
    "552": "\u0120much",
    "553": "\u0120haha",
    "554": "\u0120somet",
    "555": "ked",
    "556": "\u0120dr",
    "557": "\u0120pre",
    "558": "ps",
    "559": "if",
    "560": "ous",
    "561": "ort",
    "562": "dd",
    "563": "\u0120tal",
    "564": "\u0120look",
    "565": "\u0120wanna",
    "566": "ther",
    "567": "pt",
    "568": "arn",
    "569": "ag",
    "570": "\u0120things",
    "571": "and",
    "572": "\u0120ch",
    "573": "wn",
    "574": "ool",
    "575": "\u0120wr",
    "576": "\u0120:(",
    "577": "\u0120by",
    "578": "\u0120sound",
    "579": "\u0120tou",
    "580": "\u0120over",
    "581": "??",
    "582": "day",
    "583": "os",
    "584": "\u0120may",
    "585": "oy",
    "586": "\u0120happ",
    "587": "\u0120hel",
    "588": "\u0120tbh",
    "589": "ib",
    "590": "iss",
    "591": "\u0120<",
    "592": "\u0120bit",
    "593": "ww",
    "594": "\u0120lmao",
    "595": "art",
    "596": "nder",
    "597": "\u0120bad",
    "598": "\u0120work",
    "599": "\u0120stuff",
    "600": "\u0120na",
    "601": "\u0120thought",
    "602": "\u0120try",
    "603": "\u0120ph",
    "604": "\u0120brain",
    "605": "\u0120la",
    "606": "\u0120still",
    "607": "\u0120kind",
    "608": "\u0120care",
    "609": "\u0120af",
    "610": "\u0120going",
    "611": "\u0120smo",
    "612": "self",
    "613": "\u0120fuck",
    "614": "\u0120learn",
    "615": "\u0120comp",
    "616": "'ve",
    "617": "\u0120shit",
    "618": "'ll",
    "619": "\u0120give",
    "620": "\u0120off",
    "621": "\u0120move",
    "622": "\u0120ve",
    "623": "ment",
    "624": "ure",
    "625": "\u0120bl",
    "626": "ass",
    "627": "thing",
    "628": "\u0120ye",
    "629": "\u0120help",
    "630": "'d",
    "631": "ress",
    "632": "\u0120wait",
    "633": "able",
    "634": "\u0120cat",
    "635": "ase",
    "636": "\u0120idk",
    "637": "\u0120actually",
    "638": "cc",
    "639": "\u0120co",
    "640": "lly",
    "641": "\u0120man",
    "642": "iend",
    "643": "ies",
    "644": "ough",
    "645": "\u0120cl",
    "646": "\u0120said",
    "647": "\u0120same",
    "648": "\u0120back",
    "649": "\u0120looking",
    "650": "ts",
    "651": "\u0120cant",
    "652": "age",
    "653": "\u0120touch",
    "654": "ich",
    "655": "\u0120something",
    "656": "ouse",
    "657": "ree",
    "658": "\u0120day",
    "659": "\u0120way",
    "660": "to",
    "661": "\u0120dra",
    "662": "\u0120come",
    "663": "ish",
    "664": "ream",
    "665": "rent",
    "666": "ci",
    "667": "\u0120jo",
    "668": "hh",
    "669": "\u0120other",
    "670": "\u0120app",
    "671": "\u0120ra",
    "672": "\u0120sleep",
    "673": "00",
    "674": "\u0120di",
    "675": "\u0120qu",
    "676": "\u0120taking",
    "677": "\u0120tw",
    "678": "\u0120right",
    "679": "\u0120doing",
    "680": "mb",
    "681": "\u0120after",
    "682": "\u0120bet",
    "683": "\u0120sc",
    "684": "ys",
    "685": "inking",
    "686": "\u01203",
    "687": "\u0120here",
    "688": "\u0120call",
    "689": "lt",
    "690": "ard",
    "691": "\u0120*",
    "692": "\u0120moving",
    "693": "ud",
    "694": "tt",
    "695": "\u0120which",
    "696": "ile",
    "697": "pl",
    "698": "\u0120never",
    "699": "\u0120pic",
    "700": "\u0120food",
    "701": "\u0120days",
    "702": "\u0120nice",
    "703": "\u0120wanting",
    "704": "\u0120into",
    "705": "\u0120feeling",
    "706": "\u0120friend",
    "707": "\u0120house",
    "708": "ably",
    "709": "\u0120let",
    "710": "\u0120mad",
    "711": "\u0120leave",
    "712": "\u0120ro",
    "713": "\u0120very",
    "714": "\u0120pr",
    "715": "\u0120again",
    "716": "\u0120br",
    "717": "\u0120cool",
    "718": "\u0120wee",
    "719": "\u0120dan",
    "720": "ms",
    "721": "mm",
    "722": "\u0120hop",
    "723": "\u0120draw",
    "724": "ip",
    "725": "fore",
    "726": "cks",
    "727": "\u0120bo",
    "728": "\u0120under",
    "729": "\u0120might",
    "730": "\u00e2\u0122",
    "731": "\u0120life",
    "732": "ied",
    "733": "row",
    "734": "ist",
    "735": "ug",
    "736": "\u0120har",
    "737": "ity",
    "738": "\u0120ple",
    "739": "ix",
    "740": "cking",
    "741": "\u0120ad",
    "742": "\u0120tell",
    "743": "\u0120probably",
    "744": "\u0120fair",
    "745": "\u0120che",
    "746": "\u0120felt",
    "747": "com",
    "748": "ta",
    "749": "\u0120maybe",
    "750": "//",
    "751": "\u0120gon",
    "752": "\u0120ge",
    "753": "\u0120didnt",
    "754": "ird",
    "755": "\u0120before",
    "756": "\u0120hour",
    "757": "gle",
    "758": "aa",
    "759": "\u0120talk",
    "760": "reat",
    "761": "ious",
    "762": "\u0120fl",
    "763": "\u0120smoking",
    "764": "\u0120sca",
    "765": "igh",
    "766": "\u0120sure",
    "767": "\u0120please",
    "768": "\u0120bab",
    "769": "\u0120bot",
    "770": "\u0120hope",
    "771": "ksks",
    "772": "ord",
    "773": "\u0120down",
    "774": "ise",
    "775": "ace",
    "776": "\u0120supp",
    "777": "\u0120gonna",
    "778": "\u0120weird",
    "779": "get",
    "780": "\u0120ill",
    "781": "ways",
    "782": "ooo",
    "783": "\u0120year",
    "784": "\u0120min",
    "785": "\u0120real",
    "786": "://",
    "787": "ont",
    "788": "\u0120per",
    "789": "\u0120kinda",
    "790": "atch",
    "791": "che",
    "792": "imes",
    "793": "co",
    "794": "\u0120scared",
    "795": "\u0120htt",
    "796": "\u0120always",
    "797": "\u0120boo",
    "798": "ady",
    "799": "qu",
    "800": "\u0120phone",
    "801": "\u0120needing",
    "802": "\u0120long",
    "803": "int",
    "804": "tera",
    "805": "\u0120anything",
    "806": "\u0120find",
    "807": "ult",
    "808": "sh",
    "809": "\u0120myself",
    "810": "\u0120fun",
    "811": "\u0120lot",
    "812": "\u0120mum",
    "813": "\u0120sounds",
    "814": "fa",
    "815": "\u01204",
    "816": "orge",
    "817": "ically",
    "818": "\u0120ins",
    "819": "\u0120idea",
    "820": "\u0120where",
    "821": "\u0120better",
    "822": "\u0120true",
    "823": "\u0120ide",
    "824": "\u0120bed",
    "825": "\u0120stream",
    "826": "ions",
    "827": "ark",
    "828": "\u0120sex",
    "829": "ne",
    "830": "\u0120bu",
    "831": "\u0120today",
    "832": "\u0120pers",
    "833": "\u0120fro",
    "834": "\u0120use",
    "835": "\u0120litera",
    "836": "\u0120george",
    "837": "\u0120made",
    "838": "\u0120literally",
    "839": "ffe",
    "840": "act",
    "841": "\u0120word",
    "842": "\u0120trying",
    "843": "mber",
    "844": "\u0120thanks",
    "845": "iting",
    "846": "!?",
    "847": "\u0120happen",
    "848": "\u0120leaving",
    "849": "\u0120hard",
    "850": "xt",
    "851": "\u0120spe",
    "852": "\u0120bre",
    "853": "\u0120pa",
    "854": "\u0120bro",
    "855": "\u01205",
    "856": "\u0120new",
    "857": "\u0120cute",
    "858": "\u0120person",
    "859": "\u0120res",
    "860": "haha",
    "861": "\u0120eating",
    "862": "\u0120getting",
    "863": "\u0120stop",
    "864": "\u0120ma",
    "865": "\u0120\u00c2",
    "866": "ance",
    "867": "bs",
    "868": "\u0120reme",
    "869": "\u0120tur",
    "870": "ft",
    "871": "\u0120part",
    "872": "irst",
    "873": "\u0120fucking",
    "874": "tf",
    "875": "ible",
    "876": "\u0120later",
    "877": "\u0120underst",
    "878": "\u0120hearing",
    "879": "ans",
    "880": "\u0120saying",
    "881": "way",
    "882": "\u00e2\u0122\u013b",
    "883": "ating",
    "884": "les",
    "885": "\u0120acc",
    "886": "\u0120mon",
    "887": "orm",
    "888": "\u0120first",
    "889": "\u0120learning",
    "890": "\u0120song",
    "891": "\u0120night",
    "892": "ng",
    "893": "\u0120sha",
    "894": "\u0120mess",
    "895": "ple",
    "896": "\u0120star",
    "897": "tle",
    "898": "ody",
    "899": "\u0120gr",
    "900": "\u0120happy",
    "901": "\u0120end",
    "902": "\u0120means",
    "903": "\u0120put",
    "904": "\u0120https",
    "905": "\u0120home",
    "906": "\u0120soon",
    "907": "\u0120pick",
    "908": "tty",
    "909": "\u0120ever",
    "910": "\u0120mind",
    "911": "\u0120having",
    "912": "mor",
    "913": "\u0120playing",
    "914": "ason",
    "915": "\u0120though",
    "916": "\u0120wtf",
    "917": "\u0120thr",
    "918": "\u0120away",
    "919": "ual",
    "920": "\u0120makes",
    "921": "\u0120pretty",
    "922": "\u0120lit",
    "923": "umb",
    "924": "og",
    "925": "\u0120done",
    "926": "\u0120remember",
    "927": "\u0120understand",
    "928": "ful",
    "929": "\u0120touching",
    "930": "\u0120ann",
    "931": "\u0120frogg",
    "932": "\u0120cou",
    "933": "\u0120someone",
    "934": "nce",
    "935": "\u0120leg",
    "936": "\u0120miss",
    "937": "\u0120em",
    "938": "\u0120show",
    "939": "\u0120cats",
    "940": "\u0120drink",
    "941": "\u0120\u00c2\u00a3",
    "942": "\u0120disc",
    "943": "\u0120dad",
    "944": "ire",
    "945": "ning",
    "946": "\u0120didn",
    "947": "\u0120op",
    "948": "\u0120fine",
    "949": "\u0120seeing",
    "950": "uter",
    "951": "unch",
    "952": "\u0120through",
    "953": "\u0120keep",
    "954": "\u0120ga",
    "955": "\u0120reason",
    "956": "\u0120sw",
    "957": "\u0120both",
    "958": "\u0120two",
    "959": "\u0120computer",
    "960": "\u0120sad",
    "961": "\u0120fin",
    "962": "ak",
    "963": "\u0120tra",
    "964": "\u0120told",
    "965": "\u0120god",
    "966": "\u0120smink",
    "967": "\u0120conf",
    "968": "\u0120name",
    "969": "\u0120talking",
    "970": "iz",
    "971": "\u0120least",
    "972": "ild",
    "973": "ach",
    "974": "\u0120writing",
    "975": "\u0120anyway",
    "976": "\u0120annoy",
    "977": "\u0120wont",
    "978": "\u0120hours",
    "979": "ated",
    "980": "no",
    "981": "\u0120imp",
    "982": "\u0120picking",
    "983": "\u0120fre",
    "984": "\u0120wanted",
    "985": "\u0120add",
    "986": "\u0120enough",
    "987": "\u0120spea",
    "988": "ude",
    "989": "\u0120inte",
    "990": "\u0120ser",
    "991": "\u0120best",
    "992": "\u0120bas",
    "993": "\u0120pete",
    "994": "\u0120ive",
    "995": "\u0120read",
    "996": "ready",
    "997": "\u0120sy",
    "998": "\u0120these",
    "999": "\u0120et",
    "1000": "\u0120gen",
    "1001": "ose",
    "1002": "\u0120already",
    "1003": "\u0120old",
    "1004": "\u0120gir",
    "1005": "\u0120str",
    "1006": "\u0120guess",
    "1007": "ary",
    "1008": "\u0120ho",
    "1009": "\u0120je",
    "1010": "\u0120froggy",
    "1011": "\u0120tomor",
    "1012": "\u0120ace",
    "1013": "\u0120mine",
    "1014": "\u0120aut",
    "1015": "\u0120baby",
    "1016": "\u0120most",
    "1017": "\u0120used",
    "1018": "www",
    "1019": "ness",
    "1020": "\u0120cle",
    "1021": "ven",
    "1022": "\u0120ass",
    "1023": "ither",
    "1024": "\u0120tomorrow",
    "1025": "\u0120wal",
    "1026": "\u0120angle",
    "1027": "\u0120hes",
    "1028": "!!!",
    "1029": "\u0120doesnt",
    "1030": "\u0120everything",
    "1031": "arly",
    "1032": "\u0120plan",
    "1033": "\u0120ty",
    "1034": "\u0120lunch",
    "1035": "\u0120sen",
    "1036": "\u0120drawing",
    "1037": "\u0120nah",
    "1038": "\u0120nothing",
    "1039": "\u0120making",
    "1040": "\u0120des",
    "1041": "\u0120face",
    "1042": "\u0120little",
    "1043": "less",
    "1044": "\u0120last",
    "1045": "\u0120live",
    "1046": "\u0120hon",
    "1047": "ign",
    "1048": "\u0120gl",
    "1049": "\u0120exact",
    "1050": "\u0120send",
    "1051": "\u0120own",
    "1052": "\u0120expl",
    "1053": "\u0120sit",
    "1054": "\u0120super",
    "1055": "oney",
    "1056": "???",
    "1057": "ner",
    "1058": "\u0120cr",
    "1059": "ath",
    "1060": "\u0120cont",
    "1061": "mo",
    "1062": "\u0120dec",
    "1063": "yy",
    "1064": "\u0120mix",
    "1065": "\u0120head",
    "1066": "\u0120hu",
    "1067": "vers",
    "1068": "\u0120inc",
    "1069": "\u0120friends",
    "1070": "\u0120everyone",
    "1071": "\u0120room",
    "1072": "\u0120wrong",
    "1073": "\u0120once",
    "1074": "\u0120def",
    "1075": "\u0120point",
    "1076": "\u0120diffe",
    "1077": "\u0120week",
    "1078": "eet",
    "1079": "\u0120watch",
    "1080": "ri",
    "1081": "\u0120month",
    "1082": "\u0120honest",
    "1083": "\u0120ask",
    "1084": "eee",
    "1085": "\u0120thank",
    "1086": "\u0120sk",
    "1087": "ute",
    "1088": "\u0120thoughts",
    "1089": "\u0120fo",
    "1090": "ook",
    "1091": "\u0120cry",
    "1092": "\u0120thinking",
    "1093": "\u0120fan",
    "1094": "\u0120around",
    "1095": "\u0120hahaha",
    "1096": "\u0120ment",
    "1097": "\u0120wo",
    "1098": "\u0120art",
    "1099": "li",
    "1100": "\u0120less",
    "1101": "\u0120meant",
    "1102": "\u0120ac",
    "1103": "\u0120start",
    "1104": "rently",
    "1105": "med",
    "1106": "\u0120cra",
    "1107": "\u0120meds",
    "1108": "\u0120anx",
    "1109": "\u01206",
    "1110": "\u0120hi",
    "1111": "\u012010",
    "1112": "\u0120words",
    "1113": "\u0120next",
    "1114": "10",
    "1115": "rate",
    "1116": "\u0120else",
    "1117": "\u0120exactly",
    "1118": "\u0120cuz",
    "1119": "\u0120okay",
    "1120": "\u0120eng",
    "1121": "\u0120seems",
    "1122": "\u0120girl",
    "1123": "ph",
    "1124": "\u0120ugh",
    "1125": "\u0120shes",
    "1126": "\u0120hey",
    "1127": "\u0120times",
    "1128": "cing",
    "1129": "\u0120rel",
    "1130": "cked",
    "1131": "\u0120big",
    "1132": "whe",
    "1133": "\u0120tbf",
    "1134": "\u0120found",
    "1135": "\u0120sim",
    "1136": "\u0120intere",
    "1137": "de",
    "1138": "\u0120left",
    "1139": "ired",
    "1140": "wa",
    "1141": "body",
    "1142": "\u0120ind",
    "1143": "esome",
    "1144": "\u0120rep",
    "1145": "\u0120great",
    "1146": "\u0120lm",
    "1147": "\u0120hug",
    "1148": "\u0120looks",
    "1149": "iv",
    "1150": "\u0120legit",
    "1151": "ange",
    "1152": "\u0120needs",
    "1153": "lo",
    "1154": "ny",
    "1155": "\u0120weeks",
    "1156": "\u00f0\u0141",
    "1157": "\u0120place",
    "1158": "cy",
    "1159": "\u0120wants",
    "1160": "\u0120par",
    "1161": "\u0120money",
    "1162": "\u0120ob",
    "1163": "ical",
    "1164": "\u0120doesn",
    "1165": "cept",
    "1166": "\u0120main",
    "1167": "\u0120aaa",
    "1168": "bo",
    "1169": "ction",
    "1170": "io",
    "1171": "az",
    "1172": "ns",
    "1173": "\u0120dam",
    "1174": "ily",
    "1175": "\u0120comm",
    "1176": "\u0120went",
    "1177": "ia",
    "1178": "\u0120cur",
    "1179": "\u0120job",
    "1180": "\u0120lmfa",
    "1181": "nth",
    "1182": "roid",
    "1183": "\u0120set",
    "1184": "ket",
    "1185": "other",
    "1186": "\u0120support",
    "1187": "uck",
    "1188": "ward",
    "1189": "\u0120those",
    "1190": "\u0120proble",
    "1191": "\u0120kiss",
    "1192": "ons",
    "1193": "ces",
    "1194": "\u0120chat",
    "1195": "\u0120joke",
    "1196": "\u0120uni",
    "1197": "\u0120hur",
    "1198": "\u0120hor",
    "1199": "\u0120chan",
    "1200": "\u01209",
    "1201": "ices",
    "1202": "\u0120without",
    "1203": "\u0120awesome",
    "1204": "\u0120break",
    "1205": "\u0120able",
    "1206": "\u0120yay",
    "1207": "nds",
    "1208": "\u0120inter",
    "1209": "\u0120either",
    "1210": "\u0120many",
    "1211": "\u012020",
    "1212": "\u0120pass",
    "1213": "\u0120bored",
    "1214": "\u0120pay",
    "1215": "\u0120cons",
    "1216": "\u0120stress",
    "1217": "ards",
    "1218": "\u0120years",
    "1219": "\u0120free",
    "1220": "\u0120tech",
    "1221": "\u0120ste",
    "1222": "\u0120ideas",
    "1223": "\u0120annoying",
    "1224": "\u0120shop",
    "1225": "\u0120pain",
    "1226": "\u0120explain",
    "1227": "used",
    "1228": "\u0120gotta",
    "1229": "\u0120kid",
    "1230": "\u01208",
    "1231": "ndom",
    "1232": "\u0120sing",
    "1233": "\u0120coming",
    "1234": "fg",
    "1235": "\u0120sch",
    "1236": "\u0120boy",
    "1237": "\u0120whole",
    "1238": "ang",
    "1239": "hed",
    "1240": "\u0120oo",
    "1241": "gether",
    "1242": "\u0120wish",
    "1243": "\u0120write",
    "1244": "kr",
    "1245": "\u0120mar",
    "1246": "\u0120sna",
    "1247": "cent",
    "1248": "\u0120working",
    "1249": "\u0120gay",
    "1250": "tw",
    "1251": "itar",
    "1252": "ker",
    "1253": "ew",
    "1254": "\u0120different",
    "1255": "\u0120etc",
    "1256": "\u0120proper",
    "1257": "\u0120game",
    "1258": "der",
    "1259": "\u0120together",
    "1260": "ub",
    "1261": "\u0120synth",
    "1262": "press",
    "1263": "\u00f3\u00be",
    "1264": "\u0120dj",
    "1265": "ese",
    "1266": "\u0120such",
    "1267": "cted",
    "1268": "pect",
    "1269": "\u0120guitar",
    "1270": "fu",
    "1271": "ling",
    "1272": "\u0120forget",
    "1273": "als",
    "1274": "ised",
    "1275": "itch",
    "1276": "\u0120whats",
    "1277": "\u0120sometimes",
    "1278": "tra",
    "1279": "uu",
    "1280": "\u0120stay",
    "1281": "\u0120es",
    "1282": "uss",
    "1283": "\u0120past",
    "1284": "\u0120hell",
    "1285": "iew",
    "1286": "\u0120da",
    "1287": "\u0120bel",
    "1288": "\u0120mood",
    "1289": "\u0120allow",
    "1290": "\u0120ta",
    "1291": "\u0120ring",
    "1292": "\u0120iss",
    "1293": "\u0120honestly",
    "1294": "ory",
    "1295": "iously",
    "1296": "\u0120lmfao",
    "1297": "\u0120school",
    "1298": "ping",
    "1299": "\u0120eas",
    "1300": "\u0120dick",
    "1301": "ues",
    "1302": "\u0120called",
    "1303": "oud",
    "1304": "mit",
    "1305": "\u01207",
    "1306": "\u0120yet",
    "1307": "\u0120worr",
    "1308": "20",
    "1309": "\u0120ikr",
    "1310": "ken",
    "1311": "olog",
    "1312": "ident",
    "1313": "tent",
    "1314": "tead",
    "1315": "\u0120discord",
    "1316": "\u0120vide",
    "1317": "night",
    "1318": "\u0120kit",
    "1319": "\u0120rain",
    "1320": "ying",
    "1321": "\u0120havent",
    "1322": "\u0120smoke",
    "1323": "\u0120chair",
    "1324": "ism",
    "1325": "\u0120ear",
    "1326": "el",
    "1327": "\u0120sent",
    "1328": "\u0120instead",
    "1329": "ii",
    "1330": "\u0120high",
    "1331": "\u0120each",
    "1332": "\u0120blan",
    "1333": "\u0120cre",
    "1334": "\u0120wow",
    "1335": "\u0120resp",
    "1336": "\u0120tea",
    "1337": "\u0120sun",
    "1338": "sting",
    "1339": "\u0120drinking",
    "1340": "\u0120decks",
    "1341": "\u0120guy",
    "1342": "eepy",
    "1343": "\u0120mins",
    "1344": "ned",
    "1345": "\u0120open",
    "1346": "\u0120sminking",
    "1347": "\u0120guys",
    "1348": "\u0120bring",
    "1349": "je",
    "1350": "ack",
    "1351": "\u0120unt",
    "1352": "ication",
    "1353": "\u0120gra",
    "1354": "cial",
    "1355": "\u0120random",
    "1356": "rr",
    "1357": "\u0120feels",
    "1358": "\u0120poss",
    "1359": "ames",
    "1360": "\u0120isnt",
    "1361": "\u0120lmaooo",
    "1362": "\u0120sigh",
    "1363": "\u0120knew",
    "1364": "\u0120basically",
    "1365": "more",
    "1366": "\u0120bus",
    "1367": "\u0120ima",
    "1368": "gn",
    "1369": "\u0120ten",
    "1370": "ube",
    "1371": "sw",
    "1372": "right",
    "1373": "rect",
    "1374": "\u0120:/",
    "1375": "hhh",
    "1376": "\u0120dark",
    "1377": "\u0120theres",
    "1378": "\u0120speak",
    "1379": "\u0120hmm",
    "1380": "\u0120inf",
    "1381": "iety",
    "1382": "\u0120med",
    "1383": "\u0120rly",
    "1384": "by",
    "1385": "nts",
    "1386": "ian",
    "1387": "\u0120geepy",
    "1388": "vel",
    "1389": "\u0120pur",
    "1390": "\u0120rude",
    "1391": "ash",
    "1392": "\u0120engl",
    "1393": "ox",
    "1394": "\u0120toile",
    "1395": "\u0120asked",
    "1396": "where",
    "1397": "lle",
    "1398": "\u0120saw",
    "1399": "alth",
    "1400": "\u0120sense",
    "1401": "\u0120mod",
    "1402": "\u0120mark",
    "1403": "\u0120nooo",
    "1404": "\u0120oven",
    "1405": "\u0120came",
    "1406": "ics",
    "1407": "\u0120door",
    "1408": "\u0120using",
    "1409": "100",
    "1410": "\u0120non",
    "1411": "osed",
    "1412": "\u0120pan",
    "1413": "ross",
    "1414": "\u0120seco",
    "1415": "\u0120arg",
    "1416": "\u0120toilet",
    "1417": "set",
    "1418": "\u0120wasnt",
    "1419": "\u0120another",
    "1420": "\u0120exper",
    "1421": "\u0120anymore",
    "1422": "lling",
    "1423": "llow",
    "1424": "py",
    "1425": "\u0120kill",
    "1426": "\u0120until",
    "1427": "\u0120half",
    "1428": "\u0120bor",
    "1429": "ider",
    "1430": "ments",
    "1431": "ap",
    "1432": "joy",
    "1433": "\u0120hum",
    "1434": "led",
    "1435": "\u0120alone",
    "1436": "\u0120sin",
    "1437": "\u0120xx",
    "1438": "30",
    "1439": "gry",
    "1440": "\u0120quest",
    "1441": "\u0120change",
    "1442": "are",
    "1443": "ather",
    "1444": "line",
    "1445": "\u0120ago",
    "1446": "\u0120turnt",
    "1447": "\u0120car",
    "1448": "\u0120message",
    "1449": "\u0120wasn",
    "1450": "\u0120self",
    "1451": "\u0120\u00e2\u0122",
    "1452": "fr",
    "1453": "\u0120started",
    "1454": "ens",
    "1455": "\u0120hot",
    "1456": "its",
    "1457": "\u0120enjoy",
    "1458": "\u0120[",
    "1459": "\u0120played",
    "1460": "\u0120hair",
    "1461": "lete",
    "1462": "\u0120col",
    "1463": "vo",
    "1464": "uring",
    "1465": "ves",
    "1466": "\u0120turntable",
    "1467": "\u0120seem",
    "1468": "\u0120cudd",
    "1469": "come",
    "1470": "\u0120answ",
    "1471": "\u0120rn",
    "1472": "\u0120commun",
    "1473": "\u0120dumb",
    "1474": "\u0120couple",
    "1475": "\u0120tired",
    "1476": "not",
    "1477": "wards",
    "1478": "\u0120;",
    "1479": "ced",
    "1480": "\u0120late",
    "1481": "\u0120known",
    "1482": "\u0120glad",
    "1483": "\u0120belie",
    "1484": "\u00c3\u00a9",
    "1485": "\u0120awww",
    "1486": "\u0120video",
    "1487": "ah",
    "1488": "\u0120reg",
    "1489": "\u0120dance",
    "1490": "\u0120mixer",
    "1491": "ier",
    "1492": "\u0120alright",
    "1493": "\u0120cal",
    "1494": "\u0120since",
    "1495": "\u0120awk",
    "1496": "\u0120ele",
    "1497": "\u0120worse",
    "1498": "\u0120snacks",
    "1499": "\u0120sick",
    "1500": "\u0120sec",
    "1501": "oup",
    "1502": "\u0120health",
    "1503": "fs",
    "1504": "\u0120train",
    "1505": "rop",
    "1506": "\u0120appre",
    "1507": "\u0120norm",
    "1508": "ones",
    "1509": "ations",
    "1510": "\u0120child",
    "1511": "\u0120worried",
    "1512": "\u0120three",
    "1513": "\u0120seen",
    "1514": "\u0120creat",
    "1515": "gan",
    "1516": "\u0120mor",
    "1517": "\u0120space",
    "1518": "ched",
    "1519": "\u0120months",
    "1520": "light",
    "1521": "ffic",
    "1522": "\u0120lets",
    "1523": "\u0120appa",
    "1524": "reen",
    "1525": "\u0120fig",
    "1526": "\u0120amaz",
    "1527": "\u0120minute",
    "1528": "\u0120jon",
    "1529": "\u0120quite",
    "1530": "\u0120safe",
    "1531": "\u0120ent",
    "1532": "\u0120;)",
    "1533": "\u0120cor",
    "1534": "\u0120obv",
    "1535": "app",
    "1536": "\u0120says",
    "1537": "\u0120mid",
    "1538": "ages",
    "1539": "ger",
    "1540": "\u0120awkward",
    "1541": "istic",
    "1542": "ugg",
    "1543": "\u0120nobody",
    "1544": "\u0120order",
    "1545": "\u0120wind",
    "1546": "\u0120exc",
    "1547": "ron",
    "1548": "\u0120hand",
    "1549": "\u0120isn",
    "1550": "\u0120few",
    "1551": "up",
    "1552": "\u0120apparently",
    "1553": "\u0120btw",
    "1554": "\u0120appreci",
    "1555": "\u0120happened",
    "1556": "\u0120forg",
    "1557": "\u0120meh",
    "1558": "\u0120import",
    "1559": "\u0120defin",
    "1560": "\u0120horr",
    "1561": "\u0120piss",
    "1562": "\u0120ooo",
    "1563": "side",
    "1564": "\u0120va",
    "1565": "terday",
    "1566": "ject",
    "1567": "ilst",
    "1568": "\u0120mental",
    "1569": "nch",
    "1570": "\u0120dun",
    "1571": "\u0120cheese",
    "1572": "\u0120ew",
    "1573": "\u0120ter",
    "1574": "\u0120pi",
    "1575": "ba",
    "1576": "\u0120jokes",
    "1577": "\u0120yesterday",
    "1578": "\u0120interesting",
    "1579": "\u0120anyone",
    "1580": "\u0120mic",
    "1581": "ors",
    "1582": "\u0120whilst",
    "1583": "\u0120far",
    "1584": "\u0120top",
    "1585": "\u0120believe",
    "1586": "\u0120pol",
    "1587": "ped",
    "1588": "\u0120run",
    "1589": "\u0120emot",
    "1590": "\u0120anxiety",
    "1591": "igg",
    "1592": "\u0120ey",
    "1593": "\u0120asking",
    "1594": "ugs",
    "1595": "\u0120omfg",
    "1596": "most",
    "1597": "\u0120ed",
    "1598": "\u0120tonight",
    "1599": "using",
    "1600": "\\\"",
    "1601": "\u0120yourself",
    "1602": "\u0120water",
    "1603": "\u0120dancing",
    "1604": "\u0120problem",
    "1605": "view",
    "1606": "\u0120clean",
    "1607": "ional",
    "1608": "\u0120sur",
    "1609": "fect",
    "1610": "\u0120light",
    "1611": "\u012012",
    "1612": "how",
    "1613": "\u0120poo",
    "1614": "\u0120nd",
    "1615": "ear",
    "1616": "\u0120ap",
    "1617": "\u0120>",
    "1618": "\u0120cut",
    "1619": "\u0120dw",
    "1620": "\u0120boof",
    "1621": "\u0120tried",
    "1622": "pm",
    "1623": "\u0120ah",
    "1624": "\u0120fore",
    "1625": "\u0120situ",
    "1626": "?!",
    "1627": "\u0120upset",
    "1628": "\u0120blanket",
    "1629": "\u0120important",
    "1630": "the",
    "1631": "\u0120trans",
    "1632": "fort",
    "1633": "\u0120chris",
    "1634": "\u0120mainly",
    "1635": "\u0120walk",
    "1636": "res",
    "1637": "ret",
    "1638": "\u0120gener",
    "1639": "ween",
    "1640": "\u0120=",
    "1641": "\u0120second",
    "1642": "\u0120ban",
    "1643": "\u0120while",
    "1644": "\u0120phot",
    "1645": "\u0120fam",
    "1646": "\u0120techn",
    "1647": "\u0120ones",
    "1648": "\u0120inv",
    "1649": "\u0120spam",
    "1650": "\u0120vis",
    "1651": "ches",
    "1652": "ert",
    "1653": "\u0120songs",
    "1654": "\u0120forgot",
    "1655": "\u0120watching",
    "1656": "\u0120spec",
    "1657": "\u0120rest",
    "1658": "\u0120amazing",
    "1659": "hes",
    "1660": "\u0120loving",
    "1661": "ugh",
    "1662": "\u0120atta",
    "1663": "ount",
    "1664": "\u0120youre",
    "1665": "\u0120war",
    "1666": "\u0120sugg",
    "1667": "\u0120bir",
    "1668": "\u0120:'",
    "1669": "\u0120plz",
    "1670": "\u0120\u00f0\u0141",
    "1671": "ved",
    "1672": "\u0120sksks",
    "1673": "\u0120class",
    "1674": "\u0120hurt",
    "1675": "\u0120goo",
    "1676": "\u0120create",
    "1677": "\u0120full",
    "1678": "my",
    "1679": "ush",
    "1680": "unk",
    "1681": "ific",
    "1682": "\u0120luck",
    "1683": "ative",
    "1684": "\u0120needed",
    "1685": "\u0120perfect",
    "1686": "\u0120sign",
    "1687": "\u0120check",
    "1688": "\u0120parent",
    "1689": "\u0120diffic",
    "1690": "\u0120opin",
    "1691": "\u0120colour",
    "1692": "sy",
    "1693": "\u0120bur",
    "1694": "\u0120window",
    "1695": "izz",
    "1696": "\u0120wha",
    "1697": "inner",
    "1698": "tem",
    "1699": "\u0120french",
    "1700": "\u0120jed",
    "1701": "fully",
    "1702": "\u0120\u00e2\u0122\u013a",
    "1703": "\u0120meet",
    "1704": "illy",
    "1705": "ins",
    "1706": "\u0120almost",
    "1707": "\u0120toy",
    "1708": "\u0120agree",
    "1709": "\u0120:'(",
    "1710": "\u0120between",
    "1711": "ble",
    "1712": "tes",
    "1713": "ever",
    "1714": "ips",
    "1715": "\u0120egg",
    "1716": "\u0120scream",
    "1717": "\u0120accident",
    "1718": "\u0120dog",
    "1719": "itely",
    "1720": "\u0120cho",
    "1721": "\u0120cour",
    "1722": "outh",
    "1723": "\u0120confused",
    "1724": "\u0120funny",
    "1725": "\u0120tas",
    "1726": "\u012011",
    "1727": "\u0120buy",
    "1728": "\u0120coo",
    "1729": "mail",
    "1730": "\u0120usually",
    "1731": "\u0120dunno",
    "1732": "ial",
    "1733": "\u0120listened",
    "1734": "\u0120babe",
    "1735": "ent",
    "1736": "lic",
    "1737": "ience",
    "1738": "\u0120inst",
    "1739": "ifu",
    "1740": "ility",
    "1741": "\u0120stra",
    "1742": "\u0120hun",
    "1743": "\u0120yep",
    "1744": "\u0120morning",
    "1745": "iving",
    "1746": "\u0120ref",
    "1747": "\u0120val",
    "1748": "\u0120darkness",
    "1749": "cess",
    "1750": "\u0120rem",
    "1751": "room",
    "1752": "ipp",
    "1753": "\u0120voices",
    "1754": "\u0120rec",
    "1755": "odu",
    "1756": "\u0120deal",
    "1757": "\u0120issues",
    "1758": "ition",
    "1759": "\u0120sub",
    "1760": "\u0120gun",
    "1761": "ture",
    "1762": "!'",
    "1763": "\u0120likes",
    "1764": "\u0120world",
    "1765": "\u0120reply",
    "1766": "\u0120fact",
    "1767": "ming",
    "1768": "\u0120panic",
    "1769": "\u0120emb",
    "1770": "\u0120answer",
    "1771": "\u0120pop",
    "1772": "\u0120works",
    "1773": "\u0120except",
    "1774": "\u0120small",
    "1775": "net",
    "1776": "\u0120somehow",
    "1777": "\u0120difficult",
    "1778": "\u0120idek",
    "1779": "pid",
    "1780": "\u0120outside",
    "1781": "\u0120definitely",
    "1782": "ower",
    "1783": "\u0120took",
    "1784": "ilar",
    "1785": "\u0120complete",
    "1786": "\u0120bye",
    "1787": "\u0120supposed",
    "1788": "\u0120often",
    "1789": "\u0120mat",
    "1790": "hd",
    "1791": "\u0120parents",
    "1792": "\u0120post",
    "1793": "ption",
    "1794": "\u0120haven",
    "1795": "\u0120takes",
    "1796": "\u0120till",
    "1797": "\u0120telling",
    "1798": "waifu",
    "1799": "\u0120daylight",
    "1800": "\u0120die",
    "1801": "\u0120birth",
    "1802": "ratewaifu",
    "1803": "own",
    "1804": "\u0120allowed",
    "1805": "ads",
    "1806": "\u0120z",
    "1807": "icul",
    "1808": "\u0120appreciate",
    "1809": "\u0120cop",
    "1810": "vice",
    "1811": "\u0120games",
    "1812": "\u0120follow",
    "1813": "\u0120ages",
    "1814": "\u0120depress",
    "1815": "book",
    "1816": "\u0120theyre",
    "1817": "\u0120eff",
    "1818": "\u0120autistic",
    "1819": "\u0120during",
    "1820": "ided",
    "1821": "sent",
    "1822": "\u0120worry",
    "1823": "\u0120towards",
    "1824": "ters",
    "1825": "ru",
    "1826": "zy",
    "1827": "\u0120sexy",
    "1828": "\u0120sat",
    "1829": "\u0120crying",
    "1830": "\u0120wonder",
    "1831": "\u0120possible",
    "1832": "we",
    "1833": "\u0120wood",
    "1834": "uk",
    "1835": "\u0120loves",
    "1836": "12",
    "1837": "\u0120lost",
    "1838": "\u0120chang",
    "1839": "ship",
    "1840": "\u0120contro",
    "1841": "tm",
    "1842": "\u0120char",
    "1843": "\u0120cree",
    "1844": "\u0120rather",
    "1845": "\u0120colle",
    "1846": "\u0120email",
    "1847": "ob",
    "1848": "\u0120effort",
    "1849": "\u0120requ",
    "1850": "ode",
    "1851": "\u0120elect",
    "1852": "yout",
    "1853": "\u0120address",
    "1854": "\u0120type",
    "1855": "\u0120incl",
    "1856": "\u0120exp",
    "1857": "ats",
    "1858": "nded",
    "1859": "gy",
    "1860": "iny",
    "1861": "\u0120minutes",
    "1862": "\u0120entire",
    "1863": "\u0120boring",
    "1864": "\u0120equ",
    "1865": "\u0120numb",
    "1866": "\u0120hating",
    "1867": "\u0120opinion",
    "1868": "oon",
    "1869": "\u0120lots",
    "1870": "\u0120evening",
    "1871": "oman",
    "1872": "\u0120dinner",
    "1873": "\u0120anxious",
    "1874": "\u0120sort",
    "1875": "cited",
    "1876": "\u0120body",
    "1877": "\u0120stupid",
    "1878": "000",
    "1879": "ibly",
    "1880": "\u0120wouldnt",
    "1881": "\u0120dead",
    "1882": "\u0120reading",
    "1883": "yle",
    "1884": "\u0120hang",
    "1885": "gr",
    "1886": "watch",
    "1887": "\u0120unless",
    "1888": "\u0120relation",
    "1889": "\u0120fav",
    "1890": "\u0120wear",
    "1891": "\u0120picture",
    "1892": "arch",
    "1893": "\u0120hid",
    "1894": "\u0120met",
    "1895": "\u0120droid",
    "1896": "\u0120bou",
    "1897": "leep",
    "1898": "\u0120damn",
    "1899": "\u0120hehe",
    "1900": "aged",
    "1901": "\u0120fuckin",
    "1902": "\u0120heating",
    "1903": "\u0120oooh",
    "1904": "\u0120tu",
    "1905": "\u0120heard",
    "1906": "\u0120looked",
    "1907": "\u0120meme",
    "1908": "ict",
    "1909": "\u0120lovely",
    "1910": "\u0120course",
    "1911": "mp",
    "1912": "\u0120stand",
    "1913": "\u0120convers",
    "1914": "cu",
    "1915": "\u0120imag",
    "1916": "cially",
    "1917": "\u0120human",
    "1918": "\u0120du",
    "1919": "\u0120close",
    "1920": "mon",
    "1921": "\u0120hows",
    "1922": "\u0120comes",
    "1923": "\u0120pizz",
    "1924": "air",
    "1925": "\u0120xox",
    "1926": "\u0120tru",
    "1927": "\u0120realised",
    "1928": "\u0120hold",
    "1929": "man",
    "1930": "\u0120slight",
    "1931": "\u0120figure",
    "1932": "\u0120consider",
    "1933": "\u0120pos",
    "1934": "\u0120discuss",
    "1935": "\u0120finally",
    "1936": "\u0120online",
    "1937": "\u0120excited",
    "1938": "eric",
    "1939": "\u0120tot",
    "1940": "\u0120suppose",
    "1941": "\u0120autism",
    "1942": "\u0120oof",
    "1943": "\u0120situation",
    "1944": "\u0120book",
    "1945": "cr",
    "1946": "\u0120mome",
    "1947": "\u0120fix",
    "1948": "\u0120gets",
    "1949": "\u0120wat",
    "1950": "ffect",
    "1951": "ract",
    "1952": "\u0120passage",
    "1953": "\u0120gunna",
    "1954": "\u0120inside",
    "1955": "\u0120count",
    "1956": "wor",
    "1957": "\u0120doct",
    "1958": "\u0120flo",
    "1959": "kk",
    "1960": "\u0120pu",
    "1961": "\u0120pen",
    "1962": "lier",
    "1963": "mer",
    "1964": "\u0120normal",
    "1965": "\u0120loool",
    "1966": "\u0120sweet",
    "1967": "iday",
    "1968": "aut",
    "1969": "\u0120flat",
    "1970": "\u0120hy",
    "1971": "\u0120scary",
    "1972": "\u0120hahahaha",
    "1973": "\u0120asleep",
    "1974": "\u0120english",
    "1975": "ring",
    "1976": "\u0120del",
    "1977": "\u0120xxx",
    "1978": "\u0120creating",
    "1979": "hy",
    "1980": "angle",
    "1981": "\u0120text",
    "1982": "\u0120pizza",
    "1983": "\u0120wouldn",
    "1984": "\u0120americ",
    "1985": "cer",
    "1986": "\u0120case",
    "1987": "nday",
    "1988": "\u0120uk",
    "1989": "\u0120fail",
    "1990": "ga",
    "1991": "\u0120happening",
    "1992": "\u0120speaking",
    "1993": "\u0120meow",
    "1994": "\u0120ign",
    "1995": "dy",
    "1996": "gging",
    "1997": "tever",
    "1998": "mme",
    "1999": "\u0120twitch",
    "2000": "\u0120plus",
    "2001": "\u0120fault",
    "2002": "\u0120pasta",
    "2003": "\u0120event",
    "2004": "\u0120rant",
    "2005": "\u0120black",
    "2006": "ately",
    "2007": "\u0120turn",
    "2008": "\u0120dat",
    "2009": "\u0120cold",
    "2010": ").",
    "2011": "\u0120woman",
    "2012": "\u0120http",
    "2013": "\u0120sucks",
    "2014": "ates",
    "2015": "\u0120sn",
    "2016": "\u0120pc",
    "2017": "\u0120ev",
    "2018": "\u0120horrible",
    "2019": "ail",
    "2020": "\u0120earlier",
    "2021": "\u0120google",
    "2022": "ren",
    "2023": "irt",
    "2024": "youtube",
    "2025": "\u0120sooo",
    "2026": "\u0120mil",
    "2027": "\u012015",
    "2028": "\u012030",
    "2029": "iced",
    "2030": "\u0120gave",
    "2031": "\u0120forever",
    "2032": "15",
    "2033": "\u0120hopefully",
    "2034": "\u0120fall",
    "2035": "\u0120social",
    "2036": "ien",
    "2037": "\u0120birthday",
    "2038": "ock",
    "2039": "fl",
    "2040": "\u0120cba",
    "2041": "\u0120drunk",
    "2042": "dden",
    "2043": "13",
    "2044": "\u0120aww",
    "2045": "\u0120slightly",
    "2046": "\u0120bag",
    "2047": "ensive",
    "2048": "cl",
    "2049": "\u0120vib",
    "2050": "\u0120fur",
    "2051": "angel",
    "2052": "\u0120low",
    "2053": "\u0120worst",
    "2054": "\u0120mass",
    "2055": "\u0120suck",
    "2056": "nding",
    "2057": "\u0120mouse",
    "2058": "\u0120gone",
    "2059": "\u0120won",
    "2060": "\u0120four",
    "2061": "\u0120broke",
    "2062": "\u0120loved",
    "2063": "\u0120age",
    "2064": "\u0120pat",
    "2065": "ence",
    "2066": "\u0120obviously",
    "2067": "\u0120tiny",
    "2068": "\u0120sudden",
    "2069": "\u0120giving",
    "2070": "ising",
    "2071": "fer",
    "2072": "\u0120sol",
    "2073": "\u0120webs",
    "2074": "\u0120cock",
    "2075": "ology",
    "2076": "wu",
    "2077": "\u0120pas",
    "2078": "\u0120stuck",
    "2079": "\u0120umm",
    "2080": "ife",
    "2081": "\u0120ffs",
    "2082": "\u0120ess",
    "2083": "sol",
    "2084": "\u0120vape",
    "2085": "\u0120bath",
    "2086": "\u0120actual",
    "2087": "\u0120expect",
    "2088": "\u0120living",
    "2089": "\u0120website",
    "2090": "\u0120hmmm",
    "2091": "\u0120whatever",
    "2092": "lled",
    "2093": "\u0120ooh",
    "2094": "lym",
    "2095": "\u0120worth",
    "2096": "fair",
    "2097": "ings",
    "2098": "\u0120favour",
    "2099": "sel",
    "2100": "\u0120angry",
    "2101": "con",
    "2102": "\u0120psy",
    "2103": "nn",
    "2104": "\u0120prom",
    "2105": "\u0120perf",
    "2106": "\u0120currently",
    "2107": "\u0120fell",
    "2108": "\u0120lie",
    "2109": "ision",
    "2110": "\u0120calm",
    "2111": "\u0120laugh",
    "2112": "\u0120win",
    "2113": "\u0120process",
    "2114": "\u012018",
    "2115": "\u0120android",
    "2116": "cha",
    "2117": "\u0120phys",
    "2118": "\u0120foc",
    "2119": "\u0120mee",
    "2120": "\u0120yours",
    "2121": "\u0120trust",
    "2122": "\u0120bitch",
    "2123": "\u0120internet",
    "2124": "\u0120\"",
    "2125": "\u0120white",
    "2126": "ht",
    "2127": "\u0120ready",
    "2128": "\u0120key",
    "2129": "pa",
    "2130": "\u0120red",
    "2131": "fk",
    "2132": "friend",
    "2133": "ured",
    "2134": "gra",
    "2135": "vent",
    "2136": "\u0120mult",
    "2137": "\u0120blue",
    "2138": "\u0120contin",
    "2139": "\u0120hit",
    "2140": "\u0120recent",
    "2141": "\u0120press",
    "2142": "\u0120arent",
    "2143": "uine",
    "2144": "\u0120woo",
    "2145": "ities",
    "2146": "\u0120strugg",
    "2147": "\u0120extra",
    "2148": "\u0120rap",
    "2149": "\u0120similar",
    "2150": "\u0120eyes",
    "2151": "\u0120loveangel",
    "2152": "\u0120straight",
    "2153": "\u0120moment",
    "2154": "\u0120fil",
    "2155": "ber",
    "2156": "\u0120question",
    "2157": "\u0120embar",
    "2158": "antly",
    "2159": "\u0120ner",
    "2160": "\u0120valid",
    "2161": "\u0120ya",
    "2162": "\u0120genuine",
    "2163": "ule",
    "2164": "\u0120awake",
    "2165": "av",
    "2166": "ux",
    "2167": "\u0120defo",
    "2168": "\u0120easy",
    "2169": "\u0120mis",
    "2170": "\u0120effect",
    "2171": "\u0120france",
    "2172": "\u0120knows",
    "2173": "\u0120chill",
    "2174": "onse",
    "2175": "\u0120brains",
    "2176": "\u0120finis",
    "2177": "\u0120conversation",
    "2178": "ptop",
    "2179": "board",
    "2180": "\u0120properly",
    "2181": "\u0120side",
    "2182": "),",
    "2183": "\u0120become",
    "2184": "\u0120mention",
    "2185": "\u0120eh",
    "2186": "17",
    "2187": "\u0120throw",
    "2188": "\u0120quick",
    "2189": "\u0120cook",
    "2190": "bb",
    "2191": "po",
    "2192": "\u0120adhd",
    "2193": "ient",
    "2194": "\u0120bought",
    "2195": "ls",
    "2196": "\u0120decided",
    "2197": "ho",
    "2198": "\u0120dist",
    "2199": "\u0120favourite",
    "2200": "\u0120men",
    "2201": "\u0120sexual",
    "2202": "\u0120seriously",
    "2203": "gif",
    "2204": "\u0120couldnt",
    "2205": "\u0120slow",
    "2206": "\u0120cares",
    "2207": "selves",
    "2208": "\u0120response",
    "2209": "24",
    "2210": "\u0120shut",
    "2211": "\u0120exam",
    "2212": "\u0120pres",
    "2213": "\u0120huge",
    "2214": "\u0120problems",
    "2215": "\u0120dream",
    "2216": "\u0120...",
    "2217": "ml",
    "2218": "\u0120level",
    "2219": "\u0120proud",
    "2220": "\u0120completely",
    "2221": "cri",
    "2222": "jk",
    "2223": "\u0120record",
    "2224": "\u0120ver",
    "2225": "\u0120nope",
    "2226": "\u0120laptop",
    "2227": "\u0120cuddles",
    "2228": "\u0120det",
    "2229": "\u0120plym",
    "2230": "\u012014",
    "2231": "iness",
    "2232": "\u0120atm",
    "2233": "\u0120cannot",
    "2234": "\u0120kept",
    "2235": "\u0120hates",
    "2236": "\u0120twice",
    "2237": "\u0120correct",
    "2238": "lu",
    "2239": "\u0120five",
    "2240": "\u0120form",
    "2241": "\u0120lemme",
    "2242": "\u0120hello",
    "2243": "key",
    "2244": "\u0120track",
    "2245": "\u0120huh",
    "2246": "aly",
    "2247": "\u0120short",
    "2248": "\u0120psych",
    "2249": "\u0120cust",
    "2250": "\u0120loud",
    "2251": "\u0120beaut",
    "2252": "\u0120noticed",
    "2253": "\u0120waiting",
    "2254": "\u0120missed",
    "2255": "uin",
    "2256": "\u0120repl",
    "2257": "\u0120messages",
    "2258": "\u0120bru",
    "2259": "\u0120essay",
    "2260": "\u0120relationship",
    "2261": "ines",
    "2262": "\u0120based",
    "2263": "\u0120indeed",
    "2264": "\u0120produ",
    "2265": "rew",
    "2266": "\u0120gives",
    "2267": "iple",
    "2268": "wise",
    "2269": "ify",
    "2270": "\u0120walked",
    "2271": "\u0120somewhere",
    "2272": "\u0120conta",
    "2273": "16",
    "2274": "\u0120gross",
    "2275": "rence",
    "2276": "\u0120near",
    "2277": "\u0120ohhh",
    "2278": "inge",
    "2279": "\u0120number",
    "2280": "\u0120fit",
    "2281": "\u0120const",
    "2282": "\u0120server",
    "2283": "hs",
    "2284": "\u0120deep",
    "2285": "orn",
    "2286": "\u0120ret",
    "2287": "\u0120notice",
    "2288": "une",
    "2289": "ksksksks",
    "2290": "25",
    "2291": "tmas",
    "2292": "\u0120totally",
    "2293": "\u0120suddenly",
    "2294": "\u0120sys",
    "2295": "\u0120family",
    "2296": "airs",
    "2297": "\u0120early",
    "2298": "\u0120incred",
    "2299": "\u0120front",
    "2300": "ively",
    "2301": "\u0120starting",
    "2302": "\u0120accidentally",
    "2303": "go",
    "2304": "\u0120party",
    "2305": "eer",
    "2306": "\u0120clos",
    "2307": "\u0120college",
    "2308": "\u01200",
    "2309": "ital",
    "2310": "\u0120goes",
    "2311": "\u0120hugs",
    "2312": "ik",
    "2313": "\u0120christmas",
    "2314": "ited",
    "2315": "\u0120hungry",
    "2316": "\u0120creepy",
    "2317": "\u0120int",
    "2318": "\u0120girls",
    "2319": "\u0120story",
    "2320": "\u0120ran",
    "2321": "\u0120heart",
    "2322": "\u0120floor",
    "2323": "\u0120join",
    "2324": "\u0120busy",
    "2325": "\u0120squ",
    "2326": "aked",
    "2327": "olol",
    "2328": "\u0120england",
    "2329": "\u0120technically",
    "2330": "fast",
    "2331": "\u0120silly",
    "2332": "esss",
    "2333": "iful",
    "2334": "\u0120partner",
    "2335": "fortable",
    "2336": "\u0120general",
    "2337": "oot",
    "2338": "\u0120round",
    "2339": "\u0120screen",
    "2340": "\u0120air",
    "2341": "urs",
    "2342": "\u0120compl",
    "2343": "\u0120happens",
    "2344": "\u0120inform",
    "2345": "\u0120suggest",
    "2346": "do",
    "2347": "iot",
    "2348": "pecially",
    "2349": "\u0120step",
    "2350": "\u0120experience",
    "2351": "\u0120xoxo",
    "2352": "\u0120bra",
    "2353": "\u0120decide",
    "2354": "\u0120questions",
    "2355": "\u0120bi",
    "2356": "\u0120longer",
    "2357": "\u0120brother",
    "2358": "ronic",
    "2359": "\u0120woke",
    "2360": "\u0120includ",
    "2361": "kets",
    "2362": "\u0120style",
    "2363": "\u0120imagine",
    "2364": "head",
    "2365": "\u0120wel",
    "2366": "ertain",
    "2367": "\u0120sme",
    "2368": "\u0120bass",
    "2369": "\u0120neither",
    "2370": "lex",
    "2371": "\u0120grow",
    "2372": "\u0120build",
    "2373": "\u0120singing",
    "2374": "\u0120issue",
    "2375": "chen",
    "2376": "\u0120lar",
    "2377": "\u0120yh",
    "2378": "ndon",
    "2379": "dle",
    "2380": "em",
    "2381": "\u0120wife",
    "2382": "\u0120nic",
    "2383": "ax",
    "2384": "pr",
    "2385": "\u0120?",
    "2386": "\u0120yout",
    "2387": "\u0120likely",
    "2388": "\u0120vi",
    "2389": "\u0120spo",
    "2390": "\u0120mums",
    "2391": "\u0120facebook",
    "2392": "\u0120sleeping",
    "2393": "\u0120genuinely",
    "2394": "\u0120contact",
    "2395": "ists",
    "2396": "\u0120nearly",
    "2397": "\u0120particul",
    "2398": "tention",
    "2399": "ding",
    "2400": "\u0120specific",
    "2401": "\u0120fucked",
    "2402": "\u0120prof",
    "2403": "\u0120sens",
    "2404": "\u0120meeting",
    "2405": "\u0120wake",
    "2406": "\u0120soup",
    "2407": "\u0120ju",
    "2408": "\u0120list",
    "2409": "\u0120calling",
    "2410": "ccoon",
    "2411": "load",
    "2412": "\u0120milk",
    "2413": "\u0120ily",
    "2414": "\u0120annoyed",
    "2415": "\u0120boyfriend",
    "2416": "you",
    "2417": "\u0120odd",
    "2418": "\u0120prov",
    "2419": "\u0120kitchen",
    "2420": "\u0120couldn",
    "2421": "\u0120argo",
    "2422": "\u0120bread",
    "2423": "\u0120screaming",
    "2424": "\u0120multiple",
    "2425": "pris",
    "2426": "\u0120clot",
    "2427": "\u0120turned",
    "2428": "ex",
    "2429": "\u0120bright",
    "2430": "\u0120spent",
    "2431": "\u0120dammit",
    "2432": "\u0120especially",
    "2433": "\u0120warm",
    "2434": "\u0120massive",
    "2435": "14",
    "2436": "\u0120\\\"",
    "2437": "\u0120sile",
    "2438": "\u0120bar",
    "2439": "ills",
    "2440": "\u0120disapp",
    "2441": "\u0120strong",
    "2442": "tern",
    "2443": "\u0120whether",
    "2444": "\u0120group",
    "2445": "\u0120comment",
    "2446": "js",
    "2447": "\u0120communic",
    "2448": "urate",
    "2449": "\u0120tv",
    "2450": "iet",
    "2451": "\u0120stude",
    "2452": "\u0120shower",
    "2453": "\u0120opp",
    "2454": "iled",
    "2455": "\u0120otherwise",
    "2456": "\u0120traum",
    "2457": "\u0120breakfast",
    "2458": "\u0120plymouth",
    "2459": "\u0120pissed",
    "2460": "\u0120poop",
    "2461": "\u0120others",
    "2462": "que",
    "2463": "\u0120easier",
    "2464": "tend",
    "2465": "\u0120line",
    "2466": "\u0120london",
    "2467": "19",
    "2468": "\u0120paid",
    "2469": "\u0120apolog",
    "2470": "\u0120vers",
    "2471": "\u0120fire",
    "2472": "\u0120uwu",
    "2473": "kers",
    "2474": "\u0120six",
    "2475": "\u0120hm",
    "2476": "\u0120ended",
    "2477": "\u0120police",
    "2478": "\u0120due",
    "2479": "\u0120dans",
    "2480": "\u0120share",
    "2481": "\u0120>:",
    "2482": "\u0120young",
    "2483": "\u0120remo",
    "2484": "\u0120ant",
    "2485": "aw",
    "2486": "zz",
    "2487": "\u0120camer",
    "2488": "\u0120deser",
    "2489": "\u0120recently",
    "2490": "\u0120kissing",
    "2491": "\u0120control",
    "2492": "18",
    "2493": "sted",
    "2494": "\u0120green",
    "2495": "\u0120direct",
    "2496": "esus",
    "2497": "\u012019",
    "2498": "\u0120leaves",
    "2499": "\u0120spend",
    "2500": "\u0120beautiful",
    "2501": "33",
    "2502": "het",
    "2503": "\u0120los",
    "2504": "love",
    "2505": "\u0120purple",
    "2506": "read",
    "2507": "\u0120pour",
    "2508": "\u0120uh",
    "2509": ".'",
    "2510": "\u0120fml",
    "2511": "\u0120liked",
    "2512": "\u0120loveangle",
    "2513": "\u0120surpris",
    "2514": "\u0120ig",
    "2515": "\u0120personal",
    "2516": "ize",
    "2517": "eg",
    "2518": "\u0120however",
    "2519": "\u0120moves",
    "2520": "\u0120clearly",
    "2521": "\u0120stressed",
    "2522": "\u0120emotional",
    "2523": "df",
    "2524": "hugs",
    "2525": "\u0120aa",
    "2526": "\u0120accurate",
    "2527": "\u0120helping",
    "2528": "medi",
    "2529": "omen",
    "2530": "\u0120against",
    "2531": "\u0120crap",
    "2532": "\u0120fight",
    "2533": "ets",
    "2534": "pected",
    "2535": "\u0120death",
    "2536": "\u0120argu",
    "2537": "50",
    "2538": "\u0120taken",
    "2539": "gs",
    "2540": "\u0120sofa",
    "2541": "\u0120shout",
    "2542": "\u0120amount",
    "2543": "\u0120interested",
    "2544": "\u0120yo",
    "2545": "\u0120ben",
    "2546": "rac",
    "2547": "\u0120sitting",
    "2548": "\u0120dou",
    "2549": "\u0120project",
    "2550": "\u0120100",
    "2551": "mat",
    "2552": "\u0120hugging",
    "2553": "\u0120pee",
    "2554": "\u0120attack",
    "2555": "\u0120cooking",
    "2556": "ric",
    "2557": "\u0120ce",
    "2558": "\u0120obs",
    "2559": "\u0120sending",
    "2560": "\u0120youtube",
    "2561": "\u0120certain",
    "2562": "\u0120fake",
    "2563": "\u0120friday",
    "2564": "pop",
    "2565": "\u0120yesss",
    "2566": "\u0120broken",
    "2567": "\u0120middle",
    "2568": "tenor",
    "2569": "\u0120prefer",
    "2570": "\u0120organ",
    "2571": "ilt",
    "2572": "\u0120single",
    "2573": "\u0120dude",
    "2574": "ants",
    "2575": "ka",
    "2576": "lls",
    "2577": "\u0120jesus",
    "2578": "\u0120themselves",
    "2579": "ond",
    "2580": "\u0120avo",
    "2581": "\u0120ow",
    "2582": "min",
    "2583": "\u0120smoked",
    "2584": "\u0120idiot",
    "2585": "\u012013",
    "2586": "\u0120state",
    "2587": "eng",
    "2588": "\u0120bare",
    "2589": "\u0120considering",
    "2590": "\u0120lil",
    "2591": "\u0120ai",
    "2592": "\u0120que",
    "2593": "br",
    "2594": "\u0120asher",
    "2595": "\u0120expensive",
    "2596": "\u0120attention",
    "2597": "\u0120loads",
    "2598": "ular",
    "2599": "vi",
    "2600": "\u0120meaning",
    "2601": "pped",
    "2602": "\u0120appro",
    "2603": "\u0120crazy",
    "2604": "'.",
    "2605": "\u0120mag",
    "2606": "\u0120card",
    "2607": "\u0120date",
    "2608": "\u0120rent",
    "2609": "\u0120conne",
    "2610": "hol",
    "2611": "\u0120ont",
    "2612": "dn",
    "2613": "ai",
    "2614": "\u0120choice",
    "2615": "23",
    "2616": "bot",
    "2617": "\u0120accept",
    "2618": "\u0120focus",
    "2619": "\u0120amb",
    "2620": "any",
    "2621": "ered",
    "2622": "fy",
    "2623": "\u0120depe",
    "2624": "\u0120>:(",
    "2625": "ises",
    "2626": "\u0120uns",
    "2627": "\u0120advice",
    "2628": "\u0120finished",
    "2629": "ergy",
    "2630": "igger",
    "2631": "\u0120swear",
    "2632": "ove",
    "2633": "\u0120tic",
    "2634": "\u0120wall",
    "2635": "\u0120mas",
    "2636": "\u0120dress",
    "2637": "itive",
    "2638": "\u0120boobs",
    "2639": "\u0120typing",
    "2640": "\u0120react",
    "2641": "mi",
    "2642": "\u0120:((",
    "2643": "\u0120kids",
    "2644": "ina",
    "2645": "\u0120drugs",
    "2646": "tel",
    "2647": "cle",
    "2648": "\u0120camera",
    "2649": "40",
    "2650": "\u0120pot",
    "2651": "\u0120express",
    "2652": "\u0120access",
    "2653": "like",
    "2654": "\u0120satur",
    "2655": "**",
    "2656": "\u0120women",
    "2657": "\u0120realise",
    "2658": "\u0120coun",
    "2659": "ump",
    "2660": "ager",
    "2661": "\u0120manage",
    "2662": "\u0120emp",
    "2663": "\u0120system",
    "2664": "\u0120sees",
    "2665": "iment",
    "2666": "\u0120boi",
    "2667": "ropri",
    "2668": "\u0120repe",
    "2669": "ules",
    "2670": "\u0120emo",
    "2671": "1000",
    "2672": "\u012016",
    "2673": "\u0120blood",
    "2674": "\u0120smile",
    "2675": "\u0120communication",
    "2676": "\u0120secret",
    "2677": "\u0120dest",
    "2678": "\u0120offe",
    "2679": "\u0120kitty",
    "2680": "\u0120onto",
    "2681": "port",
    "2682": "\u0120ly",
    "2683": "\u0120view",
    "2684": "\u0120test",
    "2685": "cal",
    "2686": "\u0120teen",
    "2687": "\u0120oop",
    "2688": "search",
    "2689": "stairs",
    "2690": "\u0120prote",
    "2691": "\u0120pie",
    "2692": "\u0120rid",
    "2693": "\u0120walking",
    "2694": "cel",
    "2695": "ially",
    "2696": "\u0120offer",
    "2697": "\u0120quiet",
    "2698": "\u0120letter",
    "2699": "\u0120code",
    "2700": "\u0120himself",
    "2701": "oof",
    "2702": "\u0120vibes",
    "2703": "\u0120custom",
    "2704": "gu",
    "2705": "\u0120absol",
    "2706": "imin",
    "2707": "\u0120sugges",
    "2708": "\u0120hol",
    "2709": "\u0120beg",
    "2710": "\u0120charac",
    "2711": "\u0120respons",
    "2712": "\u0120pub",
    "2713": "whel",
    "2714": "\u0120bin",
    "2715": "cture",
    "2716": "aten",
    "2717": "iod",
    "2718": "\u0120box",
    "2719": "\u0120clothes",
    "2720": "ane",
    "2721": "\u0120energy",
    "2722": "\u0120given",
    "2723": "\u0120rip",
    "2724": "21",
    "2725": "\u0120mot",
    "2726": "uth",
    "2727": "\u0120brit",
    "2728": "fairfair",
    "2729": "rs",
    "2730": "\u0120yeahhh",
    "2731": "\u0120overwhel",
    "2732": "\u0120fairly",
    "2733": "\u0120remind",
    "2734": "\u0120absolute",
    "2735": "\u0120respect",
    "2736": "\u0120clear",
    "2737": "down",
    "2738": "\u0120waht",
    "2739": "\u0120les",
    "2740": "bu",
    "2741": "\u0120hands",
    "2742": "\u0120soft",
    "2743": "ability",
    "2744": "\u0120awh",
    "2745": "\u0120whos",
    "2746": "\u0120feelings",
    "2747": "\u0120reco",
    "2748": "\u0120welcome",
    "2749": "\u0120worked",
    "2750": "\u0120finish",
    "2751": "\u0120poke",
    "2752": "\u0120putting",
    "2753": "\u0120photo",
    "2754": "ours",
    "2755": "\u0120bts",
    "2756": "\u0120opt",
    "2757": "\u0120est",
    "2758": "\u0120gre",
    "2759": "irty",
    "2760": "\u0120pla",
    "2761": "\u0120shouldnt",
    "2762": "\u0120admit",
    "2763": "\u0120truly",
    "2764": "26",
    "2765": "\u0120beh",
    "2766": "\u0120fully",
    "2767": "but",
    "2768": "oint",
    "2769": "\u0120rele",
    "2770": "yyy",
    "2771": "astic",
    "2772": "ift",
    "2773": "ok",
    "2774": "\u0120rock",
    "2775": "\u0120planning",
    "2776": "\u0120changed",
    "2777": "\u0120complain",
    "2778": "hehe",
    "2779": "\u0120arr",
    "2780": "\u0120period",
    "2781": "\u0120forgetting",
    "2782": "\u0120+",
    "2783": "\u0120terr",
    "2784": "\u0120information",
    "2785": "\u0120large",
    "2786": "\u0120cover",
    "2787": "\u0120vibe",
    "2788": "ac",
    "2789": "miss",
    "2790": "\u0120tre",
    "2791": "\u0120drop",
    "2792": "\u0120priv",
    "2793": "hahaha",
    "2794": "\u0120saturday",
    "2795": "ws",
    "2796": "\u0120elodies",
    "2797": "ropriate",
    "2798": "ame",
    "2799": "\u0120petes",
    "2800": "\u0120pipe",
    "2801": "\u0120particularly",
    "2802": "\u0120aud",
    "2803": "\u0120monday",
    "2804": "\u0120ignore",
    "2805": "\u0120beha",
    "2806": "inger",
    "2807": "\u0120port",
    "2808": "\u0120thinks",
    "2809": "45",
    "2810": "\u0120doctors",
    "2811": "ole",
    "2812": "\u0120awful",
    "2813": "put",
    "2814": "\u0120sam",
    "2815": "\u0120detail",
    "2816": "\u0120treat",
    "2817": "\u0120bat",
    "2818": "\u0120immedi",
    "2819": "ctive",
    "2820": "\u0120unf",
    "2821": "igin",
    "2822": "\u0120helps",
    "2823": "\u0120finding",
    "2824": "\u0120continue",
    "2825": "?'",
    "2826": "dow",
    "2827": "dam",
    "2828": "\u0120option",
    "2829": "par",
    "2830": "uit",
    "2831": "ature",
    "2832": "\u0120remembering",
    "2833": "\u0120ir",
    "2834": "\u0120uncom",
    "2835": "\u0120confir",
    "2836": "\u0120lady",
    "2837": "\u0120power",
    "2838": "\u0120memor",
    "2839": "\u0120kidding",
    "2840": "\u0120/",
    "2841": "\u0120pract",
    "2842": "url",
    "2843": "nel",
    "2844": "\u0120bby",
    "2845": "\u0120moved",
    "2846": "\u0120stre",
    "2847": "\u0120vag",
    "2848": "\u0120strange",
    "2849": "\u0120invol",
    "2850": "ground",
    "2851": "ky",
    "2852": "\u0120noise",
    "2853": "\u0120somebody",
    "2854": "\u0120sal",
    "2855": "\u0120um",
    "2856": "\u0120pack",
    "2857": "\u0120orange",
    "2858": "!?!?",
    "2859": "\u0120understanding",
    "2860": "\u0120closer",
    "2861": "\u0120communicate",
    "2862": "\u0120tim",
    "2863": "\u0120kpop",
    "2864": "\u0120aint",
    "2865": "\u012024",
    "2866": "\u0120assa",
    "2867": "\u0120juice",
    "2868": "\u0120sho",
    "2869": "\u0120temp",
    "2870": "\u012050",
    "2871": "\u0120design",
    "2872": "ze",
    "2873": "\u0120property",
    "2874": "land",
    "2875": "\u0120warn",
    "2876": "\u0120sle",
    "2877": "\u0120mice",
    "2878": "oring",
    "2879": "ator",
    "2880": "\u0120chaos",
    "2881": "sex",
    "2882": "work",
    "2883": "\u0120avoid",
    "2884": "\u0120behind",
    "2885": "\u0120wooo",
    "2886": "\u0120alive",
    "2887": "\u0120drug",
    "2888": "cra",
    "2889": "\u0120waking",
    "2890": "\u0120sky",
    "2891": "bal",
    "2892": "\u0120tit",
    "2893": "fd",
    "2894": "\u0120link",
    "2895": "ade",
    "2896": "\u0120truth",
    "2897": "\u0120incredibly",
    "2898": "pro",
    "2899": "uc",
    "2900": "\u0120megan",
    "2901": "icken",
    "2902": "\u0120normally",
    "2903": "\u0120keeps",
    "2904": "arc",
    "2905": "\u0120eventually",
    "2906": "rd",
    "2907": "\u0120stopped",
    "2908": "\u0120america",
    "2909": "\u0120fast",
    "2910": "\u0120fear",
    "2911": "\u0120occ",
    "2912": "lfr",
    "2913": "\u0120band",
    "2914": "\u0120cringe",
    "2915": "22",
    "2916": "\u0120herself",
    "2917": "\u0120exist",
    "2918": "\u0120boom",
    "2919": "\u0120pressure",
    "2920": "mg",
    "2921": "pose",
    "2922": "\u0120fat",
    "2923": "itter",
    "2924": "\u0120specif",
    "2925": "\u0120electronic",
    "2926": "bl",
    "2927": "\u0120av",
    "2928": "\u0120thurs",
    "2929": "ggg",
    "2930": "aging",
    "2931": "\u0120fucks",
    "2932": "\u0120\u00e2",
    "2933": "\u0120ball",
    "2934": "\u0120confusing",
    "2935": "dio",
    "2936": "mes",
    "2937": "what",
    "2938": "\u0120lang",
    "2939": "\u0120force",
    "2940": "\u0120bott",
    "2941": "\u0120computers",
    "2942": "for",
    "2943": "\u0120beds",
    "2944": "\u0120alco",
    "2945": "\u0120hotel",
    "2946": "oh",
    "2947": "\u0120origin",
    "2948": "\u0120mach",
    "2949": "ipped",
    "2950": "verse",
    "2951": "lfriend",
    "2952": "cat",
    "2953": "\u0120wot",
    "2954": "\u0120log",
    "2955": "\u0120kore",
    "2956": "aaay",
    "2957": "ney",
    "2958": "\u0120relax",
    "2959": "usive",
    "2960": "\u0120cost",
    "2961": "\u0120distra",
    "2962": "\u0120stars",
    "2963": "\u0120term",
    "2964": "\u0120version",
    "2965": "\u0120cir",
    "2966": "\u0120mac",
    "2967": "face",
    "2968": "\u0120weeke",
    "2969": "\u0120ador",
    "2970": "lr",
    "2971": "\u0120nor",
    "2972": "leted",
    "2973": "\u0120matter",
    "2974": "\u0120rev",
    "2975": "raph",
    "2976": "\u0120seemed",
    "2977": "\u0120bene",
    "2978": "\u0120decent",
    "2979": "\u0120missing",
    "2980": "\u0120desk",
    "2981": "\u0120piper",
    "2982": "\u0120progra",
    "2983": "\u0120price",
    "2984": "\u0120deserve",
    "2985": "\u0120porn",
    "2986": "icked",
    "2987": "\u0120frust",
    "2988": "\u0120raccoon",
    "2989": "37",
    "2990": "ior",
    "2991": "\u0120hide",
    "2992": "\u0120urself",
    "2993": "\u0120eye",
    "2994": "\u0120&",
    "2995": "\u0120cy",
    "2996": "\u0120listens",
    "2997": "\u0120ident",
    "2998": "\u0120student",
    "2999": "\u0120fut",
    "3000": "\u0120fill",
    "3001": "ksk",
    "3002": "\u0120touches",
    "3003": "\u0120sleepy",
    "3004": "\u0120special",
    "3005": "usted",
    "3006": "\u0120harsh",
    "3007": "\u0120adv",
    "3008": "\u0120boys",
    "3009": "\u0120male",
    "3010": "\u0120langu",
    "3011": "\u0120alcohol",
    "3012": "\u0120mate",
    "3013": "\u0120stan",
    "3014": "rap",
    "3015": "\u0120expected",
    "3016": "ived",
    "3017": "\u0120werent",
    "3018": "\u0120ou",
    "3019": "\u0120cup",
    "3020": "\u0120badly",
    "3021": "\u0120decision",
    "3022": "\u0120including",
    "3023": "vous",
    "3024": "men",
    "3025": "\u0120across",
    "3026": "\u0120depressed",
    "3027": "gen",
    "3028": "\u0120town",
    "3029": "\u0120whenever",
    "3030": "\u0120streaming",
    "3031": "pital",
    "3032": "\u0120sake",
    "3033": "\u0120ep",
    "3034": "\u0120kevins",
    "3035": "\u0120steal",
    "3036": "\u0120cuddle",
    "3037": "ler",
    "3038": "\u0120ris",
    "3039": "col",
    "3040": "\u0120forward",
    "3041": "\u0120burn",
    "3042": "iant",
    "3043": "\u0120company",
    "3044": "\u0120shitty",
    "3045": "\u0120appoint",
    "3046": "\u0120girlfriend",
    "3047": "\u0120taste",
    "3048": "\u0120eight",
    "3049": "\u0120managed",
    "3050": "\u0120tes",
    "3051": "\u012023",
    "3052": "\u0120doctor",
    "3053": "\u0120#",
    "3054": "\u0120ave",
    "3055": "\u0120bb",
    "3056": "\u0120note",
    "3057": "\u0120analy",
    "3058": "\u0120enc",
    "3059": "\u0120reasons",
    "3060": "\u0120brighton",
    "3061": "dj",
    "3062": "oss",
    "3063": "tr",
    "3064": "\u0120drum",
    "3065": "la",
    "3066": "tre",
    "3067": "\u0120within",
    "3068": "\u0120request",
    "3069": "cription",
    "3070": "\u0120ways",
    "3071": "\u0120jud",
    "3072": "\u0120skills",
    "3073": "\u0120further",
    "3074": "28",
    "3075": "\u0120ahhh",
    "3076": "\u012017",
    "3077": "\u0120rules",
    "3078": "tence",
    "3079": "fc",
    "3080": "\u0120bill",
    "3081": "ars",
    "3082": "\u0120redd",
    "3083": "\u0120diag",
    "3084": "\u0120watched",
    "3085": "\u0120repeat",
    "3086": "\u0120son",
    "3087": "\u0120along",
    "3088": "\u0120bull",
    "3089": "\u0120grind",
    "3090": "\u0120photos",
    "3091": "\u0120oops",
    "3092": "\u0120behavi",
    "3093": "hael",
    "3094": "\u0120den",
    "3095": "\u0120therefore",
    "3096": "\u0120retur",
    "3097": "\u0120.",
    "3098": "\u0120cris",
    "3099": "\u0120roll",
    "3100": "\u0120park",
    "3101": "amp",
    "3102": "\u0120helpful",
    "3103": "\u0120dro",
    "3104": "\u0120medication",
    "3105": "\u0120british",
    "3106": "ume",
    "3107": "\u0120tty",
    "3108": "\u0120drag",
    "3109": "\u0120genre",
    "3110": "aths",
    "3111": "',",
    "3112": "\u0120jk",
    "3113": "\u0120ofc",
    "3114": "ality",
    "3115": "\u0120plans",
    "3116": "\u0120froggys",
    "3117": "\u0120difference",
    "3118": "11",
    "3119": "\u0120urs",
    "3120": "\u0120experien",
    "3121": "\u0120exciting",
    "3122": "\u0120mur",
    "3123": "\u0120poor",
    "3124": "\u0120illeg",
    "3125": "\u0120metal",
    "3126": "\u0120embarr",
    "3127": "\u0120absolutely",
    "3128": "lord",
    "3129": "sp",
    "3130": "ses",
    "3131": "\u0120youuu",
    "3132": "\u0120ohh",
    "3133": "\u0120michael",
    "3134": "\u0120specifically",
    "3135": "uce",
    "3136": "\u0120mild",
    "3137": "\u0120nood",
    "3138": "\u0120dep",
    "3139": "\u0120switch",
    "3140": "\u0120current",
    "3141": "ster",
    "3142": "itten",
    "3143": "\u0120hears",
    "3144": "\u0120lack",
    "3145": "\u0120learns",
    "3146": "\u0120\u00f0\u0141\u013a",
    "3147": "tain",
    "3148": "ye",
    "3149": "\u00c2\u00ac",
    "3150": "\u0120impress",
    "3151": "\u0120purpose",
    "3152": "\u0120hyper",
    "3153": "\u0120options",
    "3154": "\u0120places",
    "3155": "99",
    "3156": "\u0120appl",
    "3157": "\u0120future",
    "3158": "\u0120foot",
    "3159": "idence",
    "3160": "\u0120attem",
    "3161": "tedly",
    "3162": "\u0120tryna",
    "3163": "\u0120channel",
    "3164": "\u0120running",
    "3165": "\u0120lovelove",
    "3166": "\u0120exis",
    "3167": "\u0120info",
    "3168": "\u0120delive",
    "3169": "den",
    "3170": "ught",
    "3171": "wh",
    "3172": "\u0120billy",
    "3173": "\u0120save",
    "3174": "\u0120regard",
    "3175": "\u0120wro",
    "3176": "har",
    "3177": "pping",
    "3178": "\u0120equals",
    "3179": "\u0120died",
    "3180": "\u0120dirty",
    "3181": "\u0120rece",
    "3182": "\u0120knowing",
    "3183": "\u0120unable",
    "3184": "\u0120nervous",
    "3185": "\u0120barely",
    "3186": "\u0120hurts",
    "3187": "\u0120shops",
    "3188": "\u0120weekend",
    "3189": "aks",
    "3190": "\u0120ble",
    "3191": "\u0120sunday",
    "3192": "\u0120skin",
    "3193": "ton",
    "3194": "ppy",
    "3195": "\u0120aware",
    "3196": "\u0120gender",
    "3197": "\u00f3\u00be\u0128",
    "3198": "\u0120adorable",
    "3199": "\u0120tro",
    "3200": "\u0120tune",
    "3201": "idge",
    "3202": "\u0120ruin",
    "3203": "\u0120reddit",
    "3204": "\u0120\u00c3",
    "3205": "\u0120mc",
    "3206": "\u0120bum",
    "3207": "\u0120sorted",
    "3208": "\u0120mentioned",
    "3209": "\u0120surprised",
    "3210": "\u0120ttyl",
    "3211": "\u0120bang",
    "3212": "\u0120pet",
    "3213": "\u0120beat",
    "3214": "lp",
    "3215": "under",
    "3216": "\u0120constantly",
    "3217": "bing",
    "3218": "sed",
    "3219": "\u0120disg",
    "3220": "\u0120bedroom",
    "3221": "velop",
    "3222": "\u0120machine",
    "3223": "oned",
    "3224": "\u0120jess",
    "3225": "\u0120mov",
    "3226": "\u0120upd",
    "3227": "\u0120sched",
    "3228": "\u0120possibly",
    "3229": "\u0120refe",
    "3230": "ionally",
    "3231": "nate",
    "3232": "\u0120eats",
    "3233": "\u0120dads",
    "3234": "\u0120bottom",
    "3235": "\u0120mother",
    "3236": "\u0120lying",
    "3237": "\u0120load",
    "3238": "\u0120stat",
    "3239": "\u0120kk",
    "3240": "\u0120above",
    "3241": "\u0120moon",
    "3242": "crib",
    "3243": "\u0120wrote",
    "3244": "\u0120washing",
    "3245": "\u0120picks",
    "3246": "\u0120account",
    "3247": "\u0120assum",
    "3248": "\u0120land",
    "3249": "text",
    "3250": "\u0120chicken",
    "3251": "\u0120tax",
    "3252": "\u0120struggling",
    "3253": "\u0120tend",
    "3254": "\u0120penis",
    "3255": "\u0120jobs",
    "3256": "\u0120maths",
    "3257": "\u0120cross",
    "3258": "\u0120lay",
    "3259": "ulation",
    "3260": "gged",
    "3261": "\u0120bruh",
    "3262": "sha",
    "3263": "att",
    "3264": "vert",
    "3265": "\u0120delete",
    "3266": "list",
    "3267": "\u0120bow",
    "3268": "\u0120cake",
    "3269": "ution",
    "3270": "\u0120concer",
    "3271": "play",
    "3272": "\u0120directly",
    "3273": "27",
    "3274": "\u0120table",
    "3275": "\u0120quit",
    "3276": "\u0120\u00c2\u00ac",
    "3277": "umblr",
    "3278": "box",
    "3279": "\u0120obsess",
    "3280": "ao",
    "3281": "\u0120tues",
    "3282": "\u0120paying",
    "3283": "\u0120worries",
    "3284": "\u0120profess",
    "3285": "sor",
    "3286": "\u0120lu",
    "3287": "\u0120cond",
    "3288": "\u0120sadly",
    "3289": "\u0120double",
    "3290": "\u0120language",
    "3291": "\u0120\u00c2\u00ac\u00c2\u00ac",
    "3292": "pg",
    "3293": "\u0120dying",
    "3294": "\u0120hom",
    "3295": "\u0120honey",
    "3296": "alous",
    "3297": "\u0120banned",
    "3298": "bt",
    "3299": "\u0120mist",
    "3300": "ancy",
    "3301": "\u0120uuu",
    "3302": "\u0120heav",
    "3303": "\u0120stick",
    "3304": "\u0120sell",
    "3305": "\u0120everywhere",
    "3306": "\u0120drive",
    "3307": "\u0120holy",
    "3308": "\u0120interview",
    "3309": "\u0120copy",
    "3310": "\u0120apologise",
    "3311": "\u0120pokemon",
    "3312": "\u0120slept",
    "3313": "ndent",
    "3314": "\u0120sand",
    "3315": "\u012025",
    "3316": "\u0120serious",
    "3317": "\u0120yee",
    "3318": "\u0120spot",
    "3319": "\u0120fixed",
    "3320": "\u0120film",
    "3321": "ides",
    "3322": "\u0120cent",
    "3323": "\u0120pun",
    "3324": "\u0120gurl",
    "3325": "\u0120written",
    "3326": "\u0120embarass",
    "3327": "\u0120breat",
    "3328": "uses",
    "3329": "\u0120lose",
    "3330": "rage",
    "3331": "\u0120seven",
    "3332": "\u0120phones",
    "3333": "\u0120illegal",
    "3334": "chan",
    "3335": "lent",
    "3336": "\u0120chall",
    "3337": "\u0120rom",
    "3338": "\u0120neg",
    "3339": "dit",
    "3340": "\u0120trip",
    "3341": "ledge",
    "3342": "\u0120irl",
    "3343": "bi",
    "3344": "\u0120joy",
    "3345": "\u0120anim",
    "3346": "\u0120randomly",
    "3347": "\u0120emotions",
    "3348": "\u0120none",
    "3349": "\u0120letting",
    "3350": "ave",
    "3351": "aime",
    "3352": "ried",
    "3353": "\u0120jum",
    "3354": "\u0120summ",
    "3355": "\u0120jealous",
    "3356": "\u0120entirely",
    "3357": "\u0120trauma",
    "3358": "\u0120immediately",
    "3359": "\u0120uncomfortable",
    "3360": "mpt",
    "3361": "\u0120ate",
    "3362": "\u012040",
    "3363": "\u0120useful",
    "3364": "\u0120imposs",
    "3365": "\u0120benef",
    "3366": "\u0120sarc",
    "3367": "\u0120becom",
    "3368": "\u0120pics",
    "3369": "\u0120american",
    "3370": "nit",
    "3371": "rant",
    "3372": "\u0120wearing",
    "3373": "\u0120loser",
    "3374": "\u0120sce",
    "3375": "amine",
    "3376": "\u0120anywhere",
    "3377": "\u0120fish",
    "3378": "\u0120shame",
    "3379": "\u0120remix",
    "3380": "\u0120lowkey",
    "3381": "\u0120begin",
    "3382": "\u0120whyyy",
    "3383": "\u0120bae",
    "3384": "\u0120blo",
    "3385": "\u0120impro",
    "3386": "\u0120glass",
    "3387": "\u0120depression",
    "3388": "\u0120private",
    "3389": "\u0120impossible",
    "3390": "gpt",
    "3391": "\u0120stal",
    "3392": "\u0120aren",
    "3393": "ifying",
    "3394": "\u0120helped",
    "3395": "\u0120apply",
    "3396": "\u0120babies",
    "3397": "ograph",
    "3398": "ware",
    "3399": "\u0120excuse",
    "3400": "\u0120physical",
    "3401": "\u0120led",
    "3402": "\u0120jour",
    "3403": "usting",
    "3404": "\u0120univers",
    "3405": "\u0120:(((",
    "3406": "craft",
    "3407": "oun",
    "3408": "\u0120noice",
    "3409": "\u0120cutie",
    "3410": "gf",
    "3411": "\u0120scr",
    "3412": "\u0120final",
    "3413": "\u0120inde",
    "3414": "\u0120cope",
    "3415": "bin",
    "3416": "ya",
    "3417": "\u0120beep",
    "3418": "\u0120object",
    "3419": "\u0120eggs",
    "3420": "\u0120size",
    "3421": "\u0120succ",
    "3422": "male",
    "3423": "\u0120built",
    "3424": "\u0120jelly",
    "3425": "fo",
    "3426": "\u0120irr",
    "3427": "\u0120yeee",
    "3428": "\u0120nine",
    "3429": "\u0120ut",
    "3430": "\u0120image",
    "3431": "\u0120convo",
    "3432": "\u012022",
    "3433": "ures",
    "3434": "\u0120signific",
    "3435": "\u0120thursday",
    "3436": "nb",
    "3437": "time",
    "3438": "\u0120bound",
    "3439": "\u0120hadn",
    "3440": "\u0120appear",
    "3441": "\u0120tf",
    "3442": "\u0120anime",
    "3443": "\u0120shadow",
    "3444": "phone",
    "3445": "uff",
    "3446": "haps",
    "3447": "tems",
    "3448": "orted",
    "3449": "\u0120reach",
    "3450": "\u0120chips",
    "3451": "\u0120tracks",
    "3452": "\u0120aces",
    "3453": "\u0120humans",
    "3454": "\u0120gran",
    "3455": "iculous",
    "3456": "ram",
    "3457": "\u0120assist",
    "3458": "\u0120stressful",
    "3459": "\u0120figured",
    "3460": "\u0120visit",
    "3461": "fw",
    "3462": "oin",
    "3463": "\u0120search",
    "3464": "ults",
    "3465": "\u0120cleaning",
    "3466": "\u0120quickly",
    "3467": "cher",
    "3468": "\u0120bon",
    "3469": "ref",
    "3470": "tered",
    "3471": "\u0120gar",
    "3472": "\u0120children",
    "3473": "\u0120pill",
    "3474": "\u0120liter",
    "3475": "ctions",
    "3476": "..?",
    "3477": "\u0120ends",
    "3478": "\u0120perform",
    "3479": "\u0120depends",
    "3480": "\u0120sou",
    "3481": "usion",
    "3482": "\u0120rice",
    "3483": "\u0120deleted",
    "3484": "ulance",
    "3485": "\u0120team",
    "3486": "\u0120keyboard",
    "3487": "\u0120embarrass",
    "3488": "ration",
    "3489": "\u0120ded",
    "3490": "\u0120stab",
    "3491": "ification",
    "3492": "\u0120kay",
    "3493": "\u0120shouting",
    "3494": "vices",
    "3495": "\u0120ahh",
    "3496": "\u0120yeh",
    "3497": "\u0120drama",
    "3498": "\u0120rac",
    "3499": "\u0120danger",
    "3500": "\u0120hiding",
    "3501": "\u0120laughing",
    "3502": "pre",
    "3503": "\u0120\u00f3\u00be",
    "3504": "\u0120thre",
    "3505": "\u0120voc",
    "3506": "vant",
    "3507": "\u0120page",
    "3508": "\u0120push",
    "3509": "ased",
    "3510": "\u0120abuse",
    "3511": "\u0120abusive",
    "3512": "urt",
    "3513": "\u0120fancy",
    "3514": "\u0120suis",
    "3515": "\u0120exha",
    "3516": "\u0120comfortable",
    "3517": "\u0120tex",
    "3518": "\u0120ens",
    "3519": "\u0120chin",
    "3520": "\u0120horny",
    "3521": "\u0120mode",
    "3522": "idered",
    "3523": "dding",
    "3524": "\u0120joking",
    "3525": "\u0120twitter",
    "3526": "shit",
    "3527": "\u0120staying",
    "3528": "\u0120instru",
    "3529": "\u0120bee",
    "3530": "\u0120hos",
    "3531": "\u0120init",
    "3532": "\u0120chance",
    "3533": "iding",
    "3534": "\u0120usual",
    "3535": "\u0120waaa",
    "3536": "\u0120allows",
    "3537": "mission",
    "3538": "60",
    "3539": "ral",
    "3540": "\u0120pus",
    "3541": "\u0120cheap",
    "3542": "\u0120woods",
    "3543": "\u0120country",
    "3544": "\u0120smell",
    "3545": "\u0120ridiculous",
    "3546": "\u0120recogn",
    "3547": "aff",
    "3548": "ged",
    "3549": "\u0120agre",
    "3550": "\u0120seconds",
    "3551": "ipping",
    "3552": "\u0120owo",
    "3553": "\u0120icon",
    "3554": "\u0120mom",
    "3555": "\u0120bigg",
    "3556": "\u0120toi",
    "3557": "\u0120imo",
    "3558": "\u0120fuc",
    "3559": "\u0120bother",
    "3560": "\u0120perhaps",
    "3561": "\u0120lives",
    "3562": "\u0120mistake",
    "3563": "\u0120mer",
    "3564": "\u0120wedn",
    "3565": "\u0120rhy",
    "3566": "\u0120breaks",
    "3567": "\u0120>.",
    "3568": "\u0120bathroom",
    "3569": "\u0120appointment",
    "3570": "\u0120wednes",
    "3571": "du",
    "3572": "unate",
    "3573": "\u0120mut",
    "3574": "\u0120fra",
    "3575": "bered",
    "3576": "\u0120flight",
    "3577": "\u0120apart",
    "3578": "berry",
    "3579": "\u0120silent",
    "3580": "\u0120character",
    "3581": "\u0120irrit",
    "3582": "\u0120feed",
    "3583": "\u0120lead",
    "3584": "\u0120artic",
    "3585": "\u0120videos",
    "3586": "!',",
    "3587": "\u0120oppos",
    "3588": "now",
    "3589": "here",
    "3590": "\u0120meee",
    "3591": "\u0120naked",
    "3592": "ato",
    "3593": "\u0120wank",
    "3594": "\u0120brb",
    "3595": "\u0120suggesting",
    "3596": "dis",
    "3597": "ource",
    "3598": "\u0120poin",
    "3599": "dered",
    "3600": "\u0120interest",
    "3601": "\u0120obvious",
    "3602": "\u0120wondering",
    "3603": "48",
    "3604": "fet",
    "3605": "just",
    "3606": "\u0120yaaay",
    "3607": "\u0120itself",
    "3608": "\u0120context",
    "3609": "\u0120enter",
    "3610": "\u0120tough",
    "3611": "\u0120appropriate",
    "3612": "\u0120chatgpt",
    "3613": "\u0120experiment",
    "3614": "\u0120silence",
    "3615": "\u0120vagina",
    "3616": "38",
    "3617": "hha",
    "3618": "\u0120stic",
    "3619": "\u0120choo",
    "3620": "\u0120max",
    "3621": "29",
    "3622": "\u0120peen",
    "3623": "\u0120cance",
    "3624": "\u0120pretend",
    "3625": "\u0120bethan",
    "3626": "ighten",
    "3627": "quen",
    "3628": "\u0120mixed",
    "3629": "\u0120ears",
    "3630": "fortunate",
    "3631": "\u0120bank",
    "3632": "yes",
    "3633": "\u0120butts",
    "3634": "\u0120spook",
    "3635": "\u0120paper",
    "3636": "\u0120showing",
    "3637": "\u0120simple",
    "3638": "\u0120marry",
    "3639": "\u0120grand",
    "3640": "\u0120verbal",
    "3641": "\u0120public",
    "3642": "pes",
    "3643": "\u0120ange",
    "3644": "\u0120shouldn",
    "3645": "\u0120deg",
    "3646": "\u0120grim",
    "3647": "kj",
    "3648": "\u0120sus",
    "3649": "\u0120names",
    "3650": "\u0120shy",
    "3651": "\u0120shirt",
    "3652": "\u0120lege",
    "3653": "iling",
    "3654": "\u0120offended",
    "3655": "\u0120spooky",
    "3656": "vid",
    "3657": "||",
    "3658": "ister",
    "3659": "\u0120comfy",
    "3660": "\u0120adam",
    "3661": "\u0120function",
    "3662": "\u0120teach",
    "3663": "gl",
    "3664": "ging",
    "3665": "rics",
    "3666": "\u0120trigger",
    "3667": "\u0120travel",
    "3668": "\u0120minecraft",
    "3669": "\u0120essent",
    "3670": "\u0120schedule",
    "3671": "ified",
    "3672": "\u0120calls",
    "3673": "ires",
    "3674": "ivity",
    "3675": "\u0120considered",
    "3676": "\u0120tickets",
    "3677": "\u0120holiday",
    "3678": "47",
    "3679": "form",
    "3680": "\u0120agg",
    "3681": "icky",
    "3682": "\u0120remem",
    "3683": "\u0120added",
    "3684": "\u0120situations",
    "3685": "\u0120original",
    "3686": "\u0120inten",
    "3687": "\u0120unfortunate",
    "3688": "\u0120coll",
    "3689": "\u0120draws",
    "3690": "\u0120breaking",
    "3691": "35",
    "3692": "46",
    "3693": "\u0120regret",
    "3694": "\u0120tasks",
    "3695": "\u0120indepe",
    "3696": "\u0120pure",
    "3697": "cting",
    "3698": "\u0120vio",
    "3699": "\u0120trash",
    "3700": "\u0120joh",
    "3701": "\u0120**",
    "3702": "\u0120insane",
    "3703": "\u0120assume",
    "3704": "\u0120edit",
    "3705": "uino",
    "3706": "\u0120literal",
    "3707": "va",
    "3708": "\u0120au",
    "3709": "\u0120dry",
    "3710": "\u0120exa",
    "3711": "\u0120>.<",
    "3712": "vere",
    "3713": "\u0120pin",
    "3714": "ery",
    "3715": "\u0120omggg",
    "3716": "\u0120talked",
    "3717": "ploy",
    "3718": "\u0120older",
    "3719": "\u0120epis",
    "3720": "\u0120opposite",
    "3721": "\u0120jimin",
    "3722": "aaa",
    "3723": "\u0120harder",
    "3724": "\u0120christ",
    "3725": "\u0120technology",
    "3726": "well",
    "3727": "\u0120assault",
    "3728": "\u0120diagn",
    "3729": "ges",
    "3730": "iest",
    "3731": "that",
    "3732": "\u0120tatt",
    "3733": "\u0120veux",
    "3734": "\u0120cla",
    "3735": "\u0120explained",
    "3736": "\u0120overwhelmed",
    "3737": "ium",
    "3738": "\u0120lock",
    "3739": "\u0120prog",
    "3740": "\u0120advent",
    "3741": "\u0120data",
    "3742": "\u0120remembered",
    "3743": "tery",
    "3744": "ley",
    "3745": "\u0120suit",
    "3746": "\u0120caused",
    "3747": "\u0120frog",
    "3748": "\u0120freaking",
    "3749": "\u0120promise",
    "3750": "\u0120mew",
    "3751": "\u0120storm",
    "3752": "\u0120convin",
    "3753": "\u0120hist",
    "3754": "\u0120shall",
    "3755": "\u0120setting",
    "3756": "\u0120negative",
    "3757": "\u0120chinese",
    "3758": "aries",
    "3759": "\u0120jam",
    "3760": "\u0120offic",
    "3761": "\u0120solid",
    "3762": "\u0120movie",
    "3763": "\u0120alex",
    "3764": "utm",
    "3765": "atic",
    "3766": "\u0120stor",
    "3767": "\u0120manip",
    "3768": "\u0120sharing",
    "3769": "\u0120counse",
    "3770": "ull",
    "3771": "\u0120cum",
    "3772": "ona",
    "3773": "ances",
    "3774": "\u0120meat",
    "3775": "\u0120ability",
    "3776": "cious",
    "3777": "\u0120ground",
    "3778": "\u012090",
    "3779": "\u012080",
    "3780": "\u0120include",
    "3781": "\u0120slowly",
    "3782": "\u0120unfortunately",
    "3783": "\u0120net",
    "3784": "\u0120hous",
    "3785": "let",
    "3786": "though",
    "3787": "\u0120ranting",
    "3788": "bby",
    "3789": "\u0120tha",
    "3790": "\u0120dare",
    "3791": "\u0120charge",
    "3792": "\u0120provide",
    "3793": "\u0120delivery",
    "3794": "mptom",
    "3795": "\u0120tattoo",
    "3796": "\u0120dom",
    "3797": "ows",
    "3798": "\u0120jfc",
    "3799": "\u0120sauce",
    "3800": "\u0120idfk",
    "3801": "\u0120develop",
    "3802": "\u0120ignoring",
    "3803": "aming",
    "3804": "\u0120showed",
    "3805": "phones",
    "3806": "\u0120progress",
    "3807": "bed",
    "3808": "\u0120cunt",
    "3809": "\u0120common",
    "3810": "\u0120physically",
    "3811": "\u0120hospital",
    "3812": "\u0120tid",
    "3813": "\u0120catch",
    "3814": "\u0120lights",
    "3815": "\u0120prescription",
    "3816": "\u0120building",
    "3817": "of",
    "3818": "\u00c3\u00a8",
    "3819": "ingly",
    "3820": "asm",
    "3821": "\u0120shou",
    "3822": "\u0120blame",
    "3823": "\u0120click",
    "3824": "\u0120mais",
    "3825": "\u0120topic",
    "3826": "\u0120replying",
    "3827": "\u0120following",
    "3828": "\u0120replied",
    "3829": "\u0120ambulance",
    "3830": "\u0120judge",
    "3831": "fety",
    "3832": "\u0120uhhh",
    "3833": "ural",
    "3834": "\u0120sounded",
    "3835": "\u0120boat",
    "3836": "\u0120adult",
    "3837": "\u0120news",
    "3838": "\u0120changing",
    "3839": "57",
    "3840": "\u0120melt",
    "3841": "aling",
    "3842": "ables",
    "3843": "\u0120hoping",
    "3844": "\u0120downstairs",
    "3845": "\u0120understood",
    "3846": "\u0120enjoying",
    "3847": "iction",
    "3848": "\u0120lyrics",
    "3849": "\u0120attempt",
    "3850": "\u0120tuesday",
    "3851": "\u0120aggress",
    "3852": "\u0120nhs",
    "3853": "\u0120research",
    "3854": "\u0120var",
    "3855": "\u0120extre",
    "3856": "\u0120aaagh",
    "3857": "\u0120university",
    "3858": "cil",
    "3859": "kes",
    "3860": "\u0120meth",
    "3861": "sss",
    "3862": "\u0120env",
    "3863": "\u0120medical",
    "3864": "\u0120sandw",
    "3865": "\u0120wednesday",
    "3866": "\u0120cult",
    "3867": "\u0120bear",
    "3868": "\u0120dose",
    "3869": "\u0120void",
    "3870": "\u0120prior",
    "3871": "\u0120audio",
    "3872": "underst",
    "3873": "sc",
    "3874": "\u0120san",
    "3875": "\u0120mr",
    "3876": "ano",
    "3877": "\u0120kicked",
    "3878": "\u0120acting",
    "3879": "\u0120symptom",
    "3880": "\u0120vocals",
    "3881": "36",
    "3882": "gb",
    "3883": "agrant",
    "3884": "\u0120boob",
    "3885": "\u0120service",
    "3886": "\u0120married",
    "3887": "\u0120challeng",
    "3888": "uro",
    "3889": "\u0120wet",
    "3890": "rated",
    "3891": "\u0120club",
    "3892": "\u0120reasonable",
    "3893": "\u0120ice",
    "3894": "\u0120nat",
    "3895": "\u0120punch",
    "3896": "icy",
    "3897": "gent",
    "3898": "\u0120lmaoo",
    "3899": "\u0120clar",
    "3900": "\u0120services",
    "3901": "\u0120posted",
    "3902": "\u0120effects",
    "3903": "39",
    "3904": "\u0120toys",
    "3905": "\u0120js",
    "3906": "\u0120king",
    "3907": "\u0120knowledge",
    "3908": "\u0120sorta",
    "3909": "ational",
    "3910": "\u0120prin",
    "3911": "\u0120refer",
    "3912": "\u0120evil",
    "3913": "ette",
    "3914": "\u0120female",
    "3915": "\u0120present",
    "3916": "osis",
    "3917": "ibility",
    "3918": "ships",
    "3919": "\u0120visual",
    "3920": "\u0120hanging",
    "3921": "\u0120argument",
    "3922": "di",
    "3923": "\u0120attra",
    "3924": "\u0120rout",
    "3925": "\u0120safety",
    "3926": "\u0120permission",
    "3927": "\u0120related",
    "3928": "\u0120simp",
    "3929": "ahaha",
    "3930": "ians",
    "3931": "jpg",
    "3932": "\u0120mouth",
    "3933": "\u0120uhh",
    "3934": "icks",
    "3935": "ield",
    "3936": "\u0120idc",
    "3937": "\u0120veget",
    "3938": "\u0120shows",
    "3939": "\u0120born",
    "3940": "\u0120training",
    "3941": "\u0120chocol",
    "3942": "\u0120mildly",
    "3943": "llo",
    "3944": "\u0120hilar",
    "3945": "\u0120causing",
    "3946": "\u0120trou",
    "3947": "\u0120unfair",
    "3948": "\u0120easily",
    "3949": "\u0120tenant",
    "3950": "\u0120module",
    "3951": "iry",
    "3952": "isting",
    "3953": "\u0120wedding",
    "3954": "\u0120ang",
    "3955": "\u0120business",
    "3956": "\u0120pink",
    "3957": "raid",
    "3958": "\u0120neigh",
    "3959": "\u0120unlike",
    "3960": "\u0120prev",
    "3961": "\u0120legs",
    "3962": "\u0120customer",
    "3963": "\u0120revision",
    "3964": "\u0120tor",
    "3965": "ony",
    "3966": "\u0120intera",
    "3967": "name",
    "3968": "\u0120playlist",
    "3969": "\u0120goddam",
    "3970": "\u0120explaining",
    "3971": "\u0120shouted",
    "3972": "ots",
    "3973": "\u0120volu",
    "3974": "\u0120terms",
    "3975": "\u0120cookies",
    "3976": "\u0120example",
    "3977": "\u0120details",
    "3978": "\u0120murder",
    "3979": "\u0120si",
    "3980": "\u0120lecture",
    "3981": "ggy",
    "3982": "\u0120:))",
    "3983": "\u0120boss",
    "3984": "els",
    "3985": "\u0120respond",
    "3986": "\u0120holding",
    "3987": "\u0120disgusting",
    "3988": "08",
    "3989": "oom",
    "3990": "\u0120il",
    "3991": "\u0120ginger",
    "3992": "\u0120notes",
    "3993": "\u0120station",
    "3994": "\u0120feet",
    "3995": "\u0120reality",
    "3996": "\u0120parts",
    "3997": "\u0120reaction",
    "3998": "\u0120hat",
    "3999": "\u0120meal",
    "4000": "\u0120jus",
    "4001": "ima",
    "4002": "\u0120marks",
    "4003": "\u0120windows",
    "4004": "hetic",
    "4005": "\u0120terrible",
    "4006": "\u0120behaviour",
    "4007": "\u0120neighb",
    "4008": "isions",
    "4009": "ayay",
    "4010": "\u0120ordered",
    "4011": "fff",
    "4012": "estyle",
    "4013": "49",
    "4014": "hop",
    "4015": "ank",
    "4016": "\u0120potent",
    "4017": "\u0120role",
    "4018": "\u0120harrow",
    "4019": "\u0120bethany",
    "4020": "\u0120independent",
    "4021": "cket",
    "4022": "vered",
    "4023": "\u0120nick",
    "4024": "omg",
    "4025": "\u0120moi",
    "4026": "this",
    "4027": "\u0120oml",
    "4028": "iber",
    "4029": "\u0120phr",
    "4030": "\u0120chairs",
    "4031": "\u0120misunderst",
    "4032": "\u0120recording",
    "4033": "\u0120unsure",
    "4034": "\u0120empty",
    "4035": "\u0120base",
    "4036": "\u0120cod",
    "4037": "\u0120whis",
    "4038": "\u0120rush",
    "4039": "ives",
    "4040": "\u0120buying",
    "4041": "igned",
    "4042": "\u0120starts",
    "4043": "\u0120repea",
    "4044": "\u0120imagin",
    "4045": "\u0120application",
    "4046": "cs",
    "4047": "\u0120dating",
    "4048": "ids",
    "4049": "\u0120separ",
    "4050": "\u0120study",
    "4051": "\u0120blind",
    "4052": "\u0120adding",
    "4053": "!'!",
    "4054": "\u0120magic",
    "4055": "sorry",
    "4056": "\u0120sea",
    "4057": "\u0120hoo",
    "4058": "\u0120hig",
    "4059": "\u0120kno",
    "4060": "ummy",
    "4061": "bebe",
    "4062": "\u0120everyones",
    "4063": "lock",
    "4064": "\u0120history",
    "4065": "\u0120chocolate",
    "4066": "\u0120dig",
    "4067": "illed",
    "4068": "\u0120anger",
    "4069": "\u0120ru",
    "4070": "\u0120bahaha",
    "4071": "\u0120nap",
    "4072": "cco",
    "4073": "\u0120shopping",
    "4074": "\u0120sksksksksksks",
    "4075": "fairfairfairfair",
    "4076": "\u0120involved",
    "4077": "\u0120degree",
    "4078": "58",
    "4079": "67",
    "4080": "su",
    "4081": "sing",
    "4082": "\u0120wut",
    "4083": "\u0120bes",
    "4084": "\u0120tooo",
    "4085": "onon",
    "4086": "test",
    "4087": "\u0120itll",
    "4088": "\u0120area",
    "4089": "ilities",
    "4090": "\u012021",
    "4091": "ussy",
    "4092": ".]",
    "4093": "^^",
    "4094": "can",
    "4095": "gir",
    "4096": "rating",
    "4097": "\u0120cas",
    "4098": "\u0120cream",
    "4099": "\u0120store",
    "4100": "\u0120forced",
    "4101": "\u0120scam",
    "4102": "\u0120advert",
    "4103": "\u0120skull",
    "4104": "\u0120hehehe",
    "4105": "\u0120certainly",
    "4106": "\u0120potato",
    "4107": "\u0120memory",
    "4108": "\u0120scene",
    "4109": "\u0120hilarious",
    "4110": "\u0120reee",
    "4111": "\u0120kink",
    "4112": "iron",
    "4113": "\u0120pregn",
    "4114": "\u0120nahhh",
    "4115": "\u0120afraid",
    "4116": "\u0120hole",
    "4117": "\u0120sentence",
    "4118": "\u0120midnight",
    "4119": "\u0120distracted",
    "4120": "bum",
    "4121": "\u0120@",
    "4122": "\u0120er",
    "4123": "\u0120ug",
    "4124": "\u0120jul",
    "4125": "\u0120homeless",
    "4126": "\u0120swee",
    "4127": "\u0120dragon",
    "4128": "\u0120status",
    "4129": "cord",
    "4130": "cape",
    "4131": "\u0120radio",
    "4132": "\u0120positive",
    "4133": "\u0120occas",
    "4134": "\u0120return",
    "4135": "\u0120article",
    "4136": "\u0120legend",
    "4137": "\u0120extreme",
    "4138": "dk",
    "4139": "\u0120ks",
    "4140": "antic",
    "4141": "ils",
    "4142": "\u0120proof",
    "4143": "boom",
    "4144": "\u0120bringing",
    "4145": "\u0120spamming",
    "4146": "\u0120acceptable",
    "4147": "back",
    "4148": "\u0120ns",
    "4149": "\u0120heat",
    "4150": "\u0120mega",
    "4151": "\u0120keys",
    "4152": "\u012028",
    "4153": "\u0120basic",
    "4154": "\u0120pointless",
    "4155": "\u0120colours",
    "4156": "\u0120struggle",
    "4157": "\u0120street",
    "4158": "\u0120bullshit",
    "4159": "very",
    "4160": "ana",
    "4161": "rose",
    "4162": "\u0120prop",
    "4163": "\u0120failed",
    "4164": "\u0120complic",
    "4165": "\u0120background",
    "4166": "\u0120personally",
    "4167": "dr",
    "4168": "hm",
    "4169": "sr",
    "4170": "\u0120mal",
    "4171": "rest",
    "4172": "\u0120dy",
    "4173": "\u0120eaten",
    "4174": "\u0120staff",
    "4175": "\u0120upstairs",
    "4176": "\u0120sav",
    "4177": "\u0120happiness",
    "4178": "\u0120coff",
    "4179": "\u0120dire",
    "4180": "\u0120checking",
    "4181": "\u0120decisions",
    "4182": "\u0120levels",
    "4183": "68",
    "4184": "\u0120ton",
    "4185": "\u0120consent",
    "4186": "ized",
    "4187": "\u0120auto",
    "4188": "\u0120photograph",
    "4189": "orrect",
    "4190": "cts",
    "4191": "\u0120coca",
    "4192": "\u0120flow",
    "4193": "59",
    "4194": "\u0120ee",
    "4195": "\u0120speed",
    "4196": "nored",
    "4197": "charis",
    "4198": "fun",
    "4199": "lit"
}